#version: 0.2
t h
i n
a n
th e</w>
r e
e r
e d</w>
a r
a t
e n
o n
e r</w>
i s</w>
h a
s t
T h
i t
o n</w>
in g</w>
i n</w>
o f</w>
o u
o r
an d</w>
t o</w>
a l
i l
e s</w>
i c
r o
d i
Th e</w>
a s
a l</w>
e l
o r</w>
i on</w>
a c
a n</w>
a t</w>
o m
a s</w>
e n</w>
e s
e c
en t</w>
o l
i s
a m
v e</w>
a d
p l
u r
i d
er e</w>
o v
i m
b e
re s
ar e</w>
a b
t s</w>
f or</w>
n o
u n
a k
e v
ha s</w>
a g
i st
e m
l y</w>
u s
i r
o s
i t</w>
i g
w as</w>
t r
l e
er s</w>
th at</w>
i on
b e</w>
il l</w>
p ro
I n
c h
o o
a r</w>
t ed</w>
th e
a y</w>
o w
b y</w>
s h
w h
c om
ha ve</w>
at ion</w>
c on
it h</w>
a i
th is</w>
u c
i v
w ill</w>
f il
a p
re d</w>
w ith</w>
u l
ic e</w>
In di
no t</w>
s o</w>
ou n
a y
e t
l e</w>
at e</w>
H e</w>
e t</w>
m ent</w>
c e</w>
u t</w>
f f
an d
e x
t h</w>
u m
h e</w>
l i
o d
o c
e d
o u</w>
fil m</w>
ion s</w>
th er</w>
C h
re c
ai d</w>
R a
on e</w>
a d</w>
i es</w>
s p
n e
or e</w>
a in
be en</w>
o p
in ist
ro m</w>
ha t</w>
t er</w>
e st
s aid</w>
w ere</w>
f rom</w>
I t</w>
l d</w>
al so</w>
er n
en t
ou t</w>
s e
d e
s u
a v
w or
r i
an g
p ol
u t
it y</w>
in c
q u
h is</w>
' s</w>
a m</w>
Indi a</w>
pl e</w>
in g
p ar
ig h
y ou</w>
al l</w>
re n
u d
p er
ou r
ou r</w>
p e
Th is</w>
m e
f or
inist er</w>
P r
i r</w>
ec t
t w
h e
c as
st r
s t</w>
B ut</w>
p or
im e</w>
o t
ou ld</w>
i ve</w>
ov ern
c r
e y</w>
id ent</w>
o w</w>
at ed</w>
i e
i c</w>
es t</w>
an y</w>
ac t
u s</w>
i al</w>
i f
en d
ha d</w>
t e
v er
M inister</w>
un d
A n
re s</w>
oo d</w>
d uc
p r
h ar
om e</w>
h i
ev er</w>
overn ment</w>
r a</w>
C on
an t</w>
res s</w>
W h
R s
a in</w>
en ts</w>
pol ice</w>
u g
o t</w>
o ther</w>
p os
o ple</w>
re g
il l
h i</w>
Rs .</w>
am e</w>
g r
Th ere</w>
ur e</w>
t ak
f ir
i l</w>
W hat</w>
it s</w>
al ly</w>
m ov
s e</w>
es s</w>
the ir</w>
p res
f e
ag e</w>
Th ey</w>
ac c
n o</w>
2 0
par t
l a
s c
a f
o ff
on g</w>
S t
B J
the m</w>
in d
pe ople</w>
al l
ay s</w>
es h</w>
ol l
for m
u p</w>
p p
the y</w>
c an</w>
ie f</w>
e red</w>
ou g
BJ P</w>
u e</w>
I n</w>
g overnment</w>
igh t</w>
u l</w>
d o</w>
an n
as s
a il
ou s</w>
e ar
at t
u p
re m
tw o</w>
A l
an ce</w>
es s
a w
ev er
k ed</w>
ab out</w>
d s</w>
i e</w>
i b
g ress</w>
0 0</w>
e l</w>
at ions</w>
t o
ar y</w>
oo k</w>
ac e</w>
p o
cas e</w>
el y</w>
ow ever</w>
th ere</w>
c oun
in e</w>
m ar
al s</w>
l o
as t</w>
re e</w>
ic h</w>
e p
ion al</w>
t ime</w>
ar d</w>
is h
em b
c h</w>
Con gress</w>
k e</w>
d o
es e</w>
en ce</w>
con t
ab le</w>
w e</w>
d ay</w>
at er</w>
k s</w>
hi m</w>
S h
A r
os t</w>
M od
k no
T el
h er</w>
an s</w>
an a</w>
Ra j
b r
ov er</w>
W e</w>
le ad
mov ie</w>
a h
k ing</w>
um b
com m
di rec
at s</w>
it al</w>
c l
wh o</w>
ad e</w>
b o
uc h</w>
t er
s er
t ing</w>
ic al</w>
Mod i</w>
d ec
b l
at es</w>
in v
en g
id e</w>
fir st</w>
P ol
Indi an</w>
wh ich</w>
ing s</w>
e h
pro duc
h el
th ing</w>
ver y</w>
il e</w>
ne w</w>
os p
be ing</w>
t ion</w>
inc ident</w>
as h
cr ore</w>
ic i
el l</w>
ha pp
us t</w>
ol d</w>
ha l
a ren
ha n</w>
l ak
ar g
coun tr
or d
j u
an c
st ar
or y</w>
ain st</w>
H owever</w>
i a</w>
ac h
st ate</w>
ag ainst</w>
or s</w>
as ed</w>
m ore</w>
y a</w>
at h</w>
w e
af ter</w>
f l
s ec
me di
Pol ice</w>
it ion</w>
S he</w>
D el
g o
ak e</w>
w hat</w>
in to</w>
sh ould</w>
U n
us ed</w>
r a
ow n</w>
j o
oun d</w>
ac k</w>
os e</w>
m an</w>
d y</w>
i z
ec t</w>
m any</w>
m is
com pl
m ade</w>
Del hi</w>
ic k
at ional</w>
y our</w>
w ould</w>
re st
pro v
osp ital</w>
re t
ic t</w>
lak h</w>
. .</w>
m on
it ies</w>
A m
il d
ab ad</w>
el l
a i</w>
t y</w>
p er</w>
on t</w>
as e</w>
m e</w>
di d</w>
und er</w>
m at
f in
b ec
Ch ief</w>
R ed
re v
our t</w>
en c
o g
p h
e g
R s</w>
on s</w>
d r
a re
u r</w>
ec ted</w>
a th
d er
por t
per s
H ow</w>
oug h</w>
i ous</w>
o d</w>
w ay</w>
a st
ect ion</w>
com p
us e</w>
ar m
Pr ime</w>
. ..</w>
tw e
com e</w>
h a</w>
g et</w>
P ar
re le
inv est
res p
a h</w>
N e
n t</w>
s o
S ing
an t
il y</w>
Red dy</w>
it u
ad esh</w>
in t
it e</w>
th an</w>
l es</w>
ur ing</w>
li ke</w>
ou s
ac h</w>
g ood</w>
i k
A c
H y
f am
u b
is t</w>
a j
Y ou</w>
em ent</w>
r y</w>
di str
is h</w>
b ut</w>
countr y</w>
l oc
en s
th ese</w>
m y</w>
at ing</w>
reg ist
ic es</w>
Sing h</w>
c ro
h ospital</w>
re ad
r i</w>
s el
di ff
le g
an s
li f
s ome</w>
pl ace</w>
u res</w>
C om
is e</w>
T r
od y</w>
n ed</w>
t or</w>
ul t
I ts</w>
inc l
go ing</w>
o b
i d</w>
th ree</w>
A s
g re
ad d
e ts</w>
w ar
u m</w>
i ed</w>
is su
s ch
en tr
t ook</w>
i th
an k</w>
s oc
tak en</w>
incl ud
l ed</w>
e p</w>
Pr adesh</w>
o h
w s</w>
u st
on ly</w>
wh ile</w>
d ra</w>
tak e</w>
wor k</w>
2 0</w>
w ell</w>
regist ered</w>
Hy der
w om
ang ana</w>
s uch</w>
ib le</w>
re l
re as
in d</w>
um ar</w>
s ed</w>
pl ay
d ev
Hyder abad</w>
e f
di d
oun c
n umb
sh i
c ap
invest ig
in ju
part y</w>
N aren
be twe
ch ang
betwe en</w>
kno w</w>
th en</w>
ic t
' t</w>
por t</w>
inju red</w>
S o</w>
Naren dra</w>
G and
p s</w>
th ers</w>
Tel angana</w>
ex p
w ater</w>
id e
E n
to o</w>
re n</w>
An d</w>
ect ions</w>
d em
en ed</w>
v is
und er
m an
oug h
m s</w>
A d
wh en</w>
N o</w>
s ur
ser v
cas es</w>
di s
su p
n ing</w>
lif e</w>
al th</w>
direc ted</w>
P ro
rest ed</w>
en d</w>
th r
T hat</w>
20 1
m a</w>
g iv
Wh y</w>
ow er</w>
f r
an k
c ent</w>
us h
sh e</w>
distr ict</w>
Gand hi</w>
d er</w>
ig h</w>
a ug
ev en</w>
on d</w>
ild ren</w>
r it
T am
read y</w>
h ere</w>
1 9
ch ief</w>
Ne w</w>
en er
at a</w>
S ha
d et
ent ly</w>
J eh
D i
et ing</w>
it ed</w>
numb er</w>
ne ed</w>
s ion</w>
ha r</w>
A s</w>
n at
Jeh ov
so on</w>
M a
k ill
5 0</w>
d own</w>
al a</w>
S u
i f</w>
e ren
G od</w>
K umar</w>
ab u</w>
m ost</w>
f ac
di ed</w>
F or</w>
le ad</w>
pol it
St ate</w>
medi a</w>
u n</w>
c or
sp e
o y
K ar
m inister</w>
t re
ic s</w>
fam ily</w>
wor ld</w>
st ud
ch ildren</w>
c ur
ar rested</w>
a ve</w>
Ch and
sp ec
Ra h
P ak
diff eren
is ed</w>
s ame</w>
ug u</w>
d uring</w>
ever al</w>
c an
Tam il</w>
end ed</w>
P res
H e
el op
s y
b u
b ody</w>
f oll
Pak ist
shi p</w>
u str
f ore</w>
ain s</w>
s on</w>
y ing</w>
O n
qu est
T w
i j
An d
cro res</w>
e m</w>
par t</w>
aug h
Tel ugu</w>
Al l</w>
lead ers</w>
in form
soc ial</w>
con s
ann ounc
M ah
c o
p re
iv ed</w>
w ays</w>
di sc
I s</w>
M o
a use</w>
resp on
er ing</w>
1 0</w>
on g
o f
g l
f ul</w>
M an
m emb
b el
v ar
po in
n a</w>
f a
ex t</w>
c re
po st
ot al</w>
off ic
ro le</w>
s ha
an y
m in
Th e
e -
do es</w>
kno w
g o</w>
R am
v ir
us ic</w>
1 9</w>
w ood</w>
s hal
o thers</w>
w on</w>
a k</w>
G overnment</w>
M ar
me eting</w>
th ose</w>
t est
and s</w>
S har
y et</w>
is ion</w>
an ts</w>
e ff
cont in
ag es</w>
l ast</w>
Rah ul</w>
res t</w>
m ake</w>
t em
in k</w>
F or
u k
at ely</w>
i an</w>
ough t</w>
a ut
C ourt</w>
ain ed</w>
sp ot</w>
if e</w>
g ed</w>
acc used</w>
an i</w>
b ack</w>
m ak
h ow</w>
bo th</w>
0 00</w>
s et</w>
be g
t ain</w>
a u
oll y
Pres ident</w>
L o
im port
S ab
olly wood</w>
t al
ar r
s itu
j ust</w>
de ath</w>
R e
ul t</w>
iv es</w>
in ce</w>
W or
s m
f ul
shal l</w>
el ections</w>
d ont</w>
D e
B o
su b
d es
wh ere</w>
b ro
em s</w>
kill ed</w>
g e</w>
h igh
en s</w>
A f
str uc
ou th</w>
ol og
id ed</w>
rele ased</w>
a ir
Chand r
uc c
i p
giv en</w>
y ear
arm ers</w>
E x
rec e
v ide
m ed
Pakist an</w>
foll ow
al ready</w>
H ind
H ar
V ij
S ec
lead er</w>
h ra</w>
c ha
Ra m</w>
m ents</w>
emb ly</w>
s l
ro s
lo ve</w>
ec h
D ev
ou se</w>
fe at
as h</w>
thr ough</w>
l arg
if ic
al e</w>
r ish
s ucc
Ra o</w>
ever y
c ourt</w>
ut ion</w>
ig n</w>
d ing</w>
d one</w>
s ay</w>
p ass
c ould</w>
b i
ail s</w>
m uch</w>
D P</w>
Un ion</w>
fil ms</w>
sec ond</w>
ri ed</w>
re por
produc ed</w>
pro c
form er</w>
ist s</w>
f ar</w>
m ed</w>
a ff
ro l</w>
m o
ex am
Di rec
i red</w>
M umb
c ame</w>
Sab ha</w>
ha v
And hra</w>
p ed</w>
differen t</w>
d augh
D o</w>
er y</w>
hel p</w>
O n</w>
il ity</w>
d ays</w>
n ess</w>
in a</w>
dev elop
act ion</w>
P e
se ats</w>
ir e</w>
an other</w>
mat ter</w>
d ue</w>
l i</w>
at ive</w>
all ed</w>
M L
As s
u al</w>
import ant</w>
ick et</w>
t ur
pres ent</w>
per i
c am
in te
e ach</w>
he alth</w>
Mumb ai</w>
Jehov ah</w>
C entr
tr a</w>
pres ident</w>
c ar
o m</w>
ici p
g ot</w>
H is</w>
se e</w>
S r
er s
im es</w>
be fore</w>
wom en</w>
ch ed</w>
Th ese</w>
s ide</w>
f our</w>
t ly</w>
ros s</w>
w ith
h ome</w>
w ife</w>
st it
ne ed
n ext</w>
C ha
t en</w>
ach ed</w>
Th ats</w>
s everal</w>
ou t
no t
happ ened</w>
st at
m inist
av ail
e ar</w>
P M</w>
Af ter</w>
w ant</w>
and ed</w>
Ch r
li c</w>
con d
la un
im medi
com ing</w>
e ted</w>
e as
b en
as ked</w>
ig n
M inist
sel f</w>
se en</w>
m usic</w>
e e</w>
B ank</w>
c ol
ag ain</w>
situ ation</w>
s ol
er n</w>
S up
in es</w>
s im
ro w
al ity</w>
I f</w>
m or
re qu
l ater</w>
am ong</w>
ici als</w>
e ther</w>
m ust</w>
ai l</w>
, 000</w>
oo l</w>
f o
he ar
vide o</w>
ur al</w>
t otal</w>
ret ary</w>
oun t</w>
p ower</w>
ever y</w>
pl oy
hel d</w>
on d
ul ar</w>
mar k
h and</w>
en ing</w>
A p
fe w</w>
l ot</w>
in ter
g ar
B I</w>
d el
T DP</w>
B ollywood</w>
B eng
te am</w>
know n</w>
ash m
announc ed</w>
ain t</w>
rele ase</w>
C or
pro j
el s</w>
c ity</w>
n ame</w>
m p
Shar ma</w>
or t</w>
it ted</w>
st ill</w>
c le
at i
avail able</w>
a b</w>
s k
memb ers</w>
ut e</w>
iv er</w>
l it
ex t
ac ross</w>
u ally</w>
r e</w>
d oc
Ma har
M al
tre at
th ings</w>
N a
K han</w>
f i
ec ts</w>
f armers</w>
S p
star ted</w>
dec ision</w>
act or</w>
G u
i or</w>
ech n
k e
gre at</w>
M e
g an
v ill
at i</w>
r ul
pro b
ang u
Ra v
r un
om e
ad a</w>
N ational</w>
rish na</w>
in s</w>
h igh</w>
det ails</w>
pos s
c es</w>
K al
B h
w in</w>
pos ed</w>
of f</w>
ac t</w>
ar ound</w>
ak a</w>
l and</w>
g u
w ent</w>
ro les</w>
n am
off icials</w>
ac k
b re
am m
G od
st em</w>
inc re
m od
acc ident</w>
V I
rec ently</w>
year s</w>
treat ment</w>
l ook</w>
is m</w>
ar a</w>
Par ty</w>
C O
th y</w>
pl y</w>
in ed</w>
h er
an j
M any</w>
m ay</w>
l oo
l ine</w>
g ener
end s</w>
Th en</w>
1 0
f t</w>
U S</w>
or d</w>
id es</w>
f ri
ord er</w>
r ight</w>
pl ay</w>
ov er
g ir
M ad
E ver
s i
S en
pers on</w>
o s</w>
investig ation</w>
h owever</w>
ay ing</w>
Ever y
sh oo
E l
p ur
l ong</w>
On e</w>
A b
Sh ri</w>
S ome</w>
3 0</w>
n ever</w>
Wh o</w>
J ag
ub lic</w>
includ ing</w>
stud ents</w>
s al
repor ted</w>
p ut</w>
immedi ately</w>
enc y</w>
bec ome</w>
v ict
no w</w>
c alled</w>
- 19</w>
l s</w>
pl es</w>
ord ing</w>
aw ay</w>
a red</w>
pos ition</w>
direc tor</w>
cur ren
y ear</w>
d ed</w>
ush ed</w>
h um
e k</w>
reg ard</w>
p et
m er</w>
e br
ash tra</w>
K oh
re ached</w>
il d</w>
cr it
al leg
1 5</w>
1 2</w>
k ar</w>
N ag
our s</w>
compl aint</w>
un t
m aj
od ay</w>
t t
h ol
ic le</w>
s ays</w>
ap o
to g
ish ed</w>
es us</w>
de p
K ashm
p op
ie w</w>
er v
st ates</w>
m ot
are a</w>
w rit
tr ans
t ors</w>
t ions</w>
spec ial</w>
F in
can did
ar i</w>
h ouse</w>
f ur
ap pe
os s</w>
for m</w>
P un
daugh ter</w>
ar ds</w>
ans w
y p
h on
f ound</w>
I C
m en</w>
in ess</w>
Koh li</w>
di es</w>
chang e</w>
I s
ben ef
J esus</w>
CO VI
2 5</w>
tog ether</w>
on om
st ory</w>
h it</w>
o p</w>
g ive</w>
disc us
S am
s ent</w>
fa ther</w>
b us
ain ing</w>
Pe ople</w>
s ince</w>
av ir
a z
t ern
play ing</w>
mis sion</w>
Kar nat
li am
ill ion</w>
Tw o</w>
y s</w>
offic ial</w>
in n
di st
wh y</w>
r ap
iv ing</w>
Mahar ashtra</w>
w ar</w>
ch arg
iv ers
issu e</w>
di v
ar t
Com m
ab abu</w>
Lo k</w>
Karnat aka</w>
on avir
en n
emb er</w>
bec ause</w>
sp ir
con n
rem e</w>
he av
r is
ic k</w>
h ist
con c
r ushed</w>
el ection</w>
ur ity</w>
re ad</w>
pos it
c ent
Wh en</w>
ph one</w>
e qu
T o</w>
Chandr ababu</w>
pl ac
onavir us</w>
er t
c oll
C M</w>
t est</w>
sy stem</w>
pers on
ous ly</w>
er c
aren ts</w>
am s</w>
on es</w>
inform ation</w>
con st
P aw
N ot</w>
Bo th</w>
en ted</w>
as s</w>
Ass embly</w>
le m</w>
em ploy
p rev
feat ures</w>
tr ue</w>
Kashm ir</w>
wor k
t ter</w>
polit ical</w>
l angu
ex c
Wor ld</w>
1 00</w>
var ious</w>
re f
c el
tem ple</w>
w ard</w>
v al
pers ons</w>
l ing</w>
if ied</w>
Sha h</w>
s es</w>
l ev
A t</w>
olog y</w>
iz ed</w>
al ong</w>
B abu</w>
prob lem</w>
o k
ec onom
t imes</w>
ar ly</w>
al i</w>
a v</w>
ug e</w>
i m</w>
res ul
c a
sup port</w>
fir e</w>
Pr as
st ar</w>
do ing</w>
b ook</w>
tr ib
ap p
sh if
rece ived</w>
S ri</w>
M P</w>
contin u
Ch ina</w>
oc cas
c ar</w>
R es
op er
n or
mat ch</w>
R S</w>
H igh</w>
y an</w>
s ome
En gl
th s</w>
star s</w>
j ur
he ad
v ot
um p</w>
pr ices</w>
f ive</w>
in f
ect or</w>
W est</w>
D r
bi g</w>
wom an</w>
us p
su ff
et y</w>
p ur</w>
li k
e es</w>
Hind i</w>
s ing</w>
ex pres
ag ed</w>
w at
l eng
mon ey</w>
compl et
b ased</w>
5 00</w>
ne ws</w>
V ir
ev ent</w>
w r
part icip
or gan
li er</w>
g row
Sup reme</w>
N T
20 20</w>
exp ected</w>
wor king</w>
ir d</w>
B i
igh ts</w>
b as
B ible</w>
l im
bl ems</w>
V en
th or
b est</w>
a x
A k
v eh
countr ies</w>
s ing
m il
et ting</w>
l ost</w>
he ad</w>
cons id
s en
end ra</w>
ai r</w>
P l
int ern
h uge</w>
B har
develop ment</w>
K e
t oday</w>
un ity</w>
mon th</w>
st and
re ally</w>
em p
cel ebr
S c
ep t</w>
ar s</w>
A n</w>
st and</w>
ro ad</w>
it ter</w>
v i
issu ed</w>
le ar
att ack</w>
th ink</w>
in ation</w>
em ents</w>
Minist ry</w>
vir al</w>
COVI D
ad v
or ts</w>
r am</w>
pro blems</w>
con duc
Pras ad</w>
produc tion</w>
play ed</w>
occas ion</w>
add ed</w>
s usp
i ally</w>
c ou
Chr ist
Na id
t echn
laun ched</w>
Direc tor</w>
D ont</w>
shif ted</w>
Sec retary</w>
P h
s w
inform ed</w>
fur ther</w>
enc es</w>
did nt</w>
ad u</w>
a j</w>
Gu j
For mer</w>
Ch ar
Ac c
ri b
pr iv
fil ed</w>
c our
C P</w>
poss ible</w>
mark et</w>
m other</w>
pl ic
le ft</w>
follow ing</w>
f ace</w>
K apo
run s</w>
m ent
e k
w al</w>
pro gr
it ing</w>
ult ure</w>
n ational</w>
in jur
com es</w>
b oo
T RS</w>
Kapo or</w>
I P
Guj ar
7 0</w>
mar ried</w>
loc al</w>
in st
id ent
Vij ay</w>
Tr ump</w>
te e</w>
er a</w>
e al
Naid u</w>
ver s
un c
t ow
proj ect</w>
proc ess</w>
p ri
ec tr
p arents</w>
N ar
to p</w>
shoo ting</w>
la w</w>
h us
b ur
Pun j
d ate</w>
v er</w>
res h</w>
p ati
Tw itter</w>
COVID -19</w>
ou b
k ey</w>
investig ating</w>
reas on</w>
do es
are as</w>
ak ing</w>
Sr in
Ar e</w>
ol v
Paw an</w>
Al l
r an</w>
ad m
Mah esh</w>
L e
4 0</w>
20 0
l ess</w>
U tt
u red</w>
ind ustr
cap tain</w>
1 ,
c la
act iv
1 1</w>
mak ing</w>
j ud
g one</w>
T est</w>
St ates</w>
S at
Am it</w>
y oun
h and
f ood</w>
att ended</w>
ap pro
p ow
j a</w>
hal leng
ud get</w>
t ers</w>
happ y</w>
W ith</w>
B ang
pl ays</w>
maj or</w>
ic ide</w>
gir l</w>
tak ing</w>
at ion
1 4</w>
1 2
includ e</w>
fi el
Kal yan</w>
A sh
quest ion</w>
polit ics</w>
ch ar
Y S
K rishna</w>
C r
respon s
posit ive</w>
Y ad
P at
no thing</w>
m ur
ic ts</w>
e y
al ways</w>
Gujar at</w>
o il</w>
larg e</w>
ie ve</w>
S on
ur u</w>
ow ed</w>
ig ned</w>
Raj as
He alth</w>
F r
qu e</w>
pr ice</w>
oc k</w>
ah s</w>
S outh</w>
tr u
or ies</w>
l ov
con f
w a
it tee</w>
i ther</w>
bec ame</w>
T e
p u
f act
c y
Vir at</w>
t old</w>
id ence</w>
ed uc
comp any</w>
ail ed</w>
O p
H ome</w>
G r
s ure</w>
need s</w>
lo b
f em
cr icket</w>
const itu
reas ons</w>
g overn
ur i</w>
th re
ret ur
Punj ab</w>
O ff
NT R</w>
th ous
ch es</w>
am a</w>
Par liam
G overn
work ers</w>
ol s</w>
hear t</w>
anc es</w>
i -
gr ou
de ad</w>
J ust
I m
Centr e</w>
t le</w>
sec urity</w>
resul ts</w>
part ment</w>
ic ally</w>
gr ap
Vij ay
N adu</w>
wor d</w>
r ate</w>
part ies</w>
cond ition</w>
comp an
2 4</w>
th ough</w>
sur v
ow s</w>
P ri
ju n</w>
em e</w>
e th
b ann
ac ted</w>
In tern
ser ies</w>
iv ely</w>
expres sed</w>
an th
pro test
contin ue</w>
K er
B S
1 .
su icide</w>
ond a</w>
k a</w>
es h
all s</w>
Is ra
th ird</w>
le t</w>
happ en</w>
c entr
S al
Beng al</w>
s a
ic les</w>
f ans</w>
b ir
1 8
d on</w>
b and</w>
ank a</w>
ag ar</w>
G re
Centr al</w>
t or
sm all</w>
s aying</w>
re duc
ic a</w>
c ost</w>
1 6</w>
con v
S ch
J amm
vill age</w>
p ublic</w>
o l</w>
diff ic
cor onavirus</w>
M ore</w>
fem ale</w>
cl os
an ks</w>
Yad av</w>
S hi
se as
ov ered</w>
om s</w>
ion ed</w>
er g
any thing</w>
1 8</w>
respon se</w>
n ess
i x
cla im
ab in
A ustr
pr is
l od
inc reas
g etting</w>
ear ch</w>
compl eted</w>
c ust
Austr al
wor ks</w>
ul ation</w>
id ents</w>
Ker ala</w>
Ac t</w>
c are
l ist</w>
h ya</w>
ch ild</w>
abin et</w>
S a
God s</w>
C BI</w>
issu es</w>
Ar jun</w>
20 0</w>
2 1</w>
ow ing</w>
mis s
m illion</w>
lik ely</w>
ik a</w>
R oh
Jamm u</w>
Ch enn
6 0</w>
ific ation</w>
i um</w>
The res</w>
t it
soc i
p ict
hist ory</w>
exam ple</w>
Th ree</w>
Pro duc
h op
every one</w>
ent ion</w>
chang ed</w>
can not</w>
c are</w>
J an
In d
wor ds</w>
w ick
t ure</w>
l ives</w>
ha m
fe ren
ed ly</w>
ar am</w>
G ener
an ted</w>
Wh ats</w>
S ar
Jehov ahs</w>
res ult</w>
p ast</w>
i ans</w>
f ree</w>
a x</w>
Char an</w>
1 4
ren g
op port
f ut
br ought</w>
be h
med ical</w>
Ra il
off ice</w>
har d</w>
end ing</w>
ay al
ap prov
am b
C C
star t</w>
ro l
ri p
ha b
ex peri
V ar
lod ged</w>
f ight</w>
au di
ath i</w>
Ven k
ML A</w>
Acc ording</w>
vi ol
t ill</w>
industr y</w>
in it
G o
Fin ance</w>
Chenn ai</w>
A u
sha red</w>
ful l</w>
ex pl
an th</w>
ML As</w>
us s
tr ad
it iz
dem anded</w>
T V</w>
t e</w>
serv ices</w>
poin ts</w>
v iew</w>
succ ess
ha l</w>
answ er</w>
1 7</w>
st reng
peri od</w>
o red</w>
jo ined</w>
eng ine</w>
anc ial</w>
C R</w>
sh ow</w>
me as
ib ility</w>
dec ided</w>
ath s</w>
Rajas than</w>
H ospital</w>
C ol
sen ior</w>
sch ool</w>
S un
M us
Just ice</w>
C l
with out</w>
tr i
t our
su g
quest ions</w>
eas y</w>
d est
ang e</w>
ur y</w>
priv ate</w>
on ce</w>
om in
m ight</w>
s af
prov ide</w>
ivers ity</w>
c halleng
N o
h s</w>
d am
cont rol</w>
1 3</w>
me ans</w>
g old</w>
fut ure</w>
b att
Parliam ent</w>
wh e
we ek</w>
spe ed</w>
et er</w>
be tter</w>
be aut
un to</w>
per form
n ight</w>
l d
it ness
con struc
bu ild
some thing</w>
pro mis
F il
B al
por ts</w>
ent ire</w>
ell ing</w>
di sp
de red</w>
Sp ec
M ed
Gener al</w>
Every one</w>
lead ing</w>
distr icts</w>
d en</w>
J o
H er</w>
A P</w>
re ign</w>
r u
p aid</w>
n s</w>
lev el</w>
injur ies</w>
Sh iv
s ons</w>
s il
it ional</w>
h im
g ave</w>
el ectr
ad s</w>
Am er
th er
at ure</w>
ut y</w>
r or
m ain
do m</w>
c al
Wh ere</w>
I m</w>
H ere</w>
s ev
re port</w>
he al
a -
t a</w>
succ ess</w>
larg est</w>
ir man</w>
hus band</w>
fin al</w>
ect ive</w>
d en
ab l
M ot
Al so</w>
2 .
tr y</w>
oun d
m ain</w>
f oo
doc tors</w>
at eg
poin t</w>
it ions</w>
incre ased</w>
b or
acc ount</w>
Mo han</w>
rel ig
ha s
candid ates</w>
air s</w>
W ill</w>
L et</w>
A j
re al</w>
me et</w>
v o
pos t</w>
n ec
lob al</w>
fri ends</w>
f all</w>
curren tly</w>
ass embly</w>
S w
1 5
writ ten</w>
si x</w>
se qu
p a
ist r
ig g
at ic</w>
Roh it</w>
vis it</w>
tr av
r ic
pro t
ol e</w>
mon ths</w>
m i</w>
l ight</w>
in e
v es</w>
ud e</w>
op ped</w>
does nt</w>
ap plic
S T</w>
im pl
M on
ser ious</w>
ro w</w>
pass eng
is l
hum an</w>
ful ly</w>
fam il
de ep</w>
Srin iv
S everal</w>
Jag an</w>
us ing</w>
sp o
o es</w>
a p</w>
A no
re ly</w>
er ship</w>
b us</w>
Q u
youn g</w>
pol ic
m et</w>
de b
R o
Indi as</w>
var i
r up
par ts</w>
d oub
c e
b udget</w>
P s</w>
O f</w>
Austral ia</w>
Ano ther</w>
y s
w el
ter ror
sh ot</w>
need ed</w>
i ated</w>
N or
tru th</w>
reg ion</w>
ke ep</w>
im p
i ence</w>
d e</w>
A g
up on</w>
te m</w>
r un</w>
o grap
lit tle</w>
i x</w>
de f
d ro
b s</w>
The ir</w>
T ha
D ay</w>
wr ong</w>
us es</w>
pol ls</w>
plac es</w>
l a</w>
incre ase</w>
gr at
di g
an sp
ac y</w>
L ak
im um</w>
fin d</w>
E ar
wor ked</w>
u es</w>
s ign
pati ents</w>
jo b</w>
fr ont</w>
es el</w>
an e</w>
Y S</w>
Utt ar</w>
Sen a</w>
L ord</w>
K CR</w>
st ation</w>
ir c
am ount</w>
ag re
ut i</w>
ow n
in ning</w>
b ank</w>
W om
the re
str ong</w>
h ous
act ive</w>
P a
E v
i ously</w>
S y
R ec
C re
t yp
s ite</w>
prov ided</w>
pro f
pet rol</w>
il ities</w>
id s</w>
hav ing</w>
ed ul
ar ies</w>
ank ar</w>
S ub
r ing</w>
or t
cap ital</w>
ar t</w>
requ ired</w>
mor tem</w>
li ve</w>
j our
c anc
bann er</w>
b ed</w>
T ata</w>
R ev
up coming</w>
st e
poin ted</w>
o ve</w>
m ind</w>
iv al</w>
au thor
Y ah
1 3
k ind</w>
it es</w>
in king</w>
h o
em ic</w>
N ir
B est</w>
under way</w>
p ha
inte rest</w>
i pp
ens ion</w>
act ress</w>
S ur
O R
J a
in em
ch ing</w>
Isra el</w>
y -
osp it
oc r
in fl
ess ion</w>
Bi har</w>
B l
wick ets</w>
qu ite</w>
m ult
le y</w>
ch o
beh ind</w>
b ow
IP L</w>
C o
olv ed</w>
ic ed</w>
h ur
f our
ep t
en jo
diffic ult</w>
con fir
am es</w>
al uru</w>
ne l</w>
c ause</w>
bl ood</w>
we h</w>
et h</w>
Yah weh</w>
stat ement</w>
op s</w>
ob ile</w>
l oss</w>
id ing</w>
ear lier</w>
cou ple</w>
ac e
2 2</w>
under stand</w>
un e</w>
r ation</w>
p ing</w>
ec h</w>
bus iness</w>
Ra j</w>
serv ice</w>
sc re
le ast</w>
k m</w>
dr iver</w>
B ha
A fr
w al
tow ards</w>
pl e
intern ational</w>
ind ra</w>
famil ies</w>
a ther</w>
S e
per cent</w>
particip ated</w>
our ces</w>
o ols</w>
man u
langu age</w>
heav y</w>
g ame</w>
ep s</w>
build ing</w>
Un ited</w>
lo g
increas ing</w>
Pr ab
t ies</w>
sel ves</w>
sch eme</w>
s le
s even</w>
s ector</w>
ri age</w>
l os
h old</w>
grow th</w>
every thing</w>
An il</w>
with in</w>
ro duc
mov ies</w>
dep end
cle ar</w>
K ann
C abinet</w>
thous and</w>
sec retary</w>
him self</w>
es day</w>
beg an</w>
as k</w>
M y</w>
I T</w>
pass ed</w>
ne ar</w>
gr ound</w>
Un iversity</w>
U S
w ise</w>
sc en
post -
or ity</w>
fiel d</w>
f are</w>
educ ation</w>
ear ly</w>
comm on</w>
cam era</w>
bel ieve</w>
al li
Mad hya</w>
D uring</w>
B r
stit ut
pop ular</w>
oc cur
mov ed</w>
fin ancial</w>
eff orts</w>
arr ang
O ther</w>
D istr
D is
D es
t el
se at</w>
n ation</w>
c irc
Spec ial</w>
S anj
im m
ic an</w>
f unc
de aths</w>
L ater</w>
J e
Intern ational</w>
F ir
2 3</w>
stit ution</w>
st s</w>
re pres
ph ot
il ar</w>
high est</w>
h ospit
dec la
S m
D av
B e
te ach
ord ed</w>
int roduc
in t</w>
gener al</w>
di esel</w>
Engl and</w>
Beng aluru</w>
1 6
y ana</w>
om et
mur der</w>
minist ers</w>
h an
Govern or</w>
B an
nec ess
memb er</w>
i ev
c oo
at s
Rav i</w>
pl an</w>
le d
im s</w>
comm itted</w>
Wh ile</w>
Raj ya</w>
R eg
G op
A h
veh icles</w>
t on</w>
re j
pr act
l ab
br ing</w>
announc ement</w>
O r
M ov
G B</w>
sing le</w>
s ist
ro te</w>
on -
b er</w>
an im
ag ement</w>
ab ility</w>
y an
w rote</w>
o -
ju st
e f</w>
di se
d ata</w>
a di
S pe
N av
D hon
th ought</w>
tal k</w>
sp read</w>
k down</w>
ion er</w>
f re
dise ase</w>
crit ic
complet e</w>
bro ther</w>
alleg ed</w>
R uss
All u</w>
st op</w>
s ou
feren ce</w>
conduc ted</w>
ar ding</w>
ap pointed</w>
ak er</w>
Mar uti</w>
8 0</w>
on y</w>
j ee</w>
iz e</w>
in i</w>
bo dies</w>
9 9</w>
tr ying</w>
st or
s um
rel ation
on a</w>
ind er</w>
i er</w>
g lobal</w>
ent ial</w>
eal ed</w>
bas is</w>
ay ed</w>
Pri y
L a
H a
s ong</w>
rec ord</w>
pu bl
pro per
op en</w>
loc ated</w>
langu ages</w>
h u</w>
e at</w>
conn ection</w>
T ake</w>
R el
L OR
Com mission</w>
y ed</w>
wor th</w>
u v
ong s</w>
it ation</w>
decla red</w>
chang es</w>
c ities</w>
K am
C ounc
3 00</w>
m er
i k</w>
at or</w>
ac ked</w>
Y es</w>
Dev elop
stud y</w>
pos e</w>
passeng ers</w>
p ay</w>
candid ate</w>
ann a</w>
YS R
Har yana</w>
E duc
E ast</w>
Con t
w an</w>
u re
u ary</w>
p ot
leg e</w>
is nt</w>
g le</w>
fac t</w>
f ailed</w>
claim ed</w>
Al i</w>
Ad d</w>
wh ole</w>
sk in</w>
sh a</w>
manu fact
happ ening</w>
f und
er ous</w>
bo x</w>
ayal am</w>
LOR D</w>
Dhon i</w>
spo ke</w>
sch edul
rem ain</w>
p ay
m om
inte rest
cent ury</w>
c itiz
ash ed</w>
Mal ayalam</w>
Direc ted</w>
rec ent</w>
meas ures</w>
if ul</w>
hal f</w>
fa ith</w>
am me</w>
Pr ak
K o
Engl ish</w>
Distr ict</w>
uk i</w>
st ri
rec overed</w>
r ise</w>
p and
mar riage</w>
ev i</w>
any one</w>
Y og
Ac t
r ain</w>
hous es</w>
employ ees</w>
ell ed</w>
cre ated</w>
cl ose</w>
ar am
Sriniv as</w>
A ff
war a</w>
ud i</w>
seas on</w>
l ate</w>
impl em
he ard</w>
b an</w>
all owed</w>
Su z
Minist ers</w>
Fir st</w>
u ro
rec orded</w>
p at
o to</w>
mor ning</w>
l ist
for t
dec e
centr al</w>
ap ur
acc ording</w>
S P</w>
t ax</w>
serv ed</w>
mar t
mak es</w>
loc kdown</w>
is ions</w>
id d
grou p</w>
gr ad
f est
R A
, 9
r am
mo ve</w>
m et
m ag
il t</w>
ear th</w>
de al</w>
compan ies</w>
ad ha
V is
Sh ankar</w>
M usic</w>
1 7
v ie
v e
tr ade</w>
mar k</w>
loo king</w>
j un
itness es</w>
it am
h ands</w>
g ets</w>
fil e</w>
f av
f ast</w>
cour se</w>
c ant</w>
O D
De partment</w>
Ch in
Ar my</w>
w ide</w>
w anted</w>
vict im</w>
ro vers
po or</w>
ne y</w>
form ed</w>
experi ence</w>
en ue</w>
Raj u</w>
Kann ada</w>
C ov
Ar t
tak es</w>
s ens
rev ealed</w>
r ich</w>
r an
pres sure</w>
offic er</w>
of ten</w>
in -
fe el</w>
di a</w>
charg e</w>
c ert
at ch</w>
ail y</w>
R an
M uk
Develop ment</w>
Counc il</w>
struc ture</w>
sim ilar</w>
sh i</w>
ob j
la ws</w>
is ation</w>
er tain</w>
com posed</w>
Suz uki</w>
S ince</w>
S erv
P re
O ur</w>
O r</w>
unt il</w>
tur ned</w>
stand ing</w>
pop ulation</w>
ol k
og n
ing dom</w>
in ing</w>
h ours</w>
el se</w>
ect ively</w>
cam pa
ay a</w>
ast e</w>
ar ing</w>
act ually</w>
S te
M ur
us h</w>
off er</w>
laun ch</w>
en ter</w>
cont est
constitu ency</w>
YSR CP</w>
F ace
C P
Ab out</w>
0 0
respons ibility</w>
p an
mil it
m al</w>
econom ic</w>
div id
did n</w>
b igg
b er
M and
F o
Dav id</w>
Bang l
techn ology</w>
te ams</w>
re al
oo ds</w>
n ath</w>
hel ps</w>
daugh ters</w>
un ities</w>
success ful</w>
spe ak</w>
sim ple</w>
sch ools</w>
re port
pro test</w>
in come</w>
in al</w>
el ected</w>
e ither</w>
at ives</w>
at est</w>
T C</w>
P and
un icip
tr ain</w>
on line</w>
l ong
if y</w>
h y
f oc
en se</w>
del iv
ail er</w>
act ors</w>
Venk at
Face book</w>
veh icle</w>
t ou
t ol
reg arding</w>
pe ace</w>
nam ed</w>
it ting</w>
g res
exp ect
confir med</w>
E very</w>
Chandr as
um ents</w>
ult ural</w>
reg ul
ra ised</w>
high er</w>
h or
ef ul</w>
d re
audi ence</w>
ai ah</w>
ad d</w>
T u
P o
M ay</w>
F am
C an</w>
3 5</w>
201 9</w>
y our
stit ute</w>
re li
qu ir
pro be</w>
follow ed</w>
er i
D oc
Aff airs</w>
9 0</w>
2 -
- old</w>
z e</w>
t ell</w>
qu ality</w>
me g
know led
g ri
di t</w>
bel iev
av es</w>
ag ing</w>
adm itted</w>
Ex p
B y</w>
ut es</w>
sh oc
r ain
occur red</w>
is ing</w>
econom y</w>
con trib
clos ed</w>
at ory</w>
N ob
J ap
ud d
proj ects</w>
produc ing</w>
ic ated</w>
hop e</w>
g est
ex erc
es ides</w>
er red</w>
curren t</w>
benef it</w>
av er
ab les</w>
On ly</w>
M eg
F rom</w>
Ad it
t i</w>
relation ship</w>
post ed</w>
heal thy</w>
gar h</w>
discus sed</w>
d aily</w>
ast er</w>
Pa ul</w>
L oc
B rit
sa w</w>
pand emic</w>
on al
necess ary</w>
comp et
beaut iful</w>
at ors</w>
W ar
K h
E m
war ds</w>
vict ory</w>
suff ered</w>
su st
st re
se par
progr amme</w>
o k</w>
est abl
e ep</w>
C an
5 -
val ue</w>
su per
r s</w>
op tions</w>
op position</w>
off ered</w>
n er</w>
le ave</w>
igh t
hospit als</w>
happ ens</w>
fe ar</w>
en ough</w>
dr aw
augh t</w>
T em
Sal man</w>
M ost</w>
D r</w>
Bangl adesh</w>
A ir</w>
spir it</w>
end er</w>
enc ed</w>
comm ittee</w>
com b
av o
ad minist
T echn
Nob ody</w>
M S</w>
H ave</w>
Educ ation</w>
E uro
B ab
A I
te as
re d
produc ts</w>
jo in</w>
is es</w>
includ es</w>
for ce</w>
enc ies</w>
ca used</w>
aff ected</w>
Son ia</w>
S ush
Priy anka</w>
Com miss
tur n</w>
sur ance</w>
st eps</w>
sc ored</w>
ro om</w>
ro ads</w>
resp ect</w>
pr ime</w>
pp ed</w>
m ess
in divid
il ed</w>
fr u
for ward</w>
bu ilt</w>
b ad</w>
we ight</w>
tr ansp
r iver</w>
ou d</w>
im prov
f ell</w>
ey es</w>
benef its</w>
av ari</w>
ass oc
Prak ash</w>
P ower</w>
Ear lier</w>
Comm ittee</w>
2 8</w>
2 4
sp ok
se e
rel ated</w>
pre p
m and
lit re</w>
i v</w>
dest ro
de fe
bo ard</w>
St ud
K olk
B e</w>
tit le</w>
sup por
spir itu
r ates</w>
pl ann
or ig
j i</w>
f ine</w>
conc ern
aw a
Raj am
Ev en</w>
Christ ian</w>
A ir
201 8</w>
t arg
st u
r ains</w>
r ail
on ed</w>
er ial</w>
ec k</w>
c ertain</w>
Shi v</w>
S im
Ram esh</w>
B a
2 ,
st ated</w>
ser ve</w>
s et
ord ers</w>
od e</w>
l l</w>
im ate</w>
ik ram</w>
ic ation</w>
govern ments</w>
es p
ens ive</w>
col our</w>
bec om
ai m</w>
Op position</w>
M ay
Kolk ata</w>
I S
God avari</w>
G ood</w>
Bhar at</w>
B ill</w>
vir us</w>
un g</w>
th em
ter m</w>
re ach</w>
mark ets</w>
i ent
feat ure</w>
c le</w>
c all</w>
b ack
author ities</w>
ag ric
ag o</w>
G e
Dev i</w>
test s</w>
nat ural</w>
l iving</w>
kno ws</w>
i ent</w>
go es</w>
eff ect</w>
cont rovers
W itnesses</w>
Su resh</w>
N it
0 -
th ats</w>
t own</w>
s at
res erv
person al</w>
n am</w>
ig ation</w>
id el
cr ick
cap t
bor n</w>
b all</w>
M C</w>
F our</w>
D ec
Art icle</w>
Ad v
7 5</w>
twe eted</w>
se ized</w>
p rec
ograp h
mp t
if ic</w>
foll ow</w>
f igh
er al</w>
ens ure</w>
and a</w>
al ore</w>
Wom en</w>
L ets</w>
J os
In v
Cor por
Bo ard</w>
0 .
sign ific
p i
onal d</w>
me an</w>
m obile</w>
le tter</w>
lak hs</w>
l ower</w>
it ude</w>
grat ul
for ces</w>
continu es</w>
complet ely</w>
bel ow</w>
a head</w>
st ay</w>
n et
l y
j e
ect ing</w>
c ut</w>
b an
ac ks</w>
ab ove</w>
Pat el</w>
I sl
B en
3 .
1 50</w>
sh are</w>
on ment</w>
l ow</w>
inv olved</w>
interest ing</w>
i ple</w>
form s</w>
dece ased</w>
continu ed</w>
Mo ham
J oh
Indi ans</w>
El ection</w>
C up</w>
tr ied</w>
ro r</w>
res earch</w>
rej ected</w>
pr im
pl ied</w>
person nel</w>
m y
m ass
jud g
en a</w>
d ers</w>
as ks</w>
and ing</w>
Rail way</w>
N ow</w>
Mah indra</w>
G er
G ST</w>
F armers</w>
D E
A t
vot es</w>
vot e</w>
un d</w>
tr ailer</w>
pr inc
opport unity</w>
ne ar
j ect</w>
h und
de fin
d om
an while</w>
P et
Fil m</w>
F oll
Afr ica</w>
7 .
u el</w>
res ol
p ain</w>
oun ded</w>
ill s</w>
her o
ed s</w>
d ang
construc tion</w>
K a
J ud
J ay
D onald</w>
D ef
under going</w>
uc k</w>
u ted</w>
surv ived</w>
sup ply</w>
soci ety</w>
ser iously</w>
p rem
m it</w>
ip al</w>
inn er</w>
et ings</w>
eg et
cas t</w>
c inem
beg un</w>
ar i
ach ing</w>
a g</w>
S uch</w>
Med ical</w>
Ad d
2 6</w>
y outh</w>
se ar
repor ts</w>
rec ogn
part ic
oy al</w>
iz ation</w>
if t</w>
g reg
er t</w>
applic ation</w>
al ities</w>
P oo
M Ps</w>
E D</w>
D A</w>
Com p
u ment</w>
t i
ri f
pict ures</w>
mpt oms</w>
loc als</w>
er jee</w>
av ing</w>
arrang ements</w>
add res
J u
Cha irman</w>
C ap
per ation</w>
offic ers</w>
g y</w>
dem and</w>
c op
alli ance</w>
ain ment</w>
R ak
M is
Hind u</w>
ut ive</w>
tre ated</w>
sel f
produc er</w>
pro ve</w>
inc idents</w>
ha d
ed ding</w>
cle an</w>
all ing</w>
ac hi
Nor th</w>
retur n</w>
read ing</w>
pet ition</w>
near by</w>
me th
m us
k har</w>
jo int
joint ly</w>
cons um
ak rishna</w>
The re
Sanj ay</w>
P ad
J D</w>
year -old</w>
rece iving</w>
quir y</w>
pl at
p e</w>
fri end</w>
develop ed</w>
arm a</w>
approv ed</w>
ant ly</w>
activ ities</w>
act ions</w>
ush ka</w>
s ongs</w>
ris k</w>
rem ar
oun ts</w>
off ering</w>
f el
ep ing</w>
ch e
cas h</w>
att emp
am i</w>
J une</w>
J r</w>
In st
Aj ay</w>
A y
y er</w>
w id
sol di
re r</w>
qu ar
plac ed</w>
pha se</w>
in ik
four th</w>
form ation</w>
bro thers</w>
bir th</w>
aut om
am y</w>
ad vis
T al
S und
S oc
Poo ja</w>
Off ic
Ke j
D ep
Con stitution</w>
Commiss ioner</w>
C ur
C E
B ar
19 9
wh om</w>
our ce</w>
n agar</w>
mod el</w>
li es</w>
g ing</w>
c u
bigg est</w>
b it</w>
af t</w>
ad i</w>
Th ose</w>
S S</w>
Raj inik
M am
Kej ri
H ouse</w>
De ep
D on</w>
An ushka</w>
v ol
unicip al</w>
rem ains</w>
ha y
giv ing</w>
en i</w>
cust ody</w>
cl ar
ap ur</w>
act ing</w>
achi ev
N CP</w>
Christ ians</w>
Chin ese</w>
Ac tor</w>
y e</w>
w as
viol ence</w>
tr aining</w>
sug gest
se x</w>
ra structure</w>
oc c
mot or
in s
i ation</w>
c ard</w>
beg in</w>
b ab
ay ana</w>
al one</w>
V i
Raj iv</w>
N m</w>
Me anwhile</w>
L eg
G oo
Doc tors</w>
4 00</w>
y l
sh ort</w>
s ac
resp ectively</w>
pro mot
opport unities</w>
off ers</w>
l in
includ ed</w>
dem ocr
cro s
comm ents</w>
ce rem
al most</w>
ak es</w>
YS R</w>
Sh r
Nag ar
Ban erjee</w>
Ar un</w>
Ap p</w>
we b
vill ages</w>
ter ms</w>
st opped</w>
sil ver</w>
report edly</w>
perform ance</w>
m oun
fac ilities</w>
est s</w>
doc tor</w>
b h
av y</w>
all i</w>
R ep
P er
Kejri wal</w>
F I
En ter
Cr icket</w>
w ants</w>
tor que</w>
shi ps</w>
s qu
s mart
pict ure</w>
lo an</w>
esp ec
des c
d own
d ict</w>
aw ada</w>
alleg ations</w>
ad y</w>
ab or
S ol
R BI</w>
K um
H igh
C ity</w>
A mar
tem per
st ood</w>
ord in
od s</w>
ne w
hist or
f al
expect ations</w>
eth a</w>
est ic</w>
espec ially</w>
ent ary</w>
cust om
crit ical</w>
con tr
car ried</w>
aw ard</w>
S ud
S he
Re ad</w>
Rail ways</w>
J er
Chr ist</w>
A z
A gr
3 70</w>
2 9</w>
ust ri
tol l</w>
sp ace</w>
sequ ently</w>
s ent
ro g
pl ans</w>
p ap
lear n</w>
ing ly</w>
ind s</w>
employ ment</w>
em or
direc tion</w>
dec l
de partment</w>
consid er</w>
ap p</w>
Un der</w>
S ach
R ag
Inv est
Fam ily</w>
B ec
re comm
post- mortem</w>
ot e</w>
m ist
fac ing</w>
ev idence</w>
cor rup
c iv
avo id</w>
at tr
ant i-
Y et</w>
Su per
S U
Rajam ou
Prab has</w>
H im
2 5
w ell
v eget
leg al</w>
l er</w>
jun a</w>
ent ation</w>
ed y</w>
con greg
campa ign</w>
bl ess
add ress</w>
K an
Dep uty</w>
s old</w>
rail way</w>
pr a
op ened</w>
m ax
lead s</w>
just ice</w>
itam in</w>
invest ment</w>
h om
h anded</w>
enc our
aver age</w>
as an</w>
V ish
T i
S .</w>
K ingdom</w>
Every thing</w>
4 .
v ia</w>
sal t</w>
rul ing</w>
mo han</w>
loo ks</w>
leg isl
introduc ed</w>
hear ing</w>
grou ps</w>
consid ered</w>
cap ac
ass ist
ar rest</w>
S C</w>
Rajinik anth</w>
Goo gle</w>
Go a</w>
G old</w>
D il</w>
Cor onavirus</w>
Bang alore</w>
6 .
th ou</w>
ri l</w>
rev iew</w>
play ers</w>
ou se
n or</w>
ident ified</w>
gre en</w>
ex per
ener gy</w>
ed om</w>
care er</w>
anc ed</w>
W ater</w>
Tem ple</w>
T ir
T I</w>
He avy</w>
CC TV</w>
Amer ican</w>
y le</w>
trans f
them selves</w>
stat us</w>
st ep</w>
rul e</w>
reg n
oun ds</w>
oc k
not e</w>
n u
n on-
med ic
lov ed</w>
knowled ge</w>
ix el</w>
gres s
est er
ect ors</w>
cont est</w>
cond itions</w>
S ri
O c
N and
I N
Gr ou
w ish</w>
un g
spiritu al</w>
polic y</w>
m itted</w>
k ids</w>
fo reign</w>
et c</w>
de but</w>
crick eter</w>
att end</w>
as p
U P</w>
Sch ool</w>
S ith
Mam ata</w>
D ha
Ch ir
CP I</w>
B ach
As ia</w>
vis ion</w>
tal ks</w>
se a</w>
pur pose</w>
ph ys
out side</w>
olog ical</w>
iv ity</w>
i ke</w>
i ah</w>
fac ed</w>
differen ce</w>
d ed
W e
U r
Stud ents</w>
S um
M ic
In stitute</w>
D M
Ap ril</w>
Am b
3 1</w>
th ern</w>
s anc
rol led</w>
re pe
op pos
ne g
n omin
mom ent</w>
meg ap
k ept</w>
ic ked</w>
head ed</w>
h ood</w>
exerc ise</w>
ek har</w>
e x</w>
des ign</w>
con ference</w>
cerem ony</w>
bro ke</w>
af f</w>
Sen ior</w>
Sach in</w>
S o
S iv
P le
H er
En g
Agr ic
3 3</w>
201 4</w>
2 7</w>
wa iting</w>
un its</w>
the e</w>
sle ep</w>
s ession</w>
rul es</w>
ri ve</w>
requ i
relig ious</w>
re ality</w>
r out
protest s</w>
pr ay
per f
or ing</w>
numb ers</w>
m ad</w>
l atest</w>
k ill</w>
is s
dam aged</w>
c k
c han</w>
ab ly</w>
Russ ia</w>
Raj nath</w>
Ju ly</w>
I r
Bach chan</w>
ul a</w>
s em
re ar</w>
prev ious</w>
ph oto</w>
ov t</w>
or dered</w>
megap ixel</w>
max imum</w>
loo ked</w>
inn ings</w>
in stitut
fund s</w>
fil led</w>
di sha</w>
di e</w>
comm unity</w>
c ov
bre ak</w>
bh p</w>
b anks</w>
an g</w>
ag ue</w>
L t
J ust</w>
H eg
E ach</w>
w edding</w>
ver sion</w>
un it</w>
t om
t im
r iv
nor th</w>
minist ry</w>
in side</w>
foo t
fe el
fam ous</w>
dev ot
d ra
anc hay
ab h</w>
V ery</w>
S ik
M at
Lo ve</w>
Heg de</w>
F ur
stud ent</w>
scen e</w>
ren der</w>
phot os</w>
omet imes</w>
nor mal</w>
min or</w>
mass ive</w>
ha m</w>
giv es</w>
gar wal</w>
est im
er ies</w>
em erg
d han</w>
con gratul
as w
W he
T ur
T ollywood</w>
O ver</w>
Foll owing</w>
E g
Ar v
wat ch</w>
spe aking</w>
rem ained</w>
la w
hol ds</w>
har m
e en</w>
e ed
d ar
cond ol
citiz ens</w>
be t
an -
ac hal</w>
V arma</w>
Ro ad</w>
O disha</w>
M os
Jan ata</w>
Bec ause</w>
ver dict</w>
tw o-
thre e-
suff ering</w>
sist er</w>
saf ety</w>
s outh</w>
prev ent</w>
or ds</w>
o ts</w>
ne ither</w>
n av
m ala</w>
kill s</w>
jo bs</w>
it a</w>
ic ted</w>
he ar</w>
gir ls</w>
g ear
fest ival</w>
ev ening</w>
c ulture</w>
b order</w>
b illion</w>
ac ter</w>
S in
Raj a</w>
R em
Pr ad
Pakist ani</w>
P ublic</w>
Man o
Ind ustr
Arv ind</w>
4 5</w>
vict ims</w>
ter rit
st ands</w>
soldi ers</w>
se ems</w>
retur ned</w>
rem ely</w>
pp er</w>
pi ec
maj ority</w>
k umar</w>
ig r
capac ity</w>
b ill</w>
agre ed</w>
ag ree</w>
Res earch</w>
Lak sh
K ul
3 0
w inning</w>
th day</w>
t ro
si x
shoo t</w>
sc ient
saf e</w>
pro gress</w>
ov ery</w>
op tion</w>
ne arly</w>
nam es</w>
ment al</w>
it ness</w>
inte gr
ide a</w>
ic ity</w>
dec isions</w>
canc er</w>
b ul
att ention</w>
ak onda</w>
add ition</w>
T end
N ov
M eh
G ar
F ive</w>
Corpor ation</w>
B u
3 2</w>
st age</w>
sp ent</w>
s ides</w>
ru pe
rap ed</w>
rain fall</w>
r ural</w>
o x
mess age</w>
main t
ish ing</w>
in sp
grow ing</w>
fel t</w>
e ks</w>
cr ime</w>
cl ass
char acter</w>
c ateg
all -
N E
L anka</w>
Jap an</w>
Brit ish</w>
B esides</w>
Ak sha
A v
' re</w>
w on
w est</w>
test ing</w>
t op
streng th</w>
sh ow
s we
ot ted</w>
oper ation</w>
ne igh
motor cy
m ix
l ines</w>
init i
inf rastructure</w>
ine ering</w>
h ouse
func tion</w>
er ation</w>
en vir
disp ute</w>
cha irman</w>
ant i</w>
al ist</w>
K .</w>
Enter t
D id</w>
C ar
A part</w>
your self</w>
thr ough
st ress</w>
smart phone</w>
s ought</w>
pol ling</w>
not ice</w>
n ations</w>
mil k</w>
in quiry</w>
fal se</w>
f if
f arm
ent ing</w>
el ess</w>
disc i
depend ent</w>
b ar
ag ram</w>
add itional</w>
ad e
Tr iv
S ind
Lt d</w>
Au to</w>
Ass am</w>
Amer ica</w>
9 .
ur g
unt ur</w>
tr ains</w>
s ex
re p
man agement</w>
in de
fre edom</w>
end ment</w>
dr ink</w>
cor rec
batt le</w>
art icle</w>
arm y</w>
aren t</w>
ac ts</w>
Wh ich</w>
Tu esday</w>
Tend ul
N I
Mus lim
Ja it
IC C</w>
G untur</w>
Ch h
Aksha y</w>
1 -
us ers</w>
st ories</w>
r ally</w>
li m</w>
l am
ex ec
ell ow</w>
discus sion</w>
aram an</w>
all oc
acc ep
ac compan
T otal</w>
Rajamou li</w>
P an
Nir mala</w>
Mot ors</w>
Mar ch</w>
I I</w>
Col lege</w>
CC I</w>
BS P</w>
wh ether</w>
w icket</w>
vis ited</w>
tr aff
through out</w>
tal king</w>
su red</w>
sev ere</w>
sc rip
run ning</w>
r aid</w>
part n
p un
p age</w>
ld nt</w>
fri end
f lo
ext remely</w>
ent al</w>
ell s</w>
congreg ation</w>
boo ks</w>
al ised</w>
Wh ats
W ed
U p
U d
Sr id
Sec urity</w>
S and
M ak
C oll
Am it
19 7
th us</w>
s ave</w>
respons ible</w>
ref used</w>
ot a</w>
lev els</w>
infl u
id ay</w>
har k
ha v</w>
ha ir</w>
f alls</w>
ex ist
dom estic</w>
cl ass</w>
beg ins</w>
arr ived</w>
an e
Wed n
Shiv a</w>
M u
H ence</w>
B A
Am ong</w>
201 7</w>
sy mptoms</w>
sal es</w>
rev ie
reduc e</w>
r ange</w>
p en
k en</w>
idel ines</w>
g s</w>
foc us</w>
fl ow</w>
exam ination</w>
er ve</w>
bl ack</w>
ast ern</w>
ash es</w>
ar m</w>
anim als</w>
air port</w>
V al
St ar</w>
S el
S BI</w>
Pr inc
No thing</w>
M an</w>
Kam al</w>
K ur
D oes</w>
Cor ona</w>
Ch op
B CCI</w>
3 ,
str ateg
st aff</w>
proc ess
mak ers</w>
m id
i que</w>
hel ped</w>
h ost</w>
g en
fort un
bu y</w>
bo y</w>
b ail</w>
av ati</w>
app rec
adv ant
ac her</w>
Vijay awada</w>
Th us</w>
Sc ience</w>
Raj put</w>
R is
Ple ase</w>
N ay
I A
H um
Grou p</w>
Def ence</w>
Amit abh</w>
5 0
' m</w>
v acc
there fore</w>
sug ar</w>
s h</w>
ipp er</w>
in aug
imp act</w>
er -
di a
de al
cr uc
cr is
c aught</w>
ang a</w>
Wedn esday</w>
Techn ology</w>
Jait ley</w>
Inst agram</w>
H es</w>
Gop al</w>
Fr ance</w>
F e
Cov id
C A
8 .
3 6</w>
u b</w>
teas er</w>
sur pr
star ring</w>
prim ary</w>
pr iced</w>
play er</w>
os h</w>
milit ary</w>
dis play</w>
d ates</w>
ch ance</w>
ar ch
agric ulture</w>
Nagar juna</w>
Mon day</w>
For ce</w>
D ut
As soci
6 5</w>
w ins</w>
vo ice</w>
typ es</w>
thous ands</w>
ther wise</w>
test ed</w>
s ources</w>
rem ake</w>
rem aining</w>
r ights</w>
on ic</w>
not ification</w>
min ent</w>
mat ches</w>
hum ans</w>
hol y</w>
hi b
hel med</w>
ess ential</w>
em es</w>
electr ic</w>
destro yed</w>
cre dit</w>
centr e</w>
anj e
ai th
S ection</w>
Nar as
L im
Ko re
K ing</w>
J hark
H onda</w>
Chop ra</w>
Bh at
z a</w>
t ures</w>
s p</w>
ro id</w>
publ ished</w>
prov iding</w>
produc e</w>
pre -
ograph y</w>
n um
l ow
ill ions</w>
i o</w>
happ iness</w>
h at
f un</w>
f ig
ext ended</w>
ent y</w>
el a</w>
d u
cruc ial</w>
charg es</w>
ben ch</w>
b le</w>
att ers</w>
anc y</w>
al em</w>
ak s</w>
V in
Rs .
R R</w>
Op en</w>
Muslim s</w>
Mov ie</w>
As ian</w>
was nt</w>
vie ws</w>
sust ained</w>
st ly</w>
sc ore</w>
s i</w>
re ds</w>
p regn
me an
mar ks</w>
in struc
fe et</w>
er ful</w>
ent ered</w>
democr acy</w>
comm un
ca uses</w>
apo st
ag er</w>
accompan ied</w>
R ad
N ath</w>
M y
L ife</w>
Jhark hand</w>
Ha asan</w>
F i
Eg yp
DM K</w>
D em
Cre ations</w>
Chir anje
veget ables</w>
teach ers</w>
shoc ked</w>
schedul e</w>
ris ing</w>
res ign
rece ive</w>
r igh
proper ty</w>
prof ess
pow der</w>
p ass</w>
n one</w>
la ug
l and
jo y</w>
in surance</w>
immedi ate</w>
hero ine</w>
gener ation</w>
g as</w>
f ol
esh war</w>
es cap
e .</w>
contest ing</w>
con dem
comm erc
celebr ated</w>
b ut
ati ya</w>
ad ed</w>
a a</w>
Z eal
Sith araman</w>
Ram a</w>
R TC</w>
O ut</w>
temper ature</w>
tem ples</w>
sh ou
s ions</w>
ro se</w>
reg ular</w>
mod ern</w>
me etings</w>
in eni</w>
im in
ic ial</w>
ic e-
cr aft</w>
con om
car s</w>
c y</w>
beg inning</w>
Tendul kar</w>
Sup er</w>
P al
O thers</w>
E conom
19 8
y al</w>
wel fare</w>
we eks</w>
wa it</w>
ver se</w>
th an
stor age</w>
sp orts</w>
pro per</w>
prep ared</w>
ph ones</w>
p iv
p an</w>
ov ers</w>
mov ement</w>
mis ha
lo ad</w>
jud ge</w>
inv ited</w>
im posed</w>
hur t</w>
direc t</w>
det ained</w>
den ied</w>
d a</w>
chang ing</w>
b ar</w>
b a</w>
att is
ast ic</w>
art ers</w>
Whats App</w>
There fore</w>
Th ank</w>
S an
P ers
Nov ember</w>
F ather</w>
Dha wan</w>
B oss</w>
B aj
y re</w>
traff ic</w>
sch arg
sanc t
sac rif
res igned</w>
re str
prov ides</w>
pro pos
pol l
plann ing</w>
p ack
nat ure</w>
mov ing</w>
ment ioned</w>
jour n
it self</w>
ish ment</w>
im ately</w>
exam ples</w>
estim ated</w>
est ern</w>
er ce</w>
eff ort</w>
di scharg
cy l
cris is</w>
corrup tion</w>
co sts</w>
cl es</w>
av ed</w>
approv al</w>
Zeal and</w>
V er
Le ad
Hy und
Covid -19</w>
And roid</w>
5 .
v i</w>
ur ged</w>
twe et</w>
thre at
terror ists</w>
suppor ted</w>
situ ated</w>
sh ock</w>
set t
sear ch</w>
sc ience</w>
s igned</w>
rish n
rem ember</w>
relig ion</w>
lit er
k g</w>
j ail</w>
il li
es wara</w>
coll ap
care ful</w>
att acked</w>
at ures</w>
acc ounts</w>
ac qu
T oday</w>
P M
N eh
Fur ther</w>
D an
Au thor
Agric ulture</w>
A ug
5 ,
3 4</w>
th inking</w>
spe ech</w>
sh ows</w>
qu arters</w>
piv otal</w>
nat ion
n ov
l ose</w>
j an</w>
ion ing</w>
inaug ur
il s</w>
f ish</w>
does n</w>
coo peration</w>
cho ose</w>
c lo
b ag
au th
as es</w>
appe ared</w>
all ow</w>
ach ieve</w>
Y our</w>
W el
Hyund ai</w>
F ans</w>
CE O</w>
A AP</w>
youn g
wor ship</w>
wor ry</w>
web site</w>
v ed</w>
te red</w>
stri ke</w>
respon ded</w>
pris ing</w>
par liam
neigh b
l ights</w>
jour ney</w>
ho st
har d
f resh</w>
f an</w>
enjo y</w>
en h
doub t</w>
dem on
d omin
custom ers</w>
cre ate</w>
conf idence</w>
comp ens
be l</w>
anc ing</w>
anc ient</w>
acc ess</w>
SU V</w>
Naras im
Dr .</w>
Bhar atiya</w>
uk h</w>
typ e</w>
trav el</w>
se ts</w>
sat is
s id
r id
qu ick
oper ations</w>
mis sing</w>
l ess
implem ented</w>
ent ert
deb ate</w>
de pos
cinem a</w>
challeng es</w>
b at
attis garh</w>
answ ered</w>
al ed</w>
al c
ai f</w>
Wor d</w>
Sun il</w>
Sri k
Sen sex</w>
S om
Rec ently</w>
N at
Mus lim</w>
Joh n</w>
C el
B udget</w>
B ig
A adha
3 -
wh ite</w>
war i</w>
vide os</w>
u g</w>
star red</w>
sk ipper</w>
s or
ro m
rev enue</w>
red dy</w>
p ite</w>
ind ic
hi d</w>
hav an</w>
g ree</w>
for c
f aith
e ed</w>
div ided</w>
ded icated</w>
de gree</w>
challeng e</w>
bab y</w>
ar ded</w>
appe ar</w>
ant a</w>
anj an</w>
ang er</w>
al ty</w>
T ri
S ept
OD I</w>
Mar k
M aj
Ke er
K ir
D R
Cur ren
Chiranje evi</w>
Aug ust</w>
Ah med
3 7</w>
- speed</w>
wr ite</w>
ult ane
s ource</w>
s am
righ te
rel ations</w>
quest ioned</w>
ple a</w>
p ress</w>
ound ation</w>
organ ised</w>
on n
misha p</w>
la st
l ds</w>
il es</w>
ic tion</w>
g e
ev ents</w>
dr y</w>
co ach</w>
charg ed</w>
char act
at r
ap ply</w>
ap ped</w>
an al
Sin ha</w>
P uri</w>
N R
Chh attisgarh</w>
Big g</w>
Associ ation</w>
Ash win</w>
us ion</w>
ur ch</w>
um e</w>
st ems</w>
st ances</w>
re quest
pro minent</w>
ish es</w>
ici ous</w>
i y
em ot
e ight</w>
de ploy
co -
c aut
bir thday</w>
assist ance</w>
an ya</w>
am az
af raid</w>
Y ou
Triv ikram</w>
Spe aker</w>
Sept ember</w>
R oyal</w>
Oc to
H app
G ur
F C</w>
El ections</w>
Ch ildren</w>
C C</w>
BS E</w>
Ash ok</w>
Aadha ar</w>
A ward</w>
y ou
wor ried</w>
v ac
ug s</w>
tr ust</w>
tr o</w>
str ong
separ ate</w>
seas es</w>
scre en</w>
s ound</w>
re fl
ra j</w>
qu al
promis es</w>
phys ical</w>
p ret
or al</w>
o o</w>
m atters</w>
lim ited</w>
ist an</w>
im prove</w>
gre es</w>
ep tion</w>
di seases</w>
de grees</w>
controvers y</w>
apur am</w>
al ert</w>
ag ers</w>
ad es</w>
acc ept</w>
V am
T ime</w>
Sh et
S tr
P ul
P A
P -
Nag ar</w>
Leg isl
Jer us
Im ran</w>
El ectr
Chandras ekhar</w>
B ro
Am az
war m</w>
v el
targ et</w>
t oss</w>
some one</w>
sim ultane
se l</w>
schedul ed</w>
rev er</w>
ren ch</w>
r um
post s</w>
p m</w>
no w
mult iple</w>
mag n
lead ership</w>
inc h</w>
import ance</w>
har i</w>
establ ished</w>
dist rib
dis mis
det er
col ours</w>
cl aim</w>
cha ired</w>
c over</w>
Yog i</w>
T er
Sund ay</w>
S war
Princ ipal</w>
Ph one</w>
P F</w>
M ir
K ish
Indi a-
In f
An n
Adv ani</w>
4 2</w>
4 ,
- -</w>
yan ath</w>
vari ant</w>
uc k
t ax
sol ution</w>
sol ut
s ections</w>
r ound</w>
prot ect</w>
progr amm
post er</w>
pe ac
oc ks</w>
mar t</w>
le aves</w>
ivers ary</w>
it ive</w>
ic hand
follow s</w>
f requ
equ al</w>
electr icity</w>
e ad</w>
critic ism</w>
coun ter</w>
b al
ats man</w>
T s</w>
Pol it
P V</w>
Octo ber</w>
N et
M et
J ana</w>
H ol
Fo reign</w>
D ever
D et
Comp any</w>
COVI D</w>
Am endment</w>
6 00</w>
writ er</w>
ur s
u als</w>
tour ists</w>
sen se</w>
sch emes</w>
reli ef</w>
re t</w>
op al</w>
no ol</w>
mon it
investig ations</w>
injur y</w>
im age</w>
ig ning</w>
fo rest</w>
e ast</w>
dist ance</w>
discharg ed</w>
dig ital</w>
cro w
com pos
cl imate</w>
c old</w>
b atsman</w>
ap t
am ed</w>
V ice</w>
Te am</w>
Sush ant</w>
Sind hu</w>
Sc rip
S k
S ai</w>
R ashm
Offic er</w>
M r
Lim ited</w>
K ov
Har ish</w>
G o</w>
7 ,
the res</w>
th i</w>
susp ended</w>
st one</w>
so ft</w>
pur cha
pow ered</w>
po int
oun der</w>
inte rested</w>
h il
gu idelines</w>
fin ally</w>
discus sions</w>
dang erous</w>
construc ted</w>
constitu encies</w>
circ um
c up</w>
believ ed</w>
aj i</w>
P anchay
L ond
H el
Chand ra</w>
Ahmed abad</w>
Adit yanath</w>
wor lds</w>
u d</w>
signific ant</w>
se em</w>
remar ks</w>
produc es</w>
p on
n e</w>
m igr
loc k</w>
li ked</w>
k new</w>
ing er</w>
i el
for t</w>
fir m</w>
eff ective</w>
dec ide</w>
conduc t</w>
comp ared</w>
col lege</w>
ch ild
br and</w>
b ri
anth a</w>
alleg edly</w>
ai k
ach es</w>
accep ted</w>
Serv ices</w>
S ix</w>
S idd
S ee</w>
Moham med</w>
M in
M ake</w>
K ings</w>
I ve</w>
Fr iday</w>
C y
An and</w>
w ind
vie w
ustri al</w>
s .</w>
pres ented</w>
ou red</w>
m ine</w>
m em
ha i</w>
em y</w>
em er
eff ects</w>
ear th
cor por
concern ed</w>
commerc ial</w>
c arr
br id
b ank
Th urs
S on</w>
R om
O b
M unicipal</w>
Kum ar
D ig
B ir
Ar ts</w>
Ar ound</w>
Amar avati</w>
y es</w>
w itness
un ve
ul ts</w>
te acher</w>
t ar</w>
t able</w>
sha res</w>
sc ared</w>
s elling</w>
rec overy</w>
rap e</w>
polit ici
plat form</w>
p il
p al
o ath</w>
motorcy cle</w>
it able</w>
ip ur</w>
inf ection</w>
ic ations</w>
her o</w>
heav en</w>
ha pat
h ot
go al</w>
exc ell
e rely</w>
devot ees</w>
dem anding</w>
compens ation</w>
b il
ap ati</w>
al i
Rashm ika</w>
R en
R ed</w>
R RR</w>
Ph il
P eter</w>
M oh
Jerus alem</w>
G ad
C iv
3 9</w>
2 50</w>
,9 99</w>
x ed</w>
wor ld
whe re
war ned</w>
ust er</w>
the red</w>
terror ism</w>
st -
spok en</w>
sh own</w>
sh ort
se ek</w>
se eds</w>
satis f
pro ph
pow erful</w>
oub le</w>
oppos ite</w>
mar ry</w>
k ings</w>
ist ic</w>
institut ions</w>
individ ual</w>
hi l</w>
figh ting</w>
en ship</w>
cyl inder</w>
conc ern</w>
c abinet</w>
ap point
al ith
air craft</w>
ain ts</w>
U m
Thurs day</w>
Th ir
Pun e</w>
N ep
M il
B us
Af g
A li
5 5</w>
4 9</w>
201 5</w>
w at</w>
un ch</w>
ud ed</w>
u ate</w>
st ations</w>
se g
resol ution</w>
re rs</w>
promis e</w>
pl ies</w>
partic ular</w>
occ up
o ples</w>
not es</w>
manufact uring</w>
ly mp
k ur</w>
ion ary</w>
init iated</w>
id a</w>
hund red</w>
h ot</w>
gr and</w>
g ain</w>
fru its</w>
fac ility</w>
envir onment</w>
ed ing</w>
eas ily</w>
def ence</w>
dam age</w>
d -
critic ised</w>
cam er
c c</w>
asw amy</w>
ar ak
aj a</w>
adv ice</w>
ac king</w>
V iv
Tr ansp
Soc ial</w>
O lymp
Mos es</w>
M A
Lond on</w>
La w</w>
He res</w>
F rench</w>
Dec ember</w>
D ar
C s</w>
C R
6 4</w>
3 8</w>
w ont</w>
w adi</w>
ur ban</w>
ul ated</w>
u ch
tre es</w>
sum mer</w>
sh ar
s ection</w>
s ale</w>
r as</w>
quick ly</w>
pr oud</w>
pay ment</w>
p ain
op posed</w>
no ted</w>
neg ative</w>
m ut
m al
lear ning</w>
iv ate</w>
it ment</w>
ir am</w>
ion ally</w>
investig ated</w>
ing ton</w>
ill ing</w>
ig ence</w>
i ance</w>
gr anted</w>
et er
ep er</w>
do or</w>
discus s</w>
depend ence</w>
defe at</w>
br a
becom es</w>
and er</w>
ah ub
agre ement</w>
V ik
V id
V e
Shet ty</w>
Sat ur
S ain
N A
L ook</w>
Ke ep</w>
K i
G h
G et</w>
FI R</w>
Every body</w>
Euro pe</w>
D ue</w>
C inem
5 1</w>
y n
wh ose</w>
un known</w>
tal ked</w>
spok es
rul ed</w>
res idence</w>
pro te
pres ence</w>
perf ect</w>
p ath</w>
ous ness</w>
op ping</w>
mak er</w>
m a
lim it</w>
lear nt</w>
l ying</w>
k ind
k il
iv e-
ir i</w>
inter view</w>
int on</w>
fl ights</w>
ebr uary</w>
dr inking</w>
d oll
conf ident</w>
cert ific
bus y</w>
at eral</w>
appro ach</w>
anth i</w>
answ ers</w>
administ ration</w>
Super star</w>
Su render</w>
P arents</w>
N DA</w>
K on
I ran</w>
F ebruary</w>
Dever akonda</w>
C oun
C am
8 5</w>
us ually</w>
tr ag
tour nam
th -
techn ical</w>
t ren
simultane ously</w>
reduc ed</w>
re over</w>
qu ake</w>
produc t</w>
p ul
net work</w>
n u</w>
long er</w>
l ived</w>
ke eping</w>
in k
id amb
har a</w>
gri ef</w>
for th</w>
fir ing</w>
f f</w>
every body</w>
er ted</w>
er ate</w>
ent ually</w>
em en</w>
d on
con cl
com ment</w>
cent res</w>
canc elled</w>
c ue</w>
becom ing</w>
b at</w>
aw ards</w>
ann er</w>
act ly</w>
W ell</w>
S A
Mo reover</w>
Kar an</w>
J ayal
In ter
Ger many</w>
F ood</w>
Dut t</w>
Cl ick</w>
Civ il</w>
C our
C S
B as
A garwal</w>
trans mission</w>
t ab
streng th
serv ants</w>
ro oms</w>
rest s</w>
res ources</w>
requ est</w>
protest ers</w>
organ is
on ion</w>
num erous</w>
lo ans</w>
li qu
le ts</w>
l igh
it ch
inter v
ici ent</w>
i Phone</w>
hol ding</w>
h ath</w>
g oods</w>
g es</w>
ex actly</w>
ex -
dr ama</w>
doc uments</w>
ch em
bu ild</w>
ath ers</w>
at o</w>
any where</w>
alloc ated</w>
a ult</w>
Yog a</w>
T 20
St at
Rep ublic</w>
On ce</w>
O il</w>
M or
Lo k
I T
Happ y</w>
Ch eck</w>
4 8</w>
4 7</w>
201 6</w>
x imately</w>
t rem
sur r
streng then</w>
str a
star rer</w>
st ock</w>
ro b
repres ented</w>
re -
promis ed</w>
on going</w>
o ted</w>
mod els</w>
jo int</w>
jo ining</w>
intern et</w>
in ted</w>
in ess
im pres
ill i</w>
h un
gar lic</w>
fl ed</w>
fin ance</w>
fil m
fiel ds</w>
entr y</w>
deploy ed</w>
deliv ered</w>
correc t</w>
ch opped</w>
ca p</w>
bet es</w>
appro pri
ahub ali</w>
advis ed</w>
Wel fare</w>
V itamin</w>
R at
Pand ey</w>
P ur
Off ice</w>
Jayal alith
F ire</w>
Eng ineering</w>
Con gress
Ad vis
6 ,
w ash</w>
un ique</w>
trans l
tr i</w>
than ked</w>
t ive</w>
spec ies</w>
sh or
s ize</w>
rib ed</w>
re moved</w>
pl ant</w>
oo th</w>
o j
m en
in ations</w>
he at</w>
has nt</w>
g row</w>
g a
fin ished</w>
f uel</w>
en th</w>
del ayed</w>
d rive</w>
conn ected</w>
con fl
compet ition</w>
claim s</w>
camer as</w>
be at</w>
be ar</w>
ay an</w>
ath an</w>
ast ing</w>
ann iversary</w>
an di
add ha</w>
ac res</w>
U K</w>
Satur day</w>
R O</w>
Narasim ha</w>
H D
Gre at</w>
G P</w>
Euro pe
Di w
Cont rol</w>
Ch idamb
B el
Ap ple</w>
6 3</w>
20 -
t ree</w>
star ts</w>
st able</w>
sou l</w>
so f
s ung</w>
s n
s a</w>
ro c
resign ation</w>
repres ent
ref erred</w>
ra h</w>
post mortem</w>
pol l</w>
pl eas
oun ce</w>
ong side</w>
lear ned</w>
le -
l al</w>
l aid</w>
l ady</w>
ident ial</w>
i ya</w>
high ly</w>
hav ent</w>
gr and
fe e</w>
f at
emerg ency</w>
el op</w>
draw n</w>
cont ains</w>
cl ash</w>
circum stances</w>
cho ice</w>
car ds</w>
beaut y</w>
as sured</w>
as i</w>
as c
ar ily</w>
W ash
W ar</w>
Vis ak
Th ous
T re
Srid evi</w>
Serv ice</w>
Rav ichand
R u
P rem
P ed
Man mohan</w>
L al
Kur nool</w>
Isra el
Intern et</w>
IC IC
Dem ocr
D iv
Comm un
B S</w>
2 8
wat ching</w>
up set</w>
up athi</w>
tw ice</w>
trav elling</w>
tit led</w>
th ik</w>
sur face</w>
sub ject</w>
str ug
str ict</w>
sev erely</w>
sel ected</w>
s ectors</w>
pro p
per mission</w>
ou bl
op in
om b
od a</w>
main tain</w>
laug h
la h</w>
it ure</w>
inv olv
individ uals</w>
il arly</w>
hapat nam</w>
feat ured</w>
f it</w>
ev ision</w>
ent i
dev elop</w>
ch eck</w>
car ry</w>
cal c
as king</w>
app a</w>
an ag
U P
T MC</w>
Sand eep</w>
S ou
S il
Prad han</w>
Jan uary</w>
ICIC I</w>
Ex c
Egyp t</w>
E r
Chandras he
B eh
y ond</w>
ul ly</w>
ul arly</w>
uc tion</w>
th a</w>
t our</w>
t ough</w>
t -
sub -
stand ard</w>
self -
s un
proper ties</w>
programm es</w>
pract ice</w>
pl ants</w>
pati ent</w>
me ets</w>
m ix</w>
loc ation</w>
l ands</w>
it ors</w>
in ter</w>
in str
im a</w>
ic h
head quarters</w>
g un
dre am</w>
dr iving</w>
c ultural</w>
be yond</w>
amaz ing</w>
al -
ai pur</w>
U se</w>
T our
T ig
Shr addha</w>
Pro t
P ict
P ass
Or gan
M ix</w>
M S
Kov ind</w>
I tal
D o
Baj aj</w>
B ased</w>
' ve</w>
won der
um p
udd in</w>
sy stems</w>
st yle</w>
see king</w>
see ing</w>
sc oo
sc ale</w>
resp ond</w>
rec ords</w>
re ply</w>
partn ership</w>
p ac
op ening</w>
mist ake</w>
man ual</w>
m ach
lov ing</w>
il ing</w>
g ames</w>
fil es</w>
ev il</w>
erg y</w>
enn is</w>
en su
doub le</w>
dismis sed</w>
de part
cl im
celebr ations</w>
br an
aw are</w>
at ever</w>
at en</w>
apost le</w>
ail ing</w>
a z</w>
W ith
Tha kur</w>
St u
Produc tions</w>
Him achal</w>
Gre en</w>
Econom ic</w>
C B</w>
B and
B C</w>
Add itional</w>
Ab h
5 6</w>
wal k</w>
vari ants</w>
tournam ent</w>
th ir
territ ory</w>
su d
sh owed</w>
s in</w>
re plied</w>
progr am</w>
pro posed</w>
perform ed</w>
per man
pap er</w>
ow ard</w>
ough ts</w>
it ems</w>
is c
increas es</w>
heal th
g ery</w>
for get</w>
faith ful</w>
ex ist</w>
es po
ep h
direc tly</w>
des igned</w>
ck er
cent ur
av aram</w>
autom atic</w>
att acks</w>
arak hand</w>
ann ual</w>
a u</w>
Y oun
Wash ington</w>
Utt arakhand</w>
Transp ort</w>
Tha cker
S -
Raj endra</w>
Pro c
Pl ay</w>
Paw ar</w>
P u
P ay
OD Is</w>
N if
Le ague</w>
L ED</w>
J as
Govern ments</w>
Des am</w>
Cha mp
Br ah
B ra
Ar ab
5 8</w>
tw are</w>
t abl
tabl espo
surpr ised</w>
s ad</w>
riv ers</w>
ot t
op ic</w>
op en
oh ol</w>
m anner</w>
lov es</w>
lab ou
ic als</w>
gear box</w>
four -
fif th</w>
feel ing</w>
f ame</w>
ex am</w>
er u</w>
ef ore</w>
countr ys</w>
condol ences</w>
c overed</w>
boo ked</w>
are d
ang al</w>
an ity</w>
af ter
activ ity</w>
Wh os</w>
W at
Var dhan</w>
T ax</w>
S eth
R iver</w>
Pr ices</w>
Nit in</w>
Kish ore</w>
K is
Jayalalith aa</w>
In come</w>
G up
Europe an</w>
Deep ika</w>
Curren tly</w>
Ch it
Bl ack</w>
B udd
B re
B efore</w>
Amb ani</w>
Ab d
5 9</w>
4 4</w>
20 21</w>
we ather</w>
ul am</w>
t un
susp ect</w>
sh aring</w>
res sed</w>
request ed</w>
pur su
pr ay</w>
post p
pl an
mur dered</w>
min imum</w>
mean ing</w>
l ink</w>
ir person</w>
ill a</w>
i ety</w>
ha ps</w>
fac ts</w>
f le
ess ed</w>
ern al</w>
dra w</w>
dev ice</w>
demon str
cou ldnt</w>
bow l</w>
awa ited</w>
as a</w>
aren ess</w>
ar ayana</w>
an ch
al g
ak ed</w>
W atch</w>
Th om
St ill</w>
Shi khar</w>
S ome
Na resh</w>
Laksh mi</w>
K r
H on
H as</w>
G ovt</w>
G ir
F und</w>
E d
C ro
C itiz
C halleng
Bus iness</w>
Bhat t</w>
B .
Ali a</w>
8 00</w>
4 6</w>
- up</w>
we ak
w is
tr ouble</w>
tow ard</w>
ter ror</w>
t ension</w>
sub mitted</w>
stu dies</w>
res cue</w>
r ies</w>
pris es</w>
pot ential</w>
pack age</w>
our selves</w>
om ination</w>
mod e</w>
manufact ure
m illions</w>
ish a</w>
inn ov
implem entation</w>
excell ent</w>
er o</w>
ens ions</w>
ell ore</w>
e ase</w>
cont ain</w>
con sequ
comm od
clar ity</w>
civ il
bir ds</w>
b ir</w>
attemp t</w>
appro ximately</w>
ap ex</w>
al ongside</w>
achiev ed</w>
Y or
Tel l</w>
Sec ond</w>
Pet rol</w>
P ost</w>
P G</w>
M r</w>
Kore a</w>
K L</w>
Jud ah</w>
J am
Hum an</w>
Dr .
C .</w>
Ba ahubali</w>
Ay od
A T
9 5</w>
z ed</w>
y iel
writ ing</w>
world wide</w>
ud u</w>
tr a
te a</w>
t b
super star</w>
su per</w>
stat ue</w>
sh ops</w>
serv ing</w>
resul ted</w>
r ice</w>
prem ium</w>
pp ing</w>
pl us</w>
ne red</w>
n y</w>
mat eri
m asks</w>
m ar</w>
los ses</w>
li e</w>
ju ice</w>
intern al</w>
gu est</w>
func t
fl oods</w>
f air</w>
ey e</w>
ech an
differen ces</w>
dia betes</w>
dep uty</w>
dem ands</w>
cons ist
ch ec
c ult
c alls</w>
bus iness
bur nt</w>
bl ock
bi ke</w>
appro ached</w>
appe al</w>
Vish nu</w>
Visak hapatnam</w>
Spe aking</w>
Sha k
Sh ow</w>
Russ ian</w>
Rah man</w>
Qu al
Nif ty</w>
N am
Mano har</w>
Kumar aswamy</w>
Keer thy</w>
K or
Hind us</w>
H an
Chidamb aram</w>
Bal akrishna</w>
Ar un
Al though</w>
A am
A N
1 25</w>
wonder ful</w>
vacc ine</w>
unt oward</w>
u a</w>
tb sp</w>
sp ort</w>
shor tly</w>
sh e
sex ual</w>
r igation</w>
r ang
pret ty</w>
piec es</w>
op ted</w>
on ds</w>
ne gl
los ing</w>
leg es</w>
l or
it ely</w>
it age</w>
ipp ed</w>
h ir</w>
fl ight</w>
f ive-
eter an</w>
enjo yed</w>
ed ition</w>
e um</w>
defe ated</w>
d ub
coun t</w>
conv en
bo ost</w>
bl ast</w>
bi opic</w>
arch it
appropri ate</w>
appe ars</w>
any body</w>
am med</w>
aj al</w>
ad equ
ab i</w>
V ikram</w>
U Ts</w>
Thacker ay</w>
Th ough</w>
T yp
T rib
Sim ilarly</w>
S ant
Rav indra</w>
R anjan</w>
R ang
Mak ers</w>
M T</w>
Kul deep</w>
Jo b</w>
H ist
Fin ancial</w>
F ile</w>
F ad
Dr ink</w>
Diw ali</w>
D in
Cov id</w>
C le
Al ong</w>
5 4</w>
1 ,000</w>
- year-old</w>
v ent
under standing</w>
u ter</w>
trad ing</w>
tou ch</w>
t ot
strateg y</w>
sim ply</w>
sec ond
propos al</w>
oun ding</w>
med al</w>
man if
list en</w>
l ic
it t
ir on</w>
insp ired</w>
inde ed</w>
hom es</w>
hand le</w>
ha kar</w>
foo ds</w>
f oundation</w>
f ought</w>
exist ing</w>
exc ept</w>
ev entually</w>
dr ag
di et</w>
coun c
cont ent</w>
congratul ated</w>
centur ies</w>
bu ted</w>
Yor k</w>
US D</w>
Sr iram</w>
S ports</w>
S it
Rel iance</w>
Rad ha</w>
Pand ya</w>
N iz
N iv
Muk esh</w>
Mr .</w>
Moham mad</w>
Me dia</w>
Man ipur</w>
Mah endra</w>
Legisl ative</w>
Lak h</w>
L ike</w>
K ajal</w>
Har sh</w>
Det ails</w>
D har
Ayod hya</w>
Amaz on</w>
Afg han
8 ,
20 00</w>
1 st</w>
' ll</w>
wat ers</w>
v ice-
un ivers
transp ort</w>
terror ist</w>
t icket</w>
sp ar
sh r
s itting</w>
s ites</w>
s an
qu ick</w>
plann ed</w>
p ally</w>
ol ution</w>
ol den</w>
o be
li p
k ari</w>
it ch</w>
ip udi</w>
int ens
ie l</w>
ic y</w>
har ass
ful filled</w>
ear ned</w>
disci pl
di al
deter min
cro ps</w>
cle an
cl in
categ ory</w>
bro ken</w>
be hav
ban king</w>
ast y</w>
assoc iated</w>
ap alli</w>
ang ry</w>
ain ly</w>
adi um</w>
addres sed</w>
V .</w>
Tr ans
T V
T H
Sm ith</w>
Ph oto</w>
Off icials</w>
O therwise</w>
Mand anna</w>
M emor
M ag
L ast</w>
K ab
In te
H Y
Fad nav
E .</w>
Ch ou
Aj it</w>
Ah med</w>
Aam ir</w>
1 000</w>
yl ish</w>
y ester
y am</w>
we ap
v ital</w>
teach ing</w>
surv ey</w>
spec ific</w>
sam ples</w>
row n</w>
requi res</w>
ra ther</w>
prob ing</w>
pri ority</w>
pre par
pe ak</w>
pass es</w>
or a</w>
n ur
n ine</w>
mo stly</w>
mat erial</w>
man aged</w>
k id
it or</w>
it ate</w>
inst alled</w>
idd le</w>
id ly</w>
ici ally</w>
hund reds</w>
fav our
distrib ution</w>
d uty</w>
comm iss
carr ying</w>
audi ences</w>
ar an</w>
an ese</w>
am abad</w>
ak shi</w>
adequ ate</w>
Youn g</w>
Thom as</w>
Swar aj</w>
Sha mi</w>
Sam aj
S ir
S av
RA BA
RABA D</w>
R et
Pr ice</w>
Nit ish</w>
Ne ws</w>
Mis sion</w>
Maj or</w>
K ha
K ad
K .
He at</w>
HY DE
HYDE RABAD</w>
G ang
G an
G al
Entert ainment</w>
C ent
Bha g
B um
B ag
Ak k
Act ress</w>
7 7</w>
7 2</w>
6 1</w>
4 -
we ar</w>
sal m</w>
s ometimes</w>
s cr
rum ours</w>
pur a</w>
pro sp
pregn ant</w>
pl enty</w>
pe pper</w>
particip ate</w>
partic ularly</w>
over se
op e</w>
n ice</w>
m m</w>
lo ts</w>
kill ing</w>
iz ing</w>
initi ative</w>
im inal</w>
ick ets</w>
hon our</w>
govern or</w>
fo re
er ly</w>
e ating</w>
dro pped</w>
dro p</w>
con ver
ch ol
be d
aw arded</w>
ath y</w>
at oes</w>
at ma</w>
ast s</w>
ar ity</w>
alc ohol</w>
al tern
Var un</w>
V ide
S E
R ural</w>
Panchay at</w>
P oll
Nep al</w>
Nar ayana</w>
N ellore</w>
My th
M s</w>
M ish
J ames</w>
Gad kari</w>
Fadnav is</w>
D al
Bum rah</w>
An ant
Ad minist
A bra
9 ,
4 1</w>
wat er
tru ly</w>
trad ition</w>
tour ist</w>
thre at</w>
suff er</w>
sl ow
ri buted</w>
revie ws</w>
res olved</w>
regul arly</w>
rap idly</w>
qu it</w>
pri est</w>
or am</w>
my self</w>
m osp
l ack</w>
is on</w>
inst ead</w>
im possible</w>
ig ible</w>
ict ions</w>
har y</w>
gre ater</w>
gar nered</w>
f ellow</w>
emp has
di m
di k</w>
des ign
defin itely</w>
ch i</w>
b ing</w>
av a</w>
au to</w>
arg ument</w>
appoint ment</w>
advant age</w>
a an</w>
Vam si</w>
Thous ands</w>
So on</w>
Pr ivate</w>
Niv etha</w>
Loc als</w>
L al</w>
Kh anna</w>
Invest igation</w>
G DP</w>
BJ Ps</w>
Al ready</w>
Air port</w>
A ar
6 9</w>
0 ,000</w>
w ishes</w>
vot ers</w>
vir t
u z
tr uck</w>
sy n
success fully</w>
stor m</w>
stand ards</w>
st ayed</w>
seg ment</w>
s ort</w>
reg ions</w>
re la
pre d
pre aching</w>
postp oned</w>
pl ane</w>
ow ers</w>
ok ay</w>
o res</w>
l iv
j aw
it er
ip ment</w>
ing ing</w>
im ages</w>
ific ations</w>
i ate</w>
fortun ate</w>
fl ood</w>
fin als</w>
f und</w>
f arm</w>
en counter</w>
ear s</w>
dist ributed</w>
develop ing</w>
cros sed</w>
cr ash</w>
coun sel</w>
compl ained</w>
cas u
capt ured</w>
benef ici
ann ing</w>
am uri</w>
al ized</w>
ag on
aff airs</w>
Wor k</w>
T om
Seth upathi</w>
Samaj wadi</w>
S id
S election</w>
Re pe
Rav ipudi</w>
Ram akrishna</w>
Pro ject</w>
Pro f
O s
Nand amuri</w>
Myth ri</w>
M as
M all
Kir an</w>
J ade
Industr ies</w>
In formation</w>
Har dik</w>
H I</w>
G en
For d</w>
D h
D as</w>
Coll ector</w>
8 -
6 2</w>
10 ,000</w>
w itness</w>
vill agers</w>
un ion</w>
tr ial</w>
threat ened</w>
the at
t ext</w>
suppor ting</w>
sub sequently</w>
sist ers</w>
s kills</w>
recomm ended</w>
prov isions</w>
proc ed
pr it</w>
phot ograp
orig inal</w>
on e-
olog ies</w>
medic ines</w>
influ ence</w>
in dependent</w>
hop es</w>
histor ic</w>
gre at
foot age</w>
follow ers</w>
flo or</w>
fi xed</w>
fav our</w>
ester ol</w>
en ess</w>
em ed</w>
cont act</w>
con sec
comp on
coll ected</w>
coll abor
co al
clo th
ch os
certific ate</w>
celebr ate</w>
bil ateral</w>
batt ing</w>
back ground</w>
b ound
ay er</w>
ar aj
angu ly</w>
am an</w>
al ists</w>
al ism</w>
adm inton</w>
ad ing</w>
ad ak
ach and
V aik
V V</w>
S ometimes</w>
Rak ul</w>
R ukh</w>
N ext</w>
N G
Mish ra</w>
Lead er</w>
Jo har</w>
Indi es</w>
Gup ta</w>
G anguly</w>
DE L
C ome</w>
C ath
BJ P-
Author ity</w>
Akk ineni</w>
Afghan istan</w>
Ac tion</w>
A pp
9 -
6 7</w>
wor n</w>
wid ely</w>
val ues</w>
tr igg
tern al</w>
tel evision</w>
te ach</w>
sub st
spokes person</w>
sign s</w>
sh ut</w>
s end</w>
rupe e</w>
rout e</w>
reg ional</w>
re ment</w>
pra ise</w>
ple ase</w>
pl o
ph y</w>
perman ent</w>
p ter</w>
oo d
off icially</w>
off ee</w>
meth od</w>
main ly</w>
le aving</w>
judg ment</w>
im ag
il a</w>
hel ping</w>
health care</w>
fl our</w>
f la
f -
er als</w>
e e
dr iv
di o</w>
coll ection</w>
cle arly</w>
ch il
bus es</w>
aw areness</w>
arm s</w>
appe aled</w>
ant ic</w>
all otted</w>
ai red</w>
activ ists</w>
Y uv
War angal</w>
St ation</w>
Res erve</w>
Pre et</w>
P salm</w>
P rev
NE W</w>
Mod is</w>
Mahar shi</w>
Mah atma</w>
Mad ras</w>
M D</w>
Ka ur</w>
K ap
Jag ann
Jade ja</w>
Industr y</w>
Indi ra</w>
I R
HD FC</w>
Fin ally</w>
F ed
Em ploy
Ear th</w>
C .
B havan</w>
B ad
Ap plic
A R</w>
5 7</w>
young er</w>
wor se</w>
w ake</w>
vel oc
val u
v s</w>
up s</w>
ult ies</w>
trib utes</w>
t en
t aught</w>
struc k</w>
spec i
s log
rupe es</w>
res idents</w>
r o</w>
protest ing</w>
pray ers</w>
pray er</w>
pha ses</w>
parliam entary</w>
p icked</w>
ot ten</w>
ot ing</w>
orig in
organis ations</w>
mar ked</w>
le t
ir s</w>
inn ers</w>
industr ies</w>
ici ency</w>
i et</w>
hab it
gr am</w>
f ast
exp ect</w>
emer ged</w>
ed ge</w>
ear ing</w>
ear ch
dep ends</w>
de ad
condem ned</w>
compos ing</w>
collap sed</w>
col leges</w>
cha mp
celebr ities</w>
c at
b esides</w>
att itude</w>
atr ina</w>
ast es</w>
ad emy</w>
T ests</w>
Siv a</w>
Scrip tures</w>
Sam antha</w>
Ra i</w>
RA M</w>
Produc er</w>
Pers on
P TI</w>
L ab
K atrina</w>
IS RO</w>
IP C</w>
He bre
Ge or
G oyal</w>
G lobal</w>
DEL HI</w>
Bh us
B R
Ass ist
An sw
9 6</w>
y og
witness ed</w>
well -
w ished</w>
w estern</w>
w a</w>
vis iting</w>
up ati</w>
unve iled</w>
un th
um ps</w>
ul l</w>
trem end
thr ill
t y
t ains</w>
star ting</w>
s pl
res cu
prov ed</w>
prot ection</w>
prof it</w>
par am
p a</w>
our ing</w>
on ions</w>
om i</w>
meth ods</w>
mer ged</w>
mand al</w>
lin ked</w>
is ol
ind ices</w>
ib ilities</w>
gre w</w>
go d</w>
g ains</w>
fru it</w>
fl u
f at</w>
expl ained</w>
experi enced</w>
ed i</w>
ect ure</w>
det ailed</w>
decl ined</w>
d ated</w>
d ar</w>
com ed</w>
chos en</w>
child hood</w>
c ool</w>
c enter</w>
beh old</w>
batt ery</w>
at ra</w>
at mosp
ared dy</w>
ap art</w>
Y outh</w>
Wom an</w>
W ere</w>
Venkat eswara</w>
V ad
T ra
Sush ma</w>
Sch eme</w>
Sat an</w>
Par k</w>
O S</w>
M C
K har
Je ws</w>
J ac
F ri
F ar
Ch o
Can did
A tt
6 6</w>
6 -
- based</w>
wel comed</w>
wel come</w>
un iversity</w>
ul ty</w>
uk one</w>
trib ute</w>
transf erred</w>
th ank</w>
sy m
st ake</w>
resol ve</w>
rescu ed</w>
prote in</w>
pos es</w>
pop ul
peac eful</w>
passeng er</w>
ough ly</w>
or ities</w>
ol d
ob serv
mix ed</w>
m unicipal</w>
m outh</w>
m el
m ated</w>
lik es</w>
leng th</w>
labou rers</w>
l ay</w>
ke eper</w>
invest ments</w>
inf ected</w>
in- law</w>
in se</w>
house hold</w>
h ensive</w>
fr on
fo rever</w>
f ounder</w>
expl os
ert il
er ia</w>
end iture</w>
eg gs</w>
dub bed</w>
dr ugs</w>
dis h</w>
diffic ulties</w>
del iver</w>
de pres
cre ation</w>
cre ating</w>
cr ying</w>
coal ition</w>
ch illi</w>
c ode</w>
be half</w>
ap a</w>
anal y
an x
ag ency</w>
a thing</w>
You Tu
YouTu be</w>
W al
V eh
V as
V a
Ur ban</w>
Shar ad</w>
S even</w>
S et
S .
Ram achand
Raj esh</w>
Pr an
Pad ukone</w>
P P
N ic
Mov ies</w>
Meg a</w>
Ki ara</w>
J un
In surance</w>
Her o</w>
H ous
G ow
G H
Ex ternal</w>
En ergy</w>
E ff
Dev g
D u
Ch em
C oo
Bra z
Bi g</w>
An y</w>
An ir
Advis or</w>
A x
5 3</w>
201 3</w>
war ning</w>
vo id</w>
v itamin</w>
us er</w>
stud ying</w>
st ore</w>
sl ammed</w>
sec ret</w>
s -
ric h
resp ective</w>
recomm end
re acted</w>
r u</w>
prep are</w>
on es
off ices</w>
mult i-
m ic
ld n</w>
k es</w>
k ara</w>
jud icial</w>
is n</w>
igh ty</w>
h its</w>
h ill</w>
gl ory</w>
g ovt</w>
g ained</w>
friend ly</w>
ex cl
el igible</w>
eed ed</w>
d ual</w>
chol esterol</w>
cert ainly</w>
brid ge</w>
bo ys</w>
bel ong
bann ed</w>
bag ged</w>
b ase</w>
ay an
at ala</w>
ast ed</w>
ai k</w>
ah o</w>
administ r
adak h</w>
ac he</w>
ab s
ab road</w>
Vijay as
The yre</w>
Th anks</w>
T op</w>
T ech</w>
Sp ace</w>
Sec ret
S ang
R oy
Pl us</w>
Nag a</w>
N ote</w>
N S
Muk her
Mic ro
M iz
M E
L u
K om
K aif</w>
K T
D GP</w>
B ur
Adit ya</w>
Abra ham</w>
1 20</w>
w illing</w>
tren d</w>
tel ec
stu died</w>
shoc king</w>
sel ect</w>
sch ol
sacrif ice</w>
prec aut
pl om
p ending</w>
over all</w>
ol ic</w>
ol a</w>
oc ked</w>
o inted</w>
n et</w>
liter ature</w>
k r
k ingdom</w>
ion e
inter rog
ick en</w>
i p</w>
hi ke</w>
hal l</w>
grow n</w>
go i</w>
g en</w>
friend ship</w>
frequ ently</w>
farm er</w>
f athers</w>
exp ress</w>
escap ed</w>
er se</w>
equ ipment</w>
ep h</w>
emb ers</w>
doub ts</w>
cro p</w>
cour ts</w>
con vers
comp uter</w>
charact ers</w>
block b
b ha
assoc iation</w>
apprec iated</w>
ap olog
all ows</w>
addres sing</w>
Un der
Tig er</w>
Su kumar</w>
Srik anth</w>
S af
R ash
R JD</w>
Produc ed</w>
Prem ier</w>
Pr at
P il
P ant</w>
O h</w>
N one</w>
Mot or</w>
M I
M E</w>
L adakh</w>
Jos eph</w>
J y
Go goi</w>
Fil ms</w>
E at</w>
Dev endra</w>
D han
Congress -
B on
An j
A ch
7 1</w>
4 3</w>
you ths</w>
yester day</w>
whe el
ver bs</w>
ut t
us ive</w>
ul lah</w>
u it</w>
tr ack</w>
teas po
t onn
suggest ed</w>
strong ly</w>
stitut ional</w>
stat ements</w>
squ ad</w>
sp end</w>
sk y</w>
se ed</w>
scoo ter</w>
s ign</w>
polic emen</w>
pl ying</w>
pe oples</w>
p tion</w>
ordin ary</w>
oc ate</w>
min utes</w>
mer ic</w>
mem ory</w>
l ers</w>
j it</w>
itam ins</w>
ion ers</w>
invest ors</w>
inst ance</w>
ind ustrial</w>
im pris
gri ev
f ra
esh wara</w>
eng aged</w>
end ers</w>
en ly</w>
ect ivity</w>
du o</w>
dr ug</w>
desc ribed</w>
depart ments</w>
deb t</w>
constitu ted</w>
consec utive</w>
conduc ting</w>
comm its</w>
cloth es</w>
civ il</w>
c ul
c ot
br illi
b alls</w>
ay ya</w>
ast ar</w>
ash ing</w>
as ing</w>
ar ance</w>
ant i
al ties</w>
ain ments</w>
ag no
Y oj
V ill
T ry</w>
T im
Sol om
Sant osh</w>
Repe at</w>
Ra f
R os
R SS</w>
Pol icy</w>
Par t
Mo U</w>
Ma ha
Loc al</w>
H am
Ger man</w>
G a
Exp o</w>
D harm
Chr is</w>
Cha it
C S</w>
An t
Act ive</w>
7 4</w>
201 2</w>
20 20-
z z
w ai
ve er</w>
ur am</w>
un able</w>
u han</w>
tot ally</w>
tem por
sing er</w>
s y</w>
rishn an</w>
rev e
ren t</w>
reduc es</w>
qu ant
pun ishment</w>
princ ipal</w>
piec e</w>
opin ion</w>
ol der</w>
n ab</w>
mot ion</w>
mand atory</w>
kind ness</w>
ing u
id en</w>
gu il
g i
figh ter</w>
feren ces</w>
feel ings</w>
fac es</w>
eri or
er able</w>
ent ering</w>
el ine</w>
ear n</w>
di vision</w>
des ire</w>
dec ades</w>
dar k</w>
crit ics</w>
com fort
bo x
bas ic</w>
at ively</w>
ar an
agric ultural</w>
acc ept
ab rog
ab bed</w>
Wor king</w>
Wh ite</w>
US A</w>
Tra ff
Tha man</w>
Ro y</w>
Ra wat</w>
P har
Moh an
M ang
L ax
Kar im
K od
K S</w>
J it
I MS</w>
I D</w>
Gre ek</w>
Ge etha</w>
Fo rest</w>
Entert ainments</w>
Democr atic</w>
CR PF</w>
Bl ue</w>
Bhus han</w>
A C</w>
8 2</w>
7 6</w>
7 00</w>
6 8</w>
2 9
wind ow</w>
w ed</w>
veloc ity</w>
ut ting</w>
unth apur
ti ps</w>
sup ports</w>
stra ight</w>
sol ved</w>
sel ection</w>
scrip t</w>
s ight</w>
requ ire</w>
r ail</w>
qu ired</w>
promot e</w>
pro of</w>
pr on
port ers</w>
ow ned</w>
over ty</w>
organ ization</w>
ob served</w>
nomin ated</w>
min erals</w>
man ia</w>
m ing</w>
m ighty</w>
m iddle</w>
m ale</w>
le g</w>
lak e</w>
kil omet
ith a</w>
it ated</w>
i qu
ga thered</w>
g inger</w>
favour ite</w>
fa ult</w>
exp anded</w>
en e</w>
ell ers</w>
ect oral</w>
e ag
disci ples</w>
di ents</w>
det erior
dang er</w>
cre w</w>
contrib ut
contest ed</w>
concern s</w>
bro w
b ound</w>
b ad
atmosp here</w>
ath ering</w>
as ide</w>
arg uments</w>
ant icip
al ive</w>
ag g
Yoj ana</w>
Whe ther</w>
Venkat esh</w>
Vaik unthapur
Ste el</w>
Sha hid</w>
S ame</w>
R ob
Produc tion</w>
P .</w>
Os mania</w>
N ot
ML C</w>
M B
L uc
K ot
I IT</w>
I C</w>
G aut
G ames</w>
Exp ress</w>
Deep ak</w>
Ch andi
CA A</w>
C ases</w>
Beh old</w>
B or
B ah
Ap ply</w>
Anir ud
Al a</w>
14 4</w>
. S.</w>
wis dom</w>
w inner</w>
w ine</w>
w ild
ust ed</w>
um s</w>
trad itional</w>
tonn es</w>
the ast</w>
t ennis</w>
t ack
swe et</w>
st er</w>
sp reading</w>
sm o
slow ly</w>
scient ists</w>
rel atives</w>
r are</w>
r ace</w>
pre ne
par k</w>
pan el</w>
p et</w>
p ension</w>
mix ture</w>
me ant</w>
me al</w>
m erc
m ass</w>
k i</w>
k er</w>
ill ustr
ic ks</w>
ic ing</w>
i ences</w>
i a
he ight</w>
ha z
gr ams</w>
fact ors</w>
f un
f alling</w>
f ail
exc ited</w>
ex emp
ev ant</w>
et ers</w>
est yle</w>
enti rely</w>
eng ine
en ant</w>
em on</w>
dis appointed</w>
dev ices</w>
dem ise</w>
continu ing</w>
clos ely</w>
care fully</w>
bl ue</w>
be aten</w>
b y
b le
author ity</w>
at ography</w>
as hi</w>
ar ia</w>
ap ps</w>
anim al</w>
am ing</w>
W il
W as</w>
Traff ic</w>
Tr in
Tr av
Th r
Sw ami</w>
Sh ould</w>
S i
S A</w>
Ran veer</w>
P all
P S</w>
Nav een</w>
Nag al
M other</w>
M W</w>
Jos hi</w>
Jo int</w>
I sh
G ive</w>
E li
E astern</w>
Des pite</w>
D VV</w>
Candid ates</w>
Bab a</w>
A ish
1 1,
yan arayana</w>
wick et
war ya</w>
w ing</w>
w all</w>
vis ible</w>
v en
ut il
ur rec
up to</w>
up date</w>
umb le</w>
stre ets</w>
st ocks</w>
solut ely</w>
sm ooth</w>
sm all
s ell</w>
rol l</w>
ro le
ri er</w>
prev iously</w>
poll ution</w>
per form</w>
oper ating</w>
occ ur</w>
o g</w>
nu tr
no body</w>
mov es</w>
mom ent
maint ained</w>
m ation</w>
lo aded</w>
list ed</w>
law yer</w>
lam ps</w>
iz es</w>
is he
int ell
init ially</w>
improv ed</w>
im ed</w>
il eg
ik h</w>
ide as</w>
histor ical</w>
guil ty</w>
g otten</w>
g lo
g ift</w>
forc ed</w>
fl oo
fest iv
f ired</w>
exper ts</w>
exp ensive</w>
exec utive</w>
et ic</w>
employ ed</w>
el ing</w>
eas ier</w>
e a</w>
dist ur
dis rup
counc il</w>
consequ ences</w>
con ut</w>
compl aints</w>
com fort</w>
ch urch</w>
caut ious</w>
c ore</w>
blockb uster</w>
b om
ath a</w>
as sets</w>
ar d
applic ations</w>
anth ara</w>
ank ings</w>
agon ist</w>
Ver ma</w>
Um esh</w>
Th ink</w>
Sub sequently</w>
Solom on</w>
Rak esh</w>
P os
Ob ama</w>
O ver
Neh ru</w>
Nay anthara</w>
N ik
Mukher jee</w>
Me tro</w>
May aw
Mano j</w>
Man j
L at
L and</w>
Han um
Gaut am</w>
Ash w
Arun achal</w>
Answ er</w>
An y
Aish warya</w>
A R
8 4</w>
7 -
5 2</w>
3 50</w>
2020- 21</w>
200 9</w>
18 0</w>
uv an
ul ted</w>
uc le
tur n
trigg ered</w>
tri als</w>
tremend ous</w>
transf er</w>
there after</w>
th us
t ings</w>
t ickets</w>
succ eed</w>
strug gle</w>
st ages</w>
st aged</w>
sof tware</w>
scen es</w>
rout es</w>
ris ers</w>
ra ise</w>
qu alities</w>
prov ision</w>
post- production</w>
part ner</w>
par king</w>
p aying</w>
ox id
mo on</w>
inde x</w>
in spir
in ks</w>
imm unity</w>
ill ness</w>
id hi</w>
head s</w>
hat ch
h our</w>
gener ated</w>
encour aged</w>
el ders</w>
doll ar</w>
dial og
coun ting</w>
controvers ial</w>
comfort able</w>
c ing</w>
bro ad
br inging</w>
av i</w>
ast al</w>
art icles</w>
ain er</w>
adha v</w>
ad ults</w>
ad h</w>
acc ess
ac le</w>
ab led</w>
W ould</w>
W a
Vaikunthapur ram
Up on</w>
Sun risers</w>
Srin agar</w>
Sm all</w>
Pad ma</w>
Man agement</w>
M ult
L ev
L ake</w>
K angana</w>
J adhav</w>
J P</w>
I D
H D</w>
E mp
De ath</w>
Con sid
Braz il</w>
Bha sk
Ar av
Anant apur</w>
A void</w>
7 8</w>
200 4</w>
whe els</w>
wh ats</w>
wh atever</w>
we ek
w ounded</w>
w icked</w>
w an
val id</w>
t ong
t aste</w>
sw ing</w>
sur prising</w>
sur gery</w>
sub mit</w>
st ret
spe aker</w>
slog ans</w>
sil ent</w>
sc al
sal ary</w>
s worn</w>
s it</w>
s av
role um</w>
righte ous</w>
reserv ed</w>
reserv ation</w>
re aching</w>
r ac
politici an</w>
pass ing</w>
p air</w>
ov e
organ isation</w>
o b</w>
n ap
medi um</w>
man ager</w>
m emor
lob ally</w>
l at
ist ics</w>
investig ate</w>
hear t
go als</w>
f ill</w>
f all
exp enditure</w>
en em
emot ional</w>
earch ers</w>
e di
dre ams</w>
di os</w>
di agno
den ly</w>
deliv ery</w>
dec re
d ance</w>
coun ter
coo per
conn ectivity</w>
confl ict</w>
comp re
com prising</w>
com edy</w>
cl ashes</w>
challeng ing</w>
c atch</w>
bre ak
bow ling</w>
bless ings</w>
bless ed</w>
benefici aries</w>
bank rolled</w>
bal ance</w>
b ot
b apt
b and
auth or</w>
an ointed</w>
an ia</w>
am an
ak k
add a</w>
acc idents</w>
W ash</w>
Ud d
Tri pura</w>
Sha h
Sain a</w>
Sa aho</w>
S ult
S re
S er
S eas
S T
Roy als</w>
Ran bir</w>
P en
P ai
N ever</w>
N ani</w>
N O
Mur ali</w>
Man tri</w>
Jas prit</w>
Jap anese</w>
Jac ob</w>
H us
G ov
F ree</w>
Chandrashe khar</w>
Ch ange</w>
C. E.</w>
Anirud h</w>
Administ ration</w>
A I</w>
8 8</w>
0 th</w>
y ers</w>
vot ing</w>
vol ume</w>
v itamins</w>
um ped</w>
ud a</w>
u ated</w>
susp ected</w>
st ones</w>
sp ap
sm en</w>
si us</w>
s mart</w>
res urrec
rem ove</w>
rele asing</w>
rel evant</w>
regist ration</w>
quar ter</w>
purcha se</w>
person ality</w>
p ip
p al</w>
p ace</w>
ong st</w>
on wards</w>
o ked</w>
nec k</w>
n omination</w>
n i</w>
my st
mut ual</w>
mor al</w>
mist akes</w>
milit ants</w>
manufacture r</w>
m our
m echan
m am</w>
legisl ative</w>
last ing</w>
ir rigation</w>
ion ship</w>
in y</w>
high -
hab ad</w>
g athering</w>
fl esh</w>
es war
end ary</w>
des pite</w>
curren cy</w>
cont ext</w>
comm it</w>
comm ence</w>
cha pter</w>
c aste</w>
br ain</w>
bel ong</w>
b y-
arr ives</w>
ap athi</w>
an as</w>
am ongst</w>
ag e
add ing</w>
ac compl
a o</w>
V iz
Tour ism</w>
Tir upati</w>
T ro
T oy
T ar
Sy stem</w>
Sun kara</w>
Sa udi</w>
S ank
Rev iew</w>
Raf ale</w>
R .</w>
Parliam entary</w>
Pai di
P ot
Niz amabad</w>
Nagal and</w>
Mon ey</w>
Mir za</w>
Mayaw ati</w>
Mar k</w>
M obile</w>
M ith
M en
M embers</w>
L y
Kap il</w>
K now</w>
J on
J aipur</w>
J D
In t
IC S</w>
D ub
Cl ass</w>
Chandi garh</w>
Cel sius</w>
C ust
Be ing</w>
Austral ian</w>
Ac ademy</w>
Abh ishe
5 ,000</w>
200 6</w>
weap ons</w>
w inter</w>
us eful</w>
tri p</w>
trag ic</w>
th ly</w>
th eless</w>
t ask</w>
sub j
spec ially</w>
sh owing</w>
rol ling</w>
ri d</w>
represent atives</w>
r at
pow ers</w>
p ione
ou tr
o ol
monit oring</w>
moment um</w>
migr ant</w>
manif est
m ol
m ay
k inds</w>
judg es</w>
isc al</w>
in dia</w>
ic it</w>
high way</w>
hero ines</w>
heav ily</w>
grad ually</w>
g od
fortun ately</w>
film maker</w>
fac il
ever theless</w>
ent re
ens es</w>
enem ies</w>
ef ully</w>
earth quake</w>
e or
e astern</w>
direc tor
depos it</w>
del eg
dec line</w>
dar k
d ut
cr iminal</w>
convers ation</w>
compl ex</w>
comm and
bre ad</w>
bran ch</w>
b ought</w>
ach ers</w>
ab solutely</w>
ab and
a ut</w>
With out</w>
Vide o</w>
V P</w>
Tr ue</w>
Sur y
St ory</w>
Sik k
Sat yanarayana</w>
S port</w>
Rev enue</w>
R ap
P CC</w>
Nar ayan</w>
N ame</w>
Miz oram</w>
Mat the
Mar athi</w>
Mal ay
M el
L oo
Kar thik</w>
Kad apa</w>
Hist ory</w>
H em
H aving</w>
G il
Dr av
Dig ital</w>
D il
Cap tain</w>
C ast</w>
C a
B he
B et
B anks</w>
Ak hil
Abhishe k</w>
A .</w>
8 6</w>
200 8</w>
2 n
12 8</w>
z one</w>
w ives</w>
v ig
v enue</w>
up dates</w>
un ited</w>
u ff
tow ns</w>
to or</w>
th oughts</w>
st un
sp ending</w>
sol ve</w>
situ ations</w>
sh eep</w>
sent enced</w>
sent ence</w>
se emed</w>
scient ific</w>
sat ell
s ir</w>
s ar</w>
righte ousness</w>
proced ure</w>
pris on</w>
pri ests</w>
polic ies</w>
p overty</w>
p ick</w>
p att
m others</w>
m os
m ir
le ep</w>
l ap
inv est</w>
ing re
ind ing</w>
hel p
hal aya</w>
h ang
gr ains</w>
fr ay</w>
fo x</w>
fin ed</w>
fact ory</w>
exam ined</w>
ex change</w>
er ings</w>
eag erly</w>
comm and</w>
cam p</w>
bl ocked</w>
b la
av ail</w>
arg e</w>
ar aj</w>
altern ative</w>
W estern</w>
Vijayas ai</w>
V ict
V all
Udd hav</w>
Tam ann
T T
St ylish</w>
Sel ect</w>
Ris hab
R ul
N .</w>
K rish
Ja ish
J io</w>
H as
H C</w>
Go ing</w>
GH MC</w>
G ay
Ex ec
Ex am
Citiz enship</w>
Challeng ers</w>
Ch ild</w>
C ase</w>
Budd h
Ben ef
Aar on</w>
6 0
4 9
10 .
. ...</w>
y al
wor shi
we ak</w>
w aste</w>
w ama</w>
vis itors</w>
ut ers</w>
umb er</w>
um ed</w>
uck y</w>
uc e</w>
tur ns</w>
tro ops</w>
tre at</w>
tour ism</w>
t reas
sp r
sl ated</w>
six th</w>
sens or</w>
s li
s ive</w>
rit i</w>
r ad
priv ileg
pract ical</w>
ounc ed</w>
orig in</w>
obj ective</w>
m ood</w>
la habad</w>
it ionally</w>
interest s</w>
ind a</w>
improv es</w>
ic ate</w>
i .
grad uate</w>
gr ant</w>
g ods</w>
g ent
fla g</w>
fil ing</w>
f aster</w>
ex tra</w>
el ev
el der</w>
dre w</w>
do ors</w>
charg ing</w>
bu ying</w>
b orders</w>
b it
ap ore</w>
ann ounce</w>
ac ad
Thir uvan
Te ja</w>
Su br
St re
Sing apore</w>
Sh oo
Sch ools</w>
S our
Rishab h</w>
Pul wama</w>
Prot ection</w>
Prof ess
Pro verbs</w>
Pro v
Polit ics</w>
Polit ical</w>
Pict ures</w>
PA N</w>
P ac
N an
Micro soft</w>
Man ish</w>
Man ch
M id
L ib
L PG</w>
Jit endra</w>
G ul
Fe atures</w>
Comm erce</w>
Chait anya</w>
C ert
C B
BR ICS</w>
B ure
Assist ant</w>
Ag garwal</w>
A P
8 1</w>
7 3</w>
2n d</w>
2. 5</w>
y as</w>
ure ment</w>
un fortunate</w>
un a</w>
ul ate</w>
ucle ar</w>
te l</w>
tal ent</w>
t ic</w>
t ar
susp ects</w>
subst ant
str ange</w>
str anded</w>
squ are</w>
spe aks</w>
signific antly</w>
sett led</w>
sem i-
sanct ioned</w>
sa ith</w>
report ers</w>
re verse</w>
re jo
re forms</w>
r pm</w>
r on</w>
process ing</w>
pre ad</w>
pl astic</w>
pen alty</w>
p us</w>
p ill
out standing</w>
out break</w>
or ious</w>
oper ated</w>
on ics</w>
o y</w>
o therwise</w>
o h</w>
me at</w>
mar g
long -
lim its</w>
leg end</w>
larg er</w>
lab our</w>
l u
ke eps</w>
it is</w>
instr ument</w>
inaugur ated</w>
in tr
in dig
ident ity</w>
host ed</w>
hon ey</w>
her self</w>
hear ts</w>
hatch back</w>
gre atest</w>
gener ally</w>
gear ing</w>
g ate</w>
fund am
form al</w>
fo rests</w>
farm ing</w>
exper im
ex act</w>
es .</w>
entre prene
eng ines</w>
down load</w>
disc ount</w>
di ver
determin ed</w>
d i</w>
cons ult
conn ect</w>
conc entr
con stitution</w>
comb ined</w>
challeng ed</w>
b one</w>
av ar
ass ault</w>
asp ir
anag aram</w>
an ish</w>
an asi</w>
ak umar</w>
ak ulam</w>
adv anced</w>
adi se</w>
acc el
a f</w>
X ia
W ind
W H
Viv ek</w>
Vijay a</w>
Vad ra</w>
V aj
U s
U N</w>
Trin am
Toy ota</w>
Stu dios</w>
St ar
St adium</w>
Sikk im</w>
Shar if</w>
Seas on</w>
Se a</w>
S aif</w>
S ah
S ad
S D</w>
Rag hav
R I
Qu est
P ort
P iy
P ap
Olymp ics</w>
Nav y</w>
NR C</w>
N ara</w>
Meg halaya</w>
Mal ik</w>
Lok esh</w>
La unch</w>
La un
K es
K are
K ak
Israel ites</w>
Isl am
Ind ones
I yer</w>
I ll</w>
I l
I N</w>
He ad</w>
H ollywood</w>
H az
Gop i</w>
F ull</w>
Exec utive</w>
Dis c
Din esh</w>
Devg n</w>
Con n
Cinem a</w>
Chit toor</w>
Chandr ay
C ode</w>
Bure au</w>
Brit ain</w>
Beng ali</w>
Bab yl
Az ad</w>
An g
Al lahabad</w>
Akhil esh</w>
Afr ican</w>
A wards</w>
A ut
2 ,000</w>
where as</w>
we alth</w>
wal king</w>
wal ked</w>
viol ent</w>
ver t
val ley</w>
v ij
ur a</w>
under stood</w>
ul u</w>
u ed</w>
tr ained</w>
to -
thus i
th anks</w>
t ons</w>
suggest ions</w>
succ umb
su rely</w>
st om
spe edy</w>
sp otted</w>
solut ions</w>
serv ant</w>
ro ws</w>
ri a</w>
retur ns</w>
res ign</w>
ren dered</w>
ref igh
re placed</w>
pur poses</w>
pu ts</w>
pro mp
particip ation</w>
particip ating</w>
p ure</w>
or ation</w>
nov el</w>
n ia</w>
moun tain</w>
mic ro
mart y
loc ations</w>
k ha</w>
jaw ans</w>
ith i</w>
is sion</w>
ingre dients</w>
in dependence</w>
il legal</w>
ig ious</w>
i reddy</w>
i ples</w>
hot el</w>
gu ide</w>
gu ard</w>
fig ures</w>
fall en</w>
f iscal</w>
f ant
ext ension</w>
expres sion</w>
et e</w>
ess ions</w>
er r
eor ological</w>
eff icient</w>
educ ational</w>
e ply</w>
dist inc
disp os
discipl ine</w>
contrib ution</w>
contrib uted</w>
comm itment</w>
comb ination</w>
com par
co al</w>
class es</w>
citiz enship</w>
charact er
ch an
casu alties</w>
calc ium</w>
c asting</w>
build ings</w>
bow lers</w>
be red</w>
ar ika</w>
ar h</w>
ar ama</w>
applic able</w>
appe arance</w>
ak sh
ak ar</w>
aff ect</w>
aff air</w>
a str
a rest</w>
Vin od</w>
Ven u</w>
U p</w>
Ti wari</w>
There after</w>
Te j</w>
T20 Is</w>
Ste ve</w>
Sour av</w>
Sat ish</w>
Sar dar</w>
S ug
S agar</w>
R ic
R as
Pl anning</w>
Par v
Par am
P ak</w>
N ith
Matthe w</w>
M un
M erc
Karim nagar</w>
J an</w>
Ital y</w>
IA F</w>
I de
E S
Dub ai</w>
Cr ore</w>
Consid er</w>
Ch urch</w>
Ch ow
C A</w>
Bh opal</w>
Applic ation</w>
AI IMS</w>
A N</w>
9 2</w>
12 .
ys is</w>
y ellow</w>
w age</w>
vo ted</w>
vari ety</w>
trans actions</w>
tong ue</w>
techn ologies</w>
t elling</w>
sy mp
susp icious</w>
sum mit</w>
succ eeded</w>
sp ect
sl igh
sid y</w>
sex ually</w>
s aved</w>
ro ck
ris ks</w>
ret ired</w>
restr ictions</w>
reduc tion</w>
rec ru
rec ip
r ankings</w>
pregn ancy</w>
pre- production</w>
pract ices</w>
poss ibility</w>
posit ions</w>
pap ers</w>
p aired</w>
own er</w>
out put</w>
ol ed</w>
not iced</w>
nor thern</w>
nat ive</w>
moun tains</w>
materi als</w>
m ang
la dies</w>
l ight
k ers</w>
iz ens</w>
it als</w>
is s</w>
is land</w>
instruc tions</w>
in ts</w>
in ned</w>
if ies</w>
id st</w>
id i</w>
id ers</w>
ic king</w>
ib ly</w>
he er</w>
har th</w>
g lobally</w>
form ing</w>
fl owers</w>
fl at</w>
fig ure</w>
fe es</w>
fe els</w>
f ish
f ever</w>
ey ed</w>
ext end</w>
ex ports</w>
every where</w>
end a</w>
encour age</w>
el ements</w>
ee v</w>
dark ness</w>
d well</w>
d u</w>
crow d</w>
conc ept</w>
con spir
con sc
comm erce</w>
com prises</w>
cl ick</w>
categ ories</w>
c um
c ub
bur den</w>
brilli ant</w>
bre aks</w>
bl ock</w>
be ings</w>
audi o</w>
att ending</w>
ass ium</w>
archit ecture</w>
acc oun
acc ord
ac har
ac es</w>
ab ha</w>
W r
W ant</w>
Var anasi</w>
Thiruvan anth
Sy mptoms</w>
Sum mit</w>
Some thing</w>
S mart</w>
S H
Ravichand ran</w>
Rav ind
R ight</w>
Qual ification</w>
Prab hakar</w>
Pat na</w>
P ay</w>
P N
Nat ural</w>
Nag pur</w>
Lal u</w>
Kis han</w>
K ham
Jy ot
Jag apathi</w>
In de
H arr
Fi re
Ch et
C ut</w>
C O</w>
B omb
A gre
A S</w>
8 3</w>
3 ,000</w>
200 7</w>
- led</w>
ur s</w>
ul ations</w>
u ation</w>
thrill er</w>
ther ap
th ine</w>
st ressed</w>
st ir</w>
spar ked</w>
so il</w>
sing le-
s etting</w>
s ake</w>
repe ated</w>
rem ents</w>
rele ases</w>
regist er</w>
refigh ters</w>
r ounds</w>
r iding</w>
pro file</w>
prem ises</w>
per sec
p as
p ad
ou l
ord able</w>
obj ect
no on</w>
new spap
merc y</w>
m erg
laun ches</w>
int end
inc or
imm une</w>
ik e
id ity</w>
id ance</w>
ick y</w>
high light</w>
harass ment</w>
hal f-
h tar</w>
h ana</w>
grat itude</w>
glo be</w>
ext ent</w>
expl ain</w>
ex it</w>
ex hib
er ring</w>
eng ineering</w>
en thusi
ef t</w>
ed -
deal ing</w>
de eply</w>
d yn
cy cl
cre d
cr u
cov ering</w>
cor ona</w>
cont rolled</w>
const ant</w>
conn ections</w>
compre hensive</w>
complet ion</w>
clar ified</w>
c alling</w>
br on
br ings</w>
behav i
b ills</w>
b ands</w>
b act
attemp ts</w>
asp ects</w>
asp ect</w>
as ha
ar ise</w>
approv es</w>
ap s</w>
al though</w>
ag encies</w>
advant ages</w>
ad just
ab und
V ed
UP A</w>
Typ es</w>
Tre at
Tr ust</w>
Tr ains</w>
TV S</w>
T imes</w>
Sw amy</w>
Su je
St art</w>
Sriniv asa</w>
Sp anish</w>
Sha str
Sh es</w>
Sec under
Sc iences</w>
Sam uel</w>
S us
S ath
Ros han</w>
Ran aut</w>
R ac
Pl an</w>
Piy ush</w>
Ph ys
P ow
P C</w>
Organ isation</w>
Mark eting</w>
Malay s
Mah an
M R</w>
L aw
Invest ment</w>
Inf os
In it
Harr is</w>
H uss
Gow da</w>
F l
E st
Di ff
Dev ar
Dan ayya</w>
Comm on</w>
Cha hal</w>
Cap ital</w>
C ould</w>
C ar</w>
C L</w>
Bhask ar</w>
B ob
Arav ind</w>
Arab ia</w>
An ur
Air tel</w>
Ad am</w>
2. 0</w>
1 10</w>
- in</w>
z ero</w>
yog a</w>
whe at</w>
w rap
u ts</w>
trad itions</w>
territ ories</w>
ter med</w>
tempor ary</w>
t sp</w>
sou thern</w>
sol ar</w>
sh op</w>
sev enth</w>
scre en
sc uff
s han</w>
s ed
reve al</w>
respon ding</w>
recommend ations</w>
r ant</w>
pra ised</w>
pr ise</w>
por tion</w>
por ted</w>
politici ans</w>
person ally</w>
per haps</w>
pay ee</w>
over come</w>
ort ation</w>
ord ination</w>
or row</w>
o or</w>
mus eum</w>
mil es</w>
meas ure</w>
m as</w>
list ening</w>
liqu or</w>
lif t</w>
lab s</w>
l ashed</w>
journ alist</w>
it i</w>
it ating</w>
is i</w>
introduc e</w>
integr ated</w>
inst all
in ar</w>
igh ted</w>
i ations</w>
heav enly</w>
has h</w>
h vi</w>
h ate</w>
govern ance</w>
fl ag
fail ure</w>
exam s</w>
ex ists</w>
esh war
es cal
er ry</w>
entert ainment</w>
ec os
ec e</w>
e try</w>
dut ies</w>
do g</w>
direc tors</w>
di um</w>
der ly</w>
d ess</w>
crit ically</w>
cr ude</w>
cour ses</w>
contr act</w>
co ast</w>
cha irperson</w>
cha in</w>
cam ps</w>
c offee</w>
bound aries</w>
bigg er</w>
be ds</w>
b ird</w>
art ist</w>
anti oxid
ant agonist</w>
alli es</w>
adv ocate</w>
ad or</w>
ad opted</w>
ab b
a ur
a res</w>
Y our
War ner</w>
W rit
V oting</w>
V A
Tr aining</w>
Thiruvananth apuram</w>
T20 I</w>
T it
Sp ir
Sp ain</w>
Shastr i</w>
San ia</w>
Sam ithi</w>
Sa ul</w>
Res pon
Rem ember</w>
Pri th
Pran ab</w>
Pr ash
Paidi pally</w>
P O
N early</w>
Me eting</w>
Mad hav</w>
L ist</w>
L if
L ank
Kar un
Joh n
Is aiah</w>
Infos ys</w>
In c
IN G</w>
I O
G as</w>
Fri ends</w>
Fire fox</w>
E S</w>
Des ign</w>
D as
D al</w>
Cor in
Cho ose</w>
Bu ild
Bomb ay</w>
B oo
B eg
B att
B .</w>
Author ities</w>
Am bed
Abd ullah</w>
4 0
y stem</w>
with draw
wat ched</w>
v eteran</w>
v ation</w>
ur ation</w>
ur ally</w>
univers ities</w>
tr oubl
th od</w>
tablespo ons</w>
t ank</w>
t ally</w>
sust ain
surpr ise</w>
sub sidy</w>
stri kes</w>
stat e-
st ers</w>
st aying</w>
spec ified</w>
shar p</w>
shal t</w>
second ary</w>
sc am</w>
rib le</w>
res h
requi rements</w>
rel ation</w>
re l</w>
ran ked</w>
r ig
quest ioning</w>
protest ors</w>
princ iples</w>
pri ze</w>
pres ent
photograp hs</w>
per mitted</w>
pass word</w>
part ys</w>
pan ic</w>
p ays</w>
or ted</w>
ob t
n ings</w>
mo ist
mid st</w>
mag az
low -
leg s</w>
it ched</w>
intend ent</w>
initi atives</w>
improv ing</w>
impris onment</w>
impl ement</w>
hous ing</w>
hi ked</w>
he ated</w>
great ly</w>
g est</w>
for gotten</w>
feren cing</w>
f ed
f ake</w>
f ail</w>
ev a</w>
est ing</w>
es pread</w>
es -
ertil iz
er ably</w>
en ues</w>
en able</w>
emerg ing</w>
el i
el ed</w>
eff ectively</w>
div ine</w>
disc los
dis aster</w>
director ial</w>
di f
di am
cour age</w>
contrib ute</w>
consum ption</w>
cal m</w>
c over
bel ongs</w>
b ud
at ically</w>
and um</w>
an anda</w>
al in</w>
ain ers</w>
ac knowled
Y ear</w>
Wil liam
Vaj payee</w>
U V</w>
T an
St ore</w>
Sh re
Secunder abad</w>
Sab ar
S eh
S earch</w>
Rev anth</w>
Reg ion</w>
R ana</w>
Phil ipp
Pat il</w>
Olymp ic</w>
O k
O ce
Ne w
N ations</w>
Mot or
Memor ial</w>
M ul
M ember</w>
M M</w>
M G
Kor atala</w>
Kab ir</w>
K ey</w>
K ed
J N
Isl ands</w>
Ish ant</w>
In dependent</w>
Huss ain</w>
He al
H und
H ass
H all</w>
Gr ad
G l
For um</w>
F act
D urg
D ata</w>
Cour ts</w>
Cont in
Can ada</w>
C PM</w>
Bhe em</w>
Bhar ti</w>
At al</w>
Act ually</w>
9 3</w>
8 9</w>
8 7</w>
3 r
201 1</w>
1 500</w>
1 30</w>
- e-
z ones</w>
your e</w>
whe el</w>
well ery</w>
w w
w are</w>
w ala</w>
w .
v ice</w>
up dated</w>
unc tion</w>
u tr
tur al</w>
top ic</w>
ter y</w>
teaspo on</w>
t ower</w>
t ext
sud denly</w>
succumb ed</w>
stre am</w>
stom ach</w>
sl ow</w>
show cas
sec ured</w>
sec ure</w>
sec ret
s inc
rul er</w>
revie wed</w>
rest ored</w>
res sing</w>
rem ade</w>
relig ions</w>
recogn ised</w>
re present</w>
re a</w>
r ival</w>
r ics</w>
qual ified</w>
proph et</w>
profess ional</w>
precaut ions</w>
perform ing</w>
pati ence</w>
p anchay
or able</w>
omet ime</w>
off erings</w>
od ays</w>
o i</w>
nor ms</w>
negl igence</w>
n arr
min us</w>
met ers</w>
medic ine</w>
mark eting</w>
m uch
leg endary</w>
le ague</w>
k ar
iv ated</w>
it ya</w>
it ious</w>
it ary</w>
init ial</w>
imm ense</w>
idel a</w>
id er</w>
hun t</w>
heav ens</w>
he l</w>
h ub</w>
h pur</w>
h ills</w>
h ect
gu idance</w>
g er
g ang
foo t</w>
f ib
exc iting</w>
exam inations</w>
er up
equ ity</w>
emp ty</w>
em an</w>
el imin
el abor
ear ning</w>
e ve</w>
e an</w>
e .
di vers
dev ast
consid ering</w>
con stitutional</w>
comm unities</w>
comm anded</w>
collabor ation</w>
clin ical</w>
citiz en</w>
ch ances</w>
caut ion</w>
c ured</w>
c ells</w>
but ter</w>
bre aking</w>
b ones</w>
b al</w>
ast ers</w>
arrang ed</w>
ari o</w>
app ing</w>
ap plied</w>
ant ine</w>
and -
amb ul
ag enda</w>
ab ilities</w>
a ims</w>
a ah</w>
Your e</w>
Xia omi</w>
Vill age</w>
Venk at</w>
Var ious</w>
Ur du</w>
Trinam ool</w>
Tir um
Sund ar</w>
Suje eth</w>
Son akshi</w>
Som esh</w>
Soc iety</w>
She ikh</w>
S et</w>
Re port</w>
Pro tests</w>
Pre par
Pass eng
Pac ific</w>
O per
N evertheless</w>
Med ic
May or</w>
Mand al</w>
Ma x
Ma o
Ma hab
M ex
M ary</w>
M ain</w>
Kon idela</w>
J our
J awa
J ai</w>
Hund reds</w>
Hel p</w>
Gr and</w>
Gan esh</w>
G or
G O
En vir
E C</w>
Direc tion</w>
Cr ime</w>
Con st
Con gratul
Com pl
Cha uhan</w>
Cath olic</w>
Bon ey</w>
B E
Ab hi
AI A
A m</w>
9 4</w>
y .</w>
work er</w>
w earing</w>
w ashed</w>
view ed</w>
ut ter</w>
us ual</w>
un te
un al</w>
u plo
u bl
tur ning</w>
there of</w>
th ians</w>
te es</w>
tack le</w>
tablespo on</w>
susp ension</w>
surv ive</w>
su itable</w>
stre et</w>
ste ad
st uck</w>
sk ill</w>
show room</w>
shou l
sha pe</w>
sent im
rul ers</w>
rom antic</w>
ri kar</w>
rev ised</w>
ret i
ret ained</w>
resul ting</w>
res ses</w>
res earchers</w>
rel and</w>
reduc ing</w>
recogn ized</w>
re action</w>
prov ince</w>
promot ing</w>
pred icted</w>
pot assium</w>
poss ession</w>
pil gr
pat ri
pal ace</w>
p aste</w>
ot ic</w>
or m
new ly</w>
ne arest</w>
nam ely</w>
n on
n ic</w>
much -
lif estyle</w>
k n
is ode</w>
ion als</w>
integr ity</w>
ing ent</w>
ig no
ident ify</w>
ide al</w>
ici zed</w>
ic on</w>
h y</w>
gu aran
gre eted</w>
grat eful</w>
gl ad</w>
gener ations</w>
g ov
g olden</w>
fur n
form at</w>
fir st-
fast est</w>
escap e</w>
er men</w>
entr ance</w>
ensu s</w>
ens uring</w>
enh anced</w>
disrup ted</w>
direc tions</w>
depos its</w>
del ay</w>
cr imes</w>
cot ton</w>
cop e</w>
conv inc
conv ention</w>
confir mation</w>
comp ass
clos er</w>
ch r
ca using</w>
c hal
bl amed</w>
benef icial</w>
bat smen</w>
b har</w>
b adminton</w>
ari at</w>
ap plies</w>
ag iri</w>
aff ordable</w>
adv ance</w>
accept able</w>
ab use</w>
ab h
Vis hal</w>
Val ley</w>
Vaikunthapurram ul
Tr u
Te j
Te achers</w>
T -
Sub hash</w>
Stre et</w>
St op</w>
Sil ver</w>
Shr uti</w>
Sch edul
Sc ient
S l
Red mi</w>
Ramachand ra</w>
Ph ot
P ress</w>
On line</w>
NI A</w>
N ex
Merc ed
Meh ta</w>
Meg astar</w>
M ess
M ass
M ach
KT R</w>
J ain</w>
J ack
Isl am</w>
Indones ia</w>
In dependence</w>
Hebre ws</w>
G un
F re
Ex -
E c
De v</w>
DR F</w>
D am
D I</w>
D C</w>
Cle an</w>
Chou d
BS 6</w>
Ax is</w>
Ar t</w>
Ambed kar</w>
All ari</w>
A ay
8 0
7 0
10 5</w>
yiel d</w>
y ur
wor st</w>
wid espread</w>
ug g
u pper</w>
tom orrow</w>
to m</w>
theat res</w>
sy ch
surr ounding</w>
sud den</w>
st ro
st ick</w>
sp inner</w>
six es</w>
sil ence</w>
sh ep
shep her
scuff le</w>
sc oring</w>
rib es</w>
reg ime</w>
rec alled</w>
re act</w>
ra di
profess ionals</w>
pres idential</w>
pr ised</w>
plat forms</w>
ph il
p ages</w>
os op
or ial</w>
oc key</w>
nation wide</w>
n uclear</w>
mot or</w>
miss ions</w>
met al</w>
man aging</w>
m unicip
log ging</w>
jour ned</w>
iz ations</w>
iv erse</w>
it ri</w>
ist ry</w>
ion -
inf ections</w>
in ting</w>
in habit
in ated</w>
im ports</w>
ic op
hum anity</w>
hol ders</w>
has n</w>
ha st</w>
gu y</w>
gre etings</w>
gr ade</w>
gl ing</w>
funct ioning</w>
func tions</w>
foot ball</w>
festiv als</w>
et ies</w>
et a</w>
ess aying</w>
doc ument</w>
dig n
dest r
del ighted</w>
d oubl
cu ts</w>
cros s</w>
crit icized</w>
cou ldn</w>
cons ists</w>
condol ed</w>
commiss ioner</w>
circ uit</w>
c li
but ton</w>
business es</w>
bur ning</w>
bri ef
bre athing</w>
bow ler</w>
bow led</w>
b ow</w>
b on</w>
b lo
b id</w>
avail ability</w>
av our</w>
attr action</w>
ar rive</w>
any more</w>
anx iety</w>
ang les</w>
anc er</w>
anal ysis</w>
am p
ag itation</w>
aff l
administr ative</w>
ad journed</w>
a c</w>
Y am
X I</w>
Viz i
Venk aiah</w>
Vaikunthapurramul oo</w>
V s</w>
V ol
Tr ade</w>
Tr ad
Tom ar</w>
Ter rit
Tamann aah</w>
Su k
St alin</w>
Son am</w>
Shoo ting</w>
Sam sung</w>
S we
R ani</w>
R O
Proc ess</w>
Pro test
Pr av
Pet roleum</w>
Pat n
P ut</w>
P ort</w>
P ath
Oce an</w>
N ok
N alg
Mo z
Min imum</w>
Meh boo
Man i</w>
MI M</w>
Lab our</w>
L eft</w>
Kare ena</w>
K ia</w>
K at
Jun ior</w>
John son</w>
Je rem
J et</w>
Is nt</w>
Ind ustrial</w>
Ind ore</w>
Im port
I reland</w>
Hous ing</w>
Him al
Ha arika</w>
H ear
Geor ge</w>
G uru</w>
G etting</w>
En ter</w>
E ph
D own
Corin thians</w>
Cor p</w>
Con ference</w>
Cha ud
Ch e
Ch ang
C al
Bh uv
B ot
Anur ag</w>
A th
A am</w>
9 1</w>
5- speed</w>
3r d</w>
200 5</w>
z es</w>
with drawn</w>
w ild</w>
vol unte
valu able</w>
ur thy</w>
u pro
transl ated</w>
th u</w>
th rown</w>
th ro
th eme</w>
tax es</w>
t ig
t ells</w>
surv e
sur ge</w>
sup porters</w>
sug gest</w>
suff icient</w>
su n</w>
strength ening</w>
strength ened</w>
ste ad</w>
st y
sou th
so m</w>
sm ile</w>
short age</w>
sh opping</w>
sh ed</w>
sens itive</w>
sed an</w>
sec onds</w>
scre ens</w>
s word</w>
s ometime</w>
s ib
resurrec tion</w>
rem and</w>
recru itment</w>
re ign
ra ids</w>
pro gres
pre et</w>
pr its</w>
pr int</w>
ple ased</w>
parliam ent</w>
par ted</w>
p rest
p ool</w>
ov es</w>
obj ect</w>
mo dif
miss ile</w>
ment ion</w>
med als</w>
me tro</w>
man kind</w>
m ust
larg ely</w>
l y-
ist er</w>
innov ation</w>
in put</w>
in her
impres sed</w>
ill ed</w>
igno red</w>
ici an</w>
ic o</w>
ic ides</w>
i ander</w>
house holds</w>
har v
har m</w>
gar den</w>
fundam ental</w>
ful fil
fron t
fl ick</w>
explos ion</w>
exper t</w>
ex tr
er ror</w>
er ated</w>
equ ipped</w>
envir on
ent ure</w>
employ ee</w>
ecos ystem</w>
e ing</w>
drag on</w>
di plom
di c</w>
destro y</w>
defin ed</w>
d inner</w>
cul prits</w>
cr y</w>
conven ience</w>
consid eration</w>
con ferencing</w>
commun ication</w>
comm enced</w>
comb at</w>
collap se</w>
col or</w>
co m</w>
co astal</w>
chem ical</w>
ch icken</w>
ch ann
celebr ation</w>
cam pus</w>
c ation</w>
br ut
bo y
bless ing</w>
b ol
b ag</w>
b acked</w>
ass a
as am</w>
art ists</w>
arm ing</w>
aren tly</w>
ang le</w>
am ma</w>
al tar</w>
ak ers</w>
ah a</w>
ad ds</w>
ac commod
a an-
Vizi anagaram</w>
TT D</w>
TH E</w>
T ill</w>
T .</w>
Sup port</w>
Ste p</w>
Shiv raj</w>
Sat y
S nap
S cre
S aj
Rom an</w>
Ris hi</w>
Rem ove</w>
Reg istr
Ravind ran</w>
Ram ana</w>
Rah ane</w>
R adha
Per haps</w>
Par rikar</w>
P ut
P op
P ok
P ati
P S
Offic ers</w>
Ne ed</w>
N ad
Mohan lal</w>
Mo on</w>
Met eorological</w>
M ain
M L</w>
Luc know</w>
Lead ers</w>
L ah
Kom aram</w>
K rishn
Jour n
Je wish</w>
In sp
In nov
I B
Hol y</w>
High way</w>
Ex per
Div ision</w>
Di esel</w>
Dev ot
D ist
D eg
Cro res</w>
Cre dit</w>
Con s
Chr ists</w>
Chow d
Chandray aan-
Cha irperson</w>
Ch and</w>
C ard</w>
C ali
Benef its</w>
B oy
Ar ch
Anj ali</w>
All uri</w>
Ak htar</w>
A w
A L
7 9</w>
20 22</w>
0- litre</w>
y gen</w>
wom ens</w>
w ind</w>
w ave</w>
virt ual</w>
vice- president</w>
vent ure</w>
vac ant</w>
v endra</w>
v an
ush ing</w>
under taken</w>
u -
thor oughly</w>
targ eted</w>
star t
st ores</w>
st ability</w>
sligh tly</w>
sk ir
shr ine</w>
self ie</w>
roc k</w>
ri ors</w>
reti rement</w>
res ist
relation ships</w>
read s</w>
re aches</w>
r anks</w>
pun ished</w>
progr ams</w>
pro hib
pris on
pres ently</w>
prec ious</w>
pre f
pr ide</w>
pleas ure</w>
pl ate</w>
pay ments</w>
pac er</w>
outr age</w>
out come</w>
op t</w>
old est</w>
occup ied</w>
not ified</w>
not ices</w>
n erv
motorcy cles</w>
min orities</w>
maint aining</w>
m aster</w>
m ap</w>
lor ry</w>
loc ked</w>
lo y
li est</w>
le tt
la ve</w>
know ing</w>
k onda</w>
judg ement</w>
inter im</w>
ing er
indic ate</w>
in- charge</w>
in ary</w>
il eru</w>
hy per
high ways</w>
high ligh
her itage</w>
help ful</w>
head ing</w>
he ts</w>
he e</w>
h ua</w>
gener ate</w>
fac el
f ti</w>
f s</w>
f actor</w>
exp ed
ex ha
est one</w>
es war</w>
es is</w>
er ity</w>
enh ance</w>
en de
ek ev
eff iciency</w>
do gs</w>
div or
dist ancing</w>
direc ting</w>
dig est
di vis
dep th</w>
cover age</w>
const antly</w>
concl uded</w>
c a</w>
ber g</w>
b od
ay i</w>
ay am</w>
awa z</w>
att end
att ached</w>
ath em
ass erted</w>
arr ing</w>
arm ed</w>
araj an</w>
ann um</w>
ann ually</w>
amm ation</w>
al am</w>
after noon</w>
administ ered</w>
addres ses</w>
ad -
ac id</w>
abs con
aband oned</w>
Veh icles</w>
V ice-
Tro phy</w>
Tirum ala</w>
Tim o
Techn ical</w>
T rip
St and
S eries</w>
Rep ubl
Reg ional</w>
Ras hid</w>
Profess or</w>
Pr o</w>
Poll ing</w>
Pict ure</w>
O mar</w>
Nok ia</w>
No ida</w>
No .
Nir av</w>
Ne ekev
N iss
N il
N adda</w>
N S</w>
Mu fti</w>
M atch</w>
M aster</w>
M R
M P
M I</w>
Le ave</w>
Laun ched</w>
Kham mam</w>
Just ices</w>
Jo e</w>
Jerem iah</w>
Jag an
IA S</w>
Hind ust
Gand his</w>
G os
G anga</w>
For tun
For t</w>
F ee</w>
E s
Devot ees</w>
De aths</w>
Dan iel</w>
D en
Con struc
Cali for
Bro ad
B ul
B ri
B il
B MW</w>
At l
Ar ora</w>
And aman</w>
An up
Agre ement</w>
Ag ain</w>
Ach anta</w>
AIA DMK</w>
A vi
A ge</w>
9 8</w>
8- megapixel</w>
6 -speed</w>
10 8</w>
1 60</w>
wrap ped</w>
wor thy</w>
we igh
we ep</w>
we b</w>
wa isi</w>
w inners</w>
w alls</w>
vill ain</w>
var u</w>
v ess
ut ing</w>
us age</w>
ur aj</w>
un iverse</w>
two- day</w>
tur meric</w>
trib al</w>
tr e</w>
thr one</w>
th ank
telec om</w>
t u
t ired</w>
sup rem
sup posed</w>
sup plied</w>
st ing</w>
sp ring</w>
sl ams</w>
shoul der</w>
sha d
se es</w>
satisf action</w>
sal aries</w>
sac red</w>
s ins</w>
ro ped</w>
ro ls</w>
ri thik</w>
reserv o
re fr
r ush</w>
r ounder</w>
r at</w>
qu e
pu ter</w>
prop hets</w>
prec ed
por ting</w>
popul arity</w>
po etry</w>
per cent
per c
particip ants</w>
pa ise</w>
p ath
ov iet</w>
ov en</w>
os ing</w>
oppos ing</w>
ol ive</w>
ol es
obt ained</w>
o re
o ke</w>
mus cles</w>
mon soon</w>
memb ership</w>
manifest o</w>
m ob
m ind
lif ted</w>
l is</w>
l ings</w>
kno c
k ne
je wellery</w>
j id</w>
iv al
inv itation</w>
inter action</w>
int ense</w>
instruc ted</w>
inspir ation</w>
inhabit ants</w>
indig en
ind ul
if ying</w>
i est</w>
hy dro
he w</w>
har mon
hand ling</w>
gress ive</w>
gr av
gr ain</w>
gl ass</w>
g if
foc used</w>
f ounded</w>
f inds</w>
ext ernal</w>
experi ences</w>
exc eption</w>
exam ine</w>
ever lasting</w>
ev ac
establ ish</w>
est ate</w>
ent ially</w>
eng agement</w>
end ar</w>
en ance</w>
el eph
e back</w>
disp utes</w>
depres sion</w>
de v</w>
d ens</w>
cy cle</w>
cr imin
corpor ate</w>
coo king</w>
congratul ate</w>
compon ents</w>
compl icated</w>
comm ission</w>
chil lies</w>
chem icals</w>
ch a</w>
c ops</w>
b all
aw a</w>
ass emb
arrang ement</w>
arg o</w>
ans ion</w>
announc es</w>
am mat
am idst</w>
all- new</w>
air y</w>
achar ya</w>
ac hi</w>
ac ed</w>
abscon ding</w>
ab ol
Vi ol
Ven ug
V eteran</w>
Utt am</w>
Timo thy</w>
Thr ough</w>
Sult an</w>
Su deep</w>
Sav itri</w>
Sar ileru</w>
S of
S as
S ans
Ro ads</w>
Ret ur
Ra ashi</w>
R est
R ashtra</w>
Pe oples</w>
Patn aik</w>
Par is
P ud
O x
O waisi</w>
Nalg onda</w>
N aw
N DRF</w>
Mur ug
Mahan ati</w>
Mad h
M ug
M i
M SP</w>
M G</w>
L ight</w>
Kore an</w>
Kar t
Ka us
K im</w>
Jagan mohan</w>
Ital ian</w>
In dr
In do
IR C
I F
High er</w>
H rithik</w>
Gre ater</w>
G eh
Fr ont</w>
F est
En field</w>
Electr onics</w>
E -
Dharm endra</w>
Devar akonda</w>
D ay
D .</w>
Com puter</w>
Cl ass
Califor nia</w>
C ross</w>
Babyl on</w>
Ashw ini</w>
As k</w>
An im
Al ways</w>
Adit i</w>
Aay og</w>
A T</w>
9 00</w>
50 ,000</w>
10 ,
. in</w>
yur appa</w>
ys ore</w>
won der</w>
w ou
w itnesses</w>
vess els</w>
vers ions</w>
v ious</w>
v ey</w>
tou ched</w>
tom atoes</w>
tom ato</w>
te en</w>
t ight</w>
su it</w>
ste el</w>
st ak
sle eping</w>
sing ing</w>
signific ance</w>
sh el
serv ation</w>
scen ario</w>
sc ar
sal vation</w>
ri c</w>
rest aur
regul ations</w>
recogn ition</w>
real ised</w>
re now
renow ned</w>
r ub
r inse</w>
quar antine</w>
prop ag
process or</w>
prim arily</w>
poss ibilities</w>
p our</w>
ow er
overse as</w>
ous ed</w>
organ ized</w>
or ting</w>
oper ate</w>
ol en</w>
ob vious</w>
ob ar</w>
nu tri
n ar
mis s</w>
met res</w>
maint enance</w>
long est</w>
loc ality</w>
lo yal</w>
lin ks</w>
lat ter</w>
l ayer</w>
jur is
jo ins</w>
iv a</w>
ion able</w>
intens ified</w>
infl ation</w>
infl ammation</w>
id ols</w>
ici ans</w>
hon oured</w>
hon or</w>
hel icop
had i</w>
g on
ful ness</w>
fra ud</w>
for th
fant astic</w>
fa ir
f ed</w>
f ash
exist ence</w>
ex- showroom</w>
est y</w>
ern ess</w>
ent ity</w>
em a</w>
el ation</w>
ek hara</w>
eed ing</w>
ear marked</w>
e i</w>
diver ted</w>
disclos ed</w>
disc overed</w>
dis c</w>
direc t
dest ination</w>
dep end</w>
decre ased</w>
d ouse</w>
d ay
cr ashed</w>
conn ecting</w>
compon ent</w>
com eback</w>
co oled</w>
claim ing</w>
ch ur
c ell</w>
belong ing</w>
b if
ati o</w>
at tered</w>
as y</w>
ap r
ap pre
ammat ory</w>
am id</w>
all owing</w>
al ise</w>
al isation</w>
ag ues</w>
ad vert
ad ri</w>
ad itya</w>
act ual</w>
ack ers</w>
ac les</w>
ab sor
ab s</w>
Whe res</w>
Vin ay</w>
V el
U .S.</w>
T om</w>
T ik
T D
Sur ya</w>
Sud heer</w>
Sub ba</w>
St ay</w>
Srik akulam</w>
Sal es</w>
Ravichand er</w>
Raj ender</w>
R ights</w>
R ich
R ef
Punj abi</w>
Pro gr
P as
P DP</w>
Nor thern</w>
No bel</w>
Nex on</w>
Neekev varu</w>
Mehboo ba</w>
Mark et</w>
Mah a</w>
M ysore</w>
Lat in</w>
L ine</w>
L angu
K os
K az
Jagann adh</w>
Init ially</w>
IRC TC</w>
IC U</w>
I ra
I S</w>
High ways</w>
H ong</w>
Gir l</w>
Gh osh</w>
G olden</w>
G haz
Fil m
Eng ine
Egyp t
Dig vij
Dev il</w>
Cre ator</w>
Con c
Cel ebr
Cap itals</w>
C ou
C enter</w>
C ant</w>
C L
Bh um
Ben z</w>
Bar ack</w>
B us</w>
B ose</w>
B er
B ack</w>
Avi ation</w>
Al li
Ag ra</w>
A ri
A h</w>
A adm
2- megapixel</w>
10 4</w>
1, 3
- day</w>
witness ing</w>
wh el
was n</w>
war ded</w>
w oo
v in
v ary</w>
ut ions</w>
up grad
un less</w>
ud es</w>
twe ets</w>
tw enty</w>
transp ortation</w>
tou ch
tor ate</w>
top -
to x
tim ely</w>
the ory</w>
teach ings</w>
t ied</w>
t ender</w>
sustain able</w>
sub si
su res</w>
su m</w>
ste pped</w>
st up
st olen</w>
st ays</w>
smo king</w>
sl ide</w>
sl ain</w>
separ ated</w>
scre ening</w>
satisf ied</w>
satell ite</w>
s ick</w>
s essions</w>
s .
repe at</w>
ren ce</w>
reas on
ra w</w>
quant ity</w>
pur i</w>
princ iple</w>
ph en
per or</w>
patt ern</w>
pad dy</w>
p ush</w>
p t</w>
p ed
over whel
organ ic</w>
ord an</w>
op sy</w>
ol ve</w>
ol ate</w>
nutr ition</w>
nu ts</w>
nomin ations</w>
mp h</w>
minist erial</w>
me als</w>
magn itude</w>
m ask</w>
m ad
lu x
log ged</w>
l anded</w>
kr it</w>
kilomet res</w>
k y</w>
j ah</w>
it ations</w>
isol ated</w>
isl ands</w>
is er</w>
ir a</w>
inst ances</w>
in ee</w>
impres sive</w>
il and</w>
ign ment</w>
i res</w>
ha g
gen u
gan g</w>
flu id</w>
f itness</w>
f ab
every day</w>
est -
ertiliz ers</w>
er ships</w>
enjo ying</w>
emphas is</w>
ell a</w>
ed en</w>
e er</w>
dam ages</w>
d row
d ict
d am</w>
cor ner</w>
conspir acy</w>
cons ult</w>
concern ing</w>
comp ul
co p</w>
co conut</w>
clim bed</w>
cent ers</w>
cap able</w>
bron ze</w>
br ight</w>
bor row
bo il</w>
bl ack
bel ief</w>
behavi our</w>
bas ically</w>
aut opsy</w>
at nam</w>
assa ulted</w>
as th
as leep</w>
arr ival</w>
arm er</w>
aram aiah</w>
apost les</w>
anc ell
all a</w>
al y
aksh mi</w>
air ports</w>
ail able</w>
acc ur
ac re</w>
abrog ation</w>
a he
Viv ek
Ve er
V o
V it
V an
Th ird</w>
T aking</w>
T S</w>
Super intendent</w>
Snap dragon</w>
Sim ilar</w>
Sha m
Sh im
Sc india</w>
S R
Rag h
Radha k
Ra ina</w>
R up
Quest ions</w>
Prat ap</w>
Pol avaram</w>
Niss an</w>
Nic obar</w>
N awaz</w>
Mex ico</w>
May ank</w>
Mall ya</w>
Malays ia</w>
M illions</w>
M er
M aking</w>
L ong</w>
L am
Krish nam
Kr ish</w>
K av
Jos hua</w>
JN U</w>
J ordan</w>
J av
J .</w>
Int ell
Indi an-
Inde ed</w>
Import ant</w>
Im prov
Im medi
Ide a</w>
IP S</w>
IC MR</w>
H ow
H os
H ope</w>
Geh lot</w>
Gay le</w>
For ces</w>
F oundation</w>
Emp ire</w>
Educ ational</w>
E qu
E V
E R
Durg a</w>
Down load</w>
Deg ree</w>
D ate</w>
D O</w>
Cont rovers
Con d
Co ast</w>
Cent res</w>
C hal
C are</w>
C I</w>
Buddh ist</w>
Bi hari</w>
B is
Aadm i</w>
A le
A Y
5 00
2 1-
15 th</w>
z z</w>
wheel er</w>
wa g</w>
w aves</w>
w ages</w>
vis its</w>
viol ation</w>
v oc
ul ous</w>
ul e</w>
trag edy</w>
therap y</w>
temper atures</w>
te ars</w>
targ ets</w>
tal ity</w>
t al</w>
t ag</w>
susp ic
suprem o</w>
sup plies</w>
stu ff</w>
spl it</w>
sm iling</w>
shou ted</w>
second -
saf ely</w>
s igning</w>
ro t</w>
ris es</w>
reli able</w>
rel atively</w>
refl ect</w>
re ward</w>
re b
rap id</w>
ra j
r atio</w>
publ ications</w>
prot ected</w>
proper ly</w>
prof ession</w>
pre- release</w>
pot atoes</w>
port al</w>
pleas ant</w>
percent age</w>
partn ers</w>
organ izations</w>
or -
om m
occur s</w>
nat urally</w>
n abbed</w>
mess ages</w>
me rely</w>
mach ine</w>
loo ted</w>
liv eli
li ber
kid n
k et
k al</w>
it ra</w>
infl ammatory</w>
inaugur ate</w>
imag ine</w>
im ala</w>
ik rishna</w>
ide -
ic e
i ar</w>
i als</w>
ho sts</w>
g y
g ros
g or
for d</w>
fir st
fir m
fin ely</w>
fi x</w>
fav or</w>
expl ains</w>
et ary</w>
entert ainer</w>
en sured</w>
elabor ate</w>
el derly</w>
econom ies</w>
dyn asty</w>
driv ers</w>
driv en</w>
dr am
devot ion</w>
det ail</w>
design ated</w>
de ep
d il
d ating</w>
cov enant</w>
cor iander</w>
conv eyed</w>
cont em
commod ities</w>
comm only</w>
co ordin
cla use</w>
cinem atography</w>
chann els</w>
ch ose</w>
cal am
c ook</w>
c itation</w>
c argo</w>
c ad
bran ches</w>
bif ur
believ es</w>
bapt ized</w>
bann ers</w>
b o</w>
b hai</w>
b ars</w>
b arr
b aking</w>
ax y</w>
athem at
at e
ass ador</w>
am ounts</w>
am e
ak aran</w>
ad vers
ad ar
access ible</w>
acad emic</w>
a uction</w>
a the</w>
Wom ens</w>
WH O</w>
V od
U R
Trip athi</w>
Sy ria</w>
Sy n
Sw eden</w>
Srid har</w>
Sm riti</w>
Seh wag</w>
Sain i</w>
S hal
S ector</w>
S ara</w>
S I</w>
S CO</w>
Re as
R un</w>
R ate</w>
Put in</w>
Prab hu</w>
Pl ace</w>
Pe ace</w>
Pall avi</w>
PN B</w>
P ush
P or
P ink</w>
P in
O ut
O s</w>
O m</w>
O ber
NI TI</w>
N as
N L</w>
Merced es-
Ma ur
M uch</w>
M A</w>
L D</w>
Kal y
K ane</w>
Indo -
In cre
H al
Gil ead</w>
G ram</w>
G av
Foll ow</w>
Fam ous</w>
F und
E R</w>
Cust om
Con sum
Christ mas</w>
Chandrayaan- 2</w>
C H
B ook</w>
B iden</w>
B hav
As ad
Al to</w>
Ag ainst</w>
Ab b
A M</w>
9 7</w>
9 0
201 9-
2- litre</w>
2- 0</w>
199 8</w>
19 99</w>
1, 8
1 19</w>
1 1
- in-law</w>
v a</w>
ur ance</w>
um es</w>
ub s</w>
u ing</w>
trib es</w>
to ols</w>
th uraj</w>
th inks</w>
t odays</w>
t an
small er</w>
sim pl
shar ply</w>
sha me</w>
sh ots</w>
sett ings</w>
sear ching</w>
se y</w>
rup tion</w>
ro ot</w>
ro of</w>
riv als</w>
rid or</w>
rev olution</w>
res ident</w>
rem ote</w>
refl ected</w>
re place</w>
re mov
re ference</w>
qu iet</w>
produc ers</w>
prest igious</w>
preced ented</w>
phil osop
pet it
peac efully</w>
par adise</w>
p utting</w>
p sych
p ack</w>
ox ygen</w>
origin ally</w>
or g
oo t</w>
oo m</w>
on al</w>
om en
olv ing</w>
od es</w>
occas ions</w>
o ever</w>
o e</w>
nomin ee</w>
need y</w>
mot ive</w>
mon thly</w>
mod ern
mil estone</w>
merg er</w>
ment -
memor ial</w>
marg in</w>
m und
lip k
lipk art</w>
less on</w>
legisl ators</w>
laugh ter</w>
last ed</w>
k itch
juris d
itch ell</w>
it tees</w>
ish ments</w>
ip e</w>
involv es</w>
involv ement</w>
inter ior</w>
inter acted</w>
in- laws</w>
in sist
implem enting</w>
il le</w>
ign ore</w>
ight ened</w>
ig ent</w>
i b</w>
hus han</w>
ho tra</w>
high lights</w>
hat red</w>
harm ace
harmace ut
har lal</w>
hand led</w>
h ug
h ide</w>
gr ounds</w>
gir i</w>
g m</w>
fund ing</w>
forth coming</w>
fe ed</w>
fat alities</w>
facel ift</w>
f ails</w>
ev al
est er</w>
equ ival
eph one</w>
ent ive</w>
ent ions</w>
ent er
engine er</w>
end ments</w>
en quiry</w>
em bered</w>
em ail</w>
electr onic</w>
educ ated</w>
ed ed</w>
ear liest</w>
e o</w>
e igh
dra st
dr un
diffic ulty</w>
dialog ue</w>
deterior ated</w>
destr uction</w>
dep ending</w>
den y</w>
democr atic</w>
decl are</w>
custom er</w>
continu ously</w>
consist ing</w>
con qu
cle ared</w>
c ried</w>
c arm
bur n</w>
bur ied</w>
brow n</w>
boo k
bom b</w>
bo at</w>
bl ame</w>
b es
b ers</w>
av at
ath let
asha med</w>
ar -
ap u</w>
any way</w>
ang els</w>
ang el</w>
an u</w>
ambul ance</w>
all- rounder</w>
activ ist</w>
activ ely</w>
Wh atever</w>
Vijay an</w>
Venk y</w>
Tr ain</w>
Tr ailer</w>
Th oughts</w>
Th ings</w>
Th ar
T ax
T O</w>
T CS</w>
Sud hakar</w>
Sub bar
Str ict</w>
Spir it</w>
Sm all
Sk oda</w>
Sidd aramaiah</w>
Shre yas</w>
Sh ank
Sans krit</w>
Sabar imala</w>
S oviet</w>
S ir</w>
S ib
S ave</w>
Rom ans</w>
Res ults</w>
Registr ation</w>
Re al</w>
Ra ther</w>
R ud
R inse</w>
R ail</w>
Pil ot</w>
Phil ist
Phar a
Or ig
Or ange</w>
Nav deep</w>
Na z
N umber</w>
N ick</w>
N air</w>
N P
Mot o
Mo di
Memor andum</w>
Me thod</w>
Mas jid</w>
Mar t
Mar riage</w>
Mal hotra</w>
M itchell</w>
Kh att
K now
K ath
J og
In stead</w>
I V</w>
I II</w>
Hindust an</w>
F lipkart</w>
Ex erc
Employ ment</w>
Employ ees</w>
Drav id</w>
Diff eren
D omin
D id
D esh
D C
Coo peration</w>
Construc tion</w>
Congratul ations</w>
Co al</w>
Choud hary</w>
Champ ionship</w>
Ch er
C are
Build ing</w>
Bh att
B ody</w>
Am rit
Aj ink
Agric ultural</w>
Ac ts</w>
A pr
7 th</w>
5 000</w>
3. 5</w>
2019- 20</w>
1. 5</w>
- to-
- megapixel</w>
wor s
uz vendra</w>
unc le</w>
un precedented</w>
un ions</w>
ul s</w>
ul ating</w>
uk a</w>
u k</w>
tri ya</w>
tr acks</w>
the l</w>
sw itched</w>
suggest s</w>
subj ects</w>
sub sc
str ingent</w>
str ang
stak eh
sol id</w>
sib lings</w>
serv es</w>
sens ation</w>
sch ool
s ove
s lave</w>
s er</w>
s ending</w>
ri be</w>
respons ibilities</w>
res idential</w>
represent ative</w>
repres enting</w>
rem embered</w>
rec t</w>
ran g</w>
rail ways</w>
r itu
purcha sed</w>
pron ounced</w>
proc urement</w>
poss ess</w>
poin ting</w>
po et</w>
pl un
pl em
pil ot</w>
pet itions</w>
pas sport</w>
par ks</w>
p ick
ow ns</w>
overn ight</w>
ou ts</w>
ograp her</w>
o c</w>
o bl
nutri ents</w>
ness es</w>
n in
n eshwar</w>
n ers</w>
mor tality</w>
mid -
meas ured</w>
manu el</w>
m on</w>
m ans</w>
m ac
l unch</w>
l uck</w>
l ined</w>
jurisd iction</w>
j umped</w>
j am
introduc tion</w>
interv ention</w>
int ention</w>
ind ustri
in j
in ash</w>
improv ement</w>
imp ress</w>
im port</w>
ign s</w>
if f</w>
i pe
i ant</w>
hi k
hav oc</w>
hav en</w>
ha il</w>
ha el</w>
h ockey</w>
h in
h es
gon na</w>
g ut
g ainers</w>
fl ying</w>
fl owing</w>
fin alised</w>
fiel ded</w>
f ly</w>
f et
f asc
exp enses</w>
exp ansion</w>
exerc ises</w>
ex as</w>
establ ishment</w>
esh wari</w>
erv ed</w>
ens or</w>
encour aging</w>
enc ing</w>
em ia</w>
e kar</w>
dr aft</w>
dis bur
di ence</w>
des ired</w>
del ib
del eted</w>
ded ication</w>
dec ade</w>
dead line</w>
de als</w>
d ari</w>
coo ked</w>
conver ted</w>
consum ed</w>
conf usion</w>
compass ion</w>
compar ison</w>
comm ented</w>
circ ulation</w>
chec ked</w>
chan nel</w>
carm aker</w>
capt ains</w>
campa igning</w>
cal ories</w>
bu zz</w>
bo l</w>
be t</w>
b ik
az y</w>
av ani</w>
at edly</w>
ass igned</w>
ass ess
ar rests</w>
ar k</w>
ar ious</w>
ap e</w>
accord ingly</w>
a on</w>
Z P</w>
Yuv raj</w>
Y uzvendra</w>
Vod af
U k
Tur key</w>
Ti ago</w>
Tha iland</w>
T or
T exas</w>
Sw ift</w>
Sus hil</w>
Sur vey</w>
St arring</w>
Srin u</w>
Saf ety</w>
S aw
S O
S I
Res ources</w>
Ren ault</w>
Red d
Ra th
Ra in</w>
R ab
R D</w>
R -
Pro per
Pri ya</w>
Prak asam</w>
Pe thuraj</w>
Pe el</w>
Paris had</w>
P regn
P i
P adm
Ober oi</w>
Nik hil</w>
Net izens</w>
N ation
N C
N A</w>
Mil k</w>
Mercedes- Benz</w>
Men on</w>
Mal div
MB BS</w>
M ust
M ount</w>
Lax man</w>
K ong</w>
K night</w>
K as
Jud ge</w>
Jawa harlal</w>
I v
Gov ind
Gal axy</w>
G amb
Fin al</w>
F a
Envir onment</w>
E den</w>
Del hi
D om
Corpor ate</w>
Con sequently</w>
Commun ication</w>
Cl ose</w>
Chou han</w>
Chandrashe kar</w>
Cert ific
C ost</w>
C ancer</w>
Bir thday</w>
Bhuv neshwar</w>
Bh up
B ib
B en</w>
B are
B adminton</w>
Av inash</w>
Amar inder</w>
Alli ance</w>
Ajink ya</w>
Add itionally</w>
A B
6 ,000</w>
5 th</w>
4 50</w>
3 00
20 24</w>
1- 0</w>
1 40</w>
your selves</w>
writ ers</w>
wom ans</w>
withdraw al</w>
wind ows</w>
wicket -
w ami</w>
w ad</w>
volunte ers</w>
ur red</w>
ur ai</w>
uplo aded</w>
uch erry</w>
u jan</w>
tur bo
tou ching</w>
the ft</w>
thank ful</w>
th ick</w>
test im
ter rible</w>
ter min
t ensions</w>
sum mon
subsi di
sub merged</w>
stead ily</w>
st alled</w>
sp are</w>
soldi er</w>
sol id
so ever</w>
sm oo
showcas ed</w>
shif t</w>
sh it</w>
san itation</w>
s ig
rol ler</w>
ro t
ro polit
ropolit an</w>
ro p
ro ad
ri yal</w>
requi rement</w>
real ise</w>
re plac
ran ath</w>
quar ter
qu oted</w>
pursu e</w>
produc t
privileg e</w>
pres c
pr ayed</w>
pl ain</w>
phen omen
person alities</w>
per t
per ative</w>
param eters</w>
par ag
pain ful</w>
p ushed</w>
p ic
p ar</w>
ou l</w>
open er</w>
ol ders</w>
ob tain</w>
o on</w>
neighb ouring</w>
neg ot
ne p
n ights</w>
myst ery</w>
mos que</w>
mem ories</w>
med itation</w>
manufact ured</w>
mach ines</w>
ma iden</w>
m inds</w>
m ere</w>
li fe
lab or
la imed</w>
l ucky</w>
l u</w>
l emon</w>
k it</w>
k ing
k er
ju ven
journ alists</w>
ish ers</w>
ir atory</w>
inv ite</w>
interv ened</w>
integr al</w>
ins ul
influ enced</w>
im plic
ig ade</w>
ific ent</w>
id ge</w>
i us</w>
hus bands</w>
hi b</w>
her oes</w>
he ed</w>
harmon y</w>
hal t</w>
gr an
gr ace</w>
gi ant</w>
g n
g ap</w>
fun ny</w>
fr ustr
fr ame</w>
fl ames</w>
fir ms</w>
fib re</w>
facil itate</w>
f old</w>
ext reme</w>
expl an
es y</w>
es ium</w>
es i
ern ity</w>
er ance</w>
equ ation</w>
ent ers</w>
en orm
en emy</w>
en -
emot ions</w>
ell ow
ell er</w>
el ectoral</w>
el ect
ed iting</w>
ed a</w>
e z
draw ing</w>
dist ingu
disc our
di sh
der ived</w>
demon et
dem ol
dec is
dec ent</w>
deal t</w>
de ity</w>
d ress</w>
d oused</w>
cre ative</w>
coun t
corpor ation</w>
consc ious</w>
conf essed</w>
compet itive</w>
col um
co ordination</w>
cl uster</w>
cl ub</w>
circ ulated</w>
cha se</w>
celebr ating</w>
ca res</w>
c os
boo king</w>
bo thered</w>
bl ow</w>
bha jan</w>
bag s</w>
bad ly</w>
back drop</w>
b ott
attemp ted</w>
att le</w>
ar ian</w>
ar dhan</w>
apur na</w>
apprec iation</w>
ap ology</w>
anti- inflammatory</w>
and hra</w>
am oun
am endment</w>
al ization</w>
al ing</w>
ah ati</w>
ag on</w>
aff ord</w>
ad har</w>
acqu ired</w>
a ud
Vodaf one</w>
V il
Un able</w>
T og
T ai
T abu</w>
Sidd harth</w>
Sha b
Secret ariat</w>
Sec ond
Sam aj</w>
Sal ary</w>
S ession</w>
S ay</w>
Rec ords</w>
Re present
Raj kumar</w>
Raj end
Ra ut</w>
Pud ucherry</w>
Progr amme</w>
Prash ant</w>
Port ug
Po on
Phara oh</w>
Person nel</w>
Pakist ans</w>
P VP</w>
O ld</w>
N al
N H
N B
Mus eum</w>
Mur thy</w>
Man di
Man aging</w>
M yan
M O</w>
Laksh m
Lah ore</w>
L ive</w>
L it
Kot ak</w>
Khatt ar</w>
Karun an
Jan hvi</w>
Jagann ath</w>
J i</w>
Isl and</w>
Ira q</w>
Ir ani</w>
Insp ector</w>
Inf rastructure</w>
Immedi ately</w>
I d
Hy dari</w>
He ad
Har bhajan</w>
H en
God dess</w>
Geor g
Gamb hir</w>
Fed eration</w>
Fact ory</w>
F ind</w>
Em manuel</w>
Eff orts</w>
D ell</w>
Ca uses</w>
C um
Bl u
Bh im
Be thel</w>
Ba had
Ay ush
Asad uddin</w>
Apr il
Ap pro
Ap pe
Ann apurna</w>
Amer ic
Ak ash</w>
Ag ency</w>
AN I</w>
A udi</w>
2 1st</w>
1, 0
1 17</w>
0 5</w>
- on</w>
- India</w>
y yal
y r
y nam
y n</w>
y a
with draw</w>
wild erness</w>
wai ver</w>
w ahati</w>
v ention</w>
unt a</w>
un usual</w>
un ition</w>
tw ist</w>
tri be</w>
transp arent</w>
three- match</w>
th um
tel ugu</w>
te en
tal ented</w>
t ool</w>
t end
sym bol</w>
sw elling</w>
surr ounded</w>
stro ke</w>
str ing</w>
stakeh olders</w>
st adium</w>
some where</w>
sing les</w>
sem if
screen play</w>
scal ped</w>
sanct uary</w>
s ul
ris en</w>
rev oked</w>
rev enues</w>
ret ire</w>
ret al
ret ail</w>
restr icted</w>
resp ected</w>
repe atedly</w>
remar k</w>
rejo ice</w>
re iter
r ated</w>
prov en</w>
protest ed</w>
promot ion</w>
proj ected</w>
process es</w>
prob ably</w>
pre domin
pot ato</w>
post ing</w>
pl ot</w>
pl ed</w>
pen ned</w>
p ist
p ers</w>
p arent</w>
ov ed</w>
op t
op pon
oo t
on to</w>
ok es</w>
of -
o ji</w>
no se</w>
net works</w>
neighb ours</w>
mult itude</w>
mult i
moun ted</w>
monit ored</w>
manufacture rs</w>
man age</w>
m ally</w>
log s</w>
liveli hood</w>
li ke
lett ers</w>
le aked</w>
land mark</w>
lak es</w>
l ashes</w>
ke y
k top</w>
k mph</w>
j ay
it ance</w>
inter f
ing a</w>
indic ates</w>
incor por
ill ance</w>
ik ipe
ig ration</w>
ig ibility</w>
ie fs</w>
hospit alised</w>
hop eful</w>
highligh ted</w>
hi k</w>
hel l</w>
hect ares</w>
head lines</w>
head lamps</w>
hang ing</w>
ha st
ha b</w>
h riyal</w>
h es</w>
h ani</w>
gut ted</w>
gu ests</w>
genu ine</w>
g un</w>
floo ded</w>
fl ows</w>
firm ly</w>
figh ters</w>
fel ic
famil iar</w>
f ishing</w>
explan ation</w>
expect ing</w>
ex tra
ex posed</w>
et i</w>
ess ive</w>
equ ally</w>
ep isode</w>
enjo ys</w>
emphas ized</w>
emb arr
el ement</w>
eigh th</w>
ed ness</w>
e z</w>
draw s</w>
doll ars</w>
dist ress</w>
dis ap
di ble</w>
del icious</w>
def icit</w>
de ar</w>
cult ures</w>
corpor ations</w>
cop y</w>
contr ary</w>
consum ing</w>
cons ol
cons ent</w>
con science</w>
compos er</w>
compet e</w>
comp act</w>
civil ians</w>
civil ian</w>
cha m
c ow</w>
c it
c ir
bur st</w>
bre ath</w>
bot tom</w>
bor ne</w>
bla sts</w>
bl ess</w>
b ine</w>
b ath</w>
av an</w>
attr act</w>
attend ance</w>
assist ant</w>
ar u</w>
appre h
apolog ise</w>
ap pl
antioxid ants</w>
ancell or</w>
alleg ation</w>
al erted</w>
ak rishnan</w>
ak i</w>
ahe b</w>
aff ir
acc ident
ab ha
Y ash</w>
With in</w>
Wind ows</w>
Wat er
W itness</w>
Vi render</w>
Vi et
V S</w>
Typ e</w>
Tam il
T ah
T 20</w>
Ste ph
Sof tware</w>
Sik hs</w>
Sik h</w>
Shiv aji</w>
She khar</w>
Shak ti</w>
Sh yam</w>
Sh ort
S qu
S ound
S S
S MS</w>
Rul es</w>
Rich ter</w>
Rev elation</w>
Republ ican</w>
Rash triya</w>
Rash tr
Ram ya</w>
Raj k
R ub
R iders</w>
Qu ality</w>
Pu j
Prith vi</w>
Pri ze</w>
Pok hriyal</w>
Person al</w>
Pay al</w>
P D
P .
Ok ay</w>
O peration</w>
Nir anjan</w>
Neh wal</w>
Ne ither</w>
Ne il</w>
NS E</w>
N ur
N eg
N ature</w>
N aik</w>
N D
Mug hal</w>
Moto Corp</w>
Me ena</w>
Manj re
Mal lik
M U
Lu ke</w>
Le ela</w>
Langu age</w>
L D
Kum ari</w>
Kis an</w>
Kan pur</w>
Islam ic</w>
Is a
In stitut
Her itage</w>
Hebre w</w>
H ot
H ey</w>
Gu wahati</w>
Grad uate</w>
G oud</w>
G ok
G V
G A
Ex change</w>
Er ror</w>
E ver</w>
E ve</w>
E V</w>
E T</w>
E P
Dr inking</w>
Cy ber
Commun ist</w>
Christ i
Chaud hary</w>
C ulture</w>
C ultural</w>
C ash</w>
C all</w>
C E</w>
C -
Bro ther</w>
Bhat ia</w>
Bal as
Bah ujan</w>
B order</w>
B ij
B ay</w>
An u</w>
Ak bar</w>
Abd ul</w>
Abb as</w>
AI MIM</w>
A l</w>
A CB</w>
8 bhp</w>
5- litre</w>
4 ,000</w>
30 ,000</w>
2, 500</w>
15 ,000</w>
10 9</w>
0 1</w>
- time</w>
- inch</w>
z en</w>
yp e</w>
w rest
vis a</w>
viol ated</w>
vig il
utt ler</w>
univers al</w>
un employment</w>
um in
ul i</w>
typ ically</w>
tro phy</w>
trad ers</w>
tr ies</w>
the yre</w>
tak er</w>
t ech</w>
t ab</w>
suspic ion</w>
strateg ic</w>
st ops</w>
st opping</w>
spec ifications</w>
sp ective</w>
sor ry</w>
short -
she et</w>
sett l
seg ments</w>
s om
s now
s ar
s and</w>
rev ol
rel imin
relimin ary</w>
ran som</w>
ram p
r oughly</w>
r allies</w>
pul led</w>
proph ec
profess or</w>
prob ed</w>
prison ers</w>
prev ention</w>
prepar ations</w>
pre ach</w>
plan et</w>
photograp h</w>
peri ods</w>
p aint</w>
os is</w>
oper ational</w>
ol f</w>
obe y</w>
nur ses</w>
not able</w>
no where</w>
newspap ers</w>
nep hew</w>
much- awaited</w>
milit ant</w>
migr ants</w>
magaz ine</w>
ly rics</w>
low est</w>
lit res</w>
legisl ation</w>
laugh ing</w>
l ment</w>
l ens</w>
l ash</w>
l anding</w>
ke en</w>
k id</w>
journ al</w>
je et</w>
iv ast
ist rate</w>
isol ation</w>
involv ing</w>
interf ere</w>
inter -
institut es</w>
inst all</w>
indigen ous</w>
if ully</w>
ick ey</w>
i. e.</w>
i abad</w>
i OS</w>
i 20</w>
hy dr
har an</w>
hab its</w>
ha iled</w>
h ence</w>
gr ille</w>
gov .in</w>
g ross</w>
g ates</w>
fr anch
fore ign
for warded</w>
for give</w>
fo rec
flo ors</w>
fl ash</w>
fin ish</w>
ff s</w>
f ours</w>
f ond</w>
f inding</w>
exc ept
ex port</w>
ev id
eth nic</w>
es he
erup ted</w>
enorm ous</w>
emp ire</w>
emer ge</w>
earth ly</w>
divor ce</w>
disp uted</w>
dest inations</w>
del ight</w>
decl ining</w>
d har
crick eters</w>
cr ushed</w>
cr azy</w>
cov ers</w>
countr y
corrup t</w>
cop ies</w>
conv icted</w>
concl usion</w>
comb ine</w>
com promise</w>
coll ections</w>
cl esi
che ated</w>
che ap
char i
carr ies</w>
cam eo</w>
business man</w>
bur ned</w>
bro ad</w>
break fast</w>
believ ers</w>
be y</w>
be ta</w>
bal anced</w>
b ell</w>
b acks</w>
b acking</w>
ay as</w>
autom obile</w>
aut onom
assoc iate</w>
ass ist</w>
as pur</w>
as kar</w>
as cert
ar ch</w>
ar ayi</w>
and an</w>
an pur</w>
amm unition</w>
ame work</w>
am endments</w>
age ous</w>
achiev ements</w>
achiev ement</w>
ac ular</w>
ab il
a imed</w>
Y .
Wor kers</w>
William son</w>
Vivek ananda</w>
Vik ram
Vik as</w>
Vict ory</w>
Venug opal</w>
Vam shi</w>
V la
V enn
V S
V I</w>
V -
Under standing</w>
Un fortunately</w>
Uk rain
U sing</w>
U V
Tur meric</w>
Trib al</w>
Treat ment</w>
Tr umps</w>
Tr isha</w>
Th ane</w>
Tel ec
T us
T P</w>
Stat us</w>
Some one</w>
Sit arama</w>
Sid di
Sha shi</w>
Secret aries</w>
S ucc
S itu
S RTC</w>
S IT</w>
Res p
Redd ys</w>
Re al
Re ady</w>
Rap id</w>
Raj eev</w>
Ra a</w>
R it
R ay
Pul sar</w>
Pres idents</w>
Pr am
Pop ular</w>
Pl ay
Pin arayi</w>
Par as
P on
Over all</w>
On ion</w>
Nar ayan
N abi</w>
Mu ham
Mith un</w>
Mao ists</w>
Manjre kar</w>
Maldiv es</w>
Mal k
Mad hav
M ickey</w>
M echan
M O
Legisl ature</w>
Lank an</w>
L t</w>
L in
L a</w>
L L
Khar if</w>
Kashm iri</w>
Kak in
K u
K en
Isa ac</w>
Intell igence</w>
IB M</w>
I L</w>
Hist or
H oo
Gen esis</w>
G ab
G S</w>
F em
Exper ts</w>
Exerc ise</w>
Exc ell
Ex pres
Engine er</w>
Em erg
E arly</w>
Direc torate</w>
Di p
Dhar ma</w>
De c</w>
Dal its</w>
D ab
Coun try</w>
Controvers ial</w>
Comm erc
Col our</w>
Cinem atography</w>
Chin as</w>
Chem icals</w>
CS K</w>
C ateg
C alc
Bl ood</w>
Ben jam
Ben ch</w>
B each</w>
Aut om
Ac count</w>
A ur
5 0-
201 0</w>
200 3</w>
2 6
2 3
12 ,
1. 5-litre</w>
0 3</w>
, 0
y as
writ es</w>
war s</w>
w ill
w er</w>
vi ously</w>
veget able</w>
v ul
v ast</w>
ut ta</w>
ust s</w>
ur v
upro oted</w>
unt ary</w>
ung er</w>
unc ert
uncert ain
un ar</w>
un anim
ul la</w>
uc ks</w>
u its</w>
u fact
tw el
tr ace</w>
touch screen</w>
thre w</w>
there by</w>
ten ure</w>
t une</w>
t opped</w>
t ense</w>
t all</w>
t ain
su icides</w>
strong er</w>
stre am
str ict
st ern</w>
spiritu ally</w>
skir ts</w>
self- reli
sacrif ices</w>
s nat
s izes</w>
s ari</w>
rich est</w>
ri ya</w>
retur ning</w>
respon ds</w>
resp ect
res ume</w>
res s
res hi</w>
rep ent
ren dra</w>
remov al</w>
rem anded</w>
rec over</w>
rec over
real ize</w>
re bel</w>
re as</w>
ra rely</w>
r ying</w>
r av
r akes</w>
promis ing</w>
pro mo
pri zes</w>
prepar ing</w>
pr inting</w>
pr inted</w>
por tr
plan es</w>
pe l</w>
pay able</w>
pain tings</w>
p oo
p inned</w>
ov ering</w>
ot ainment</w>
ordin ance</w>
or ney</w>
opin ions</w>
oo p</w>
on ian</w>
ol i</w>
ograph ical</w>
off ence</w>
oc king</w>
ob s</w>
nor th
mund ry</w>
min im
medi ate</w>
manufact ure</w>
magn esium</w>
m ukh</w>
m Ah</w>
like wise</w>
lic ense</w>
li br
less ons</w>
le agues</w>
l over</w>
l iver</w>
l iness</w>
kilomet ers</w>
ke ys</w>
k its</w>
jun ior</w>
it udes</w>
it ime</w>
ion ships</w>
innov ative</w>
inf otainment</w>
ind icated</w>
in und
in stitute</w>
il abad</w>
ik i</w>
id ays</w>
id ated</w>
ib an</w>
i ating</w>
hol iday</w>
heart felt</w>
hal ted</w>
h itting</w>
h id
gun fight</w>
gu ys</w>
gr y</w>
govern ment-
gif ts</w>
g ood
forc ement</w>
fol k</w>
flag ship</w>
fl oral</w>
fif ty</w>
feat uring</w>
fe at</w>
f u
f il</w>
f ar
ext ensive</w>
exp elled</w>
est imate</w>
est ed</w>
esh s</w>
es ha</w>
er sed</w>
er i</w>
entert aining</w>
end ure</w>
embarr ass
e b
e aten</w>
duc ted</w>
dro me</w>
down loaded</w>
div ide</w>
dispos al</w>
di verse</w>
devast ated</w>
demonet isation</w>
deleg ation</w>
de fault</w>
de eper</w>
d ying</w>
d ust</w>
d ried</w>
d airy</w>
d ad</w>
coun ted</w>
cooper ate</w>
conv icts</w>
controvers ies</w>
cont rols</w>
cont am
consum ers</w>
congreg ations</w>
con servation</w>
compul s
cl ock</w>
chec k
cha sed</w>
ch -
certific ates</w>
c ups</w>
br ave</w>
bound ary</w>
bod ys</w>
bl em
believ ing</w>
be st
b und
b ub
b our
b on
at ri</w>
ass ass
arr ay</w>
anc ies</w>
am bi
ali as</w>
al ter
ah mundry</w>
achiev ing</w>
accoun ted</w>
a .
Yuv an</w>
Y atra</w>
Y V</w>
We b</w>
W ing</w>
Viol ence</w>
Viet nam</w>
Val ent
V iew</w>
U j
Th ou</w>
Tal ks</w>
T un
T esting</w>
T en</w>
T A</w>
Sy e</w>
Shiv akumar</w>
Se em
Sas ik
Sa hib</w>
S D
Ru pe
Ris k</w>
Red uce</w>
Rat na</w>
Rat an</w>
Ram oji</w>
Raj ahmundry</w>
Rag hur
R anj
R C</w>
Qu een</w>
Priy adar
Pre m</w>
Prad eep</w>
Pr ince</w>
Pr im
Pr a
Phys ical</w>
P onn
P ack
O sc
Net work</w>
N ight</w>
N ig
N athan</w>
N anda</w>
Myan mar</w>
Mic hael</w>
Me k
Mass ive</w>
Mandi r</w>
Man ufact
Mallik ar
Ma x</w>
MS ME</w>
ME s</w>
MB A</w>
M ut
M oun
L over</w>
L ist
L av
Kr anthi</w>
Keer avani</w>
Karunan idhi</w>
Kakin ada</w>
K umble</w>
Jud ges</w>
Jon as</w>
Je ev
Jan ardhan</w>
Jaish ankar</w>
J E
Ir rigation</w>
Ind us
I M
I B</w>
Hous es</w>
H O
Ghaz iabad</w>
G aj
Fest ival</w>
F Y</w>
Exp ect
Ec clesi
E ight</w>
Dr ugs</w>
Dr ug</w>
Dis aster</w>
Di plom
D war
D w
D s</w>
Cre ate</w>
Commun ications</w>
Christi anity</w>
Categ ory</w>
Can not</w>
CS O</w>
COVID 19</w>
C op
C ars</w>
Bob de</w>
Bet ter</w>
Benjam in</w>
Bad al</w>
B ud
B lock</w>
B ack
Ar med</w>
Ar m
Any one</w>
Ak hil</w>
Air ways</w>
7 50</w>
201 7-
19 90</w>
1, 500</w>
z za</w>
yiel ded</w>
y ours</w>
whe rever</w>
wh at
what soever</w>
w inds</w>
vo ter</w>
vice- captain</w>
v om
ut enant</w>
uss ions</w>
up ur</w>
under ing</w>
un necessary</w>
un employed</w>
un clean</w>
ub an
u x</w>
tro p
trav ellers</w>
trav eling</w>
trans mitted</w>
tr illion</w>
tit ular</w>
threat ening</w>
thre ats</w>
ther -in-law</w>
theat re</w>
th row</w>
testim ony</w>
t astes</w>
t ap</w>
sust ain</w>
surr ound
surround ings</w>
super b</w>
su s</w>
su ally</w>
struc tures</w>
strict ly</w>
stret ch</w>
st ylish</w>
spokes man</w>
spo ts</w>
spe ech
spe c</w>
spe akers</w>
sove reign
sovereign ty</w>
sinc ere</w>
sh ir
sequ ent</w>
sentim ents</w>
sens ational</w>
sanc tions</w>
s is</w>
s add
resp ects</w>
resign s</w>
res umed</w>
repres ents</w>
ren s</w>
remar k
rem ind
rela xed</w>
rela x</w>
rela x
reiter ated</w>
regul ar
refl ects</w>
ref ug
ref er</w>
recogn ize</w>
re aved</w>
ra ises</w>
r ank</w>
quar rel</w>
pul l</w>
prosp erity</w>
propos als</w>
propag anda</w>
produc tive</w>
proc eed
proceed ings</w>
post ers</w>
poss ibly</w>
posit ively</w>
pill ars</w>
pert aining</w>
per spective</w>
pass ion</w>
parag rap
p sal
overwhel ming</w>
out u
ou ds</w>
or i
on ing</w>
om ic</w>
obj ection</w>
obj ected</w>
ob serve</w>
o th</w>
o di
nation als</w>
n an
moist ur
min s</w>
meth i</w>
men u</w>
m eter</w>
m ate</w>
m ast
lux ury</w>
los ers</w>
light ning</w>
li ps</w>
l ord</w>
kitch en</w>
k ur
k ins</w>
jo y
j i
itt al</w>
it led</w>
it er</w>
it aries</w>
ion aries</w>
interrog ation</w>
inter rup
intell igence</w>
inst al
inher itance</w>
in o</w>
in no
in ches</w>
im ination</w>
im bat
ikipe dia</w>
ike wise</w>
iev es</w>
ic hand</w>
head ache</w>
he a</w>
harm ful</w>
happ ily</w>
hal i</w>
had nt</w>
hab it</w>
ha le</w>
h umble</w>
gr ated</w>
god ly</w>
g ather</w>
funct ional</w>
ful l
ful fil</w>
fo ol
fl ock</w>
fi res</w>
fest ive</w>
fair ly</w>
f ind
expres ses</w>
exp anding</w>
excl usive</w>
ex ual</w>
eswar am</w>
er ts</w>
er ations</w>
er .</w>
ept ive</w>
ep tions</w>
ep id
enh ancing</w>
eng e</w>
en ever</w>
eg g</w>
ed e</w>
eas er</w>
e em</w>
distur bed</w>
dim ir</w>
dia c</w>
di p</w>
di ent</w>
dev oted</w>
deter mine</w>
det ected</w>
des ktop</w>
dec or
dec ides</w>
d est</w>
d ens
d educ
cum in</w>
coun ts</w>
convinc ed</w>
continu ous</w>
conc e
compuls ory</w>
compl ex
comm itting</w>
col on
cl oud</w>
charg eshe
champ ion</w>
cha e
ch est</w>
celebr ates</w>
car bon</w>
bri ef</w>
bre ast</w>
br igade</w>
belong ed</w>
beaut ifully</w>
back ward</w>
b ond</w>
av athi</w>
av as</w>
attr acted</w>
att y</w>
assess ment</w>
aspir ations</w>
are n</w>
ar abad</w>
apprec iate</w>
appoint ments</w>
app arently</w>
ant ib
an a
alloc ation</w>
alli ed</w>
ak h
ak en</w>
air line</w>
ai ka</w>
ai b</w>
ag u
af ts</w>
adv enture</w>
ade kar</w>
ad ul
acqu itted</w>
ack er</w>
acc us
acc orded</w>
ac ute</w>
abund ance</w>
abs ence</w>
a un
a uc
Z one</w>
Y ash
Writ ten</w>
Wor ks</w>
Wh ose</w>
We b
W i
W edding</w>
Vis it</w>
Veh icle</w>
V em
V anga</w>
V .
Un ity</w>
U sually</w>
Tre es</w>
Ti har</w>
Tal iban</w>
T ul
T ext
T easer</w>
Sy ed</w>
Su icide</w>
Sound ar
Sou thern</w>
Sha res</w>
Sh ops</w>
Sh are</w>
Set tings</w>
Second ary</w>
Sank r
S po
S en</w>
S ays</w>
S ai
Respon se</w>
Res ource</w>
Rel ief</w>
Reg ister</w>
Re ports</w>
Ram mohan</w>
Ram an</w>
Rajas ekhara</w>
Rajamou lis</w>
Raj ag
R ay</w>
R ange</w>
Qu reshi</w>
Proper ty</w>
Produc ers</w>
Pro blems</w>
Pres ently</w>
Philist ines</w>
Pers ian</w>
Par is</w>
Pa uls</w>
PO CSO</w>
P ha
P ension</w>
O ne
Nith i
Nag eswara</w>
N on-
Mis ra</w>
Mid cap</w>
Med ak</w>
Me yer</w>
Mart in</w>
Mal aika</w>
Mah mood</w>
MS MEs</w>
M ust</w>
Ly ca</w>
Lit tle</w>
L s</w>
L ou
L ikewise</w>
L arge</w>
Ked ar</w>
KT M</w>
K apur</w>
Jyot ir
Ja is
J aya</w>
Inte rest</w>
India- China</w>
In d</w>
I ran
Hyder ab
Hus band</w>
High lights</w>
Hem ant</w>
Heal thy</w>
Har i</w>
H ows</w>
H ills</w>
Gujar ati</w>
Gop ichand</w>
Gop al
Gand hi
G row
G .</w>
F i</w>
F ac
Expect ations</w>
En joy</w>
Emerg ency</w>
Electr ic</w>
Ecclesi astes</w>
E specially</w>
E A
Dom estic</w>
Dar k</w>
D am</w>
Cy ber</w>
Cre ative</w>
Cor ruption</w>
Co imbat
Co conut</w>
Citiz ens</w>
Champ ions</w>
Cha kr
C lim
C D</w>
Bre zza</w>
Boy apati</w>
Bor is</w>
Bo y</w>
Bhag wat</w>
Bh ut
Bh uban
Bahad ur</w>
Bag h</w>
BS NL</w>
BJP- led</w>
B om
B ol
Ah mad</w>
Ad ilabad</w>
Ac ting</w>
A methi</w>
8 -19</w>
4 th</w>
4 00
201 8-19</w>
200 2</w>
20 ,000</w>
2 7
10 -
1 200</w>
0 9</w>
0 8</w>
- cooled</w>
z ek
wr ong
wou ldnt</w>
wicket keeper</w>
wh ney</w>
weap on</w>
wat ch
w k</w>
w i
w ani</w>
vul n
vom iting</w>
vac ation</w>
ut most</w>
urg ent</w>
under take</w>
un limited</w>
un ite</w>
un i
ump h</w>
u no
two- wheeler</w>
trad ed</w>
tr apped</w>
to il
thir d-
ther lands</w>
th under
te eth</w>
te ar</w>
t ire</w>
t asks</w>
t am
surve illance</w>
substant ial</w>
st on</w>
st im
st al
spect acular</w>
south west</w>
solid arity</w>
smo ke</w>
sli pped</w>
shepher d</w>
scr apped</w>
schol ars</w>
sc ope</w>
s q</w>
s ounds</w>
s on-
son- in-law</w>
s il</w>
s en</w>
s aving</w>
s ang</w>
s ad
rich es</w>
ri ers</w>
regul atory</w>
reg ret</w>
reg arded</w>
recover ies</w>
rece ives</w>
rece ip
re form</w>
r h
r ation
r ary</w>
r aining</w>
qu eries</w>
prot ecting</w>
prophec y</w>
progres sing</w>
princ es</w>
prev ented</w>
prev ailed</w>
prem ier</w>
pip eline</w>
pione er</w>
pilgr ims</w>
persec ution</w>
perform ances</w>
pe tr
part ition</w>
par able</w>
p ink</w>
p el
p at</w>
ower ment</w>
open ers</w>
op pres
op ens</w>
on ia</w>
om ing</w>
oc us</w>
observ ation</w>
object ives</w>
nor th-
nerv ous</w>
neigh bor
ne utr
must ard</w>
mor ality</w>
mom ents</w>
mis t</w>
min es</w>
ment ally</w>
meg a</w>
mean ing
mat ure</w>
m its</w>
m ers</w>
m ail</w>
lov ers</w>
los es</w>
long- term</w>
less ly</w>
led ge</w>
law yers</w>
la b</w>
l oud</w>
l ect
l ay
l amb
l ag
knoc k</w>
kn ife</w>
ivast ava</w>
is ers</w>
ir bhar</w>
inund ated</w>
inst ant</w>
in convenience</w>
il ly</w>
ight -
i ousness</w>
i di
hon est</w>
high est-
he res</w>
harv est</w>
h ury</w>
grap h</w>
grap h
grand son</w>
grad uated</w>
gent ina</w>
gan j</w>
fun eral</w>
frequ ent</w>
franch ise</w>
fol der</w>
fl opped</w>
first born</w>
fi refighters</w>
fash ion</w>
f ound
f li
f inger
f i</w>
f ate</w>
extra ordinary</w>
expl ore</w>
experim ent</w>
exemp ted</w>
exec uted</w>
except ional</w>
ex pos
ess ence</w>
er ine</w>
equival ent</w>
equ ality</w>
environ mental</w>
ensu ed</w>
en abled</w>
ell o</w>
el d</w>
eg ar</w>
ed ged</w>
ect ural</w>
eal ous</w>
e w
distur bing</w>
dis played</w>
dis abled</w>
digest ive</w>
dialog ues</w>
di g</w>
develop ments</w>
defin ite</w>
d ul</w>
d oms</w>
d ha</w>
cur ry</w>
contribut ions</w>
contribut ing</w>
cont ainment</w>
cont aining</w>
cont ained</w>
consum er</w>
consum e</w>
construc t</w>
conf used</w>
comp are</w>
comp any
comm emor
com prised</w>
com m</w>
coll ective</w>
co ins</w>
cho ices</w>
che ating</w>
ch equ
celebr ity</w>
ce ase</w>
can e</w>
c od
c m</w>
c hat</w>
c ensor</w>
c ave</w>
bu yers</w>
brid ges</w>
bre athe</w>
bour ne</w>
bott les</w>
blo g</w>
ble eding</w>
bik es</w>
ben ch
behav ior</w>
be dro
be an</w>
b atch</w>
b abu</w>
at trib
ascert ained</w>
as ad</w>
anticip ated</w>
ann ed</w>
ang ular</w>
and i</w>
and e</w>
an preet</w>
an agar</w>
aman ian</w>
am p</w>
al ike</w>
al es</w>
aj u</w>
aj giri</w>
aff ects</w>
ad joining</w>
acknowled ged</w>
ac hel
a usp
Y e
Wat ch
Vla dimir</w>
Vit ara</w>
Vish w
V ot
Un like</w>
U T</w>
U A
U .
Thar oor</w>
Tal k</w>
T um
T ag
T a
Sud hir</w>
Stud ent</w>
Stand ard</w>
St or
St .</w>
Srin ath</w>
Soc i
Small cap</w>
Sm t</w>
Siv an</w>
Shar dul</w>
Shal ini</w>
Sha w</w>
Sh ro
Sh ob
Sh o
Schedul e</w>
Sam son</w>
Sa whney</w>
S or
S ana</w>
S ag
Rup ani</w>
Rob ert</w>
Rel ations</w>
R and
Qual comm</w>
Prev ention</w>
Pr iced</w>
Pr act
Pen al</w>
Offic ial</w>
Oc t</w>
O m
No v</w>
Ne therlands</w>
Nand yal</w>
Na g</w>
N is
N ine</w>
N et</w>
N arm
Mis s</w>
Min or</w>
Manch u</w>
Malk ajgiri</w>
ML Cs</w>
M H
M B</w>
Loc ation</w>
Lak hs</w>
L iv
L earn</w>
Kashm ir
K hadi</w>
Jaish -e-
Ja han</w>
J h
J al
Is su
Iran ian</w>
Indus Ind</w>
I J</w>
Hon ey</w>
H ospit
H op
H av
H arm
Gos wami</w>
Gav askar</w>
GO D</w>
G om
Fr anc
Fi refighters</w>
F ish
F at
F armer</w>
F DI</w>
El ectoral</w>
Ed ition</w>
E p
Desh mukh</w>
Des ai</w>
Dal it</w>
D att
Cyber abad</w>
Coll ectors</w>
Chem ical</w>
Cha har</w>
Ch ik
Ch arge</w>
C rit
C at
Bot sa</w>
Bi ot
Bhag at</w>
Bha wan</w>
Bh ans
BS F</w>
B ip
B ills</w>
B P</w>
Av ailable</w>
Atl antic</w>
Ar men
Ar juna</w>
Ar gentina</w>
Afr idi</w>
Acc ident</w>
Ab u</w>
A head</w>
A di
A K</w>
A B</w>
5- megapixel</w>
3 60</w>
2017- 18</w>
2, 7
18 th</w>
15 0th</w>
14 .
13 ,
12 th</w>
10 th</w>
10 7</w>
10 0
1. 2-litre</w>
1, 5
0 2</w>
. com</w>
z abad</w>
young sters</w>
y ag
wr ath</w>
wicket- keeper</w>
where in</w>
web sites</w>
weak ness</w>
war rant</w>
w aj</w>
viol ating</w>
view ers</w>
vacc ines</w>
v ing</w>
v an</w>
ut or</w>
us c
ur ge</w>
up held</w>
ult imately</w>
u ism</w>
twel ve</w>
transl ation</w>
tit ude</w>
the tic</w>
th y
ter rif
tem p
tel ephone</w>
teach es</w>
tab led</w>
t one</w>
t iny</w>
t ail</w>
sw imm
sw ept</w>
sur faced</w>
sup reme</w>
sup pl
sty les</w>
stun ned</w>
stat istics</w>
st ice</w>
st ed</w>
st agg
spe eding</w>
sm iled</w>
serv er</w>
separ ately</w>
see ks</w>
se where</w>
se ater</w>
scre ened</w>
sav ings</w>
sa fe
s owing</w>
s and
rom ance</w>
ro yal</w>
ret e</w>
reserv es</w>
res ist</w>
res il
res a</w>
remark able</w>
rel ating</w>
rej ects</w>
rej ect</w>
refr ig
ref ers</w>
reason able</w>
reas ing</w>
ran king</w>
ramp ant</w>
ra ising</w>
r is</w>
r ide</w>
prote ins</w>
prot ects</w>
promp tly</w>
promo ted</w>
prof itable</w>
pro active</w>
priv acy</w>
pri or</w>
prev ailing</w>
pres ided</w>
prepar ation</w>
predomin antly</w>
poll o</w>
polic eman</w>
po ems</w>
phys ically</w>
pers ist
pe an
part ially</w>
panchay at</w>
pan ies</w>
ox ide</w>
or bit</w>
or ange</w>
oper ates</w>
open ly</w>
off line</w>
oc olate</w>
no te
no ise</w>
nam on</w>
mut ually</w>
mur ders</w>
municip ality</w>
moun ting</w>
mot ivated</w>
monit or</w>
mon d</w>
mod erate</w>
miss ionary</w>
micro SD</w>
man hunt</w>
magn ificent</w>
m itting</w>
m it
m es
m ens</w>
m ates</w>
m as
lim itations</w>
laug h</w>
jud ged</w>
j ets</w>
j et</w>
j ah
it em</w>
is ail
isail am</w>
ir ing</w>
intr ig
inaugur ation</w>
in take</w>
in namon</w>
il ee</w>
id able</w>
hur ts</w>
hum ility</w>
hot els</w>
hol idays</w>
hol der</w>
hi ka</w>
h unger</w>
h umb
h ind
guaran tee</w>
grand father</w>
gr ass</w>
gl or
g rows</w>
g a</w>
fulfil lment</w>
fre ely</w>
fra ud
fr act
form ally</w>
fo g</w>
fle x
fe as
ext ends</w>
ex us</w>
ev ed</w>
et ime</w>
et ernal</w>
erv ing</w>
ent ional</w>
ens ively</w>
eng ar</w>
en u</w>
emp ow
ell i</w>
elimin ate</w>
eleph ants</w>
ed itor</w>
e dia</w>
e ager</w>
du al-
domin al</w>
divis ions</w>
divers ity</w>
dis orders</w>
dign itaries</w>
di arr
des p
der ing</w>
deliv ering</w>
deliv eries</w>
defin ition</w>
deb it</w>
dead ly</w>
de parted</w>
d ot</w>
d ly</w>
d at
cy ber</w>
cult iv
crimin als</w>
counter part</w>
cop per</w>
consid erable</w>
cons ist</w>
confl icts</w>
conf ig
conf erred</w>
col our
col leagues</w>
cl ashed</w>
cir cles</w>
ch op</w>
casu alty</w>
cap ture</w>
can al</w>
c ough</w>
c ed</w>
br is</w>
bl own</w>
bel t</w>
bedro om</w>
be reaved</w>
be are
be ach</w>
bact eria</w>
b other</w>
b onds</w>
b logs</w>
b ath
ayan ad</w>
avo ided</w>
autonom ous</w>
athlet es</w>
at ile</w>
ass ess</w>
ash a</w>
as se
arg ued</w>
aren cy</w>
appe aring</w>
ang ered</w>
anc ially</w>
an ap
amoun ting</w>
ak u</w>
agre es</w>
agre ements</w>
af o
adm it</w>
ack et</w>
accur ate</w>
a us
Z o
Y edi
Watch tower</w>
W ayanad</w>
Vik arabad</w>
V eget
V eg
Un ivers
US H</w>
U NE
UNE SCO</w>
U N
Trib unal</w>
The at
T own</w>
T oo</w>
T ay
Sw am
Sur at</w>
Sun ny</w>
Steph en</w>
Star ting</w>
St ock</w>
Sr isailam</w>
Spec i
Sk in</w>
Si pl
Shro ff</w>
Sha sh
Sh il
Sar asw
Sanj u</w>
Sam iti</w>
SA R
S R</w>
Red uc
Re ally</w>
Rav e
Rang areddy</w>
Rajag opal</w>
Raghav endra</w>
Raghav a</w>
R io</w>
R anga</w>
Puj ara</w>
Produc ts</w>
Produc t</w>
Pl an
Phot os</w>
Ped di
Passeng ers</w>
Pas wan</w>
P our</w>
Or der</w>
O w
O tt
O N</w>
Naw ab</w>
Nat esh</w>
Narm ada</w>
Nar sing</w>
N ish
N in
N ation</w>
N abha</w>
Mul ayam</w>
Muham mad</w>
Mov es</w>
Mov ement</w>
Minist ries</w>
Mel bourne</w>
Max imum</w>
Mah ender</w>
Mad hu</w>
M i</w>
M em
M e</w>
Loo ks</w>
Loo king</w>
Le one</w>
L ower</w>
L et
L ag
L ady</w>
Kh ans</w>
Kart ik</w>
Kar n
Kan ch
K ris
K hur
K ash
Jeev an</w>
Jay aram</w>
Jay araj</w>
Jay anti</w>
Jav adekar</w>
Jack son</w>
JD S</w>
J obs</w>
J al</w>
Inter view</w>
Improv es</w>
Im plem
I mp
Hind uism</w>
Hen ry</w>
H u
H om
H aw
Gh ulam</w>
G ri
G on
G ates</w>
G ate</w>
Film fare</w>
F ocus</w>
F O</w>
F A
F -
Exc ept</w>
E k
E co
E U</w>
Digvij aya</w>
DR DO</w>
D ry</w>
D re
D ad
D CP</w>
Cr iminal</w>
Cons ult
Con vention</w>
Con tr
Comm and</w>
Com panies</w>
Coimbat ore</w>
Cha m
Cha k
Ch at
Certific ate</w>
C ook</w>
C BSE</w>
Bir th</w>
Bel ow</w>
Bar oda</w>
Bab ri</w>
Appe al</w>
Al most</w>
Ac tors</w>
Abh in
A pollo</w>
A at
A ICC</w>
6 50</w>
3 9
2 2-
2 2
199 3</w>
17 5</w>
13 .
12 2</w>
10 6</w>
1, 9
1, 7
1, 4
00 0
- spinner</w>
z y</w>
z e
young est</w>
y o</w>
y ard</w>
y ap</w>
woo den</w>
wild life</w>
we en</w>
w is</w>
w i</w>
w ast
ver ification</w>
vent il
var ies</w>
var ied</w>
v ow</w>
v ector</w>
uv v
ut ter
ut ility</w>
ut ch</w>
ur ities</w>
ung s</w>
un j</w>
un fortunately</w>
un expected</w>
um ental</w>
uc ati</w>
ub a</w>
u ous</w>
trop ical</w>
treas ure</w>
tom b</w>
thrill ed</w>
ther more</w>
th row
t uary</w>
t ops</w>
summon ed</w>
suggest ion</w>
substant ially</w>
subsc rib
stri king</w>
ste pping</w>
start up</w>
st ored</w>
st ating</w>
spec ulation</w>
sp ike</w>
smart phones</w>
sle w</w>
sk y
sh ine</w>
set up</w>
semif in
semifin als</w>
semi- finals</w>
sec ts</w>
se as</w>
schol ar</w>
satisf ying</w>
sal ute</w>
s ick
s ect
rol ls</w>
ro cities</w>
ritu als</w>
rip tion</w>
rid ic
rid er</w>
ri ots</w>
ri or</w>
rev ision</w>
resp iratory</w>
rel ates</w>
reg ulation</w>
refug ees</w>
ref uses</w>
recommend ation</w>
receip t</w>
rec ording</w>
real ized</w>
rap ati</w>
raj u</w>
ra dio</w>
r ug
r ating</w>
que ue</w>
qual ify</w>
qu ota</w>
publ ic
proc ured</w>
pro -
pres enting</w>
precaut ionary</w>
pra ises</w>
port ions</w>
por ter</w>
polit ically</w>
pione ers</w>
pe ts</w>
p oured</w>
p ond</w>
p harmaceut
p es</w>
ow al</w>
overse ers</w>
outu be</w>
osp hor
op ting</w>
om a</w>
og ue</w>
object ionable</w>
not ch</w>
n on</w>
n ic
mus cle</w>
mov ements</w>
mour ned</w>
mon ds</w>
mod es</w>
mis sed</w>
min t</w>
min ority</w>
mer ge</w>
mechan ism</w>
marty red</w>
mar itime</w>
m ill
log y</w>
list ened</w>
liqu id</w>
ligh ting</w>
libr ary</w>
l ot
l ining</w>
l in</w>
king doms</w>
ket ball</w>
k king</w>
k ies</w>
k es
k ars</w>
k -
just ified</w>
j ects</w>
iv eness</w>
ip uram</w>
ip atnam</w>
ion ate</w>
invest ing</w>
inv olve</w>
interrog ated</w>
int ended</w>
instruc tion</w>
instr uments</w>
instal ment</w>
indul ging</w>
ind ication</w>
inc umb
in stitution</w>
in ity</w>
in c</w>
imp acted</w>
im ported</w>
im itate</w>
ig unj</w>
ific ial</w>
ific ally</w>
i ece</w>
i P
hyper tension</w>
hun gry</w>
hom age</w>
hil arious</w>
har sh</w>
ha ul</w>
h ill
great ness</w>
grap es</w>
grad ed</w>
gr ound
gr ave</w>
govern ors</w>
giv eness</w>
g ender</w>
g aining</w>
fr ag
for ty</w>
fle e</w>
fish ermen</w>
fav orable</w>
fat ality</w>
f ry</w>
f atty</w>
f ath
exc eptions</w>
ev ident</w>
et ooth</w>
estim ates</w>
ess ly</w>
ess ing</w>
es ome</w>
ent y-
enjo y
eng er</w>
eng aging</w>
en vis
en o</w>
en na</w>
econom ically</w>
e eds</w>
drow ned</w>
distinc t</w>
disp erse</w>
disc iple</w>
diplom atic</w>
di so
di r
destro ying</w>
depres sed</w>
depos ited</w>
demonstr ated</w>
demonstr ate</w>
d ancing</w>
cycl one</w>
cre am</w>
contr ast</w>
cont ent
consult ation</w>
consid erably</w>
condem ns</w>
con fined</w>
compet itions</w>
company s</w>
command ment</w>
comm uters</w>
comm ittees</w>
comm end
coll ision</w>
co aches</w>
clos ing</w>
cl ouds</w>
circ ular</w>
champ ionship</w>
cha ir</w>
ch er
ch and
cap ability</w>
c ure</w>
c r</w>
c ogn
c o</w>
c attle</w>
bri d</w>
br ake</w>
box -
box- office</w>
boo th</w>
bo ards</w>
be st-
b ps</w>
b ore</w>
b ery</w>
aw ar
auth ent
at ivity</w>
ast ery</w>
ass umed</w>
art ist
ar ship</w>
ar pur</w>
appe als</w>
app alling</w>
an o</w>
an am</w>
amb itious</w>
am ended</w>
am en
all oy</w>
ad oss</w>
ad mission</w>
act resses</w>
act or-
a is</w>
Z ero</w>
You ll</w>
Wa it</w>
W as
Vir t
Vice- President</w>
Venn ela</w>
V y
V ib
U yyal
U l
U NI
Tur n</w>
Tem per
T ext</w>
T E</w>
Sup porting</w>
Sum mer</w>
Sum an</w>
Sug ar</w>
Str ateg
St aff</w>
Sri hari</w>
Sp end</w>
Sipl igunj</w>
Sho aib</w>
Sh uk
Sh ram
Sh ir
Seem andhra</w>
Scrip tural</w>
Sc ot
Sc oo
Sat ya</w>
Sasik ala</w>
Sanj eev</w>
S pr
S ons</w>
S ita</w>
S ep</w>
S ekhar</w>
S ak
S aint</w>
Retur n</w>
Res idents</w>
Res erv
Rec overy</w>
Real me</w>
Re forms</w>
Rashtr apati</w>
Ran chi</w>
Ramachand ran</w>
Raj e</w>
R ome</w>
R ice</w>
R eh
Pu bl
Prim ary</w>
Pri or</w>
Prepar ation</w>
Philipp ines</w>
Passeng er</w>
Paras uram</w>
Pan ch
Pack age</w>
PP E</w>
P CL</w>
Nay ak</w>
N idhi</w>
N T</w>
N G</w>
N CR</w>
Murug adoss</w>
Mult iple</w>
Mu z
Mod ern</w>
Mod el</w>
Mith ali</w>
Mark ets</w>
Mand ya</w>
Mallikar jun</w>
Mahab ub
Mad urai</w>
M und
M ir</w>
M asks</w>
M .</w>
Lo an</w>
List en</w>
Leg al</w>
Lax mi</w>
L ucky</w>
L iter
L ing
L emon</w>
L ate</w>
L IC</w>
L .</w>
Ko chi</w>
Kash yap</w>
Kar ti</w>
K oll
K ol
K han
Jyotir aditya</w>
J ail</w>
Isl amabad</w>
Invest ig
ID BI</w>
I P</w>
I -
Hoo da</w>
Hear t</w>
Har ikrishna</w>
H ir
H ill</w>
H asan</w>
H ad
H P</w>
Gur d
Grou ps</w>
Gre ece</w>
Georg ia</w>
G ill</w>
Fortun ately</w>
Fem ale</w>
Far oo
F oot
F ern
F ace</w>
Eli jah</w>
Electr ical</w>
El igibility</w>
Dist rib
Dil ip</w>
Democr acy</w>
Delhi -
De pos
De b
D ucati</w>
D han</w>
D eh
D ays</w>
Contin ue</w>
Congress- JD</w>
Con f
Compl ete</w>
Com mon
Com ing</w>
Clim ate</w>
Cl inton</w>
Ch arm
Cath erine</w>
C r</w>
C irc
C ap</w>
C V
C J
Budd ha</w>
Bo dies</w>
Bip in</w>
Bhans ali</w>
Bha dr
Bet ween</w>
Be aut
Bal eno</w>
B. C.E.</w>
B edi</w>
B ank
Az am</w>
Ax ar</w>
Au th
Att orney</w>
Anup ama</w>
Ant i-
Anim al</w>
An der
An anya</w>
Add ressing</w>
Acc used</w>
AY USH</w>
A er
A SE
A MA
A D
7. 5</w>
6 th</w>
3- 0</w>
20 th</w>
197 2</w>
19 .
14 th</w>
14 5</w>
1 18</w>
1 15</w>
0 s</w>
y thu</w>
weigh s</w>
week ly</w>
weak ened</w>
wal ior</w>
w re
w ings</w>
w aja</w>
vin egar</w>
vigil ant</w>
view point</w>
vict orious</w>
v end
ut ation</w>
ust ing</w>
under ground</w>
under go</w>
un ning</w>
un happy</w>
un changed</w>
um ing</w>
ult imate</w>
uc umber</w>
u ja</w>
turn over</w>
trans ition</w>
tr a-
tol erate</w>
tit les</w>
thro at</w>
thr ashed</w>
there in</w>
ther mal</w>
them .</w>
the astern</w>
the -
th am</w>
teaspo ons</w>
t ured</w>
t ful</w>
t asty</w>
symp athy</w>
sy l
swimm ing</w>
sub sequent</w>
ste ering</w>
spec tr
sp on
sp an</w>
sor row</w>
single- cylinder</w>
sha ped</w>
sha m
self ies</w>
scoo ters</w>
sc are</w>
sc ape</w>
san itiz
s inned</w>
s ic</w>
ru ined</w>
roc ks</w>
ro ots</w>
ro me</w>
ri an</w>
ret re
ret a</w>
rest oration</w>
rest ing</w>
reservo irs</w>
res orted</w>
res iding</w>
regist ering</w>
rec t
rec re
re ya</w>
re ts</w>
rat ri</w>
rang es</w>
rad un</w>
ra f</w>
r fan</w>
r age</w>
qual ification</w>
qu est</w>
pursu ing</w>
pursu ed</w>
pul ses</w>
publ ishers</w>
prov inc
prot oc
prof its</w>
product ivity</w>
pri orities</w>
pres entation</w>
prem i
pr ince</w>
pos ing</w>
pol led</w>
plun ged</w>
pl ine</w>
pl ant
ph y
perf ect
perc eption</w>
per petr
ped est
pay ers</w>
par ked</w>
panchay ats</w>
pal m</w>
p ouring</w>
p ix
p ity</w>
own ers</w>
overse er</w>
ov al</w>
ot ive</w>
or ith
omm un
off spring</w>
off ences</w>
oc ean</w>
ob struc
o x</w>
o st
o il
o ch
o bo
nur se</w>
nor mally</w>
no d
nin th</w>
newspap er</w>
net ic</w>
necess arily</w>
nav igation</w>
n est</w>
mour ning</w>
min ted</w>
ment ions</w>
may or</w>
mar ine</w>
man tra</w>
man i</w>
m ess</w>
m .</w>
loy alty</w>
lov ely</w>
lo o</w>
le af</w>
laugh ed</w>
la undering</w>
l ists</w>
l ion</w>
l ine
j ump</w>
iv ers</w>
it z
it ching</w>
it -
is o
is k</w>
is ai</w>
introduc ing</w>
intern ation
inter pre
intens ity</w>
int ers</w>
institut ional</w>
ins ult</w>
ing ed</w>
incre dible</w>
in puts</w>
ill er</w>
il ies</w>
igh ting</w>
ig o</w>
ig arh</w>
id har</w>
id h
ick sha
ic onic</w>
ic itor</w>
i z</w>
i ates</w>
i as</w>
host el</w>
hop ing</w>
hon ours</w>
hol e</w>
he m</w>
hard ware</w>
hand ic
half- century</w>
hal ls</w>
ha ils</w>
h tt
gr ac
gl orious</w>
g uru</w>
g hee</w>
fur ious</w>
ful fill</w>
fru it
fr amework</w>
foreign ers</w>
forec ast</w>
foc using</w>
fo ret
fl avour</w>
fe ared</w>
fe ar
fav or
fac ulty</w>
f ro
ext ensively</w>
expos ure</w>
expl o
exp and</w>
exhib ition</w>
ex al
every ones</w>
evac uated</w>
ev olution</w>
et te</w>
est ock</w>
eshwar am</w>
escal ated</w>
ers ons</w>
err ors</w>
ern s</w>
ern acle</w>
er ator</w>
er ating</w>
entreprene urs</w>
engine ers</w>
ener g
el le</w>
ef f</w>
ed d
ear nings</w>
drast ically</w>
dr ought</w>
doc um
disc overy</w>
determin ation</w>
det ention</w>
desc ribes</w>
den se</w>
decre ase</w>
decis ive</w>
deal erships</w>
de m</w>
cust oms</w>
cu is
critic ising</w>
cred ited</w>
cr ack
cor ridor</w>
conv iction</w>
contest ants</w>
const able</w>
config uration</w>
condem n</w>
compl im
commun al</w>
command ments</w>
com prise</w>
coll ector</w>
clean ing</w>
clean er</w>
cinem at
chil ds</w>
chargeshe et</w>
ch har</w>
care taker</w>
canc el</w>
campa igned</w>
calam ity</w>
cal endar</w>
c utting</w>
c ute</w>
c ited</w>
by polls</w>
bur g</w>
bul let</w>
bre ath
bra him</w>
br ands</w>
br and-
br ah
bot tle</w>
bo o</w>
bo g
bl es</w>
bel oved</w>
be er</w>
be ating</w>
bapt ism</w>
band h</w>
bact erial</w>
b itter</w>
b ig
awa iting</w>
attr active</w>
at ories</w>
at -
ass urance</w>
as m</w>
as certain</w>
archit ectural</w>
ar ts</w>
ar nath</w>
ar ation</w>
ar a
apolog ised</w>
ap et</w>
any am</w>
anx ious</w>
announc ing</w>
anag ara</w>
an ing</w>
an ch</w>
all erg
alg orith
al le</w>
ain ted</w>
after wards</w>
af ar</w>
adi an</w>
ad verse</w>
ad ult</w>
ad ev
ad ap
acqu ire</w>
accus ations</w>
acc um
abrog ated</w>
abh bhai</w>
ab ling</w>
ab ated</w>
a e</w>
Z illa</w>
Z am
Wh om</w>
We ve</w>
War riors</w>
W inter</w>
W ikipedia</w>
Vid ya</w>
Vall abhbhai</w>
VS N</w>
VA TI</w>
V ern
Uyyal awada</w>
Us ers</w>
Ukrain e</w>
Uj j
UA E</w>
U s</w>
U D
Tus har</w>
Tog ether</w>
Tel evision</w>
Te acher</w>
T ou
T eh
T PCC</w>
T .
Subr amanian</w>
Sub -
Stud y</w>
Str ong</w>
St okes</w>
St art
Sriniv as
Sr av
Sor ry</w>
Sol ar</w>
Sib al</w>
Sh ri
S ources</w>
S ongs</w>
S exual</w>
S ev
S SP</w>
S P
Represent atives</w>
Reas ons</w>
Re els</w>
Re bel</w>
Rav inder</w>
Ram an
RI L</w>
RA VATI</w>
R ythu</w>
R ole</w>
R i
R aipur</w>
R CB</w>
Protest ers</w>
Prev iously</w>
Pre -
Prav een</w>
Pra ise</w>
Po st
Po or
PM O</w>
P rec
P at</w>
P ank
P L
Ox ford</w>
Organ ization</w>
O NG
O F</w>
Ne er
Nation alist</w>
N .
Muz aff
Mur al
Moz ambi
Mor ris</w>
Mo S</w>
Mem ory</w>
May be</w>
Mar ia</w>
Man ager</w>
Mag n
Ma ul
M om
M en</w>
M ale</w>
Loc kdown</w>
Lib rary</w>
Lev ites</w>
Lav anya</w>
L ie
Ko chhar</w>
Kaus hal</w>
Kan ak
Kaly ani</w>
K ond
K ona</w>
K ids</w>
K hand
K ail
K adi
Jyot i</w>
J os</w>
J eff</w>
Iv anka</w>
Ir rfan</w>
Intern al</w>
Innov ation</w>
India- Pakistan</w>
I t
I gn
I TC</w>
I I
Hospit als</w>
Hass an</w>
Has ina</w>
Harm anpreet</w>
Har ry</w>
Hanum an</w>
H uge</w>
H ad</w>
Gu est</w>
Gre y</w>
Govind am</w>
Govern ing</w>
G walior</w>
G S
Fre edom</w>
Fr uits</w>
Fed eral</w>
F ertilizers</w>
F ailed</w>
F S</w>
F A</w>
Exam ination</w>
En try</w>
EV Ms</w>
E asy</w>
Doc uments</w>
Do es
Distrib ution</w>
Distr icts</w>
Diplom a</w>
Dip ak</w>
Dhan ush</w>
Deh radun</w>
De ve</w>
D isha</w>
D ST</w>
D S</w>
Curren t</w>
Cro ps</w>
Cr u
Cour se</w>
Const itu
Comm unity</w>
Chang es</w>
Ch int
Ch ild
C o</w>
C T</w>
Brah m
Blu etooth</w>
Bhut an</w>
Bhuban eswar</w>
Bhar ad
Bare illy</w>
Ban king</w>
B ell
B VSN</w>
B E</w>
Aur ang
Arab ic</w>
An gan
An aly
Am ar</w>
Al tern
Al mighty</w>
Administ r
AMA RAVATI</w>
A adhar</w>
A MT</w>
8 th</w>
8 ,000</w>
4 0,000</w>
3 2
3 000</w>
25 ,000</w>
200 1</w>
199 2</w>
198 6</w>
15 ,
1 70</w>
z o
y l</w>
y cl
ww w.
wor rying</w>
wick edness</w>
well- known</w>
week end</w>
weak nesses</w>
war riors</w>
wan and</w>
wai ved</w>
w la</w>
w ashing</w>
w arm
vari eties</w>
vacc ination</w>
vac ancies</w>
v and
v ag
util ised</w>
ut er
ust ers</w>
ung ary</w>
ung al</w>
under stands</w>
uncertain ty</w>
un clear</w>
ul p
ul -
ug ram</w>
ug h
ud ing</w>
uc t
u j
ty res</w>
tw in</w>
treat y</w>
transp arency</w>
trans formation</w>
tr usted</w>
tox ic</w>
tor -
thor ough</w>
th ren</w>
techn ique</w>
techn iqu
techniqu es</w>
te enth</w>
tab ernacle</w>
t y-
t on
t ent</w>
sym b
surv iv
sur plus</w>
sur ged</w>
success ive</w>
subscrib ers</w>
stri ve</w>
str ain</w>
stat ues</w>
stagg ering</w>
st ip
spiritu ality</w>
speech es</w>
spectr um</w>
sp ouse</w>
sp ort
sp here</w>
sp ared</w>
sol ute</w>
so ared</w>
smoo thly</w>
sle pt</w>
sl ides</w>
shou ldnt</w>
sha re
sha pes</w>
sens ors</w>
self-reli ant</w>
secret aries</w>
scient ist</w>
scen ic</w>
sc ores</w>
satell ites</w>
sacrif iced</w>
s in
s at</w>
rout ine</w>
rob ust</w>
rob bery</w>
ro d</w>
ri ans</w>
rev ive</w>
ret ain</w>
restaur ants</w>
res ource</w>
repor ting</w>
ren t
rel ess</w>
regul ated</w>
ref uge</w>
ref resh
recogn ise</w>
reas es</w>
read ily</w>
re moving</w>
re en</w>
re actions</w>
rac ing</w>
r ance</w>
qu its</w>
prohib ited</w>
proc eed</w>
pro sec
pro lif
prev ents</w>
presc ribed</w>
pre ferences</w>
pr aying</w>
pp ers</w>
por a</w>
pol y
pl ains</w>
pix els</w>
pilgr image</w>
pil ots</w>
ph osphor
ph a</w>
per ce
pean uts</w>
pass age</w>
p reliminary</w>
p oul
p ie</w>
p ast
p -
own ership</w>
over -
ov a</w>
out fit</w>
os ity</w>
ort ic
origin ated</w>
or ty</w>
or i</w>
op pose</w>
om ed</w>
ol ly</w>
ol ences</w>
off ensive</w>
od us</w>
oc e
obo am</w>
obj ects</w>
ob st
ob i
o han</w>
ne ys</w>
n ima</w>
n ership</w>
municip alities</w>
multi- starrer</w>
moun tain
mo il</w>
miss ionaries</w>
met ic</w>
mes mer
mer ch
men ace</w>
med all
man n</w>
man irbhar</w>
m ount</w>
m ild</w>
life -
lev elled</w>
less ness</w>
leg ally</w>
land scape</w>
lamb asted</w>
labou rer</w>
la g</w>
l ungs</w>
l unar</w>
l or</w>
l it</w>
l inking</w>
l aying</w>
l ad
l act
kill er</w>
kid ney</w>
k out</w>
k in</w>
j as</w>
j ar</w>
j am</w>
it ioners</w>
is o</w>
is ition</w>
is ite</w>
ir able</w>
inv ites</w>
intrig uing</w>
inst antly</w>
insp ector</w>
insist ed</w>
inju stice</w>
inf ant</w>
inc ense</w>
in quired</w>
in ating</w>
in ath</w>
imp ounded</w>
ike ya</w>
ik umar</w>
ij u</w>
ig e</w>
id ol</w>
id av
i ors</w>
hum our</w>
host ing</w>
hor ted</w>
hor se</w>
hop ed</w>
hi a</w>
helicop ter</w>
he ights</w>
har b
ha k
h ung</w>
gu ards</w>
griev ous</w>
gress ively</w>
gres sion</w>
govern ing</w>
ge ous</w>
g i</w>
furn iture</w>
four- cylinder</w>
fl ower</w>
fl our
first- ever</w>
finger print</w>
find ings</w>
fin ancing</w>
fed eral</w>
fe ed
f os
f ats</w>
experi encing</w>
exerc ising</w>
exemp tion</w>
exec ute</w>
ex ts</w>
ex horted</w>
ev is</w>
et ida</w>
ess entially</w>
eri als</w>
er land</w>
epid emic</w>
enti als</w>
enthusi asm</w>
enter prises</w>
en ables</w>
elev ated</w>
eas es</w>
e- commerce</w>
e b</w>
don ated</w>
don ate</w>
domin ated</w>
domin ant</w>
dist ant</w>
diso be
disc ounts</w>
disbur sed</w>
disap pointing</w>
dis order</w>
dis k</w>
des ires</w>
deleg ates</w>
deb ated</w>
d uration</w>
d ow
d ney</w>
cyl ind
cur d</w>
cult ivated</w>
conv ey</w>
conv entional</w>
contin ent</w>
contem por
consist ent</w>
conn ects</w>
concentr ation</w>
con str
con stitute</w>
compl iant</w>
co stly</w>
clo thing</w>
class ical</w>
chr on
che ap</w>
chari ots</w>
char ya</w>
cas h
cad re</w>
c ut
c ensus</w>
c el</w>
c av
c ake</w>
boy friend</w>
boo kings</w>
bla ze</w>
bifur cation</w>
bes ide</w>
be tr
be ars</w>
be aring</w>
bas eless</w>
band ry</w>
b u</w>
b old</w>
b id
ay ak</w>
aut e</w>
ausp icious</w>
attr actions</w>
athemat ics</w>
asse h</w>
ass es</w>
as aheb</w>
as afo
asafo etida</w>
ar th</w>
ar ose</w>
appro aching</w>
applic ants</w>
ap point</w>
ap alem</w>
anc ement</w>
an and</w>
an am
amen ities</w>
amb assador</w>
amaz ed</w>
am ps</w>
am ped</w>
alter cation</w>
alleg ing</w>
al u</w>
al ia</w>
ak hpur</w>
ak ash</w>
aff ecting</w>
ad opt</w>
ad es
ad apt
accompl ish</w>
abund ant</w>
ab dominal</w>
a ide</w>
a ar</w>
Yedi yurappa</w>
X i</w>
W uhan</w>
W ell
W ear</w>
Virt ual</w>
Vijay ash
Venkat eshwara</w>
Val ue</w>
Va ish
Um ar</w>
U t
Territ ories</w>
Tar un</w>
T our</w>
T hal
T ennis</w>
T and
Sy dney</w>
Subr am
Su j
Stat ue</w>
Star c</w>
Sr im
Sou theast</w>
Situ ation</w>
Sit aram</w>
Sit ara</w>
Sid harth</w>
Shram ik</w>
Sen ate</w>
Sel f</w>
Scient ists</w>
Sch ol
Sat ans</w>
Sam path</w>
Sa ur
SAR S-
S ound</w>
S engar</w>
S ax
Russ ell</w>
Rec ord</w>
Rec ogn
Rath ore</w>
Ra ins</w>
R over</w>
R T
R K</w>
R E
Pro test</w>
Prad eshs</w>
Poon am</w>
Pol y
Pl ayer</w>
Ph D</w>
Pet ition</w>
Ped d
Pay ment</w>
Pati ala</w>
Part nership</w>
Par th
Par adise</w>
Panchay ati</w>
PM -
P v
Oper ations</w>
ONG C</w>
Nithi in</w>
Nish ank</w>
Narasim han</w>
Nan ak</w>
N i
N ath
N ass
N ana</w>
N F
Muk ul</w>
Mozambi que</w>
Mod e</w>
Mo m</w>
Mil itary</w>
Met ropolitan</w>
Mek apati</w>
Medic ines</w>
Man asseh</w>
Mal av
Mah bub
Mad hur
M ud
M ike</w>
M eas
M d</w>
M c
M K</w>
Lie utenant</w>
Lev el</w>
Law rence</w>
L og
L iving</w>
L ink</w>
L ic
L ack</w>
L S</w>
Krishnam urthy</w>
Kon eru</w>
Ko th
Khar ge</w>
Kes hav</w>
Ked arnath</w>
Kam ala</w>
Kal eshwaram</w>
K riti</w>
K ota</w>
Jas on</w>
Jam ia</w>
Institut ions</w>
Indian- American</w>
Implem entation</w>
Im age</w>
Im ag
IN X</w>
I brahim</w>
I R</w>
I MD</w>
Hy dro
Himal ayas</w>
Himal ayan</w>
H and
Gur ugram</w>
Gu idelines</w>
Gu ard</w>
Gu aran
Grow th</w>
Gor akhpur</w>
Gir ls</w>
G ann
G T</w>
G .
G -
Fur thermore</w>
Fern and
FI Rs</w>
FI FA</w>
F uel</w>
F resh</w>
F ab
Ev ents</w>
Est abl
Em peror</w>
Egypt ians</w>
Eco Sport</w>
E A</w>
Do ing</w>
Disc ussions</w>
Dis play</w>
Dis p
Differen t</w>
Did nt</w>
Dev a</w>
Den mark</w>
D us
D own</w>
D im
D ik
D e</w>
D ance</w>
D T</w>
D K</w>
D .
Cy cl
Cum mins</w>
Consum er</w>
Cond olences</w>
Con trib
Col in</w>
Co astal</w>
Cle arly</w>
Chet eshwar</w>
Champ ionships</w>
Ch ola</w>
Ch ancellor</w>
Car Play</w>
Cam pa
C ID</w>
Broad casting</w>
Bre ast</w>
Bir la</w>
Bib les</w>
Be z
Band aru</w>
Bal ak
Back ground</w>
B un
B ring</w>
B ans
B ad</w>
B Y</w>
Az har
Ash ram</w>
Ar rang
An sari</w>
An na</w>
Amrit a</w>
Americ ans</w>
Al ban
Afg han</w>
Adv ocate</w>
A rea</w>
9 th</w>
9 9.
8 GB</w>
7 ,000</w>
4 6,
3 5
3 10</w>
2. 0-litre</w>
199 6</w>
199 4</w>
199 1</w>
197 6</w>
19 56</w>
12 7</w>
10 3</w>
10 0-
1. 0-litre</w>
1 16</w>
0 Nm</w>
0 7</w>
0 6</w>
z inc</w>
you .</w>
ynam ics</w>
x it</w>
writ ings</w>
wors ened</w>
wor th
wom b</w>
with drew</w>
wh enever</w>
well s</w>
wel comes</w>
web inar</w>
wan ath</w>
w rec
w ada</w>
vuln erable</w>
vis ual</w>
vis as</w>
ver sus</w>
vel i</w>
v ine</w>
v ain</w>
uvv ada</w>
ut tered</w>
ut ionary</w>
ush es</w>
urg es</w>
ur ship</w>
under taking</w>
under gone</w>
und hara</w>
unanim ously</w>
un hurt</w>
um a</w>
um -
ul ative</w>
uk ar</w>
u thi</w>
turn out</w>
turbo charged</w>
tri ple</w>
treat ments</w>
tre ating</w>
transp orted</w>
tr an
tr actor</w>
tr acking</w>
tr aced</w>
tor ture</w>
thr ong
th ieves</w>
ter ior</w>
tempor arily</w>
tal e</w>
t ie</w>
t act
sym bol
swe ets</w>
sw ung</w>
sw itch</w>
sw ear
swear ing
sun light</w>
sun ami</w>
sub mission</w>
su peri
stup id</w>
strug gling</w>
stor y
st ore
st ance</w>
sp reads</w>
sp ices</w>
sp ac
sol e</w>
so ap</w>
sm ell</w>
sm ashed</w>
sl ashed</w>
sky rock
six -
sh u</w>
seas ons</w>
sear ched</w>
scrip tures</w>
sc ulp
san it
s ore</w>
s aints</w>
reve als</w>
restaur ant</w>
rest ore</w>
respon d
reservo ir</w>
reserv ations</w>
res emb
repres entation</w>
replac ement</w>
ren sic</w>
rem ain
rec overing</w>
real istic</w>
re pro
re in
re bel
re acts</w>
rap ing</w>
r us</w>
r ough</w>
r aging</w>
qu es</w>
pur am</w>
psal mist</w>
prosp erous</w>
pron ounce</w>
proced ures</w>
pro x
pro ver
prev entive</w>
pres sures</w>
pres erve</w>
pre paid</w>
pra ising</w>
poul try</w>
port fol
po is
pl ague</w>
phenomen on</w>
perfect ly</w>
perf ection</w>
p ump</w>
p ock
p aths</w>
ove reign</w>
ou ter</w>
opt ional</w>
oper ation
oo th
ome gran
om atic</w>
olv es</w>
olog ist</w>
ol l</w>
ok a</w>
og y</w>
od der</w>
od aya</w>
occur ring</w>
obi ography</w>
ob viously</w>
o ing</w>
o id</w>
no -
net izens</w>
nation alism</w>
n ut</w>
n ish</w>
n ant</w>
mus ical</w>
mot iv
min ing</w>
medic inal</w>
medall ist</w>
mat i</w>
marty rs</w>
manif est</w>
mang o</w>
magaz ines</w>
m ity</w>
m ild
m id</w>
m am
m ai
low- lying</w>
low ers</w>
lo s</w>
lo k</w>
lo ading</w>
liter ally</w>
liter acy</w>
lif etime</w>
legisl ature</w>
le ather</w>
labor atory</w>
l ung</w>
l o</w>
l ing
l enders</w>
l ender</w>
l ately</w>
k ick
k h
jaw an</w>
j ac
ist ical</w>
is hi</w>
inv as
int end</w>
insul in</w>
install ation</w>
ins ula</w>
ins ight</w>
ing .</w>
incumb ent</w>
in sects</w>
in scrip
in ping</w>
in iqu
in fur
infur iated</w>
in ching</w>
imp se</w>
im ing</w>
im ated</w>
illi ers</w>
illi am</w>
ill icit</w>
il i</w>
id ar</w>
ichand an</w>
hus ud
house wife</w>
hor ses</w>
hor mon
hid den</w>
hib ition</w>
helicop ters</w>
he en</w>
hard ships</w>
hal a</w>
habit at</w>
ha mp
ha c
h un</w>
gu ided</w>
gr as
gr abbed</w>
gl impse</w>
gent le</w>
gar u</w>
g ium</w>
g ical</w>
g hat</w>
g an</w>
fur y</w>
fre ight</w>
foret old</w>
fore front</w>
film ing</w>
fi x
festiv ities</w>
fed eration</w>
f erv
f ertil
exp and
expand able</w>
excell ence</w>
ex ed</w>
est ine</w>
ess es</w>
es wari</w>
es ha
er ious</w>
ent itled</w>
ensu ing</w>
eng age</w>
enc ement</w>
en thr
en quired</w>
en coun
en abling</w>
emb ro
elimin ated</w>
el ly</w>
el dest</w>
ech ury</w>
eal ing</w>
e ema</w>
drag ged</w>
drag anti</w>
dr ain</w>
dom ain</w>
disp ersed</w>
dis cr
discr imination</w>
dis continued</w>
dis appointment</w>
differen tly</w>
diam eter</w>
develop mental</w>
deterior ating</w>
desc end
depend ents</w>
dens ity</w>
den ies</w>
de bris</w>
d ur
d ues</w>
d in
d as</w>
d .</w>
cy cles</w>
cur few</w>
cur b</w>
crow n</w>
crow ds</w>
cre ates</w>
cou ples</w>
cor responding</w>
cooper ative</w>
conven ient</w>
consult ations</w>
consequ ence</w>
congratul ations</w>
conduc tor</w>
conce ived</w>
commiss ioned</w>
com for
com eth</w>
colum n</w>
col ony</w>
cli p</w>
cho osing</w>
chec king</w>
character istics</w>
cha ir
ch lor
car ved</w>
capt ivity</w>
capt ive</w>
c ow
c ell
c ast
bund led</w>
bul l
bu re
br ide</w>
bl ood
bl ing</w>
big -
benef ited</w>
bench mark</w>
bel iefs</w>
bab ies</w>
b um</w>
b i</w>
b a
az z</w>
aw n</w>
autom atically</w>
auth ors</w>
attrib uted</w>
att ain</w>
att acking</w>
ati reddy</w>
at reya</w>
at or
assoc iations</w>
assemb lies</w>
ass ure</w>
ass ignment</w>
araj u</w>
ar ka</w>
ar ising</w>
ar chae
ar atri</w>
ar ances</w>
apur a</w>
appro ve</w>
ap plying</w>
any time</w>
antioxid ant</w>
anticip ation</w>
ans h</w>
angu ish</w>
ang g</w>
analy sts</w>
an no
an ic</w>
am boo</w>
am ama</w>
al lic</w>
al akshmi</w>
al a
air lines</w>
ah u</w>
ag gressive</w>
ag ents</w>
ag ent</w>
aff ron</w>
aff idav
advert is
adv oc
add i</w>
ad h
ad ays</w>
accord ance</w>
accompl ished</w>
accident al</w>
accept ance</w>
accel erate</w>
acc essed</w>
abol ished</w>
ab solute</w>
ab hai</w>
a er
a dish</w>
a be
You ve</w>
Y outube</w>
Y echury</w>
William s</w>
W ishing</w>
W illiam</w>
W A
Ven ue</w>
Vas undhara</w>
V illiers</w>
UNI X</w>
U ma</w>
U g
Tur k
Tri umph</w>
Tri ple</w>
Trav ellers</w>
Trav el</w>
Trans mission</w>
Trans l
Thous and</w>
Territ ory</w>
Ter ror
Tel ang
TV s</w>
T ow
T ight</w>
T ask</w>
Sud an</w>
Succ ess</w>
Stor age</w>
St and</w>
Soundar arajan</w>
Son owal</w>
Son ali</w>
Sol icitor</w>
Sith ara</w>
Shuk la</w>
Shi pping</w>
Shar wanand</w>
Sha il
Set u</w>
Scient ific</w>
Schedul ed</w>
Sax ena</w>
S overeign</w>
S leep</w>
Ru th</w>
Ren ew
Rel ig
Rel ease</w>
Reg ul
Re kha</w>
Rav ikumar</w>
Ram pur</w>
Rak sha</w>
Rag hu</w>
Radhak rishna</w>
R us
R ij
R T</w>
R .
Proc ed
Pre p
Pram od</w>
Pr ag
Pos itive</w>
Pol and</w>
Po st-
Po int</w>
Philipp ians</w>
Pha se</w>
Peddi reddy</w>
P ir
P ear
P athan</w>
P al</w>
P age</w>
P I</w>
P A</w>
O R</w>
Nir v
Nand i</w>
NT PC</w>
N ab
Muk er
Meh reen</w>
Me en
Mat t</w>
Mat erials</w>
Man n</w>
Mall u</w>
M ini</w>
M ind</w>
M ath
M arg
M ac
Lo ans</w>
LD L</w>
L exus</w>
L ess
L earning</w>
L V</w>
L MT</w>
L -
Kul kar
Kom atireddy</w>
Know ledge</w>
Kav itha</w>
Kar th
K. T.</w>
K us
K und
K rishnan</w>
K ev
K and
K ag
K T</w>
K K</w>
Jos h</w>
Jer sey</w>
Je ep</w>
Jam a
Jais wal</w>
Jag adish</w>
Jack ie</w>
J ul
J ub
J inping</w>
J ha</w>
J aved</w>
J ai
J S</w>
Ir on</w>
Ir fan</w>
Inte grated</w>
Indr ani</w>
In to</w>
In draganti</w>
In cl
Im m
IT BP</w>
IO N</w>
I z
Hass ine</w>
Har sha
Har ichandan</w>
Ham id</w>
H ur
H ungary</w>
H ub</w>
H or
H it
H ello</w>
H aj
H CL</w>
Gurd aspur</w>
Gri ev
Govern ance</w>
Gar dens</w>
Gann avaram</w>
G oods</w>
G ift</w>
G i
G az
G NO
G I</w>
Fl ood</w>
Fe b</w>
Faroo q</w>
F ut
F our
F ish</w>
F igo</w>
F ight</w>
F er
F ear</w>
F as
F ai
Ev entually</w>
En forcement</w>
E s</w>
Dr. Harsh</w>
Direc t</w>
De ep</w>
Datt atreya</w>
Dab angg</w>
DR Ls</w>
D at
D aily</w>
D SP</w>
D I
D E</w>
D B
Custom ers</w>
Coun ting</w>
Con stitutional</w>
Comm ander</w>
Col umb
Class ic</w>
Cl ub</w>
Chr on
Chowd hury</w>
Char les</w>
Chang ing</w>
Cha wla</w>
Ch ol
Can adian</w>
Can aan</w>
CJ I</w>
C i
C ell</w>
Bun ny</w>
Br idge</w>
Br anch</w>
Bharad waj</w>
Bhar ath</w>
Bhar at
Bel gium</w>
B uttler</w>
B utter</w>
B ugg
B rown</w>
B od
B ish
B ik
B -
Azhar uddin</w>
Az har</w>
Au g</w>
Au di
At ul</w>
At omic</w>
As ked</w>
Ar ya</w>
Ann ual</w>
Angan wadi</w>
Ander son</w>
And re
An c
All ow</w>
Ale x
Advis ory</w>
Add ress</w>
Ac count
ASE AN</w>
A charya</w>
A bo
6 0,000</w>
5- year-old</w>
5 G</w>
4 9.
3 50
199 7</w>
198 9</w>
18 6</w>
17 .
16 th</w>
15 .
0 4.
- brand-
- -
,9 90</w>
, 4
you ll</w>
yas agar</w>
y- level</w>
y st
y ar</w>
y ala</w>
y .
wis ely</w>
wh opping</w>
wh oles
water logged</w>
war ns</w>
wal ks</w>
wa ited</w>
w et</w>
w ay
virt ually</w>
vir uses</w>
vir aj</w>
viol ations</w>
ver ge</w>
val idity</w>
v ows</w>
uz ur
ut ant</w>
ut a</w>
up wards</w>
under stand
unc iation</w>
un el
unel veli</w>
un beaten</w>
ul us</w>
uk hi</w>
u i</w>
u ality</w>
typ ical</w>
tren ding</w>
tre kking</w>
trav els</w>
trans form</w>
tra its</w>
tr ap</w>
tou ted</w>
top ics</w>
ton ight</w>
three- member</w>
thr ust</w>
text ile</w>
tel a</w>
techn ological</w>
tab lets</w>
t yre</w>
t il</w>
t exts</w>
t esy</w>
t es</w>
t ank
t ag
symp ath
sy st
swearing -in</w>
susp ecting</w>
sur u</w>
suff ers</w>
subst ance</w>
stun ning</w>
strug g
struc tural</w>
strateg ies</w>
ste ady</w>
st icks</w>
sp in</w>
sp ake</w>
sou theast</w>
some body</w>
small est</w>
sm iles</w>
six -speed</w>
sil k</w>
sh attered</w>
settl ement</w>
set tle</w>
sequ el</w>
sens it
self ish</w>
se al</w>
scr ap</w>
sc ary</w>
s ings</w>
s ay
s aves</w>
s affron</w>
s acked</w>
rub b
rol l
ro ts</w>
rip e</w>
retal iated</w>
respons ive</w>
res ort</w>
res ide</w>
rep o</w>
remain der</w>
rel s</w>
regular ities</w>
refrig erator</w>
ref erring</w>
recomm end</w>
recip ient</w>
rec k
rec eption</w>
rec all</w>
re ver
re medi
rap es</w>
r icksha
r ata</w>
r ase</w>
r ams</w>
r ah
qu ire</w>
publ ication</w>
priv at
prev enting</w>
premi ere</w>
pr one</w>
pr o</w>
pow er
pot able</w>
portfol io</w>
pol es</w>
pl ug
pill ar</w>
pet roleum</w>
persec uted</w>
perpetr ators</w>
per su
par all
p itch</w>
p it</w>
p ics</w>
over turned</w>
ov o</w>
out skirts</w>
ous in</w>
os h
os a</w>
ord ingly</w>
op tim
oo dy</w>
onom y</w>
on ward</w>
on i</w>
on ement</w>
omin ations</w>
off s</w>
of- the-
ocr atic</w>
oc ation</w>
o a</w>
nutr itious</w>
no grap
nograp hy</w>
no de</w>
net working</w>
neighb our</w>
neighb or</w>
nar row</w>
myst erious</w>
my th
modif ied</w>
mob il
mo th</w>
mo m</w>
miss iles</w>
min ute</w>
mil a</w>
me anwhile</w>
may be</w>
mass es</w>
man ship</w>
mai ze</w>
mag ic</w>
mach in
m o</w>
loo m</w>
loc ate</w>
loc ally</w>
lo go</w>
lo ads</w>
liv estock</w>
land slides</w>
land slide</w>
lam p</w>
la ze</w>
la uded</w>
l on
l ending</w>
l ac
kur nool</w>
kne es</w>
k ha
k et</w>
k al
judg ments</w>
jud ice</w>
ju red</w>
jo l</w>
jo ke</w>
j unction</w>
itz erland</w>
ish ankar</w>
is ms</w>
is ans</w>
ir rit
inv iting</w>
interv ene</w>
interrup ted</w>
inter views</w>
intell igent</w>
inno cent</w>
ingu ished</w>
ing -
infl ows</w>
increas ingly</w>
incorpor ated</w>
incor rect</w>
inc urred</w>
in form</w>
in di
in ate</w>
improv ements</w>
impris oned</w>
im ely</w>
illustr ations</w>
ill ai</w>
il itation</w>
ij i</w>
ig ate</w>
if ier</w>
ic ular</w>
ic -
i ers</w>
i am</w>
hin agar</w>
hi p</w>
hard ship</w>
har der</w>
hab i</w>
ha konda</w>
h ome
gros sed</w>
gre y</w>
gor geous</w>
good ness</w>
god dess</w>
gl ac
g ushing</w>
g ol
g ar</w>
g am</w>
g all
fruit ful</w>
front line</w>
fract ured</w>
form ula</w>
for giveness</w>
fl av
fin est</w>
fil ling</w>
fi re
fi erce</w>
ferv our</w>
felic itated</w>
feas ible</w>
fe eding</w>
fe ars</w>
fat ig
fat al</w>
fa red</w>
f oun
f oul</w>
f ellow
f ailing</w>
expres sing</w>
exped ited</w>
exc it
exc essive</w>
ev olved</w>
es sel</w>
es ity</w>
er ra</w>
enthusi astic</w>
end or
en ary</w>
em peror</w>
em in
el sewhere</w>
el ect</w>
edd yurappa</w>
ed .</w>
ec r
e ums</w>
e ight
e ased</w>
dro ps</w>
down pour</w>
doubl ed</w>
doub le-
don ations</w>
dist ressed</w>
dismis ses</w>
dis m
dis appeared</w>
dim ensions</w>
diagno sed</w>
di ya</w>
dhar na</w>
develop s</w>
desc ription</w>
des erted</w>
deliv ers</w>
del ays</w>
def ine</w>
def iciency</w>
decla res</w>
de eds</w>
de -
dam aging</w>
cru ise</w>
cros sing</w>
cre atures</w>
cr yp
cour ageous</w>
cont rolling</w>
cont acted</w>
cons ensus</w>
conduc ts</w>
cond it
conc rete</w>
con stitut
compan ion</w>
coll ecting</w>
co in</w>
clos ure</w>
clean liness</w>
cl oves</w>
cinemat ographer</w>
chr onic</w>
cheap er</w>
character istic</w>
char am</w>
cham ber</w>
ch i
cerem on
categ or
car rot</w>
car di
candid ature</w>
calc ulated</w>
c ows</w>
c eas
c ab
by poll</w>
bud g
brut ally</w>
brut al</w>
brief ing</w>
bre thren</w>
br akes</w>
boo sts</w>
ble ak</w>
bl ocks</w>
bl end</w>
bi o
ber ries</w>
believ able</w>
bel ly</w>
beare rs</w>
bas ketball</w>
barr ic
b uc
b ond
b omb
aw l</w>
avat ar</w>
au ts</w>
attr acts</w>
attemp ting</w>
att ackers</w>
ath kumar</w>
ast ro
ast on
ast ly</w>
ass et</w>
asc ular</w>
as u
as ani</w>
art ificial</w>
arr iving</w>
ar ises</w>
ar di
ar bit
appreh ended</w>
ap udi</w>
ap ple</w>
ap ed</w>
anticip atory</w>
ank i</w>
and al</w>
anc ore</w>
anc est
an them</w>
amb ition</w>
am konda</w>
am ant</w>
alleg e</w>
all ow
algorith m</w>
al pur</w>
al d</w>
al as</w>
air bags</w>
ai c</w>
agg ub
ag itating</w>
ag itated</w>
ag gression</w>
ag en</w>
affl icted</w>
affidav it</w>
aff ection</w>
af fil
advis or</w>
adul tery</w>
adjust able</w>
ade v</w>
ad option</w>
ad mon
ad ha</w>
ad amant</w>
act erial</w>
accep ts</w>
accep ting</w>
ac ids</w>
a q</w>
a ided</w>
Z e
Z afar</w>
Z P
Y eddyurappa</w>
Wr ite</w>
Wel come</w>
We ather</w>
W is
Vil as</w>
Vikram arka</w>
Vijayash anti</w>
Vid yasagar</w>
Ve dic</w>
Vaikunthapurram loo</w>
V R</w>
Un told</w>
Un til</w>
Un it</w>
US B</w>
US -
Tru th</w>
Trav ancore</w>
Trad ers</w>
Tour ists</w>
Tir unelveli</w>
Ti bet</w>
Th under
Telec om</w>
Tej as</w>
Tai wan</w>
T resa</w>
T ok
T il
T ham
T ears</w>
T SRTC</w>
Sy stems</w>
Sw itzerland</w>
Sush anth</w>
Su rendra</w>
Spe ed</w>
Spe ak</w>
Sp ice
Son al</w>
Shak ib</w>
Sha heen</w>
Sh ort</w>
Ser b
Scre en
Sc ale</w>
Sath y
Sarasw ati</w>
Sar kar</w>
Sar ban
Sar athkumar</w>
Sang e
Saj j
Sah u</w>
SARS- Co
S ree</w>
S kill</w>
S igns</w>
S end</w>
S cr
Rupe e</w>
Rij iju</w>
Ric hard</w>
Rev ealed</w>
Ren uka</w>
Reg ular</w>
Reduc es</w>
Rec overed</w>
Rav ishankar</w>
Rajend ranath</w>
Rajas ekhar</w>
Raj eshwar</w>
Radhak rishnan</w>
Rad hika</w>
Rad he</w>
Rac hakonda</w>
Ra him</w>
Ra dio</w>
R est</w>
Proced ure</w>
Prepar ations</w>
Prem ium</w>
Pregn ant</w>
Pr iv
Portug al</w>
Ponn ala</w>
Poll ution</w>
Po charam</w>
Pil ate</w>
Phar is
Par cel</w>
Pank aj</w>
Pan dit</w>
P ic
P am
Or ders</w>
Nith ya</w>
Nir mal</w>
Ne el
Nav al</w>
Nar sim
NP R</w>
NA SA</w>
N enu</w>
N all
Mur li</w>
Mo ve</w>
Mo thers</w>
Medic ine</w>
Max well</w>
Maul ana</w>
Mat inee</w>
Malav ika</w>
Mahbub nagar</w>
Mahar aj</w>
Maha jan</w>
Mag istrate</w>
Madh ukar</w>
Mad husud
Mad havan</w>
M ar</w>
Let ter</w>
Lal it</w>
L ow</w>
L en
L ee</w>
L as
L arg
L R</w>
Kulkar ni</w>
Kon k
Kail ash</w>
Ka ul</w>
Ka jol</w>
K onda</w>
K her</w>
K aw
Jy o
Journ al</w>
Jay as
Jan m
J unction</w>
J ong</w>
J MM</w>
Incre ase</w>
In jured</w>
Imp act</w>
IS IS</w>
I d</w>
Hu aw
Hon ble</w>
Hel med</w>
Har v
H uzur
H un
H ouse
H ell</w>
H ector</w>
H ay
H RD</w>
H A
Gr and
Gr am
Gand hinagar</w>
Ga uri</w>
GV L</w>
GNO ME</w>
G iving</w>
G ent
G N
Foot ball</w>
Fish ermen</w>
F light</w>
F inch</w>
F all</w>
F P</w>
F Cs</w>
Ex t
Ex pl
Ex odus</w>
En able</w>
Econom ics</w>
EP FO</w>
E tela</w>
E ating</w>
E atala</w>
E MI</w>
Du ke</w>
Du be</w>
Div is
Di al
Dhan anj
D ul
D habi</w>
D aggub
D a
Con g</w>
Commerc ial</w>
Col on
Co ordin
Cinem as</w>
Chik k
Challeng e</w>
Cha pter</w>
Cent ers</w>
Cam er
C old</w>
C ine</w>
C e
C Ms</w>
Bugg ana</w>
Bro thers</w>
Bo il</w>
Biot ech</w>
Bez os</w>
Batt ing</w>
Bal aji</w>
Bag h
BA I</w>
B op
B eth
B achel
B R</w>
B B
Audi ences</w>
Any thing</w>
Anup am</w>
Ann iversary</w>
Andre w</w>
An up</w>
An e</w>
Amb ati</w>
Am y</w>
Am r
Al ok</w>
Al igarh</w>
Ag n
Ad hir</w>
Act iv
Acc ordingly</w>
Acc ess</w>
A ustri
A Y</w>
A G
A BS</w>
A .
8 50</w>
6 GB</w>
5 50</w>
3 D</w>
3 4
3 ,9
198 8</w>
197 1</w>
19 60</w>
18 ,000</w>
15 1</w>
13 3</w>
12 4</w>
1 14</w>
1 13</w>
1 1.
1 1-
- related</w>
- ons</w>
z o</w>
z i</w>
z ens</w>
z ar</w>
year ly</w>
y cle</w>
wrest ler</w>
worshi pped</w>
wid ow</w>
wid er</w>
we rent</w>
we ren</w>
water fall</w>
war nings</w>
w. e.
w.e. f
w ounds</w>
vol untary</w>
vol can
v id
v ib
ush rooms</w>
urv edi</w>
urg aon</w>
ure rs</w>
unt imely</w>
uni form</w>
un fair</w>
un constitutional</w>
un conscious</w>
umin ium</w>
um ping</w>
um b</w>
ul l
ul if
ulif lower</w>
uk uri</w>
ud h
uc ose</w>
u pr
u els</w>
tur moil</w>
tur bo</w>
tur bine</w>
troubl ed</w>
trav elled</w>
trav eled</w>
transf ers</w>
trans late</w>
tr ic</w>
tr acked</w>
toil ets</w>
tig a</w>
threat en</w>
th i
techn olog
te h
tax payers</w>
tar iff</w>
tan ked</w>
t um
t resp
t m</w>
t ical</w>
t enders</w>
t ari
tari ffs</w>
t all
t ail
t .</w>
syn ag
sw allow</w>
surve ys</w>
surv ival</w>
success es</w>
subsidi ary</w>
su its</w>
su gar
strength ens</w>
streng ths</w>
strang ers</w>
str a</w>
stip ulated</w>
state- run</w>
stand still</w>
st int</w>
sp orty</w>
sp ite</w>
some what</w>
snat ched</w>
sn apped</w>
sl ot</w>
sl ight</w>
sl aves</w>
sign al</w>
sig nature</w>
si ans</w>
shi pping</w>
shepher ds</w>
sha me
sh oes</w>
set back</w>
separ ation</w>
sentim ent</w>
semi- final</w>
sec uring</w>
se aled</w>
se -
school ing</w>
sad ness</w>
sa uce</w>
s our
s laughter</w>
s ide-
s ends</w>
s aute</w>
run -
rum oured</w>
rul ership</w>
ru ins</w>
ri -
rev enge</w>
restr ict</w>
ress al</w>
respon ses</w>
resist ance</w>
repent ance</w>
repe al</w>
rep airs</w>
rep air</w>
remind ed</w>
rem emb
rel l</w>
ref uted</w>
ref use</w>
rec ted</w>
read ers</w>
re pay</w>
re de
re consider</w>
re bu
ram med</w>
ra o</w>
r ings</w>
r ay</w>
r ag
quir ing</w>
quarter finals</w>
quant ities</w>
qu i</w>
qu er</w>
qu akes</w>
pu ja</w>
promp t</w>
progres sed</w>
process ed</w>
pro found</w>
pres sed</w>
pres idents</w>
pr icing</w>
po ols</w>
plo y</w>
pl um
pl ing</w>
pl ates</w>
pl anted</w>
petit ioner</w>
per missions</w>
pain ting</w>
pack ages</w>
p alli</w>
p acked</w>
ov ascular</w>
out lets</w>
ot ism</w>
ot i</w>
ortic ulture</w>
ori ented</w>
or ary</w>
oppon ents</w>
oper ator</w>
oper ative</w>
op p
one- day</w>
on aut
od d</w>
obst acles</w>
obl ig
o or
nur sing</w>
num bered</w>
nov els</w>
nor theast</w>
non sense</w>
neighb ors</w>
ne aring</w>
narr ative</w>
narr ated</w>
mov able</w>
mot ions</w>
mor tuary</w>
moist ure</w>
mis erably</w>
mid cap</w>
meg astar</w>
medic ations</w>
med ication</w>
me tre</w>
mast er
mar ital</w>
mag netic</w>
m ud</w>
m u</w>
m idd
m ented</w>
m asters</w>
lin k
lif ting</w>
leg it
leg ends</w>
leg acy</w>
le th</w>
le te</w>
le f
l ou
l ever
l acking</w>
kne e</w>
kidn apped</w>
k o</w>
k ms</w>
k ick</w>
k i
je wala</w>
jay anthi</w>
j ap
j al</w>
j ack
it ter
it e
ist ed</w>
iso dia</w>
isc o</w>
ir regularities</w>
ip ation</w>
inv is
inv al
interrog ating</w>
intell ect
instr umental</w>
inform ing</w>
inf o</w>
indic ators</w>
ind e</w>
incl usive</w>
incl usion</w>
in is</w>
in definite</w>
impres sion</w>
imm igr
imm ens
immens ely</w>
im perfect</w>
il ipatnam</w>
ign esh</w>
if ted</w>
id abad</w>
ic ism</w>
ic ago</w>
i ahs</w>
i able</w>
hy gi
hur ry</w>
hug ely</w>
hon esty</w>
ho ea</w>
him .</w>
harass ing</w>
hal la</w>
hal am</w>
hag am</w>
hac ked</w>
h yp
h ire</w>
gu ess</w>
ground water</w>
griev ances</w>
gr ants</w>
gen etic</w>
gang -
g ro
g oo
g et
g ear</w>
g az
frustr ated</w>
foo d
fo res
floo ding</w>
fle et</w>
fin ancially</w>
fin anced</w>
fin alized</w>
fiel ding</w>
fem ales</w>
fe ud</w>
fe aring</w>
fam ine</w>
fab ric</w>
f ried</w>
f odder</w>
f itting</w>
f ights</w>
f ertilizers</w>
f er</w>
ext ending</w>
expect ation</w>
exp ired</w>
exp ense</w>
exist ed</w>
exemp t</w>
exec ut
excl us
exam ining</w>
exal ted</w>
ev olving</w>
et c
establ ishing</w>
eri o</w>
er wal</w>
eph th
ep ic</w>
entreprene ur</w>
ent ment</w>
ent ities</w>
ent ertain</w>
ens ioners</w>
eng ers</w>
ende av
en v
en mity</w>
en er</w>
emin ent</w>
em o</w>
em iss
ell ite</w>
ell ar</w>
elev ation</w>
eleph ant</w>
el ight</w>
ed ical</w>
e- up</w>
e up</w>
e u</w>
e el</w>
e ast
distingu ish</w>
disc re
disc lose</w>
dis qualified</w>
direct ives</w>
dim ens
di oxide</w>
di b
devast ating</w>
design s</w>
descend ants</w>
desc ended</w>
den omination</w>
demol ition</w>
dem ons</w>
decor ated</w>
decl aration</w>
de pr
d ings</w>
cylind ers</w>
cust om</w>
cum ulative</w>
cul prit</w>
cub its</w>
critic ise</w>
crit eria</w>
crack down</w>
cr ashes</w>
cr ack</w>
correc tly</w>
content ious</w>
contempor ary</w>
conqu ered</w>
confir m</w>
cond itional</w>
con gress</w>
con gest
con ferences</w>
commerc ially</w>
commend able</w>
comm ent
comm encement</w>
co- produced</w>
co inc
clo th</w>
clin ched</w>
class ic</w>
clar ification</w>
chur ches</w>
che ese</w>
char t</w>
champ ions</w>
cha os</w>
ch ocolate</w>
ch and</w>
cert ified</w>
cert ification</w>
car rots</w>
car diac</w>
capt ain
captain cy</w>
c us</w>
c ep
c ement</w>
c asts</w>
bure auc
bud ge</w>
bo iled</w>
bo hydr
bl os
bl ind</w>
bifur c
best- selling</w>
benefici ary</w>
be have</w>
be ans</w>
bas es</w>
b un
b hushan</w>
av ane</w>
av an
aut obiography</w>
augh ter</w>
ath on</w>
ath lete</w>
at ter</w>
at op</w>
at ar</w>
astr ous</w>
astr on
ass uming</w>
art isans</w>
arm ies</w>
ari us</w>
arg il</w>
ar us</w>
ar is
ar c
apr asad</w>
antib acterial</w>
and Short
an ths</w>
an er</w>
an ed</w>
am ic</w>
am ar
all- time</w>
al on
al arming</w>
ak ond
air ing</w>
ai y
ai -
ah l
advis ory</w>
add -on</w>
ad man</w>
ad jac
ad hi</w>
ad as</w>
accommod ation</w>
accommod ate</w>
acc laimed</w>
ac ademy</w>
ab sent</w>
a qu
Yam una</w>
Y as
Y O
X -
Wind ow</w>
Wal es</w>
Wa q
W rest
W ife</w>
W C</w>
Vot ers</w>
Ver sion</w>
Venk ata</w>
Us er</w>
Un employment</w>
Ud an</w>
Ud aipur</w>
U L
Tig or</w>
Theat re</w>
The y
Te a</w>
Tand on</w>
Tag ore</w>
T im</w>
T ickets</w>
T aj
T R
T Cs</w>
Sur jewala</w>
Sur gery</w>
St o
Sre ed
Sr ivastava</w>
Spec ifications</w>
Siddi pet</w>
Shiv am</w>
Shar ing</w>
Sha ikh</w>
Sh or
Sh inde</w>
Sh el
Sel f-
Sec ret</w>
Se par
Scot t</w>
Sch emes</w>
Saw ant</w>
Sath ya</w>
Sat ellite</w>
Sar ja</w>
SU s</w>
S ut
S usp
S tri
S ource</w>
S ood</w>
S lov
S isodia</w>
S hall</w>
S eren
S ens
S K</w>
S E</w>
Roh ini</w>
Rob in</w>
Rev olution</w>
Ret ail</w>
Res earchers</w>
Relig ion</w>
Rel igious</w>
Reg ulations</w>
Reg arding</w>
Re quired</w>
Ram babu</w>
Ram ak
Rajk ot</w>
Raj at</w>
Raj an</w>
Rab ada</w>
R ising</w>
R ating</w>
R ace</w>
R X</w>
R X
R R
Qu it</w>
Push pa</w>
Pro jects</w>
Pro b
Prith viraj</w>
Pres idential</w>
Pres ent</w>
Pregn ancy</w>
Prec aut
Prash anth</w>
Pras anna</w>
Pr of</w>
Pl at
Pl ant</w>
Pl ans</w>
Per form
Per f
Pe re
Pay tm</w>
Path ank
Pat ekar</w>
Pal ace</w>
Pakist an-
PP Es</w>
P- BJP</w>
P y
P uvvada</w>
P att
P ages</w>
P PF</w>
P P</w>
P E
P D</w>
Osc ar</w>
Op tions</w>
O liv
O f
O BC</w>
Nor th-
Nirv ana</w>
Nir bhar</w>
Nig eria</w>
Neh em
Neer aj</w>
Ne buc
Nas hik</w>
Nar avane</w>
Nagar kurnool</w>
Nad us</w>
NT Rs</w>
NR E
N ow
N on
N -
Mon soon</w>
Mic ro</w>
Met allic</w>
Meen akshi</w>
Me er
Manufact uring</w>
Manj u</w>
Man mad
Main tain</w>
Mach ilipatnam</w>
Ma hal</w>
MC G</w>
M ong
M l
M ittal</w>
M ank
M ama</w>
Lin ux</w>
Lif eline</w>
L ords</w>
L ong
L iqu
L abor
L O
L K</w>
Kul bhushan</w>
Ke eping</w>
Kaz hagam</w>
Kar un</w>
Kar achi</w>
Kam areddy</w>
Kal i</w>
K uk
K end
K argil</w>
K R</w>
K G
K E</w>
K A</w>
Jon athan</w>
Jay ant</w>
J up
J ephth
J ak
J air
J aff
J AC</w>
Inst all</w>
In side</w>
In fl
IS F</w>
Huzur nagar</w>
Huaw ei</w>
Har deep</w>
H ans
H ab
H U
H PV</w>
Gul f</w>
Guaran tee</w>
Gre eks</w>
Go el</w>
Gar g</w>
Gar den</w>
Gab bar</w>
G um
G ot</w>
G hee</w>
G ha
G ari
Fund s</w>
Fri end
Fr uit</w>
Fr ank
Fortun er</w>
Fe ature</w>
Fam ilies</w>
Fa ith</w>
F lights</w>
F athers</w>
F ast</w>
F alls</w>
Exp ected</w>
Ex peri
Er tiga</w>
Er n
Eph r
Eng ine</w>
En tire</w>
En d</w>
Dul quer</w>
Du bey</w>
Disc us
Dis ease</w>
Dh ru
Devg an</w>
Depos it</w>
De ar</w>
Dar bar</w>
Daggub ati</w>
D z
D oval</w>
D os
D had
Cycl one</w>
Cust oms</w>
Cr ick
Coo perative</w>
Cont roller</w>
Congress- NCP</w>
Congress s</w>
Com petition</w>
Col omb
Ci az</w>
Chowd ary</w>
Chem istry</w>
Charm me</w>
Ch icago</w>
Ch arg
Cel erio</w>
Car los</w>
Cap e</w>
Cam era</w>
C ool</w>
C offee</w>
C havan</w>
C ass
C NG</w>
C H</w>
Bu y</w>
Bre ak
Bor n</w>
Bom b</w>
Bis w
Bhatt i</w>
Bhar ati</w>
Bh oj
Bh and
Be ij
Band la</w>
Band i</w>
Bah rain</w>
BS -
BJP- ruled</w>
BJ D</w>
B row
B ow
B ai
Ayush mann</w>
Ayush man</w>
Aurang abad</w>
Au dio</w>
As if</w>
Arrang ements</w>
Ar ms</w>
April -
Ap ache</w>
Anc ient</w>
An k
Amb assador</w>
Am ma</w>
Am id</w>
Al together</w>
Ag erwal</w>
Afr ic
Abo ve</w>
Abhin andan</w>
AT M</w>
A M
7 4
6 5
4. 5</w>
4 GB</w>
3 0-
25 .
24 .
2- 1</w>
2, 4
2, 3
2 25</w>
2 1
197 8</w>
197 7</w>
19 9</w>
19 66</w>
14 2</w>
14 1</w>
14 ,
13 7</w>
13 5</w>
12 3</w>
11 th</w>
10 1</w>
1. 7</w>
1, 2
0. 3</w>
0 5.
0 4</w>
- long</w>
' d</w>
zz ar</w>
z ing</w>
year s
years -old</w>
y e
y avar
yavar dhan</w>
y ant</w>
wrong doing</w>
work force</w>
won dered</w>
wi reless</w>
wheel ers</w>
we ird</w>
we al
water logging</w>
war rior</w>
war ran
w oes</w>
w ishing</w>
w ire</w>
w inters</w>
w il
w asted</w>
vo iced</w>
virt ue</w>
ver ses</w>
ve dic</w>
vari ation</w>
var dhan</w>
vand alised</w>
v ings</w>
v ic
v ency</w>
ure r</w>
ur t</w>
ur ious</w>
upgrad ed</w>
under -
und oub
und es
un rest</w>
un lock</w>
un like</w>
un abated</w>
um athi</w>
um ari</w>
ul es</w>
uk e
ug gling</w>
u res
turn ed-
troubl es</w>
trib ut
trib als</w>
trans form
tra it</w>
tr ucks</w>
tr im
tor ched</w>
tol erance</w>
to s</w>
three- day</w>
thr itis</w>
thr ice</w>
thir ty</w>
th care</w>
tem per</w>
tel es
teles cop
tel ep
te ed</w>
te amm
targ eting</w>
tal ents</w>
tab s</w>
tab let</w>
t issue</w>
t ightened</w>
t ie
t ics</w>
t edly</w>
swe eping</w>
superi or</w>
super vision</w>
sum mers</w>
sub continent</w>
stat utes</w>
st y</w>
st while</w>
st umps</w>
st er
spec ulations</w>
spac ecr
sp y</w>
sp ree</w>
sp at</w>
sp aces</w>
sou th-
sol vency</w>
so dium</w>
snow fall</w>
sm ote</w>
sl iced</w>
sing ers</w>
simultane ous</w>
showcas ing</w>
shou ld
shir t</w>
shi eld</w>
shel ter</w>
shame ful</w>
sha bad</w>
sev en-
se am
sc attered</w>
sc athing</w>
sadd ened</w>
s ounded</w>
s orts</w>
s killed</w>
s es
s ement</w>
ro s</w>
ridic ulous</w>
rib ly</w>
rev ered</w>
ret ali
resurrec ted</w>
res id
request ing</w>
repe aled</w>
rep aired</w>
rel ent
rel ative</w>
refresh ing</w>
reb ell
real ty</w>
real -time</w>
re y</w>
re start</w>
re prim
re opened</w>
re new
re igned</w>
re ferences</w>
ra ve</w>
ra ided</w>
r att
r ats</w>
r ations</w>
r and
r al</w>
public ly</w>
psych ological</w>
provinc es</w>
prover b</w>
prot agonist</w>
prosp ect</w>
promot es</w>
programm ing</w>
proc ession</w>
pro portion</w>
pres ump
pref erred</w>
pref er</w>
pred ict
pre dict</w>
pract iced</w>
pr us</w>
pon der</w>
po ison</w>
plant ation</w>
plac ing</w>
pic nic</w>
phy si
philosop hy</w>
ph rase</w>
perman ently</w>
pe as</w>
pe ace
partn erships</w>
part icle</w>
paragrap h</w>
par as
pan or
pac ified</w>
p ushing</w>
p umps</w>
p ot</w>
p omegran
p itted</w>
p i</w>
p har
p han</w>
p est
over flowing</w>
out look</w>
ot ion</w>
organis ms</w>
or ly</w>
or ia</w>
oppon ent</w>
on y
ograph ic</w>
og ues</w>
og at</w>
od hpur</w>
od ar</w>
oc curren
observ es</w>
obj ections</w>
obe dience</w>
ob iles</w>
o king</w>
o ad</w>
nor mal
no d</w>
neighbor ing</w>
neighb our
negl ected</w>
necess ity</w>
ne um
nat ures</w>
n adu</w>
motor ists</w>
mon etary</w>
mod est</w>
mob ility</w>
mo b</w>
mis leading</w>
mis lead</w>
mir acle</w>
min eral</w>
migr ated</w>
mer it</w>
mel on</w>
meas uring</w>
meaning ful</w>
mean time</w>
materi alise</w>
mat ernal</w>
mal es</w>
machin ery</w>
m ud
m att
lod ge</w>
loc alities</w>
lo g</w>
liter ary</w>
lip se</w>
line up</w>
lic ence</w>
li d</w>
legisl ator</w>
lect ures</w>
le el</w>
le ak
leak age</w>
laun ching</w>
la x
la p</w>
la bel</w>
l ime</w>
kill ings</w>
kil o
k rishna</w>
k el</w>
juven ile</w>
jo ints</w>
j ib
j er
j ag
iz z
ix ed</w>
iv edi</w>
itu al</w>
it y-
is odes</w>
invis ible</w>
inter act</w>
intens ify</w>
integr ation</w>
int imate</w>
inspir ing</w>
insp ection</w>
ing ham</w>
in su
in ducted</w>
in definitely</w>
in complete</w>
import antly</w>
imp acts</w>
im posing</w>
im perative</w>
im pe
im edia</w>
ill ary</w>
idh hi</w>
ide ology</w>
id ation</w>
ic emen</w>
i 10</w>
hyp oc
hug ged</w>
hor se
hor rif
hi e</w>
hear ted</w>
heal ing</w>
harass ed</w>
handic r
had ne
hab le</w>
h udu</w>
h r</w>
h ated</w>
gri d</w>
government- run</w>
gl oves</w>
gir l
ge ared</w>
g uda</w>
g er</w>
fut ures</w>
fru itage</w>
form idable</w>
fool ish</w>
fol ded</w>
foc us
floo d-
fli x</w>
fle w</w>
fl u</w>
fl att
five- speed</w>
five- judge</w>
fish eries</w>
feed back</w>
fe wer</w>
favor ite</w>
fatig ue</w>
faith fulness</w>
fac to</w>
f ool</w>
expl oring</w>
expl oration</w>
experim ents</w>
exp ects</w>
exec ution</w>
exc ess</w>
exc eeding</w>
ex terior</w>
eval uate</w>
ev ent
eth eless</w>
et u</w>
et ted</w>
establ ishments</w>
est a</w>
es na</w>
es ar</w>
er stwhile</w>
er ic</w>
ep ts</w>
ep isodes</w>
entr y-level</w>
ent ally</w>
ens ation</w>
end r
end less</w>
end angered</w>
encour agement</w>
en light
en ings</w>
en did</w>
en acted</w>
embarrass ed</w>
electr onics</w>
el -
ek a</w>
ed it
ec har
ear ths</w>
e tr
e fire</w>
e bs</w>
drun k</w>
dr inks</w>
dr ies</w>
dr e</w>
doubl es</w>
doc tr
do zen</w>
disc over</w>
dis miss
dis g
dis astrous</w>
dimens ional</w>
dig it</w>
diff er</w>
diagno se</w>
di pped</w>
des per
des irable</w>
des cent</w>
deploy ment</w>
decl aring</w>
deal ings</w>
de pl
d wel
d ressed</w>
d ose</w>
d icate</w>
cub es</w>
cros s-
crit ic</w>
cre ants</w>
cr ush</w>
cr af
coun sel
cor n
conv ict</w>
cont ents</w>
constitut es</w>
consist ed</w>
consid ers</w>
condol ence</w>
conc erted</w>
con version</w>
con sp
comp at
commun icate</w>
comm ander</w>
col oured</w>
clim b</w>
clim ax</w>
class ified</w>
civil ization</w>
child rens</w>
chem istry</w>
cha p
ch rom
ch ment</w>
ch ipped</w>
cent ered</w>
cat ches</w>
cardi ovascular</w>
car vings</w>
car ing</w>
car bohydr
c ues</w>
c ies</w>
c ats</w>
c ared</w>
by- polls</w>
but ter
budg eted</w>
broad er</w>
brief ly</w>
bre ach</w>
box er</w>
bor row</w>
boo ths</w>
bo ats</w>
bo asts</w>
bl u
be having</w>
bas king</w>
ban on</w>
ball ot</w>
back bone</w>
b oss</w>
b old
b en</w>
az ar</w>
ay atra</w>
ay am
ax is</w>
aw i</w>
aw at
aw ake</w>
avail ed</w>
av ia</w>
av el</w>
author ised</w>
auth ored</w>
att ends</w>
ate way</w>
at rocities</w>
at ia</w>
asth alam</w>
assemb led</w>
ass y</w>
ass ume</w>
ass ail
ash wi</w>
as sures</w>
as ar
as aki</w>
arr ange</w>
ared ness</w>
ar rog
ar kar</w>
ar as</w>
ar ams</w>
app arent</w>
ap iece</w>
ap athy</w>
ap art
any ahu</w>
ann ess</w>
ang i</w>
an es</w>
am urthy</w>
am mon
all ot
al t
agu dem</w>
ag an</w>
ag a</w>
advert ising</w>
advers ely</w>
adev ara</w>
ades hi</w>
ad oles
ad o</w>
ad just</w>
ad judged</w>
ad an</w>
accoun t
access ories</w>
acc o</w>
ac knowledge</w>
ac halam</w>
absor b</w>
abha dra</w>
ab laze</w>
a iming</w>
Z echar
Yad adri</w>
Y ar
Whe rever</w>
Wh oever</w>
W ish</w>
W ild
Vy jayanthi</w>
Vo ter</w>
Viz ag</w>
Vish wa</w>
Vill agers</w>
Vijay amma</w>
Vid yal
Vid han</w>
Vi hari</w>
Vern a</w>
Venkat aram
Veg esna</w>
Ved a</w>
Ve era</w>
Valent ines</w>
Vad od
V- 2</w>
V ote</w>
V olk
UP I</w>
U pp
U n</w>
Turk ish</w>
Transl ation</w>
Trad itional</w>
Tow ards</w>
Tom ato</w>
Thunder bird</w>
Text iles</w>
Ter m</w>
Tendul kars</w>
Temper atures</w>
Tej ashwi</w>
Techn ologies</w>
Tamil isai</w>
Tal uk</w>
Tah ir</w>
T ower</w>
T ok</w>
T arg
T all
T TV</w>
T G</w>
Syn drome</w>
Sury adevara</w>
Sun iel</w>
Sun deep</w>
Sun anda</w>
Sud ha</w>
Sud denly</w>
Subram anyam</w>
Subbar aj</w>
Su rely</w>
Stu dio</w>
Stu dies</w>
St ress</w>
St reng
Sr ir
Som alia</w>
Sir aj</w>
Sind h</w>
Sim on</w>
Sik ri</w>
Shim la</w>
She ila</w>
She ena</w>
Shash ank</w>
Sh ree</w>
Sh ocking</w>
Seren a</w>
Se x</w>
Se ems</w>
Sathy araj</w>
Sarban anda</w>
Sar abhai</w>
Sanj iv</w>
Sam aria</w>
Sal t</w>
Saf ari</w>
S- Cross</w>
S port
S ong</w>
S od
S n
S ign
S ections</w>
S att
S anth
S an</w>
S G</w>
Rub ens</w>
Roh t
Rest r
Respon ding</w>
Regul atory</w>
Ref erring</w>
Rec ent</w>
Re quest</w>
Re ading</w>
Re acting</w>
Rang an
Rajinik anths</w>
Raj yavardhan</w>
Ragh ub
R- V</w>
R oss</w>
R ock
R TI</w>
Quest ion</w>
Protest ant</w>
Pro te
Pres sure</w>
Prep are</w>
Pract ice</w>
Pr ay
Pow erful</w>
Portug u
Phys ics</w>
Pharis ees</w>
Phar ma</w>
Ph ogat</w>
Perform ance</w>
Perf ect</w>
Ped di</w>
Pear l</w>
Pati ents</w>
Pathank ot</w>
Par ade</w>
Pand emic</w>
P last
P ent
P ass</w>
P anj
P R
O l
Nur sing</w>
No ah</w>
Nil am</w>
Net flix</w>
Net anyahu</w>
Nebuc hadne
Nar s
Nand ini</w>
Nal ini</w>
NG Os</w>
N ile</w>
N idhhi</w>
N D</w>
Murug an</w>
Mural idhar</w>
Moz illa</w>
Motor cycles</w>
Mot ion</w>
Mo hali</w>
Met al</w>
Maur it
Mas ood</w>
Mar cus</w>
Manmad hudu</w>
Man u</w>
Mahar ash
Mad an</w>
M it
M iddle</w>
M att
M asters</w>
Ly on</w>
Le wis</w>
Le h</w>
Le banon</w>
Lank esh</w>
Lam b</w>
L E</w>
Kum ars</w>
Krish nam</w>
Koh li
Kha leel</w>
Ke y
Ke emo</w>
Kashmir is</w>
Kann a</w>
Kal am</w>
Kag iso</w>
Kadi yam</w>
Kab addi</w>
K ong
K id
K i</w>
K hus
K hal
K ang
K ING</w>
J im
J azz</w>
J ah
Israel ite</w>
Israel i</w>
Intern ation
Inte rested</w>
Indi a
Indi Go</w>
Inde x</w>
Ind ra
In dra</w>
Im ages</w>
IO C</w>
IN S</w>
IF S</w>
I U
Hop efully</w>
Hol der</w>
Hel ps</w>
Heal thcare</w>
Harv ard</w>
Har ass
H ot</w>
H on</w>
H old</w>
H im</w>
H edge</w>
H ands</w>
H air</w>
H F
H .
Griev ances</w>
Gener ation</w>
Gen eva</w>
Ge eta</w>
Gar lic</w>
Gal wan</w>
Ga ur
G urgaon</w>
G und
G ol
G hat</w>
G hat
G em
G all
G O</w>
For m</w>
Fin land</w>
Fil es</w>
Fi ro
Fe w</w>
F s</w>
F if
F M</w>
F AT
Ex ams</w>
Every ones</w>
Ev ent</w>
Ern akulam</w>
Ephr aim</w>
Ep isode</w>
Enter prises</w>
El isha</w>
E yes</w>
E ase</w>
Dw ivedi</w>
Dut ta</w>
Dre am</w>
Does nt</w>
Divis ional</w>
Dik shit</w>
Digvij ay</w>
Diff ic
Did n</w>
Di xit</w>
Di a
Dhad ak</w>
Dem and</w>
Del his</w>
Dec can</w>
De ad</w>
D on
D ol
D P
Cy prus</w>
Cur few</w>
Cor ps</w>
Comp ass</w>
Com bine</w>
Colon el</w>
Co -
Chit ra</w>
Chat urvedi</w>
Chand a</w>
Ch ok
Ch ev
Ch ec
Ch att
Cat ering</w>
Car ib
Campa ign</w>
C ott
C II</w>
Bu ild</w>
Brah man
Bop anna</w>
Bo x</w>
Bl essed</w>
Bhim avaram</w>
Bhatt acharya</w>
Bhar g
Bh an
Bell amkonda</w>
Beij ing</w>
Beg um</w>
Beaut iful</w>
Be hav
Bab y</w>
Bab us</w>
B uses</w>
B s</w>
B eth</w>
B apt
B all
B L</w>
B H
B D</w>
Aw areness</w>
Arm ies</w>
Arch it
App arently</w>
Ang el
All en</w>
All -
Ale x</w>
Aer onaut
Account ants</w>
Ac tor-
Abhi yan</w>
AT Ms</w>
A be</w>
9 0,000</w>
8 5
7. 4</w>
7, 500</w>
5, 7
5 7
5 4
4. 2</w>
4 G</w>
4 8
4 000</w>
32 GB</w>
3 76</w>
24 ,
201 6-
2, 6
2, 0
197 4</w>
19 th</w>
19 80</w>
19 75</w>
19 69</w>
19 47</w>
18 8</w>
18 .
17 th</w>
16 .
14 6</w>
13 th</w>
13 6</w>
13 2</w>
13 -megapixel</w>
12 6</w>
12 1</w>
12 ,000</w>
1. 3</w>
1, 6
1, 200</w>
1 11</w>
1 10
. The</w>
zek iah</w>
yn asty</w>
year -
y am
y aan</w>
worshi pers</w>
wholes ome</w>
well- being</w>
weigh ed</w>
we aker</w>
water falls</w>
warran ty</w>
war t</w>
war ding</w>
wa ite</w>
wa ist</w>
w ipe</w>
w est
w ept</w>
vide o-
van illa</w>
v is</w>
v ania</w>
util ized</w>
ut osh</w>
ut ory</w>
uss le</w>
usc ept
us u
us ions</w>
ures que</w>
ur ances</w>
upro ar</w>
upr ight</w>
up ta</w>
up grade</w>
up a</w>
unve iling</w>
unve il</w>
undoub tedly</w>
undes erved</w>
under went</w>
un well</w>
un ks</w>
un identified</w>
un aware</w>
umb ers</w>
um per</w>
um mar</w>
ul ting</w>
uke warm</w>
ud ha</w>
ud ge</w>
u ates</w>
u ar</w>
tw itter</w>
tw in-
tru ths</w>
tru th
troubl ing</w>
tri angular</w>
trem ors</w>
transp ired</w>
trans action</w>
tr ick
tor n</w>
top ple</w>
tol erated</w>
to ol
to ken</w>
to b
tob acco</w>
tim ing</w>
tim e-
tig er</w>
ti rel
tirel essly</w>
throw ing</w>
thr illing</w>
th waite</w>
th in</w>
th ief</w>
th ick
territ orial</w>
ter ribly</w>
ter rain</w>
telescop ic</w>
telep hon
teh sil</w>
tax i</w>
tank ers</w>
tall est</w>
tak e
t ussle</w>
t sunami</w>
t rolled</w>
t ica</w>
t anks</w>
syn drome</w>
sw agen</w>
surviv ors</w>
sur rendered</w>
subj ected</w>
sub stances</w>
su b</w>
stre ak</w>
st ery</w>
st ep
st ellar</w>
st an</w>
st ag
st abil
st abbed</w>
spo on</w>
spl endid</w>
spir its</w>
speci ality</w>
spec ts</w>
spec ifically</w>
sp icy</w>
so red</w>
sm ail</w>
slow down</w>
sli p</w>
sl owing</w>
sl owed</w>
sl ice</w>
sk i</w>
sil s</w>
si as</w>
shr ines</w>
show ers</w>
show case</w>
shoo ter</w>
shif ting</w>
sh ook</w>
sh ini</w>
sh ane</w>
ses ame</w>
ser ial</w>
sequ ences</w>
sensit ivity</w>
sem is</w>
sel ector</w>
secret ariat</w>
se ated</w>
scar city</w>
sc o
sc iences</w>
sanct ified</w>
sam ple</w>
saf er</w>
sa ut</w>
s words</w>
s wor
s way</w>
s uscept
s op
s now</w>
s ized</w>
s its</w>
s ie
s ible</w>
s ever
s aint</w>
s '</w>
run n
rob bers</w>
ro pol
ro pe</w>
ro of
riv al
ricksha w</w>
ric ul
ric ist</w>
rib ing</w>
ri ka</w>
ri ages</w>
rev olves</w>
retal iation</w>
res earch
request s</w>
rep utation</w>
ren e</w>
remedi es</w>
rem ost</w>
rem ind</w>
reli eve</w>
relax ation</w>
rej ection</w>
ref resh</w>
recip e</w>
rec ord
rebell ion</w>
rebel li
rebelli ous</w>
re tri
re plies</w>
re eling</w>
rang ing</w>
ran ean</w>
ra p</w>
r allied</w>
q bal</w>
pu jas</w>
prov oked</w>
proph esy</w>
promot ions</w>
proc eeds</w>
proc eeded</w>
pro verbs</w>
pro min
pro blem
privileg es</w>
priv ation</w>
prev ail</w>
presump tu
prec eding</w>
pre judice</w>
pre hensive</w>
pract icing</w>
pp .</w>
post al</w>
posit ioned</w>
por nography</w>
ple x</w>
plan ets</w>
pl ess</w>
pip ed</w>
pict uresque</w>
phosphor us</w>
per ial</w>
pedest rians</w>
pe red</w>
part ial</w>
param eter</w>
panor amic</w>
p neum
p ig
p icking</w>
p ensioners</w>
p aved</w>
p ains</w>
p .
ov ers
ou ting</w>
ot ype</w>
organ izing</w>
ord oned</w>
or ous</w>
or ate</w>
on ically</w>
ome tre</w>
ol ing</w>
off ended</w>
occup ies</w>
occup ation</w>
occas ionally</w>
obe dient</w>
o ily</w>
negot iations</w>
necess itated</w>
ne tra</w>
n ail</w>
my er</w>
mountain ous</w>
mor tal</w>
mon uments</w>
modif y</w>
mo ther-in-law</w>
mis led</w>
mis information</w>
minist ries</w>
min i</w>
mid night</w>
met als</w>
ment ioning</w>
memor andum</w>
mat urity</w>
mar v
mang anese</w>
mand is</w>
man agers</w>
mam moth</w>
m ul
m l</w>
m igration</w>
m ath</w>
m ans
m alls</w>
long ed</w>
liqu id
lev ied</w>
let in</w>
leg ium</w>
le op
law ful</w>
laug hs</w>
la sts</w>
l ukewarm</w>
l ish</w>
l as</w>
l ane</w>
kind ly</w>
kind led</w>
kil ometre</w>
k is
k hi</w>
k h</w>
just ices</w>
j ealous</w>
j e</w>
iz er</w>
iv ansh</w>
iter ranean</w>
is ri</w>
ir re
ir ation</w>
ipp ing</w>
invest ed</w>
inv ent
internation ally</w>
inter mediate</w>
inter iors</w>
inter course</w>
inter cep
intercep ted</w>
inter actions</w>
int ol
install ment</w>
iniqu ity</w>
ine a</w>
indic ations</w>
inc ess
inc ent
inaug ural</w>
in ous</w>
in ness</w>
in fin
in ev
inev itable</w>
implic ations</w>
imp ending</w>
imag ined</w>
im morality</w>
illustr ate</w>
ill ion
ik ota</w>
ight ful</w>
ig ar
ig a
if er</w>
ie ws</w>
id ency</w>
i- Fi</w>
i ality</w>
hy ari</w>
hur d
hum an
htt ps</w>
host ile</w>
hospit ality</w>
[...]
