#version: 0.2
ా ర
్ ర
ం ద
న ్
స ్
ర ్
ల ు</w>
న ి
న ి</w>
ల ో</w>
ి ం
్ య
ప ్ర
ార ు</w>
ా ల
క ్
ంద ి</w>
న్ న
ిం చ
గ ా</w>
వ ి
న ు</w>
క ు</w>
చ ే
త ు
ట ్
ర ి
క ు
త ్
ా య
ం డ
ల ్
ం ట
ం త
మ ా
క ి</w>
ర ా
స ి
క ా
ప ్
స ు
వ ా
న ్</w>
డ ు</w>
ల ి
క ో
ద ్
న ు
స ్</w>
ర ్</w>
ార ్
ప ో
చ ి
మ ు
ర ు
ప్ ప
డ ి
ం గా</w>
గ ు
ద ు</w>
ల ే
స్ తు
క ొ
న్న ారు</w>
ట ి
స్ త
ద ి</w>
ం లో</w>
ల ్</w>
ల ో
స ం
క్ ష
చ ్
ప ా
ల ు
త ్ర
మ ి
ట్ ట
త ి
ద ే
్య ా
ాయ ి</w>
ష ్
త ె
వ ే
య ా
ర ు</w>
ల ా
న ే
ని కి</w>
న్ ని</w>
న ా
క ూ
య ి
ంద ు
ప ె
చ ె
న్ న</w>
క ే
త ీ
త ి</w>
ం గ
ట ్</w>
ం చ
స ా
క ార
ర ో
డ ు
ద ా
త ో</w>
శ ా
వ ు
ప ు
ించ ి
బ ా
వ ార
మ ీ
స్ థ
వ ర
ల్ ల
న ే</w>
వ ె
ప ై</w>
ప ి
ై న</w>
క్ క
డ ్
డ ా</w>
ాల ్
గ ి
మ ె
ద ి
ళ ్
ర ె
ల ను</w>
ద ీ
క ్ర
స్ ట
మ ో
ల ీ
ించ ారు</w>
ల కు</w>
చ్ చ
కూ డా</w>
ద ు
గ ్
ధ ా
ధ ి
త ా
చే య
భ ార
ష్ ట
రి య
వ ీ
క ్</w>
న ా</w>
మ ్
ని ర్
ంత ో</w>
ప రి
త ం</w>
న ీ</w>
సి ని
ట ీ
దే శ
డ ి</w>
లే దు</w>
గ ా
ట ి</w>
ఆ య
స ీ
ు లు</w>
ట ు</w>
భ ా
వ ్య
డ ా
న్న ా
ండ ి</w>
ంత ్ర
ంద ి
య ం</w>
తె లి
రా జ
క ె
మ రియ
న ం</w>
మరియ ు</w>
జ ా
అ యి
జ ి
ట్ లు</w>
్ర ా
గ ్</w>
డ ్</w>
ట ు
ల ా</w>
పో లీ
మ ు</w>
శ ారు</w>
మ ర
ర ూ</w>
మ ైన</w>
డ ం</w>
సు కు
మ ే
న్న ాయి</w>
త ే</w>
న ీ
క ి
హ ి
మ ంత్ర
ప్ప ు
బ ్
శ ్
వ ర్
భ ు
మ ొ
ప ు</w>
స ి</w>
ంట ు
వ ై
అ త
అ వ
ఇ ది</w>
ద ర్
ంచ ి</w>
స ె
ప ూ
ర ే
ం ధ
ఒ క</w>
మ ా</w>
త్ వ
య ో
ప్ర ా
ిం గ్</w>
చే సి
స మ
సు లు</w>
క ర
ందు కు</w>
ాల ి</w>
మ ార్
ఉ ంది</w>
వి ష
బ ి
ఆయ న</w>
త ్</w>
ద్ ద
ప ొ
ించి న</w>
ల్ లో</w>
ప ే
శ ్ర
ప్ర భు
చే శారు</w>
చి త్ర
లో ని</w>
హ ా
ంట ి</w>
త్ త
య ్య
చ ూ
మ ూ
చ ాల
స ర
ట ీ</w>
వ చ్చ
బ ీ
మ ార
చె ప్ప
ఆ ర్
ధ ్య
ించ ి</w>
స ం</w>
య ు
్ య</w>
న ె
స ు</w>
ో ంది</w>
జ ీ
ప్ర ధా
అ ని</w>
ప ీ</w>
స మా
ణ ా
ఉ ండ
చ్ చి
మంత్ర ి</w>
అ ధి
గ ్ర
స్తు న్నారు</w>
కా నీ</w>
ాల ను</w>
ఎ న్
అయి తే</w>
అ ను
చ ు
దర్ శ
య ా</w>
చాల ా</w>
్ ర</w>
ద ్య
ర ీ
జ ే
ించి ంది</w>
ంట ే</w>
స్థ ా
పోలీ సులు</w>
వ ు</w>
ము ఖ
కో వ
ల క్ష
భ ి
స్ ప
చ ార
క ాల
ప ార్
జ రి
మ ్</w>
్ర ె
స ే
త న</w>
రు గు
డా నికి</w>
ను ంచి</w>
రె ండ
చ ర్
ద్ ధ
త్వ ం</w>
క్ కు
సిని మా
ట ె
స్తు ంది</w>
వ ్యా
ఘ ట
క ే</w>
క లి
మ ంది</w>
తు ంది</w>
వార ి
ప ీ
సిని మా</w>
కో సం</w>
హ ో
గ ొ
వా త</w>
మ ై
ాల ని</w>
వ ి</w>
ఎ ం
ా డు</w>
బ ు
2 0
క ా</w>
రో జ
ర ి</w>
లే ద
క ీ
త ్య
నే ను</w>
ంద ్ర
ట్ట ు
కార ్య
తె లు
వ ్
ాల్ లో</w>
పా టు</w>
అ ంద
వ ల
వ ారు</w>
ంద ని</w>
ప ్</w>
అ ంత
త ర
ించ ు
న్ య
రా ష్ట
ప్ప టి
మ ే</w>
ంద ్ర</w>
ఇ ం
ప్పు డు</w>
జ ె
క ీ</w>
బ ంధ
ండ ి
వి జ
ం బ
ళ్ ల
ష న్</w>
పూ ర్
ట్ ల</w>
వ హ
మా త్ర
స హ
క్ క</w>
కా ంగ
ఉ ంటు
శ ి
అ ందు
బ ె
స ూ
ముఖ ్య
ర ై
ర ూ
మ హ
ట ్ర
ష ్</w>
చే సుకు
డ ీ
కాంగ ్రె
ద ్</w>
అ ది</w>
ని క
జరి గి
న్నా డు</w>
ప ారు</w>
మ ె</w>
ాయ ి
స ో
దీ ంతో</w>
మీ రు</w>
కా దు</w>
స ార
జ ీ</w>
ా లు</w>
ి క</w>
స్త ా
య ె
క్ర ి
ను ండి</w>
హ ై
ఫ ్</w>
మ్ మ
ండ ్</w>
భ ్య
గ ో
0 0</w>
మ ృ
అ భి
ఉ న్నాయి</w>
బ ో
ల లో</w>
ం త</w>
ఫ ి
బ ్యా
త ంగా</w>
న కు</w>
క ట
న మో
క ర్
ద్ ద</w>
స్థ ి
న్ స్</w>
లో కి</w>
గ ు</w>
అధి కార
ర ం</w>
క ార్
ణ ం</w>
్య ూ
తెలి పారు</w>
మొ ద
ఆ మె</w>
ఉ న్న
కాంగ్రె స్</w>
ధ ార
ఎ స్</w>
ప్రభు త్వం</w>
మ ని</w>
స ై
ల తో</w>
జ ్</w>
వ ్</w>
వ్య క్
ట ర్</w>
త ే
ంగ ా
క ృ
య ొ
త్ర ి
ట ా
ద్ వార
వర కు</w>
ు డు</w>
స్ ట్</w>
రాష్ట ్ర
ప్ర జ
ఉ న్న</w>
గు ర
ప ం
బీ జే
ం భ
మ ీ</w>
లా ంటి</w>
గ ి</w>
తీ సుకు
త ర్
ఎన్ నిక
వచ్చ ు</w>
ద ే</w>
డ్ డ
ప్ర తి
త్ త</w>
ాల కు</w>
చేసి న</w>
హ ీ
లో నే</w>
త ో
ఉంటు ంది</w>
క్క డ</w>
త రు
ట్ట ి</w>
ల ి</w>
కు లు</w>
తు లు</w>
ఆ రో
బ్ బ
ప ాల
సం బంధ
ద్వార ా</w>
ల ె
కు మార
ప ర్
క ంగా</w>
ండ ా</w>
రెండ ు</w>
ర్ థ
త ు</w>
హ ు
ఫ ో
స్త ోంది</w>
చేసి ంది</w>
భా గ
ఎ స్
స్తు న్న</w>
సి న</w>
ల ై
డ్ డి</w>
స ంద
ట్ టి
ాల ు
వ చ్చి
ద ్ర
త ొ
ంట ్</w>
సం గ
ద ీ</w>
ప్ర కట
ప్రా ంత
మ ధ
ని య
ప్ర ార
జ ్
య ంలో</w>
వ ృ
ద ార
ప డ
యొ క్క</w>
ు ల</w>
మ ి</w>
త ోంది</w>
కో ర్
ప ట్ట
తర్ వాత</w>
హ ె
మ న
ప్ర మా
లు గా</w>
ి ల్ల
వి డు
ఏ ర్
పో యి
ఇ ండి
ఆ ర్</w>
అవ సర
యో గ
ా న్ని</w>
ళ్ ళ
విడు ద
ప ించ
తీ సు
తీ వ
అ నే
త్ తం</w>
ఢ ిల్ల
అ న
య ూ
వి ద్య
గ ాయ
ల ీ</w>
భార త</w>
ప్రభు త్
ఇ ప్పటి
ఒ క
స ీ</w>
ప ి</w>
వ ా</w>
డ ీ</w>
అ ధ్య
పరి స్థి
దీ ని
ప ై
ప్రధా న</w>
ఫ ్
అ న్నారు</w>
కొ త్త</w>
ఇ ద్ద
బ డి
త లు</w>
తీ య</w>
కు ండా</w>
ార ్</w>
ంది న</w>
హ ్
క ం</w>
స్ వా
ప డి
ప్రార ంభ
స్త ారు</w>
ట ర్
ఎ లా</w>
నమో దు</w>
క్ర మ
పో య
వ్ వ
న ాయ
ప ర
ప ాల్
ష ి
మధ ్య</w>
ఉ ంట
ఉ ప
ట్ట ు</w>
కే సు</w>
స ర్
బ ాల
గ ే</w>
క ల
చెప్ప ారు</w>
గ ్రా
బీజే పీ</w>
న గ
ప్ర ే
ఖ ా
ర్ కొ
శా ఖ</w>
వే శ
లేద ా</w>
గ్ గ
వి ధ
నా కు</w>
ట్ ర</w>
్య ం</w>
ార్ థ
డ ే</w>
ప ంచ
స్తు న్న
ప్ర దేశ
ంద ే</w>
తు న్న</w>
ట్ లా
పార్ టీ</w>
జ ర
వార ి</w>
గుర ించి</w>
ాయ ం</w>
యె హో
త ర</w>
చార ం</w>
క ం
నా లు</w>
హై ద
త్ ర</w>
వ ంటి</w>
చ ో
రా బా
ప్ర త్య
ష్ ట్ర</w>
నిర్ ణ
న్ ని
ప డు
ట ో
స ింగ్</w>
భార త్</w>
భ ూ
చిత్ర ం</w>
కొ న్ని</w>
ఉ న్నారు</w>
ంద ు</w>
న ట
ఎ క్కు
అ ం
హైద రాబా
కు టు
త ా</w>
ణ ్</w>
చే సి</w>
తు న్నారు</w>
మా ట్లా
కే ంద్ర</w>
విష యం</w>
ప ని
న్న ు</w>
గ ె
ప్రధా ని</w>
ార ని</w>
ద ం</w>
అ న్ని</w>
త మ</w>
న ో
శ్ర ీ
సంద ర్
ంట ి
కొ న
దర్శ క
వ ల్
వ్య వ
మాత్ర ం</w>
ణా లు</w>
ణ ి
మర ో</w>
జ ు
ర్ యా
రా లు</w>
ట్ లో</w>
చర్ య
ా నికి</w>
డ ె
తెలి య
ై నా</w>
కా శ
తెలి సి
గు ర్
వ ాల
ం లోని</w>
అత ్య
తె ల
సా ధ
ండ ్ర
బ ్ర
ఘట న
స రి
ఉ త్త
అ వు
తర ల
పె ట్ట
చె ందిన</w>
య ే
మొ త్తం</w>
మ ంచి</w>
క్ ష</w>
న ూ</w>
క్ స్</w>
సార ి</w>
కో ట్లు</w>
బ ు</w>
వ ీ</w>
జ రుగు
ార ా
ఎ ం</w>
ించ ే</w>
పె ద్ద</w>
వా టి
డ ంతో</w>
క ని
రు కు
స ంత
ళ్ లు</w>
ఇ క</w>
తెల ంగా
కే సు
పి ల్ల
చే సు
అ నే</w>
విడుద ల</w>
త ప్ప
దే శా
దే వు
హీ రో
శ ు
వి చార
ంట ూ</w>
1 9
ార ా</w>
బ్యా ం
ఎ దు
సమ స్
ఆర్ థ
రోజ ు
న టి
అధ్య క్ష
2 0</w>
ం పై</w>
మ హి
ప్రత్య ే
పే ర్కొ
ప థ
ద ా</w>
మ ర్
ఇ తర</w>
శా తం</w>
స భ్య
ర కు</w>
ఇ ందు
అ లా
రె డ్డి</w>
రా ష్ట్ర</w>
ార ి
విజ య
స్త ూ</w>
డ ే
యా ప్
ముఖ్య మంత్రి</w>
ఇం కా</w>
జి ల్ల
మా జీ</w>
పాల్ గొ
ఉ త్
సం ఖ
బ ్</w>
ఘట న</w>
పొ ంద
గు రు</w>
ట ం</w>
కో ట్ల</w>
మీ డి
నిర్ మా
జా తీయ</w>
న ట్లు</w>
పా త్ర
ి ంది</w>
కార ం</w>
ల పై</w>
చ ి</w>
కు డు</w>
ద ృ
బ ట్టి</w>
ంగ ్
ప ాయ
వ ం</w>
మ ్యా
ఏ మి
స్ వ
ర ంగ
నిర్ వహ
త ూ</w>
ణ ంగా</w>
అ మె
కొన సా
త్ వర
ఫ ీ
లక్ష ల</w>
అవసర ం</w>
ష్ట ం</w>
న్నా ను</w>
న రే
ప్ర శ్
య్య ారు</w>
మ నం</w>
అ ర్
ర ా</w>
య న్</w>
త మి
వా హ
ప డ్డ
జ ో
న లు</w>
మా న
అ క్క
ప రీ
గా ంధ
ట ై
చే శా
త్ తు
క ల్
ద ూ
వల్ ల</w>
ించ ాడు</w>
ఇద్ద రు</w>
తు న్న
న ను</w>
యా న్ని</w>
జీ వి
ని జ
వ ార్
తి ని</w>
సమా చారం</w>
ప్ర తి</w>
జ న
ల్ లి
క పో
దర్ యాప్
జరిగి ంది</w>
కోర్ టు</w>
తె ర
పోలీ సు
పోయి ంది</w>
చూ డ
రాజ కీ
క్ష ి
ఎ వ
స్ థ</w>
తు న్నాయి</w>
కా గా</w>
అమె రి
ర ీ</w>
చ ంద్ర
వె ంట
20 1
బ ై
క్ టర్</w>
ష న్
భార ీ</w>
కుమార ్</w>
వె ల్ల
తెలిసి ందే</w>
ండ ్
మై న
మాత్ర మే</w>
5 0</w>
న ని</w>
ించ డం</w>
య్య ాయి</w>
మ న</w>
ని ంచ
క ర్</w>
ఎ ందుకు</w>
స్థా న
మీ ద</w>
య త్
తరు వాత</w>
న ంద
సందర్ భ
శ ీ
కి త్
ను ంది</w>
తీవ ్ర
ల ే</w>
చి కిత్
స్ట ్ర
స ిం
మో దీ</w>
ప్ర పంచ
ట ింగ్</w>
ద్ధ ి</w>
కే ంద్ర
అవ కాశ
వ్యా ప్
భార త
ాల లో</w>
ఎ మ్
స ే</w>
ించు కు
త్రి కి</w>
బా బు</w>
కా వ
ఆర్థ ిక</w>
బ ల
ప్రభుత్ వ</w>
బ య
గి న</w>
మూ డు</w>
ఇందు లో</w>
ు లకు</w>
ించ ే
ఒ క్క
పార్ టీ
ఇ క్కడ</w>
అనే క</w>
వ ంత
వ ర్</w>
చే స్తున్నారు</w>
ష ా
చ ా
ఆ ధార
ం చి
వెంట నే</w>
ప్రదేశ ్</w>
కొ ని</w>
అ ంటే</w>
ంచ ు
వై ర
చ ్</w>
ీ వు
యెహో వా</w>
తరల ించారు</w>
దర్యాప్ తు</w>
శ్ర ీ</w>
ప్ర ీ
ఇ లా</w>
డ ై
గ త</w>
ఇ వ్వ
సి ంది</w>
మొద టి</w>
పె రి
దేశ ం</w>
వ త్
సినిమా లో</w>
వారి కి</w>
స్ట ు</w>
వి శ్
ధ ి</w>
ఎ లాంటి</w>
ంత రం</w>
పూ ర్</w>
యా లో</w>
ము ందు</w>
బ డు
అ ంది
యా లు</w>
మహి ళ
రోజ ు</w>
న్న ా</w>
నే త</w>
ఢిల్ల ీ</w>
అలా గే</w>
ే దు</w>
అ రె
రా హు
మార్ కె
మ ంది
ధ ర
ఇప్పటి కే</w>
ల భ
ప్ర యత్
ప్ర భా
రా వ
ర ణ
మంత్ర ి
పె ట్టు
అ మ
మృ తి</w>
న్య ూ
ట్ స్</w>
ఉ ద్య
స్త ే</w>
ప ద
గ ం</w>
ఆ స్ప
సమా వేశ
జ ర్
న ర్
రి కి</w>
కోవ ాలి</w>
పూర్ తి</w>
ఉప యోగ
ు లను</w>
ఇండి యా</w>
సం వత్
పరిస్థి తి</w>
ట ా</w>
ంట ారు</w>
వచ్చి ంది</w>
న ల్</w>
ిం త</w>
ర ాల
ఫ ై
దా ని
చికిత్ స</w>
1 0</w>
వీ డి
ల ం</w>
మో డీ</w>
కా బట్టి</w>
స్త ్ర
సంబంధ ించిన</w>
అ భ్య
స్ట ే
ఏ ం</w>
జ్ ఞ
ర ం
గాంధ ీ</w>
ని లి
వ ద్ద</w>
మే రకు</w>
ించ డానికి</w>
అభి వృ
ష ల్</w>
ల ్య
క రో
వి వర
తెలంగా ణ</w>
జ ై
సంగ ీ
ష ే
వ్య వహ
జరిగి న</w>
ను న్నారు</w>
దా ని</w>
కృ ష్
తా ను</w>
ాయ ని</w>
న ర్</w>
భ వ
గ ే
ఎ వర
మే ము</w>
న్న ీ</w>
ాల ్</w>
వారి ని</w>
ప ని</w>
గ ల</w>
రాహు ల్</w>
తెర కె
క ూ</w>
ర క్ష
వ ే</w>
తు ల</w>
దేశ ంలో</w>
అత ను</w>
ీవు డ్</w>
బ ం
విద్య ార్థ
డ ్ర
క ంటే</w>
భా ష
ల్ లా
ప లు</w>
విష య
యో జ
వెల్ల డ
వి ని
ఆ ఫ్</w>
కు న్న</w>
ఏమి టి</w>
చ ట్ట
ిం పు</w>
ర్ చ
కలి సి</w>
ద్ దు</w>
త మ
జిల్ల ా</w>
ఇ న్
సమ యంలో</w>
ము ను</w>
హ ార
దీ ని</w>
చర్య లు</w>
ంత ా</w>
సం స్థ
లేద ని</w>
స ౌ
ని ంది
అధికార ులు</w>
వార ం</w>
నిర్ మ
సు ప
వు లు</w>
త్వ ంలో</w>
ఢిల్ల ీ
క మి
హీరో యి
క ిం
బా గా</w>
న్య ాయ
ద ని</w>
దీ నికి</w>
య ో</w>
ఆ ల
ల్ల ి</w>
వ ం
ని వా
మర ింత</w>
చ ీ
సమస్ య
న ూ
త్ య</w>
తి గా</w>
ఆ మె
చే రుకు
సందర్భ ంగా</w>
ఉంట ాయి</w>
త ను</w>
కీ ల
ఫ లి
పడ్డ ారు</w>
న ాలు
తొ లి</w>
కుటు ం
మె ంట్</w>
జర గ
కార్య క్రమ
త ాయి</w>
త య
గుర్ త
ఏర్ పాటు</w>
అ ప్ప
వె ళ్ల
ఫి ర్యా
కు ంటు
క థ
ని క</w>
మ ం</w>
ర్ చు
ప్ర ి
ఎమ్ మె
ఆ లో
ంట ర్
మర ణ
వ న్</w>
ల్ స్</w>
చే స్తు
ప్ర యా
వ హి
ప్పు డ
డి కి</w>
త ారు</w>
జ య
అ దే</w>
స్ట ార్</w>
వ గా</w>
ప త్
వి ధా
ట ే
ళ్ ల</w>
ము ంబ
నరే ంద్ర</w>
అధ్యక్ష ుడు</w>
ప్ర స్తు
1 0
ాల్ సిన</w>
హ ం</w>
చర్ చ
వ్యాప్ తంగా</w>
కలి గి</w>
ఉద్య ో
ప్రత్యే క</w>
అవకాశ ం</w>
అత ని</w>
ూ రు</w>
న్ లు</w>
త న
ను లు</w>
న్న ది</w>
డి ని</w>
కరో నా</w>
ప్రజ లు</w>
ట కు</w>
గి ంది</w>
స ార్
గ ల
కా లు</w>
అన ంతరం</w>
సా ధార
ఆ సుప
సంఖ ్య</w>
వి డ్</w>
రి కీ</w>
ంద ా</w>
ా ల</w>
యు వ
నె ల
టు లో</w>
దీని పై</w>
లో నూ</w>
కో ట్
ఎక్కు వ</w>
పా కి
తమి ళ
చేయ డం</w>
హి ంద
స్ప ంద
దా దా
క్ర ీ
కు ల</w>
సో షల్</w>
క ళ
ఎ ంతో</w>
హైదరాబా ద్</w>
స లు</w>
ము గ్
త గ్గ
వే య
ఎ న్న
ాల్ సి</w>
ార ీ</w>
న ంగా</w>
ఇ దే</w>
మ న్</w>
మి క</w>
పాల్గొ న్నారు</w>
న ై
తీవ ్ర</w>
వి వ
ంద ో
స క్
పె రుగు
ద ర
త్ మ
క ్య
కే వల
క ౌ
శ క్
తెలు గు</w>
స్ టి
ప్ టె
శ ో
కేవల ం</w>
శ ే
ఇ చ్చ
వర ి</w>
మ రో
స మీ
వె ళ్
తి రి
త ూ
గా నే</w>
క్రి కె
పొ ందు
సీ ఎం</w>
మీ కు</w>
చేసుకు ంది</w>
విధ ంగా</w>
పు లు</w>
కం పె
అ ని
క్ష న్</w>
స ొ
ల్ ని</w>
బె ంగ
ఫ ె
జ గ
ాల తో</w>
త క్కు
ించ ాలి</w>
పై గా</w>
చ ై
అ లా</w>
నింది తు
కే సులు</w>
సంగ తి</w>
ఎన్నిక ల్లో</w>
ల ిం
సం స్థ</w>
అంత ర్
ప్రమా ద
దా నికి</w>
నిర్ మి
మ ండ
అమెరి కా</w>
విజ యం</w>
ద ో
ఇ టీ
సే వ
చె బు
పా ద
గ ర్
రా మ్</w>
ప్రభుత్ వా
జ ా</w>
గ ౌ
వ్యక్ తం</w>
విచార ణ</w>
ర్ లు</w>
జె క్
గ్ య</w>
డి గా</w>
జ న్</w>
సి ద్ధ
విష యంలో</w>
ించ ాలని</w>
శ ం
ప్ర ొ
ఆ ంధ
చె ల్ల
ు ల
మ ధ్య
వీ టి
పో ర్
స్త ాయి</w>
బాల ీవుడ్</w>
దే శ</w>
సా ం
పేర్కొ న్నారు</w>
పి ంది</w>
ఆలో చ
అభ్య ర్థ
మర ి</w>
పరీ క్ష
టు వంటి</w>
అ ద్
అ ంచ
ించ ా
చే సే</w>
చిత్ర ంలో</w>
అం శ
ని మి
కుటు ంబ
ఎ ల్</w>
స భ</w>
భ ద్ర
క ్యా
తీ ర్
చే స్తుంది</w>
ఎమ్మె ల్య
ఆరో గ
ీ కర
ఫ ్ర
త్ తి
కో ల్
శ ర్
వై పు</w>
ప ౌ
దాదా పు</w>
రాష్ట్ర ంలో</w>
ర స
జి ల్లా
కోవ డం</w>
ాల ి
పోలీసు లకు</w>
న్ లో</w>
ద ొ
ణ ి</w>
చి న్న</w>
ందో ళ
య ంగా</w>
పోయ ారు</w>
ంగ ్</w>
ఫో న్</w>
కు న్నారు</w>
అ క్కడ</w>
స భ
మో హ
ట ో</w>
ద్ య</w>
మై ంది</w>
1 9</w>
శా ంత
వ్యా ఖ
ప ార
వాటి ని</w>
రాజ ్</w>
బడి ంది</w>
ఫిర్యా దు</w>
చిత్ర ాన్ని</w>
అ దు
నా న్ని</w>
ఎన్నిక ల</w>
వి వా
రాష్ట ్రా
త్ర ి</w>
ట ్రా
ించ ండి</w>
వ్య తి
త ది
కా ం
దర్శక త్వం</w>
త మైన</w>
డై రె
చె ంద
కా ల</w>
ఇ ప్పుడు</w>
వ్యతి రే
ప్పటి కీ</w>
పర్ య
కార్య దర్శ
ె ను</w>
వే ది
్య ంలో</w>
ించి న
అభివృ ద్ధి</w>
ఇ చ్చి
వై ద్య
ము లు</w>
దా న్ని</w>
క లు</w>
వి ధ</w>
ఆరో గ్య</w>
మ రి
హైదరాబా ద్
ప రుగు
జా గా</w>
పా ఠ
పా ట
ప్రా జెక్
కొనసా గు
ఎం పి
ం బ్
స్థ ాయి
న్నా ం</w>
అ ర్థ
వర్ ష
కొ ను
ల్ లు
మా ట
బ డ
జ రు
క ల్</w>
స్తు న్నాయి</w>
పడి ంది</w>
నే పథ
త గ్
త ంలో</w>
0 00</w>
వచ్చి న</w>
దర్శక త్వంలో</w>
చే సే
ఆరో ప
అ మి
ి న</w>
లక్ష లు</w>
న ొ
మీడి యాలో</w>
టీ డీ
చే పట్ట
ాయ ్</w>
త ండ్ర
ర ో</w>
క ాల్
స్ లో</w>
సూ చ
వి విధ</w>
ప తి</w>
కె ప్టె
సు ప్రీ
వి స్త
మహ ే
ప్ ప</w>
సమా ధా
భార త్
ధ ర</w>
ంద న్నారు</w>
స ర్</w>
త ల
ప క్ష
ప ం</w>
ధ ీ
చేశా డు</w>
ఆ ందోళ
ల్ లు</w>
ను న్న</w>
ష ూ
లు వ
ద ె
రా వు</w>
ర ారు</w>
తా జాగా</w>
చిత్ర ానికి</w>
అ సె
బ డ్
చి న</w>
కో హ్
మార ు
వె ం
పె ద్ద
త ల్లి
ట్ర ో
ఇ ంత
కార ణంగా</w>
శ ్</w>
ద్ దు
ఉత్ పత్
వే గ
అసె ంబ్
అ తి
య ు</w>
ప్ర ో
నా థ
దర్శ కుడు</w>
డి మా
కూ డ
ఉ ందని</w>
విష యాన్ని</w>
పే రు</w>
అ ల
తెరకె క్క
బి జె
న మ్మ
ం లోనే</w>
ార్ య</w>
గా లు</w>
ఏ మి</w>
ాల ో
సహ ాయ
మాట్లా డు
అత్య ంత</w>
అ య్య
నియ ర్</w>
ి గా</w>
ప ర్</w>
కో విడ్</w>
ఆంధ ్ర
సంత ో
మ ౌ
ప్ప టి</w>
ప లు
టి కి</w>
గ ూ
వా డు</w>
బ ీ</w>
ప్ర సా
ప్ర కారం</w>
న ది</w>
చ రి
కిం ద</w>
ించ లేదు</w>
వి మర్
సంబంధ ించి</w>
మాట్లా డ
3 0</w>
ము ఖ</w>
పం చ</w>
నిర్ణ య
స న్</w>
ష ి</w>
శ్ చి
బా ధ్య
ణ లో</w>
చ ర
కార ణ
వి రా
మ ద్ద
అవ ి</w>
విని యోగ
లు గు
రో డ్
ప్ర పంచ</w>
బడి న</w>
నిర్ణ యం</w>
జ్ఞ ా
ఫ ా
తిరి గి</w>
ండ గా</w>
వీ రి
ట్టి న</w>
స ృ
వచ్చ ే</w>
ముగ్ గురు</w>
అను మ
ఎ క్క
అయి నా</w>
ిం గ్
శర్ మ</w>
వివ రాలు</w>
టి వ్</w>
ఆ నంద
శ్ మీ
బ డి</w>
ధ ు
ద గ్గ
ఆ త్
ప్పుడ ూ</w>
తీవ్ర ంగా</w>
తి క</w>
సం ఘ
రాజ ీ
నమో ద
డ ో</w>
చేయ డానికి</w>
క్ర మా
రా ల</w>
ప్ లా
ద ో</w>
మహ ారా
జీ వ
ఖా న్</w>
కొ ంద
ట ార్
కా ని</w>
ఉండ ే
ర వి
తి కి</w>
ణ ా</w>
చే స్తున్న
గ మ
కాల ం</w>
అభి మా
ఉండ ాలి</w>
అ ంటూ</w>
సా క్ష
అ మ్మ
చ ని
కు ంది</w>
అదు పు
భ ార్య</w>
బ్బ ంది</w>
టా నికి</w>
సం బం
వి కె
వ ల</w>
ంద ో</w>
స్థా న్</w>
కీల క</w>
ఎక్కు వగా</w>
విమర్ శ
ద క్షి
కని పించ
ఒక టి</w>
స ము
ఫ ే
న టు
కెప్టె న్</w>
ఆ సక్
2 5</w>
సినిమా కు</w>
పరి శీ
త్ వ</w>
ు ను</w>
రై ల్
తి లో</w>
కార్యదర్శ ి</w>
బ్యాం క్</w>
త ీ</w>
అద్ భు
ంట ా
1 2</w>
వా స్త
భ ర్
నాలు గు</w>
ఆస్ప త్రికి</w>
అందు బా
రెండ ో</w>
త ్యా
జ ూ
వైర స్</w>
ల ైన</w>
రాజకీ య</w>
అ ప్పుడు</w>
వీడి యో</w>
ఫ ు
క ారు</w>
వ రు
క్ష ే
కుటుం బ</w>
ష ్య
1 5</w>
ళ్ళ ు</w>
మ ిం
మ వు
భా వ
ప్ర ముఖ</w>
దా లు</w>
ష నల్</w>
వే ల</w>
ం ః</w>
సార్ లు</w>
మ ారు</w>
పో స్ట
దా ంతో</w>
తరు లు</w>
ద్ ధి
దేవు ని</w>
హా జర
ష ా</w>
రి కార్
ప్ర వేశ
చేయ ాలి</w>
ఆయ నకు</w>
ఉ దా
వర కూ</w>
ఇ లాంటి</w>
వ్యక్ తి</w>
నేపథ ్యంలో</w>
ఎ ందు
భ య
నే తలు</w>
ించే ందుకు</w>
సమ యం</w>
ట్ వి
బీజే పీ
పో టీ</w>
చి ంది</w>
గ ణ
కర మైన</w>
సంగీ తం</w>
వ స
పాత్ర లో</w>
హె చ్
సంవత్ సర
ప్రే మ
త్వర లోనే</w>
లే క</w>
తక్కు వ</w>
చ ైనా</w>
కోవ ాలని</w>
ఇ ంటర్
ప్రమా దం</w>
నే త
స్ట్ర ే
సినిమా ను</w>
లే కపో
టీడీ పీ</w>
అనే ది</w>
రాల ేదు</w>
కాల ంలో</w>
శి క్ష
చ్చ ు
కు మార్
ర ే</w>
కార్య క్రమా
క మ
ప డి</w>
గె లు
బా ధి
పిల్ల లు</w>
గు లు</w>
డి న</w>
చేయ ాలని</w>
స్త ు</w>
బడ్ జె
డ ైన</w>
ట్టి ంది</w>
చో టు</w>
ంటు న్నారు</w>
బ ే
టీ ఆర్</w>
చి న్న
ఇండి యన్</w>
మార్ గ
మ న్నారు</w>
ప ట్ల</w>
చే రి
గ ంట
క న్న
ప్ర ై
పర్ యా
స్తు న్నాడు</w>
న రు
ట క</w>
ఎన్న ో</w>
అందు లో</w>
ార ె
స్త ో
ల ింగ్</w>
ప శ్చి
కో ండి</w>
కొ ద్
ాల పై</w>
తెలి పింది</w>
కని పి
అ ంగ
ంట ్ర
వి మా
డిమా ండ్</w>
ట్ర ం
స్తా మని</w>
ప్రధా న
ధ ర్
ద ండ్ర
పడి న</w>
న్ సి
జ ి</w>
ఉదా హ
చే శ
ఎవ రు</w>
వె ళ్ళ
గి లి
కృష్ ణ</w>
కా కుండా</w>
స్ వీ
షూ టింగ్</w>
వాల ్</w>
డి యా</w>
1 00</w>
సీ నియర్</w>
ర ాయ
త్త ు</w>
క ను
ఎం త</w>
ఎ యి
ఎ క్
అ ద
యెహో వా
పూర్ తిగా</w>
అ డి
సా మా
శా లు</w>
దార ు
తల్లి దండ్ర
ఘటన పై</w>
అ ండ్</w>
భాగ ం</w>
న ప్పుడు</w>
త్త గా</w>
క ష్ట
స్ట ా
నాథ ్</w>
ఆ మో
హ ా</w>
లే ని</w>
సా ధ్య
వెల్లడ ించారు</w>
వి క్ర
బిజె పి</w>
ప్ర దర్శ
పు ణ
పరి ష్
ఇటీ వల</w>
సిని మ
న న్ను</w>
ంత ్</w>
సహ ాయం</w>
స ా</w>
రాజ ు</w>
త్వర లో</w>
ప్రసా ద్</w>
పార్ ల
న లు
ఘటన లో</w>
ప ట్టు
జ రా
మృ త
కేసు లో</w>
ం డ</w>
20 0
ిం ప
సం ఘటన</w>
మంది కి</w>
క ె</w>
ఆ ద
అంతర్ జాతీయ</w>
డ ని</w>
కోవ డానికి</w>
ఇ ంగ్
అరె స్టు</w>
ము ందు
పడు తుంది</w>
టర్ లు</w>
జ ర్</w>
కార్యక్రమ ంలో</w>
కార ణం</w>
ఇ ందుకు</w>
ం లోకి</w>
5 00</w>
ని ల
నా ల</w>
ఎ ల్
ంద ం</w>
స్ పె
సా మ
శో ధ
వ య
డ ంలో</w>
అదుపు లోకి</w>
్య ు
శా స్త్ర
విజయ ్</w>
రక్ష ణ</w>
మృత దే
క్ కు</w>
ఉ గ్ర
శా ఖ
వ స్తు
పె ట్రో
గు జరా
క థ</w>
అ డ్
20 20</w>
ిం పు
ి క
ప వన్</w>
తా లు</w>
చంద్ర బాబు</w>
అత డు</w>
ం ప
ీ గా</w>
యూ ని
బ ి</w>
జా గ్ర
అయి న</w>
సు మారు</w>
శ్ర మ
రూ పాయ
గె లి
క మైన</w>
వర ణ</w>
ద్ ధ</w>
దీ న్ని</w>
డ్ర ై
క్ర ై
ఏర్ పా
అంత ే
1 2
స్థాన ంలో</w>
ించ ాయి</w>
సభ్య ులు</w>
క ింగ్</w>
సంతో ష
యా నికి</w>
మ్ ము
ప్రే క్ష
దృ ష్ట
ణ లు</w>
ఇ ప్పటి</w>
ఒ ప్ప
అ రు
అ ందుకు</w>
లే వు</w>
స్ సు</w>
ప్ర యోజ
క ో</w>
అత్య ధి
వ్యాఖ ్య
ల ర్</w>
బై బి
బీ ఐ</w>
ప్ర క్రి
జిల్లా లో</w>
క ై
ఆంధ్ర ప్రదేశ్</w>
ర ంలో</w>
ట ల్</w>
ఒ క్క</w>
వ డం</w>
మ్యా చ్
మ ళ్ల
స్ నే
వె ను
మ ంచి
బ హు
పో రా
చ ొ
1 ,
ార ీ
హీరోయి న్</w>
సహ ా</w>
మా న్</w>
జ ారీ</w>
క రి
ఆ ట
అసెంబ్ లీ</w>
స న
వల న</w>
రాజ ్య
గ వర్
ండ ు
మ ం
న ో</w>
కా ర</w>
కర్ ణా
సంవత్ స
య ్యా
ఖ ర్చ
క ట్టు
ి ని</w>
స్ప ష్ట
వ్యవ స్థ
ళ ి</w>
ర్ లో</w>
చే రు
చ ల
కాల ేదు</w>
అ సలు</w>
1 4
వై ద్య</w>
భార తీయ</w>
ఉ పా
అరె స్ట్</w>
సి బ్బంది</w>
ర చ
అందు కే</w>
ంత ి</w>
స్ సు
పాల ్</w>
తండ్ర ి</w>
అర్థ ం</w>
బు ల్</w>
ల్ డ్</w>
ల గ
బ్ర ి
న డు
ద క్క
ణ కు</w>
ట్రం ప్</w>
గ్ర ీ
ఆత్ మహ
స్ప ీ
వా తా
మా కు</w>
తు లకు</w>
కో వచ్చు</w>
కే ట
అ డు
స్థాయి లో</w>
స్తా న్</w>
సంఖ ్య
రా మ
భ ే
న్న ట్లు</w>
టర్ ల</w>
చో టు
క్ ట్</w>
ఎ ఫ్</w>
అ లాంటి</w>
ి త</w>
రూ ప
ర స్
బ ౌ
నించ ారు</w>
ని ధ
న ష్ట
గ ాయి</w>
కూడ దు</w>
వా డ
భాగ ంగా</w>
బ ్రా
బ ొ
న లో</w>
ధర లు</w>
ద్ దా
ఉ ద
ర్ తి</w>
ప్రకట న</w>
పో యా
నే షనల్</w>
కేంద్ర ం</w>
ఇ వి</w>
ార ు
సు లభ
నీ రు</w>
తెలియ జే
తు లను</w>
తది తరులు</w>
క్రికె ట్</w>
ంద ్</w>
ప్రస్తు తం</w>
ప ించారు</w>
ప ారి
దీని ని</w>
డా క్టర్</w>
చె ప్పు
క గా</w>
ఎ ఫ్
కొంద రు</w>
ఆసుప త్రికి</w>
రూ పొంద
బ ృ
ని రా
న ాల
త ల</w>
చ ారు</w>
ఆ ది
అవ ార్
ప్రమాద ంలో</w>
స్ కూ
ర్ స్</w>
గా ను</w>
సూ పర్</w>
రైల్ వే</w>
మె ం
పోలీ స్</w>
పం జా
డ ౌ
ట్ర ి
క పూర్</w>
ఉ ద్
్యా ణ్</w>
రి ని</w>
ర ంగా</w>
ప్రకట ించారు</w>
చ్ చే
సీ పీ</w>
సాం కే
పోలీ సు</w>
ట్ లను</w>
గ ారు</w>
స్థ లా
చి త్ర</w>
ఆ దేశ
ంద ర్</w>
గ్రా మ
క ట్ట
ఎన్ టీఆర్</w>
అర్ జు
మూ వీ</w>
మ ై</w>
ణా ల</w>
డ ్యూ
టె క్
ఆర్ ఎస్</w>
ము గి
ని యా</w>
చే స్తున్న</w>
చ క్క
క లు
స ాయ
విశ్ వా
వా ళ్లు</w>
తమిళ నా
కోహ్ లీ</w>
మళ్ల ీ</w>
మ ను
ప్రై వే
ప డ్
ధ ్
చె న్న
కె మె
సం స్
పాయ ిం
ప రు
ద శ
జ న్
ఆధార ంగా</w>
ంగా నే</w>
ర క్
క న
ఏ డా
1 8
ీ య</w>
సాధార ణ</w>
మోహ న్</w>
బా ధ
ని రస
కంపె నీ</w>
ప్ప ు</w>
పరి మి
తా న్ని</w>
చేయ ండి</w>
సుప్రీ ం
రి లీ
మ నకు</w>
బా ద్</w>
పే రు
ట్ వీ
శా ల</w>
లే రు</w>
పరి శోధ
చాల ా
అయి ంది</w>
వారి లో</w>
జరు పు
ర ల్</w>
ము ందుకు</w>
న ార
సమస్ య</w>
శి వ
వర్ గ
పోయ ాయి</w>
పి న</w>
తెలు గు
ణ ంలో</w>
ఎ ంత
ఉదాహ రణ
ఉగ్ర వా
ఇ ండ
ఆ హార
1 5
న్యూ ఢిల్లీ
హైదరాబాద్ ః</w>
సమావేశ ంలో</w>
మ హా
పె ళ్ల
చ్చి ంది</w>
సై తం</w>
పరిశీ ల
ని జా
జ ట్టు</w>
చేసుకు న్నారు</w>
గౌ ర
ఇ ంటి
స న</w>
శు భ
ము గా</w>
త గా</w>
చేసుకు న్న</w>
కే ర
ఎం పీ</w>
విరా ట్</w>
బ ంగ
టె డ్</w>
చీ ఫ్</w>
కు ని</w>
ంబ ర్</w>
7 0</w>
1 4</w>
ార ం</w>
ప్ర జా
త్ స
ట మి
ంటు ంది</w>
స్ట్రే లి
యా ద
పా జి
త్రి లో</w>
తో పాటు</w>
ఎ ంచు
అమి త్</w>
స్థా ని
యే సు</w>
య ల్</w>
మే ం</w>
ప్ర ె
నీ టి</w>
గ ో</w>
సమాధా నం</w>
ఫ ల
పా త్ర</w>
ప నులు</w>
దు ర్
గొ ప్ప</w>
అందుబా టులో</w>
హై కోర్టు</w>
స్థా నిక</w>
శ్రీ నివా
వీడి యో
ప్రధాన మంత్రి</w>
నిమి త్తం</w>
తమి ళ</w>
ఉత్పత్ తి</w>
అ గ్
లే కుండా</w>
మి గిలి
పోయి న</w>
పి టి
ఆ స్ట్రేలి
1 1</w>
ల ూ</w>
ర హ
ముఖ ్య</w>
మీడి యా</w>
న టి</w>
సృ ష్ట
మాట్లాడు తూ</w>
దు లు</w>
లో క్
లా ండ్</w>
య ర్</w>
పలు వు
జా బి
కు లకు</w>
ఎన్నిక లు</w>
స్ట ో
వ ది
ధ ో
తు ందని</w>
తీసుకు న్నారు</w>
అ ంత</w>
హింద ీ</w>
ల క్
పో ష
నటి స్తున్నారు</w>
తెలు సు
చే ప
కొ ంత
4 0</w>
బో ర్
ప్రజ లకు</w>
కో లేదు</w>
కూ తు
శ ్రా
నటు డు</w>
త నకు</w>
వ్యవ స్థ</w>
వు ల</w>
వి శే
చే స్తారు</w>
కు ను</w>
1 6</w>
ప్రాంత ంలో</w>
ఆ డ
వా ద
ముఖ్య మైన</w>
పశ్చి మ</w>
గాయ ాల
కే సీ
కర ణ</w>
డైరె క్టర్</w>
ఎవర ూ</w>
ఇ బ్బ
హా న్ని</w>
శ రీ
యు ద్ధ
య ులు</w>
పర్య ట
న్ గా</w>
నే ందుకు</w>
నా గ
న వ
ద ళ
తా నికి</w>
కొను గో
ఎమ్మెల్య ే
2 4</w>
ష్ టి
య ్య</w>
మైన ది</w>
థ ా
చర ణ్</w>
క్రై స్త
అంద రూ</w>
స్తు న్నా
వేగ ంగా</w>
మరో సారి</w>
పో స్ట్</w>
నెల కొ
క న్నా</w>
ఇచ్చి న</w>
హీ రో</w>
వే డు
దేశా ల</w>
క్ లి
కి లో
ం క</w>
ాలు గా</w>
వ్యక్ తి
లు ః</w>
ర్ ష
ప త్ర
ని యోజ
2 1</w>
ాల్ సి
స్థా నం</w>
విద్య ు
ముంబ ై</w>
నీ టి
టీ మిం
ష్ ణ
ర ద్దు</w>
మ ో</w>
చ్ ఛ
ఎదు ర్కొ
రో హి
రాజ ధా
యు క్
య ్</w>
పో టీ
తెలు సుకు
ట్ర ై
ట న్</w>
చ్చ ారు</w>
ఉండ దు</w>
అర్జు న్</w>
అమ లు</w>
మా ట</w>
మహే ష్</w>
కొ ంత</w>
కార ణాలు</w>
ఇ క్క
వి దేశ
వచ్చ ి</w>
నీ వు</w>
చేపట్ట ారు</w>
ఏ పీ</w>
1 8</w>
స్ కు</w>
సె స్</w>
సభ లో</w>
శ్మీ ర్</w>
వి లు
ఫ ొ
పెట్ట ారు</w>
ఎంపి క</w>
ఆయ న
ల భి
రు గ
మంత్రి త్వ</w>
బెంగ ళ
ప ్యా
న ప్పటికీ</w>
డ బ్బ
జ స్టి
జ ం
ాలో ని</w>
లా క్</w>
మద్ద తు</w>
భా వి
దే వ
కుమార ుడు</w>
6 0</w>
య ే</w>
పెళ్ల ి</w>
నియ ంత్ర
దాని ని</w>
క లో</w>
ఉ ంచ
అ న్న
20 0</w>
1 .
స త్య
ప్ ల
ఎ న్</w>
ఫ ్యా
ఇ ష్ట
వా న్ని</w>
ము లో</w>
ప్రయా ణి
పెట్రో ల్</w>
న్యూఢిల్లీ ః</w>
నిర్మి స్తున్నారు</w>
గ తంలో</w>
కంపె నీ
ఇచ్చ ారు</w>
ఆ ప
ష ె
వు ంది</w>
రిలీ జ్</w>
ప ించింది</w>
నె ట్</w>
త ల్లి</w>
చు కు
క్ సి
సం చల
స ల
వ్యా పార
తే లి
గ్ర హ
లై న్</w>
య ి</w>
దేశా లు</w>
జ నా
అ తి</w>
స్ప ష్టం</w>
సి రీ
సామా జి
సంద ే
వచ్చ ాయి</w>
మంత్ర ులు</w>
తొ లగ
చె య్య
చ ార్
కు లను</w>
స్త ాడు</w>
వి న
భాగ స్వా
పె ంచ
నట ించిన</w>
కొ డు
స్థలా నికి</w>
సరి హ
శ ాల
వైర ల్</w>
ప్రాంత ాల్లో</w>
ప్ర ద
పు స్త
ద య
్యా న్ని</w>
శక్ తి</w>
వర్ త
మ్ మ</w>
ప్రే మ</w>
చె ంది
కార్య ాల
ఎ త్తు
అంచ నా</w>
0 0
ాల ను
సే న</w>
సీ సీ</w>
ష్ ట</w>
ర వా
మార ింది</w>
న ష్టం</w>
టీమిం డియా</w>
జస్టి స్</w>
అను మా
స్వా ధీ
వెళ్ లి
వ ాయి
వ స్తుంది</w>
పరి శ్రమ
నలు గురు</w>
తా ము</w>
జ ం</w>
చేయ ు
ఎ మ్</w>
ి కంగా</w>
వి డి
వా నికి</w>
రాజకీ య
భారత దేశం</w>
ప ిం
ధా లు</w>
తెలు సు</w>
జ ట్టు
చ ం
ఒక రు</w>
ఒ త్తి
ఆ వి
స్ట ర్</w>
శ్ వ
రాజీ నా
ఫ ీ</w>
ప్రజ ల</w>
పా క్</w>
ని బంధ
న ట్టు</w>
చ దు
కేసీ ఆర్</w>
కేట ాయ
ఐ దు</w>
వ్యా ధి</w>
మర ొ
బ డ్డ
కా పా
కలి గి
అవు తుంది</w>
అభి ప్ర
ా ను</w>
సౌ కర్
సు రే
వా టి</w>
ప్రొ డ
పొ ంది
న్ ల</w>
తెలు స్తోంది</w>
కార్ మి
ఎమ్మెల్య ే</w>
ఉంట ారు</w>
హీరో గా</w>
సామాజి క</w>
ల్ల ా</w>
మ్ స్</w>
ది గా</w>
ట్ ల
ఆమె ను</w>
అధి నేత</w>
అంద ించారు</w>
ించ నున్నారు</w>
ప ్యూ
న ంలో</w>
చేయ లేదు</w>
చ ే</w>
సినిమా లు</w>
వె న
విశే ష
రు గా</w>
తూ ర్
చే ర
ఐ పీ
ఎ ప్పుడూ</w>
స్తా ం</w>
పా లు</w>
పలువు రు</w>
దేవు డు</w>
ది గు
త్ర ు
త ం
చే స్తూ</w>
చట్ట ం</w>
గుజరా త్</w>
గ ీ
కోట్ లకు</w>
i n
యాద వ్</w>
నిర్ వహి
న డి
ది శ
టు కు</w>
జ ు</w>
చేసే ందుకు</w>
గా ల</w>
కథ ా
క దా</w>
1 3
సంత ా
మ ల
ధి కార
ఆందోళ న</w>
1 3</w>
హ ార్
విష ్య
విద్యార్థ ులు</w>
మ ్యూ
ప ద్ధ
ద రు
చ్చ ు</w>
ఆరోగ ్య
అవ కా
1 7</w>
సా గు
వే సి</w>
వ న్
ర కాల</w>
మ్యా చ్</w>
మో డ
బ్యాం కు</w>
ప వర్</w>
క నీ
ఉత్త మ</w>
ంది ః</w>
ం గ</w>
సా హ
ష న్స్</w>
వ ో
లా భ
బైబి లు</w>
త కు</w>
కూ ల
ఏ మీ</w>
ంట ాయి</w>
ించ గా</w>
స ారు</w>
లక్ష ్య
భ విష్య
భ క్
పరుగు లు</w>
న ాలను</w>
క ్యూ
ఉ ంటే</w>
హా లు</w>
డ ర్</w>
ఖర్చ ు</w>
క్ష లు</w>
అధికార ిక</w>
అంత ా</w>
హ్ మ
సంస్థ లు</w>
భాగ ంలో</w>
నగ ర్</w>
ధ ్యా
డ వ
చై ర్
హ ార్</w>
లే క
లు ను</w>
ఫో టో
ట్వి ట్ట
ట రీ</w>
జయ ్</w>
సినిమా కి</w>
ష ో
విశ్ వ
రే షన్</w>
నియోజ క
చేసుకు ని</w>
రియ ా</w>
ర ్ర
యి ల్</w>
ము లను</w>
ము ల</w>
మి న
ఎ టువంటి</w>
అ న్నాడు</w>
ర్ య
రోహి త్</w>
భి న్న
బడు తుంది</w>
బ ూ
్రె డ్డి</w>
లక్ష ్
బ ర్
ప్ర ణా
పొ ందిన</w>
నే ర్చు
దా ఖ
త్మ క</w>
జ వా
కాల ే
హ త్య</w>
వ్ వు</w>
లో ను</w>
మూ వీ
ఫ్ర ి
ప్రకట ించింది</w>
డా డు</w>
అధి క</w>
ించ వచ్చు</w>
సమస్య లు</w>
రై తులు</w>
మహారా ష్ట్ర</w>
పూర్ వ
పాకి స్తాన్</w>
నియ మ
డ బ్
గ ర్</w>
ఏడా ది</w>
అత నికి</w>
ాయ ే
హాజర య్యారు</w>
రాష్ట్ర పతి</w>
నిర్ ధార
నార ాయ
దా డి</w>
డు లు</w>
డు ను</w>
గి పో
ఉండ ే</w>
సి స్ట
సమ ర్
ప్రణా ళ
పరీ క్ష</w>
ధ ం</w>
తెరకె క్కు
ట్వీ ట్</w>
టీ ఆర్ఎస్</w>
క్ కి</w>
కో లు
ంత ం</w>
వా ళ్
వంత మైన</w>
ల ూ
రోజ ుల</w>
భ ో
బయ టకు</w>
ఫ ర్</w>
ప్రారంభ ించారు</w>
కార ు
ఒ కే</w>
ఇ శ్ర
ై ంది</w>
వా ణి
వ సూ
రెండ వ</w>
మె ంట
భాష ల్లో</w>
పె ం
పంజా బ్</w>
నట ించారు</w>
ద ్యా
గు ండ
క్ర ా
వా ళ్ల
మీ టర్ల</w>
ప్రభా వం</w>
ణ ్
చే స్తోంది</w>
చరి త్ర
కో రుకు
ఆ హ్
అంగ ీకర
ంట ర్</w>
స్వాధీ నం</w>
సామ ర్థ
సమావేశ ం</w>
శే ఖ
శా సన
వై ఎస్</w>
వా లు</w>
ని వేది
ద్ ర</w>
తెలియ దు</w>
అధ్య య
ించ ు</w>
ష ు
రాజ ్
ప్రో త్
కొ ట్ట
క లా
అ డ
ార ో</w>
ప్రస్తు త</w>
ప్రక్రి య</w>
ప ైన</w>
నాయ ుడు</w>
జి ల్</w>
కేసు ల</w>
కళ ్యాణ్</w>
కళ ా
ఎ క్కడ</w>
ఉత్త ర</w>
స్నే హి
వ్య ూ
యి ంది</w>
మార్కె ట్లో</w>
భార ీగా</w>
ప్రా ణాలు</w>
పి లు
ఘట నా</w>
ఎక్ స్
హె చ్చ
సాంకే తిక</w>
శం కర్</w>
రు వు</w>
రాజ ే
ప్రదేశ ్
పి క్
త ప్పు
ట్ ను</w>
గాయ పడ్డారు</w>
కమి టీ</w>
ఎదు రు
అయ్య ింది</w>
సర ైన</w>
వ ాయ
బడ్జె ట్</w>
ది రి
త ారా
జగ న్</w>
కు న్నాడు</w>
అ క్ష
ించ బడింది</w>
సాధ ించింది</w>
వు ండ
మి లి
జ ార్
కూ డిన</w>
స్ ను</w>
ము ల
మ ంట
నా నికి</w>
న ె</w>
ట ్యూ
గ లి
గ రి
సె న్
వి వాహ
వాణి జ
ర ొ
మ ని
పోర్ ట్</w>
నాయ కులు</w>
చ ు</w>
కొనసా గ
ఇప్పటి కీ</w>
ఆర్ టి
ందు లు</w>
స ాయం</w>
షన్ లో</w>
పు రు
జరుగు తుంది</w>
జ ్ర
జ న</w>
స ల్
స దు
శా డు</w>
లక్ష ణాలు</w>
మూ ల
ప్రా థ
నిజ ంగా</w>
చొ ప్పు
గా డు</w>
గవర్ నర్</w>
క ఠ
ఎ లక్
ాయ ా
హ ృ
స్ పి
మొ బై
పరి చ
ని ంచి
దేశ ంలోని</w>
డ మే</w>
జీవి తం</w>
చోటు చేసుకుంది</w>
కా న్
ఇ ది
అత ని
1 6
ాల ా</w>
వే శారు</w>
లో ప
తొ లి
తే డా
చ్చి తంగా</w>
గు ల</w>
ఓ పె
ఇశ్ర ాయే
ఆ శ
అక్క డి</w>
ప ా</w>
దక్షి ణ</w>
జ నీ
చూడ ండి</w>
కో రారు</w>
కొ ండ</w>
కార్య కర్
క న్
ఐ దు
అందు కున్న</w>
అంది స్తున్నారు</w>
విలు వ</w>
రాజీనా మా</w>
దేశ వ్యాప్తంగా</w>
కోర్ టులో</w>
హ ్యా
సా య</w>
సం పాద
వరు స
రా నికి</w>
రా త్రి</w>
యా ల</w>
బ ద్ధ
ప్రశ్ న
ద్దా ం</w>
దే వి</w>
టా టా</w>
ఆ శ్
స్ మార్
సంఖ్య లో</w>
శుభ ్ర
వైద్య ులు</w>
మరో వైపు</w>
మ ంద
పా న్</w>
ప క్క
నిజ ం</w>
తీసు కొ
తల్లిదండ్ర ులు</w>
టి ల్</w>
చొప్పు న</w>
చి వరి</w>
కృష్ ణ
కుటుం బా
ఆమె కు</w>
సాధార ణంగా</w>
సమా వే
సం యుక్
వ్యవ సాయ</w>
లి కి</w>
రోడ్ డు</w>
మర ణం</w>
భారత దేశంలో</w>
పాకి స్థాన్</w>
ది న
టు ను</w>
కర్ణా టక</w>
ఆ కర్
రాష్ట్ర ం</w>
ప్రారంభ ం</w>
గుర్ తు
కొనుగో లు</w>
కుమార ు
క ల</w>
ాల ంటే</w>
సర్ వీ
మొద లు
ము స్
ప్రభు త్వ
ద ల</w>
టి క్</w>
కే షన్</w>
అ వి
వి లువ
వ ిం
రాజ ్యా
ర ింగ్</w>
ఫ ార్
ద్ ధా
తు ల
డి క
ట్ లుగా</w>
జ ల
కో రు
కల్ పించ
ఎందు కంటే</w>
, 000</w>
స్థాని కులు</w>
స్ పూ
సుప్రీం కోర్టు</w>
వ్యాఖ్య లు</w>
ను న్నాయి</w>
దార ి
ద ్రా
డ ో
కా ంత్</w>
ఆయ నను</w>
అంద రికీ</w>
ూ రు
మార్ పు</w>
మార ి
బు క్</w>
పేర్కొ ంది</w>
ని ధి</w>
తా లో</w>
అ ల్ల
ీ లో</w>
ర మ
న్యాయ మూ
దర ఖా
గా ని</w>
ఏ ద
సె ల
పోయ ి</w>
ప న్ను</w>
ని యా
చి వ
ఘ ో
అత్యధి క</w>
అ ల్లు</w>
1 7
మార్ టం</w>
డౌ న్</w>
గ్ గా</w>
ఇప్పటి వరకు</w>
సం ప్రద
ంచ ్</w>
సార ్</w>
విధా నం</w>
వి రు
వాతా వర
వ ంద
రో ధ
ర గ
మ్యూ జి
బయ ట
పెరి గింది</w>
పూర్ త
డ ాల
ఠ ా
చరి త్ర</w>
గ ృ
ఆస్ట్రేలి యా</w>
అ ప్పటి
ు లతో</w>
వ్యతిరే కంగా</w>
భూ మి</w>
భర్ త</w>
ప్రా ణ
పథ కం</w>
ప ను
చ ౌ
ఇం జన్</w>
అ య్యారు</w>
9 9
2 .
ార ి</w>
సార ిగా</w>
శ ా</w>
వెం కట
ని లు
న ాల్
దగ్గ ర</w>
కో రి
ఇ ష్టం</w>
మృ తి
మూ డో</w>
బెంగ ాల్</w>
బాధి తు
పోస్ట ు
తు న్నా
చెంద ారు</w>
వ్యవహ ర
ర్ ల</w>
మిగిలి న</w>
ప్రతి పాద
పెట్టు బడు
న్ యం</w>
చ్చి న</w>
చే త</w>
కీ ర్
కా న్ని</w>
కల్ ప
ఆ సి
అత ్యా
స్థ ాయి</w>
వంత ంగా</w>
లె క్క
ముఖ్య ంగా</w>
ఫొ టో
పంచ ు
ట్ లలో</w>
చ ద
కర ించారు</w>
అప్ప గ
2 2</w>
మొబై ల్</w>
త ె</w>
గ ్య
క ర</w>
క ను</w>
ఎ స్ట
ఇ రు
అను భ
అ న్
సంబంధ ం</w>
శా న్ని</w>
వృ ద్ధి</w>
ర ణ</w>
ప్ర శం
ప క్ష</w>
చేరి ంది</w>
గ డి
కా నుంది</w>
ఆ టో
a n
ించి నట్లు</w>
హా ర</w>
సి నీ</w>
సర ఫ
సం ధా
విష యాలు</w>
వర ం</w>
రాజధా ని</w>
య ిం
పోయా డు</w>
నె ల</w>
నిర్మా ణం</w>
దార ులు</w>
తెలంగా ణలో</w>
తా జా</w>
ఢిల్లీ లో</w>
క త</w>
ఉన్న ట్లు</w>
ఆహ్ వా
ించు కో
సి టీ</w>
సరిహ ద్దు
వి భ
వి ద్యా
మ ంగా</w>
గు రు
గా న్ని</w>
కావ డం</w>
క డ
ఉపా ధ్య
ంద ్రా
సూ చి
స న్ని
వే సింది</w>
వ ని</w>
య న</w>
మ ండి
బా క్
ని వార
నటి స్తున్న</w>
తి రు
తప్ప ు</w>
చూ పించ
కా స్
ఎవ రి
ంద ర
8 0</w>
స్వా మి</w>
మంత్రి గా</w>
ఫ ర్
పర ంగా</w>
ణా నికి</w>
డి జై
ఆద ాయం</w>
స్ట ు
సందర్ శ
వే రియ
వాటి లో</w>
లోక్ సభ</w>
రోజు కు</w>
మ తి</w>
ఫ్ ట్</w>
పో లింగ్</w>
ణ ు
ఖ ండ
కృ త
ఉ ప</w>
ఆ న్
అభిమా ను
అడ్ డు
అ ప్
ార ో
ా ం</w>
విద్యు త్</w>
వ ద్ద
ఫ ్రా
పె ంచు
ప ల్లి</w>
న ర
జన రల్</w>
గ్ర హం</w>
క్ ల
కొ రకు</w>
ాయి ః</w>
స్థా ప
సా ను
లే ఖ
న్ కు</w>
దేశా నికి</w>
తు న్నాడు</w>
కుమార్ తె</w>
అధి కార</w>
ంత ో
ారె డ్డి</w>
సీ పీ
సర సన</w>
రి జర్
పరి గణ
తూ నే</w>
చెప్ప ింది</w>
ఆత్మహ త్య</w>
హ ిం
ల ్యా
ఫలి తాలు</w>
ప్రా ధా
ప్ర ార్థ
ప్ర స్తా
న్ స్
ను ంచ
నరే ంద్ర
ణ ీ
టెక్ నాల
గ్ర ూ
కూ డ</w>
ఉ చి
ఆసక్ తి
ై ర్
వే లు</w>
మారు తి</w>
మహిళ లు</w>
భద్ర తా</w>
బో ధ
పం పి
ని ర
తు ల్లో</w>
చ ర్</w>
ఇటీ వల
ఆ గ
అతి పెద్ద</w>
్ ఞ
ల ై</w>
యా క్
మై నా</w>
ప్రభుత్వా నికి</w>
పరి ధి
నొ ప్ప
న ౌ
చేయ వచ్చు</w>
చెప్ప ాడు</w>
గో దా
గి న
కృ షి</w>
స ద
రాష్ట్రా ల</w>
య్య ే</w>
మహిళ ా</w>
మరి న్ని</w>
పు నరు
పు న</w>
పడ్డ ాయి</w>
న్ని ంటి
తయ ారు</w>
గ్ర ే
ఆమో దం</w>
అంత ే</w>
అ య్యాయి</w>
ం జ్</w>
షే ర్</w>
శ్ర ే
ళ ం</w>
మె రుగు
మా లు</w>
పు న
పార్టీ కి</w>
న్ యా
దృష్ట ి</w>
త గా
చ్చ ి</w>
కృ తి</w>
కాల ు
కా క</w>
ఎ క్స్</w>
అభిప్ర ాయ
అప్ప టి</w>
అను సంధా
స్తు న్నాను</w>
స్తు ందని</w>
సంబం ధి
ల భ్య
బా గు
పరి పాల
ప న్న
ణ ీ</w>
గాంధ ీ
కి ంది</w>
కార్య కలా
ఎస్ పీ</w>
సీ సీ
వెను క</w>
విదేశ ీ</w>
వికె ట్లు</w>
వ ో</w>
లి మి
ప్ర యో
పాజి టివ్</w>
న ాయి
తీసు కో
గాయ పడిన</w>
కలి గిన</w>
ఎ ప్పుడు</w>
ఉన్న ది</w>
ఆకర్ ష
హ ే
హ త్య
సం క్షే
లై ంది</w>
ముంబ ై
మాట్లాడ ారు</w>
మ ళ్ళ
ప తా
నాయ కు
న పు</w>
త్య ం</w>
అవసర మైన</w>
r e
ి కి</w>
సీ బీఐ</w>
స హో
వచ్చ ారు</w>
వ డంతో</w>
రవా ణా</w>
మాన వ</w>
ప్ తి</w>
న్ య</w>
తీ య
చదు వు
గ తి</w>
ఎం పీ
అద్భు తమైన</w>
అ ప
2 3</w>
లేద న్నారు</w>
భార ్య
బాధ్య త</w>
బ ర్</w>
దీ ప్</w>
దార ి</w>
గా నీ</w>
కర ంగా</w>
అగ్ ని
అ దే
అ గ్ర
ం చె
సము ద్ర
ష ీ
రచ యి
మార్కె ట్</w>
మరణ ించారు</w>
పో షి
ని పుణ
దిశ గా</w>
ణ ను</w>
చేరుకు ని</w>
చర్చ లు</w>
ఘ న
కాల్ పు
ఆ రు</w>
అని ల్</w>
అధ్యక్ష ు
ే ందుకు</w>
స్పంద న</w>
వై ఎస్
వల సిన</w>
వర్ గం</w>
వ చ
మన ో
నూ తన</w>
తీసు కె
త గిన</w>
డ్ స్</w>
టె స్ట్</w>
ఉత్త ర
సంబంధి త</w>
ష్ట ్ర
వీ రి</w>
విశేష ం</w>
వి టమి
వాయి దా</w>
మహ మ్
ప్రి యా
ప్రార ం
దాఖ లు</w>
అ న్న</w>
శ్రీనివా స్</w>
శ ై
వె లు
రే టు</w>
మృతదే హాన్ని</w>
నీ కు</w>
నిలి చింది</w>
నగ ర
ఛ ార్
చేసు కో
గాయాల య్యాయి</w>
కూతు రు</w>
కా ద
ఉంటు ందని</w>
ఉ న్నాడు</w>
ఆయ ు
ంటి వి</w>
సాధ ించిన</w>
వ ద్దు</w>
ర క్షి
మో టార్
మార్ పులు</w>
మహి ళ</w>
మండ లి</w>
ప్రాంత ం</w>
ప్రపంచ వ్యాప్తంగా</w>
ప్ర చారం</w>
నిధ ులు</w>
తమిళనా డు</w>
చే స్తా
చే సారు</w>
ఇం ట్లో</w>
స్థాన ాల్లో</w>
స్థ ల
స గ
వీటి ని</w>
వం శ
ర మే
మో డీ
ఫ ్రె
నిర్వహ ించారు</w>
దె బ్బ
డా క్
ఎ ల్ల
ఆరోగ ్యం</w>
అమెరి కా
అభిమా నులు</w>
3 00</w>
ాల ె
స్ట ార్
సమ కూ
రాజ స్థాన్</w>
బ ంగ్
ప్రాథ మిక</w>
పు రం</w>
నిర్మా త</w>
దీ ర్
డ ల</w>
ఏద ైనా</w>
ఎత్తు న</w>
సుప్రీ ం</w>
శ ర
వే రు</w>
వర్ష ం</w>
లా క్
మ ల్
భూ మి
పాత్ర ల్లో</w>
నా ణ
డు ః</w>
ఘ ా
కు న్న
కార్ పొ
కా దని</w>
కమి ష
కను గొ
ఎ ంటర్
ే ది</w>
సు జు
శు భా
ల ంద
రాష్ట్ర ంలోని</w>
మా ప
ది గ్
ఛ ా
ఉద్ దేశ
అద నపు</w>
ారి టీ</w>
హ రి
స్తు ండగా</w>
స్ పా
రై లు</w>
రా మ్
మార ి</w>
భారత్ లో</w>
న్య ూ</w>
న వి</w>
తీర్ పు
డి స్
క్క ి
ఏ ంటి</w>
అభి నంద
అ ప్ర
శిక్ష ణ</w>
వీటి లో</w>
విమర్శ లు</w>
వల ెను</w>
వరుస గా</w>
రి లో</w>
య్యా డు</w>
మొ త్త
ఫో ర్
పద ార్థ
ని రోధ
తీసుకు న్న</w>
తి న
డ ం
క్ర ె
ఎయి ర్</w>
ంట ె
5 0
స్త్ర ీ
వివర ించారు</w>
విజ ్ఞ
బా బు
పర చ
ని షే
తూర్ పు</w>
తీసు కోవాలి</w>
తి రస్
కృత జ్ఞ
క ండి</w>
ఉద యం</w>
ఆ ఫీ
స్త ో</w>
స్ట ీ
సమా చార
విద్య ాల
వర్ష ాలు</w>
ని గా</w>
నా టికి</w>
త నం</w>
డ వ</w>
ట మి</w>
చెన్న ై</w>
ఘటన లు</w>
కొ త్తగా</w>
ఇం త</w>
ఆహార ం</w>
ఆ శ్ర
3 0
సీ తారా
ర వే
మ్యాచ్ లో</w>
బ్ లి
ప్రయత్ నించ
నిర్వహ ణ</w>
డబ్బ ు</w>
ట్రి క్</w>
ట ంతో</w>
చేశ ాయి</w>
గ ్యా
కొ ండ
కు నే</w>
ఏ దో</w>
అవకా శాలు</w>
2 4
19 9
స్త ూ
సుజు కి</w>
శుభా కాం
వె లుగు
వి మాన
లభ ించింది</w>
మహారా ష్ట్ర
ప్రయత్ ని
ప్ర ముఖ
పరిస్థి తులు</w>
దూ రం</w>
తీ యు
తగ్ గు
ట్విట్ట ర్</w>
టా ప్</w>
చెప్ప ి
క్రి యే
ఉదాహరణ కు</w>
ఇద్ద రూ</w>
అధికార ి</w>
హి ట్</w>
సె ల్</w>
రాష్ట్రా లు</w>
యుద్ధ ం</w>
ము నకు</w>
ప్రశ్ న</w>
పా డు</w>
ని ంగ్</w>
డా న్ని</w>
టె లి
జరుగు తున్న</w>
కొద్ ది</w>
కు రి
కలి గ
అ క్
ంట ీ
సమ ూ
సం భవ
శ తా
వ్యాఖ ్యా
వ్యవహ ార
రూపాయ ల</w>
మ న్
ఫీ చర్
ప ే</w>
నా మి
జరుగు తోంది</w>
చైర్ మన్</w>
గోదా వరి</w>
గొ ట్ట
కేర ళ</w>
కాస్ త</w>
క ప్</w>
ఆ టో</w>
అధి కంగా</w>
a t
సాక్ష ి</w>
సంవత్స రాల</w>
రం గ</w>
యా కు</w>
ము ంద
ప్రైవే టు</w>
దా కా</w>
డి లో</w>
జీవి తంలో</w>
జ మా
క్రమ ంగా</w>
ఉండ గా</w>
2 ,
స చి
వే ద
వారి తో</w>
రె డ్
రికార్ డు</w>
ర ష్య
య న్స్</w>
మి గ
భారత్ కు</w>
బ్ ద
బి ల్లు
పోస్టు మార్టం</w>
పడు తున్నారు</w>
తా డు</w>
జ నం</w>
ఉండే ది</w>
ఇ రు</w>
అత్య ు
అడు గు
ం ద</w>
సీ ట్లు</w>
సినిమా ని</w>
శ్ర మ</w>
వ నరు
రోజ ూ</w>
రై తుల</w>
మొద టి
మె డి
మ త్త
బ హి
ఫే స్
ప్పు డే</w>
నేత ృ
నే ది</w>
నిజా నికి</w>
త ృ
గా హ
క్ష తగా
క్రి ంది</w>
క్క డే</w>
కొ ర
కూ ర
కనీ సం</w>
అభివృ ద్ధి
ంద్ర ా</w>
ొ చ్చు</w>
షన్ లు</w>
యి న్</w>
మ్మ ల్ని</w>
మళ్ళ ీ</w>
పా ండ
ద ై
త్ర ా
తే దీ</w>
త లను</w>
చాలా మంది</w>
ఆవి ష్
అవ గాహ
అనుమ తి</w>
ంట ీ</w>
ాలు ః</w>
శుభాకాం క్షలు</w>
పరీక్ష లు</w>
ప రి</w>
నాయ కుడు</w>
నగ రం</w>
త ంత్ర
చేసు కోవాలి</w>
చద వ
కిం గ్
కర ం</w>
ఒ డి
ఎంటర్ టై
ఇచ్చి ంది</w>
అంద జే
ండ ర్</w>
వా డు
ళ్ల లో</w>
ల ర్
ము క్క
మహ ీ
భే టీ</w>
ను న్నట్లు</w>
తమ కు</w>
డీ జిల్</w>
టె స్టు</w>
ట ే</w>
ఉ న్నా
సదు పాయ
సంతోష ంగా</w>
విక్ర మ్</w>
వా గ్
వ ల్ల
మ్ మి
మార్ చ
పా టి</w>
ప బ్లి
దక్షి ణా
తయ ారీ</w>
డ్రై వర్</w>
ట ూ
కార ్</w>
ఉ ష్ణ
ఆ ప్
ఆ డి
విస్త ర
రంగ ం</w>
మ్ ము</w>
మె గా</w>
మార్ గం</w>
మ ణి
పు రా
పరి ణా
న్ని ంగ్
నిర్మా ణ</w>
దృ శ
తప్ప ని
చేసి నట్లు</w>
కుటుంబ ం</w>
కార్యక్రమ ం</w>
ఒక్క ో</w>
అవు ను</w>
అర్ హ
హ క్కు
సులభ ం</w>
షె డ్యూ
విషయ మై</w>
వివాహ ం</w>
వి డ
రక్ త
భద్ర త</w>
భ ర
పెద్ద గా</w>
నె రవే
టి ఫి
చూ సి</w>
ఒప్ప ందం</w>
ఇ తరు
ఆ కట్టు
e r
a r
ించ ాల
సంయుక్ తంగా</w>
వ ల్</w>
రై తులకు</w>
యో గి
మ ూ</w>
భ ా</w>
ప్రొడ క్షన్</w>
ప్రాజెక్ టు</w>
ప్రస్తా వ
పిల్ల ల</w>
పరిష్ కర
పట్ట ణ
ప టే
నూ నె</w>
నా టి</w>
న వ్
ట ింగ్
జాగ్ర త్తగా</w>
జరుగు తున్నాయి</w>
కు డి</w>
కార్యక్రమా లు</w>
ఎమ్మెల్యే లు</w>
ఇ రా
ఆల స్
అ న్నీ</w>
స్తున్న ట్లు</w>
శక్ తి
వు లను</w>
వు ను</w>
వీరి ద్ద
వీ రికి</w>
వార్ తలు</w>
వ డ్డ
లు కు</w>
మె గా
మంది ని</w>
బంగ ారం</w>
పౌ రు
నే డు</w>
థ ి
తున్న ది</w>
కర ించింది</w>
క లె
ఎ డ
ఆరోప ించారు</w>
అనుమ త
అ ంటున్నారు</w>
సై ని
శాంత ్</w>
వ చ్చే
ము న</w>
మాట లు</w>
భ ీ
బ్ లాక్</w>
ప్ర సంగ
పె ట్టింది</w>
పరుగు ల</w>
దే వాల
త్ తి</w>
తీసుకు ని</w>
గ్రా మీ
గుర్త ింపు</w>
ఐదు గురు</w>
ఇంటి కి</w>
ఇ న్నింగ్
ఆ ర
ఆ ధి
అను సర
ాయ ా</w>
హింద ూ</w>
హ ర్యా
వే ళ</w>
ళ ు
రాజ మౌ
బంగ్ లా
పె ట్టి</w>
పురు ష
ప ండు
తెరకెక్కు తున్న</w>
టీ వీ</w>
జో డ
చెబు తున్నారు</w>
కెమె రా</w>
ఆ రుగు
అయి నప్పటికీ</w>
అ హ్మ
అ స్
అ ల్
201 9</w>
ాల ీవుడ్</w>
స్పీ డ్</w>
స్థి ర
సం బ
వాణిజ ్య</w>
మి టి</w>
బెంగళ ూరు</w>
బృ ంద
ఫ స్ట్</w>
ప్ర చార
ప్ లే
పూర్ తి
పు ష్
త్ తా
తే దీ
డి జి
ఏర్పా ట్లు</w>
ఇ ంటి</w>
ఆరోప ణలు</w>
ఆ హార</w>
ఆ త్మ
అ ంటారు</w>
ం పి
సంత ృ
స హా
వెళ్ల ి</w>
ళ్ లి
ళ్ లను</w>
ల ొ
మో ట
మ త
బృ ందం</w>
ప్రశ్ నించారు</w>
ప్రజ లను</w>
పై కి</w>
పు ర
పాట లు</w>
పద వి
ప ట్
టీ లో</w>
చర్ చ</w>
కార్యక్రమా నికి</w>
కపో తే</w>
క ష్టం</w>
ఇటీవల ే</w>
ఆసక్ తి</w>
అను కూల
అ బ్
స్తు లు</w>
సిరీ స్</w>
సల్ మాన్</w>
సమ ర్థ
శి క్ష</w>
వే ష
లి క</w>
యి న</w>
మార్ పు
ప్రజా స్వా
పోలీసు ల</w>
త నను</w>
జరి గాయి</w>
కూ ల</w>
కిలో మీటర్ల</w>
క ంలో</w>
ఎ గు
ఆస్ప త్రిలో</w>
ఆమో ద
ండ ు</w>
3 5</w>
్యా లు</w>
ే లా</w>
సమ య
శి ఖ
శాంత ి</w>
వ్యక్తి గత</w>
వార్ త</w>
రాజమౌ ళి</w>
బా టు</w>
ప్ర సి
ప లి
ను న్న
తేడా తో</w>
తీ సి
జీవి త
చ ల్</w>
క్రమ ంలో</w>
క శ్మీర్</w>
ఏ డు
ించ బడ
హె చ్</w>
సేవ లు</w>
సె ల్
విస్త ృ
విశ్వ విద్యాల
లక్ష ్యం</w>
లక్ష ణ
మ ్ర
మ ంగ
నిర్మ ించారు</w>
ణా న్ని</w>
గ ాలి</w>
కావ ాలి</w>
క స్ట
ఏ ళ్ల</w>
ఆరోప ణ
ండ్ లు</w>
ో గ్ర
సా హి
సంఘ ం</w>
వివర ాలను</w>
వర్ మ</w>
వ ద
ల్ కు</w>
ర్ చి</w>
మె రుగ
ఫలి తంగా</w>
ప్లా న్</w>
ప్ర చు
పార్ల మెంట
నాయ క
త్త లు</w>
తీసు కోవ
జి త్</w>
ఉ ందా</w>
ఆశ్ చర్య
అను కుంటు
అత డి</w>
అ శ్
అ రవి
సొ ంత</w>
వీరి లో</w>
విషయ ంపై</w>
ల్ గా</w>
రోజు ల్లో</w>
రాష్ట్ర ాల్లో</w>
రావ డం</w>
యూని వర్
బోర్ డు</w>
బల మైన</w>
బడ్డ ాయి</w>
ప్రయోజ నం</w>
ప్ర కాశ
పె డు
ప ల్</w>
న్ సీ</w>
ని ద్ర
నాణ ్య
కం పై</w>
ఒత్తి డి</w>
ఎయి ర్
ఉన్న త</w>
ఇ వా
ఆత్మహ త్య
హో ం
సె ంట్ర
సరి గా</w>
వే రే</w>
వా ళ్ళు</w>
రంగ ంలో</w>
మవు తుంది</w>
మల యా
బ స్సు</w>
ఫి క్</w>
ప త్తు
ప ంట
తర్ వా
డ ూ</w>
ట్ర ే
ట ్యా
చో ట్ల</w>
క్ ను</w>
కు ల
అ ంట
e n
3 ,
స్ వల్
సిద్ధ ం</w>
సి డె
సరి కొత్త</w>
సరఫ రా</w>
సర ి</w>
ల్ ను</w>
రూ పొందు
ము ంది</w>
బంగ్లా దేశ
పర్యా ట
ని రు
త్వర గా</w>
తగ్ గి
డ ొ
జగ న్
జం తు
జ ల్</w>
చా ర</w>
గా నికి</w>
ఖ ి
ఏ ది</w>
ఇశ్రాయే లీ
ఇబ్బ ందులు</w>
అభ్యర్థ ి</w>
అను ష్
ంగ ి
ార ట</w>
శా నికి</w>
వేది కగా</w>
వెంకట ే
వె లువ
వా ళ్ళ
వా దాలు</w>
వా డ</w>
లీ టర్</w>
ల వ
రై తు</w>
రె న్స్</w>
రు ను</w>
రి జి
రం గు
మధ్య ప్రదేశ్</w>
బ్ర ే
బో యే</w>
బీజేపీ కి</w>
ప్రయత్ నం</w>
ప్రపంచ ంలో</w>
ప్రధా నంగా</w>
ను వ్వు</w>
దే వర
దృ ష్టి
దరఖా స్తు</w>
ట్ కు</w>
చు ట్ట
కల్ పి
ఇ న్</w>
ఆట గా
ంగ ం</w>
201 8</w>
సిద్ధ ంగా</w>
వర్ క్</w>
ళ ీ</w>
ర ౌ
మొద ల
మాన సి
మా స
పు ట్ట
నీ తి</w>
ని క్</w>
తెలిసి ంది</w>
చేరుకు న్న</w>
చిత్ర ీకర
చ ది
గ డు
క్ర ో
క నె
ఐపీ ఎల్</w>
ఉష్ణ ోగ్ర
ఇద్ద రి</w>
అ న్నది</w>
ంద ట</w>
ారా ల</w>
సెంట్ర ల్</w>
సూచ ించారు</w>
య మైన</w>
ము గ
బ ట్ట
ఫలి త
ప్రయోజ నాలు</w>
పాత్ర లు</w>
పర్య వే
దు రు</w>
తు న్నాను</w>
డ ింగ్</w>
ట్ ట</w>
టీ సీ</w>
జరి గే</w>
చె ప్
ఒ ప్పు
9 0</w>
7 .
ించ ాల్సి</w>
హ ౌ
స్తో ందని</w>
స్టే షన్</w>
సభ్య ు
వ్యవహ రి
లిమి టెడ్</w>
లభి స్తుంది</w>
మా ధ్య
మర ీ</w>
మ ర్</w>
భిన్న ంగా</w>
ప్రియా ంక</w>
న్న ారా</w>
నో త్స
నిరస న</w>
నమ్మ కం</w>
తెలుగు లో</w>
తీసు కోవాలని</w>
చే స్త
గ డ
క్షతగా త్ర
ఒప్ప ంద
ఉత్త ర్
ఉ ంచు
ఇ త
ంద ే
2 5
1 50</w>
ించుకు న్నారు</w>
ించ డంతో</w>
సు రక్షి
రాజీ వ్</w>
ముందు గా</w>
ము ందే</w>
మహీ ంద్రా</w>
ప్రభుత్వా న్ని</w>
పిటి షన్</w>
పతా కంపై</w>
ద్ వి
తి రుగు
తది తర</w>
డ ్రా
ఖ ండ్</w>
కమ ్యూ
ఓ వర్
ఉన్న ాయిః</w>
ఇ లా
ఆసుప త్రిలో</w>
అరవి ంద్</w>
సహా య</w>
సంగీ త</w>
శ్ వర
వార ్</w>
లు క్</w>
రా న్ని</w>
ర వీ
బా స్</w>
ప్రోత్ సహ
ప్రేక్ష కుల</w>
పు రస్
పరిస్థి తిని</w>
ధ న్య
ద ైన</w>
ద ారు</w>
త దు
టై టిల్</w>
జీవి త</w>
చి క్కు
గెలు చు
గుర్ తు</w>
కన్న డ</w>
కథా నాయి
ఉండ ాలని</w>
o r
ాల ే
హ ాలను</w>
వు గా</w>
వి ద్య</w>
మిగ తా</w>
ప్ లే</w>
న్న ె
నీ ల్</w>
నా డు</w>
నర్ జీ</w>
ది కి</w>
జీ బీ</w>
చె ందు
గాయ ాలు</w>
గా క</w>
కలి పి</w>
అను గు
ార న్నారు</w>
హో ం</w>
హార ం</w>
హా మీ</w>
సాధ్య ం</w>
సంచల న</w>
స ్ర
షి యల్</w>
వర ల్డ్</w>
రోజ ులు</w>
మద్ద తు
ఫి ల్
పరిచ యం</w>
పరి మా
న ము</w>
ధ్యా త్
టు గా</w>
చ క్ర
గో పాల్</w>
కొనసాగు తోంది</w>
కొ న్ని
ఆద ాయ
ం శ
4 00</w>
హ ర
సే పు</w>
వర్ తి
వడ్డ ీ</w>
ప్రైవే ట్</w>
పో తుంది</w>
నియంత్ర ణ</w>
దార ులకు</w>
తప్ప కుండా</w>
తదు పరి</w>
జ ్య
గూ గు
గు ప్
కేసు ను</w>
కే ంద్రా
క ట్</w>
ఊ హ
ఆ ధ్యాత్
అ ర
ంటు న్న</w>
7 5</w>
2 8</w>
శ్రీ ల
వి భాగం</w>
వర్ గాల</w>
వ చ్
రీ మే
రియ ల్</w>
ప్రభా స్</w>
పొ డి
నిందితు లను</w>
నామి నే
ట క
చూ ప
కేర ళ
ఐ సీ
ఆసి యా</w>
ఆలోచ న</w>
ఆర్టి కల్</w>
అధికార ికంగా</w>
ిం ద</w>
హ ర్
స్తా ను</w>
సై కి
సా గ
స మ్
ల ాల్</w>
యె డల</w>
మో దీ
మి షన్</w>
మా స్
మం జ
మ మ
ప్రభా వి
పాఠ శాల
పా ర</w>
పర్ వ
పర మైన</w>
న్యాయమూ ర్తి</w>
న్య ాయం</w>
నై పుణ
ది నోత్స
తీర్ పు</w>
త క్ష
చ ల్ల
్ మ
ించ ాల్సిన</w>
హీరోయి న్గా</w>
స్సు లో</w>
స్వ యంగా</w>
సె క్షన్</w>
సు లో</w>
సంవత్సర ం</w>
వు తుంది</w>
వర్ ణ
వ ్రా
లా ది</w>
మా నికి</w>
మహమ్ మారి</w>
పడ ే</w>
న్ని టి
నారాయ ణ</w>
ద్ర ి
తెరకెక్క ిన</w>
తె చ్చు
క్రికె టర్</w>
కు ండ
ఒ క్
ఇండ స్ట్ర
ఇం జి
ఆ ధు
అవార్ డు</w>
అధ్యయ నం</w>
అ లీ</w>
హ ాయ
స్ లా
సో దరు
వు న్న</w>
వికె ట్</w>
బ రువు</w>
ప్రాధా న్య
ప్రా తి
ప్రకట ించిన</w>
పేరు తో</w>
పె ట్టిన</w>
పి ల్</w>
డి పై</w>
ట్ లకు</w>
టే బుల్</w>
కుమార్ తె
కమ్యూ ని
కమిష నర్</w>
అన ారో
3 .
హా స్పి
సచి న్</w>
స ాయి</w>
స న్న
శ్ వా
వీ ర
విష ా
వాతా వరణ</w>
వచ్చ ు
వ స్తే</w>
యా న్</w>
మ్యూజి క్</w>
ము ని
ప్రత్యే కంగా</w>
నటి స్తోంది</w>
నట ించింది</w>
దేశా న్ని</w>
దు ర
తే ల్
చేసు కొని</w>
చే స్తే</w>
క్ లో</w>
కొ ని
క ంట్ర
అ సో
ించ ారని</w>
సమీ క్ష
ష్ట ంగా</w>
శీ ర్
వె ల్లు
వు లకు</w>
వి ఫల
మెం ట్స్</w>
మంచి ది</w>
మ య్యాయి</w>
ఫ్రి కా</w>
ప్రీ మి
పిల్ల లకు</w>
నగ రంలో</w>
న డ
ధి క</w>
ద ంతా</w>
జ ింగ్</w>
గ ను
కొనసా గి
క రు
క ండ
ఐ టీ</w>
ఆ ల్
i o
వసూ లు</w>
వర్ గాలు</w>
మొ త్
మే ర</w>
మిన హాయ
పటే ల్</w>
ప త
నె లలో</w>
త్వ ంలోని</w>
ట్రై లర్</w>
చ్చ ే</w>
చే స్తామని</w>
చ ాడు</w>
గూగు ల్</w>
కార ులు</w>
కా శ్మీర్</w>
ఏ డు</w>
ఎల్ల ప్పుడూ</w>
ఉ ప్పు</w>
ఆల యం</w>
ఆ ండ్ర
ించా ం</w>
సామర్థ ్యం</w>
వీ రు</w>
వి న్</w>
వహి స్తున్నారు</w>
వ ్ర
మే నే
ముగ్ గు
బ ా</w>
ప్ర యోగ
పర చు
న్ సర్</w>
దర్శ కు
డిక క్కడే</w>
జనా భా</w>
చేస్తున్న ట్లు</w>
గ్రామ ంలో</w>
గ డ్
క్ర ింద</w>
కోల్ క
ఉప యోగి
ఆర్ మీ</w>
అవగాహ న</w>
ించా ను</w>
హె గ్
స్ ట్
స్ క్రీ
శేఖ ర్</w>
వం తు
వ స్తోంది</w>
మృ తుల</w>
మరొ క</w>
ప్రయో జన
ప్రజ ా</w>
పాఠ శాల</w>
నే ని</w>
ని వ్వ
న ార్
దశ లో</w>
ద రి</w>
తీవ్ర మైన</w>
త తో</w>
చర్ య</w>
ఘట నా
ఖ చ్చితంగా</w>
కొద్ ది
క ాయ
ఆందోళ న
అసెంబ్ లీ
అమ రావ
అనుష్ క</w>
అక్క డే</w>
0 .
స్థా నాలు</w>
స్తు న్నాం</w>
స వరణ</w>
ష్ ఠ
విటమి న్</w>
ఱ ్
రా దు</w>
ము ను
మి శ్ర
బి లి
ఫై న
ప్రయత్ నాలు</w>
పాల ిత</w>
ని ని</w>
న వీ
దేశ ీయ</w>
తున్న ట్లు</w>
తమిళనా డు
టెక్నాల జీ</w>
జ్ర ీ
చేప ట్టిన</w>
చూ పు
గ్రామీ ణ</w>
గ ాల
గ ఢ
ఖ ర్చు
కర ీ
ఉండ వచ్చు</w>
ఇంత కీ</w>
ఇ ంధ
ఆదేశ ించారు</w>
అక్క డికక్కడే</w>
ిం పులు</w>
ాలను కుంటు
స్వా గ
వ్యవహ ారాల</w>
వేడు క
వీ టి</w>
వా ట్
వ న్నీ</w>
ల్ల ీ</w>
రో గ
ర న్</w>
య న్
మెడి కల్</w>
మండ లం</w>
మంజ ూరు</w>
మ ద్య
బ ్యూ
పో లి
పార్టీ లు</w>
పరిశీ లి
నొప్ప ి</w>
నా లో</w>
త ార
చేశా ను</w>
చే రారు</w>
చూ పి
కొ త్త
ఎ గ్
ఉ ల్లి
ం పు
6 .
ించ బో
సా ధి
సంబం ధాలు</w>
వే సిన</w>
వెన క్కి</w>
వ న
లో క్</w>
ము న్సి
మీ ద
మహిళ ల</w>
మ ్రా
పి క్</w>
పడ్ డాడు</w>
త లె
డ్ లో</w>
చేసు కోవ
చివ రికి</w>
చార ి
ఘ ర్ష
కంట్ర ో
ఏర్ పడింది</w>
అత న్ని</w>
అందు వల్ల</w>
ండ ీ</w>
స్టి ట్యూ
సంస్థ ల</w>
లు లో</w>
రష్య ా</w>
ర ంగా
మోటార్ స్</w>
ముఖ్య ం</w>
భ ౌ
బ ల్</w>
పం ప
నాల్ డ్</w>
నా శ్ర
నా ట
న ందుకు</w>
ది ల్</w>
డిజై న్</w>
జీ లు</w>
జ ంట
గ ాలి
కోట్ లను</w>
కొడు కు</w>
క ్యం</w>
క రె
క న్</w>
క డు
ఒ కే
ఎ రు
అప్పటి కే</w>
అంశ ం</w>
అ గర్
m e</w>
ాలు న్నాయి</w>
ాల ూ</w>
స్టే ట్</w>
సె ంచ
సీ జన్</w>
షా క్</w>
వ్యక్ తులు</w>
విష మంగా</w>
విమా నాశ్ర
వి ని</w>
వా ం
వ ైన</w>
లే ను</w>
రమే ష్</w>
ర ాలి</w>
య న
బల హీ
పూ జా</w>
పారి శ్రా
నిలి చి
ని న్ను</w>
దీర్ ఘ
దార ుల</w>
ద గ్
తో నే</w>
జన్ మ
గౌర వ
గు ంట
క్రి తం</w>
కే జ్రీ
కు ంటే</w>
కల ప
క ాలను</w>
ఎవ రికీ</w>
ఈ సారి</w>
ఇవా ళ</w>
ఆయ ా</w>
ఆన్ లైన్</w>
అప్ర మత్త
అత డిని</w>
అంచ నాలు</w>
స్పష్ట ంగా</w>
సినిమ ాల్లో</w>
వ్యా పార</w>
వె ండి</w>
వంత ం</w>
ల్ లోకి</w>
పార్ల మెంట్</w>
పార్టీ ల</w>
నగ దు</w>
ధన్య వాదాలు</w>
తీసుకు ంటా
చేయ ాల
కాపా డు
క లుగు
క ద
ఎ డి
ఇండి యాలో</w>
అక్క డికి</w>
ాల్ లోకి</w>
స్తో న్న</w>
స్ కో
సం జయ్</w>
ష్ట ా
వ్యాప్ తి</w>
విడుద లైన</w>
వర్ ధ
వచ్చ ని</w>
లా ండ్
రంగ ు</w>
య ం
మి త్ర
ఫు న</w>
ప ట్టి
నా శ
ద్రి క్
దేశ ాల్లో</w>
ది ర
తో ందని</w>
త ని
డి తో</w>
చేస్తు న్నా
చేయ నున్నారు</w>
చే ందుకు</w>
చెన్న ై
కె ట్</w>
కృతజ్ఞ తలు</w>
కర ణ
ఉ ద్రిక్
ఉ ందన్నారు</w>
ఆ స్త
అభ్యర్థ ులు</w>
అతి థ
అంతే కాదు</w>
ం థ
ించ బడుతుంది</w>
హ ర్</w>
స్ప ద</w>
స్ మ
సే వ</w>
వే ధ
వె ర్
విశ్వా సం</w>
వాతావర ణం</w>
వహ ించారు</w>
వర ూ</w>
లై ంగ
లె ట్</w>
య ూ</w>
భా ష</w>
బ్యా నర్
బ ారి
ఫి లి
ప్రక్రి య
పొంది ంది</w>
పే లు
పార్టీ లో</w>
న్ లుగా</w>
నమోద ైంది</w>
న మూ
దాని పై</w>
త లకు</w>
డిజి టల్</w>
జ మ్మ
జ పాన్</w>
గొ ప్ప
కాల ిక</w>
ఒక రి
ఎదు ర్
ఉత్ పత్తు
ఆర ంభ
అ టు</w>
్యా నికి</w>
ించు కోవ
ాయి డ్</w>
స బ్
విడుద ల
వి ల
వన్ డే
రి నీ</w>
మంగ ళ
భా జ
బి ల్లు</w>
ప్రతి పక్ష
ప్ర తీ</w>
డి గ్రీ
కొంత మంది</w>
కూ లి
కు ంటారు</w>
అద నంగా</w>
అ స
ాల్ లోని</w>
స్మార్ ట్</w>
స్తూ నే</w>
సినిమా పై</w>
స మి
విధా న
వా ళ్ల</w>
ళ్ ళ</w>
ల్ ల</w>
లే ఖ</w>
మెరుగ ైన</w>
భా వం</w>
బ లి</w>
బ ది
ప్ర కా
పె రగ
పర స్ప
దా య</w>
ద ంప
తర ఫున</w>
జీ వి</w>
జా న్</w>
జ ను
చెప్పు కొ
చంద్ర బాబు
క్రైస్త వ</w>
ఉన్న ాయని</w>
ఉ ంద
ఆరుగు రు</w>
అరు ణ్</w>
అనుగు ణంగా</w>
4 5</w>
హృ దయ
హ రీ
స్పంద ించారు</w>
సరి గ్గా</w>
స ో</w>
వివా దా
వా దం</w>
ర్ కు</w>
మృ తు
ఫ ూ
ప్రపంచ ం</w>
పంపి ణీ</w>
ప ద్
నె ట్
ధ్య ం</w>
ధ ృ
దూ రంగా</w>
దా వీ
త గిన
జమ్మ ూ</w>
చ ూ</w>
గుర్త ించారు</w>
గి రి
క్రియే షన్స్</w>
క్ లా
కావ డంతో</w>
కం ప్యూ
ఔ ష
ఎవర ైనా</w>
ఇంగ్ లాండ్</w>
అ మర్
i t
i c
2 6</w>
స్టే షన్
వెల్లడ ించింది</w>
వాస్త వానికి</w>
వార ంద
వాటి కి</w>
వా ది</w>
రెండ ు
రీమే క్</w>
మండి పడ్డారు</w>
మ నీ</w>
మ ంతా</w>
బెంగళ ూరు
ప్రతి నిధి</w>
పే ద
పరిశోధ న</w>
పరి శు
న్న ే</w>
ని శ్
దేవర కొండ</w>
తొ లు
తెరకెక్క ి
తక్కు వగా</w>
గి రి</w>
గర్ భ
కు ంట
కు ం
ఎదురు చూ
ఇ దే
ఆ దేశాలు</w>
ే ద
హెచ్చ రి
హెగ్ డే</w>
స్పూ న్</w>
సె ర్
శివ సేన</w>
మను ష్య
బ్యా టింగ్</w>
బి గ్</w>
ప్రత్యే క
పా ల</w>
పంచ ాయ
నిందితు డిని</w>
నా మ
నర సిం
ది గ్గ
తెలుసుకు న్న</w>
గ మన
క్షే త్ర
కు రు
కనిపి స్తుంది</w>
క టి</w>
ఓ టు</w>
ఏ కంగా</w>
ఎస్ యూ
ఆశ్ర య
అమి తా
స్నేహి తు
స్ట ై
శా తానికి</w>
వ్య ూ</w>
వే ర్
వే గం</w>
విద్యార్థ ులకు</w>
యి తే</w>
మొద ట</w>
మొ క్క
బీ హార్</w>
బీ ర్</w>
బ రి
ప్రశ్ నలు</w>
ప్రయా ణ
ప్రతి పక్ష</w>
నిర్ దేశ
న లను</w>
దగ్గ ర
తు ది</w>
తం త్ర</w>
డి ప్యూ
జాబి తాలో</w>
జర్ స్</w>
చేరు కొని</w>
చు గా</w>
ఘ న</w>
కూర గాయ
క రు</w>
క టి
ఏ ప్రి
ఉత్త రా
ఇ టువంటి</w>
అన ంత
సో నియా</w>
వల సి</w>
వ ై</w>
వ తి</w>
మ ంత
భార తీయు
బ యో
బ డే</w>
ప్ తి
నీ ళ్లు</w>
ద శ</w>
త్ తీ
తి న్</w>
తర ం</w>
ట్ లీ</w>
ట్ గా</w>
చెప్ప ిన</w>
చి త్త
గు డ్
గమ నించ
కొ ట్టి
ఆ గ్రహం</w>
అమెరికా లో</w>
అను భవ
ంది గా</w>
19 7
ించ బడిన</w>
ాల్సి ందే</w>
స్థ లం</w>
స్తున్న ది</w>
సో మ
సి ద్ద
శా శ్వ
వి నో
వారి పై</w>
వాయ ు
వ ాల్
ల్ల ం
రా ధ
రచయి త</w>
రంగ ంలోకి</w>
ర క
యెహోవా కు</w>
బి నెట్</w>
బంధ ు
ఫై ల్</w>
ప్ర వే
ప్ స్</w>
పా త</w>
నిలి పి
ని కే</w>
ధర్ మాస
దారి తీ
డి పి</w>
చే సా
చని పోయారు</w>
కాల ంగా</w>
ఏ పీ
ఉ మ్మ
అ జయ్</w>
్య ా</w>
ె డ్డి</w>
ాల ే</w>
సాయ ంత్ర
సహో దరు
వ్య ాయా
వై సీపీ</w>
వేరియ ం
వివా దం</w>
లో డ్</w>
లక్ష్య ంగా</w>
ఱ్ ఱ
ర ించారు</w>
యొ ద్ద
మానసి క</w>
మధ ు
బి ఐ</w>
బంగ్లాదేశ ్</w>
పూ జ
పబ్లి క్</w>
ప ది
నా తో</w>
త్మ కంగా</w>
తెలియజే శారు</w>
తా త్
తర చుగా</w>
త లో</w>
టె స్టు
చూ ద్దాం</w>
చుట్ట ూ</w>
గు లకు</w>
గ ట్టి
కొ ంచె
కె రీ
కాల ి
కా వచ్చు</w>
కర ించిన</w>
కఠ ిన</w>
ఎస్ట ీ</w>
ఎ నిమి
ఉద్యో గం</w>
అనుభ వం</w>
e s</w>
4 .
2 7</w>
ించ నుంది</w>
హీరోయి న్లుగా</w>
స్ య
సా ఫీ
సంతా పం</w>
వీడియో ను</w>
ర్య ాల
యే సు
యా క్షన్</w>
మార్ చు
మని షి</w>
మ ్యం</w>
బె స్ట్</w>
ప్రాంత ాలు</w>
పౌ లు</w>
పో స్టు</w>
పాల్గొ న
పాల ి
నేతృ త్వంలోని</w>
నిర్వహ ించిన</w>
నియా మ
నమోద య్యాయి</w>
దో ష
ది గ
త్తు లో</w>
చేరుకు న్నారు</w>
కు ముందు</w>
కార ణాల</w>
అందుబా టు
t h
201 7</w>
1 :
వెళ్ల ారు</w>
వృ ద్ధి
విచార ి
వి జే
ర్ లను</w>
రే ట్</w>
ము ర
మ య్యారు</w>
మ ందు</w>
బాల ్</w>
బయ లు
బ ్రె
ప్ర తీ
నెలకొ ంది</w>
నెల ల</w>
ని కి
ది గారు</w>
తే డా</w>
డి గ్ర
టా స్</w>
జాబి తా</w>
చి రం
గ్ ర</w>
గమన ార్
క్ష ో
క్ష ీ
క్ష న్స్</w>
క్ ట
కో సమ
కాల్ పులు</w>
కా నికి</w>
కా ండ
ఓ ట్లు</w>
ఏ క
ఎలక్ ట్రిక్</w>
ఎంటర్టై న్
ఎ క
ఉండ టం</w>
ఇశ్రాయేలీ యు
ఆ ంగ్
అద్భు తంగా</w>
అత్యధి కంగా</w>
అంశ ంపై</w>
ంట ో</w>
2 8
సు లు
శ్ వర్</w>
వే డి</w>
విశ్ లే
వి దేశా
వారి ద్ద
వార ీ</w>
ల్ లోనూ</w>
లో క
లే ము</w>
రీ లు</w>
రాష్ట్రా నికి</w>
మౌ లిక</w>
మి మ్మల్ని</w>
మ ందు
బ లి
ప్రభుత్వా లు</w>
ప్రణాళ ిక</w>
పొందు తూ</w>
పు డు</w>
ప వి
ప టి
నె స్</w>
నమో దు
న ంది
ధ ులు</w>
దీని వల్ల</w>
తొలు త</w>
తా ధికార
తర చూ</w>
డే టా</w>
చే ర్చ
గ న్</w>
క్రి య
కొ ల
కేజ్రీ వాల్</w>
కఠ ి
ఎ ప్పుడ
ఇంగ్ లీ
ఇం జనీ
ఆధార ిత</w>
అన గా</w>
అగర్ వాల్</w>
3 2</w>
ె ంట్</w>
ించి ందని</w>
సమాధా న
వె బ్
వినియోగ ం</w>
వ స్త
యు డు</w>
మ్ లో</w>
మా న్ని</w>
భావి స్తున్నారు</w>
బ్యా క్</w>
బి హెచ్
ఫో టో</w>
పున రా
నా ని</w>
దా డికి</w>
తెలు స్తుంది</w>
తీ రు</w>
డిగ్ర ీ</w>
ట లో</w>
చేరుకు ంది</w>
చేరి న</w>
ఘట నకు</w>
గ్రూ ప్</w>
క్ర ొ
ఎక్క డా</w>
ఆధు నిక</w>
అవ ్
అ శో
అ ట
ంతో పాటు</w>
2 9
ాల్ ని</w>
హ ్ర
సల హా
సం కే
స వర
షెడ్యూ ల్</w>
ష న్ను</w>
వి వే
వాహ న
వస ర</w>
వల ె</w>
వ ంటివి</w>
ళ్ లకు</w>
లే ం</w>
ల ని</w>
ర ాయ్</w>
ముస్ లి
మాప క</w>
మన ము</w>
బాల ిక</w>
బాల ిక
పో వ
న్ తో</w>
నో టీ
న ల</w>
ధో నీ</w>
డాక్ టర్లు</w>
ట్రా ఫిక్</w>
గ్రా మం</w>
గ్ర ంథ
గమనార్ హం</w>
క్రీ డా
కుమార ులు</w>
కుటుంబా నికి</w>
కీర్ తన</w>
ఈ యన</w>
ఈ మె</w>
ఇ దంతా</w>
ఆ శీర్
6 ,
ాయ న్నారు</w>
సు శాంత్</w>
సీతారా మన్</w>
రాజ ా</w>
మోట ార్</w>
ముఖ్య మంత్రిగా</w>
మార్కె ట్లు</w>
భయ పడ
ప్రొ ఫె
పై నే</w>
ప దు
నియోజక వర్గ
న ంత</w>
ధర్మాస నం</w>
దీని తో</w>
ది గిన</w>
దర ణ</w>
తీసుకు ంది</w>
ఢ ీ
జ రు</w>
చేస్తు న్నాయి</w>
చూడ ాలి</w>
చిత్ర ాలు</w>
గు ళ
క్షతగాత్ర ులను</w>
కౌ న్సి
ఐ సి
ఎన్ డీ
ఎదు రు</w>
ఆర్ ధిక</w>
అమితా బ్</w>
అ పొ
్ర ు
స్త లు
స్టిట్యూ ట్</w>
సర ే</w>
సమావే శానికి</w>
సభ్య ులకు</w>
వివా ద
వి పరీ
య్య ింది</w>
మూ సి
మ ించి</w>
ఫలి తం</w>
ప్రాజెక్ టు
ప్రశం స
ప్ లో</w>
పెరి గిపో
పా ట</w>
నీ య</w>
నివేది క</w>
దా న
తు ందో</w>
తు ందా</w>
తా ర</w>
త ిం
త ప్ప</w>
డిప్యూ టీ</w>
టె ండ
జ్ఞా ప
జూ న్</w>
జా తి</w>
చేసు కోవచ్చు</w>
చూ స్తే</w>
చి వరకు</w>
చరిత్ర లో</w>
కా వాల
కమి షన్</w>
ఇవ్వ ాలని</w>
ఇ వన్నీ</w>
అమ్మ ాయి
అత్యు త్త
2 9</w>
ించ డంలో</w>
హో ండా</w>
హె ల్
స్ వే
సొ ంతం</w>
సృ ష్టి
సురే ష్</w>
సహాయ పడుతుంది</w>
శ ాయి</w>
విభ జ
వర ద</w>
లై ట్</w>
ర్యా ం
రా కపో
ము ద్ర
బె ట్ట
బాధ్య తలు</w>
బ చ్చ
పే ట</w>
పత్ తి</w>
న్యూ ఢిల్లీ</w>
నుంచ ే</w>
నగ ర</w>
ది లో</w>
తీ శారు</w>
తర లి
ట్ స్
టి గా</w>
చేశ ారని</w>
గెలి చిన</w>
గి పోయింది</w>
కార ును</w>
ఓ డి
ఎంపి క
ఉపాధ్య ాయ
అపొ స్తలు
అంద మైన</w>
ం లోనూ</w>
ించుకు ంది</w>
హా న్</w>
సూ త్ర
వే స
వి భాగ
వ స్తాయి</w>
ల లి
రోజు లుగా</w>
రు కు</w>
రాజ ్య</w>
రా శారు</w>
మైన వి</w>
మృతదే హాలను</w>
ము న
మహారాష్ట్ర లో</w>
బె నర్జీ</w>
బీ సీసీ
ప్రె సిడె
ప్రారం భ</w>
ప్రాజెక్ ట్</w>
పిక్ సెల్</w>
పర్యవే క్ష
న్యాయ స్థానం</w>
న్ షన్</w>
ను న్నాడు</w>
నిర్మ లా</w>
న వా
దా డు
దా డిలో</w>
తా ం</w>
టి కీ</w>
ట ాలీవుడ్</w>
ట న్న
జు న</w>
చ ము
క ంట
ఏమి ట
అవు తోంది</w>
అంతే కాకుండా</w>
అ ంటు
c o
3 1</w>
హైదరాబాద్ లో</w>
స్పె షల్</w>
స్ కృ
సిం ధ
సహ కార
విద్య ా</w>
రా ం</w>
య స్</w>
మూ డవ</w>
మద్య ం</w>
భూ తి</w>
భ గ
బా హు
బంధ ం</w>
ప్రతి ష్టా
పొంద ారు</w>
పెరుగు తుంది</w>
పార్లమెంట ు</w>
పా ప
నియ న్</w>
ని ష్
ని కీ</w>
ద్య ో
దు ను</w>
ట ులు</w>
జన సేన</w>
చే ర్
ఖ ్</w>
క్యా న్సర్</w>
కాల్పు ల్లో</w>
ఓ డ
ఉ న్నాను</w>
ఆధ్యాత్ మిక</w>
ండ్ ల</w>
d i
స్పీ కర్</w>
సూ ర్
సిస్ట మ్</w>
సంస్ కృ
షి యం</w>
శ్ర ద్ధ</w>
వు ంటుంది</w>
విశ్లే ష
విలువ ైన</w>
విజ యాన్ని</w>
వి శ్రా
వచ్చ ును</w>
లు న్నాయి</w>
ల బ్
రె స్పా
రూపాయ లు</w>
ర జనీ
యే షన్</w>
మోడ ల్</w>
మిలి యన్</w>
మా న్
మ ాల
బీజేపీ లో</w>
బీ మా</w>
ఫ్ లా
ప్రపంచ ంలోనే</w>
ప్ర ా</w>
పరీక్ష ల</w>
ప త్రి
నిర్ణ యాన్ని</w>
ధర్ మ
తెలు సా</w>
తీసు కోవడం</w>
చ్చ ాడు</w>
చేశా ం</w>
గ ట్టి</w>
క్రె డి
ఒక్క రూ</w>
ఐ క్య
ఉన్న తాధికార
అ టువంటి</w>
ందు న</w>
3 3</w>
స్ట ులు</w>
స్ నా
సై డ్</w>
సాం స్కృ
సమీ పం
సన్ని హి
సంవత్సర ంలో</w>
శక్ తిని</w>
వి భాగంలో</w>
వల ె
రు గు</w>
య ంత్ర
బిహెచ్ పి</w>
బా ద్
ప్రశ్న లకు</w>
ప్రయాణి కులు</w>
ప్రదేశ్ లో</w>
పెరి గాయి</w>
పర్యా టక</w>
ప ల్ల
న్న త</w>
నిర్ణ యాలు</w>
న ట్
ద్ దీ
దే వి
తో డ్
తీ ర
తమిళ ంలో</w>
డ ంపై</w>
ట ్రె
జ్ఞా న
జై ట్లీ</w>
చేయ డంతో</w>
చూ సు
చ ిం
గ్ గు
క్లి క్</w>
క్ర ూ
కుటుంబ ాలకు</w>
కార్పొ రేషన్</w>
కర్ నూ
కమ ల్</w>
ఎదు ర
ఎంపీ లు</w>
ఎ ప్పటి
ఉపా ధి</w>
ఉండ ండి</w>
ఆధార పడి</w>
ఆ శి
అప్ప ట్లో</w>
ండి ః</w>
3 70</w>
2 :
స్మార్ ట్
స్ట ె
స్ వర
సు నీల్</w>
సహాయ క</w>
సంక్షే మ</w>
స ాయి
విషయ ాలను</w>
వ స్తున్న</w>
రో ల్</w>
రాజ ు
ర ష్
మొద లైంది</w>
ముస్ లిం
బు ధ
బిజె పి
ఫోటో లు</w>
పో ల్
పెట్టు బడి</w>
పూ డి</w>
ప తి
న ్రెడ్డి</w>
త్రి విక్రమ్</w>
ట్ర ో</w>
జిల్ల ాల్లో</w>
జిల్ల ాలోని</w>
జంట గా</w>
చేయ గా</w>
చము రు</w>
గను క</w>
ఖ రీ
కావ ాలని</w>
కంపెనీ లు</w>
క శ్మీ
ఏప్రి ల్</w>
ఉమ్మ డి</w>
అ యో
ంత ర</w>
201 4</w>
హా జరు
హర్యా నా</w>
స్తున్న ారని</w>
సార థ
సర్ వ
సభ్య ుల</w>
శ్రీల ంక</w>
శి వ</w>
వ్యాఖ్యా నించారు</w>
వె చ్చ
రెండ ో
య జమా
మ ంచ
ప్రభా వ
పాయిం ట్లు</w>
ని వస
దు కా
తొలి సారి</w>
తీసుకె ళ్ల
తీర్పు ను</w>
ట్టు గా</w>
టో ర్
చే తిలో</w>
కొద్ దిగా</w>
కమి టీ
ఎమ్మె ల్
ఎన్ ఎమ్</w>
ఉత్తర ప్రదేశ్</w>
ఆర్థ ిక
అగ్ని మాపక</w>
అక్క డ
e r</w>
స్కూ ల్</w>
స్ య</w>
సాంకే తి
సం క్షో
వై పు
వే ర్</w>
విదేశా ంగ</w>
వ రు</w>
లా లు</w>
రు ణ
భారత దేశ</w>
బీ ఎస్
ప్రదర్శ న</w>
ప్ర గా
ప్యా కే
పె ంచి
పుస్త కం</w>
పి స్తుంది</w>
పర్యా వరణ</w>
పరిధి లో</w>
పరి శ్రమ</w>
న్న ారని</w>
నిర్మి స్తున్న</w>
నియ ు</w>
తీ రు
తయ ారు
డే ట్</w>
ట్ లతో</w>
టీ జర్</w>
చె ల
చిరం జీవి</w>
చి రు
గుంట ూరు</w>
ఖ ు
క్ష ుడు</w>
కార్యాల యం</w>
ఇందు కోసం</w>
ఇ స్లా
ఇ మ్రా
ఆటో మే
అంది స్తుంది</w>
అ రి
e l
a l
7 ,
సిం గ్
సాయంత్ర ం</w>
ష ే</w>
వి ధి
వాహ నాలు</w>
వల స</w>
ళ ి
లో త
లేకపో తే</w>
ల న్నీ</w>
రి టై
ముగి సింది</w>
బది లీ</w>
ప్రీ త్</w>
ప్రాంత ాలకు</w>
ప్రముఖ ులు</w>
ప్ప ి
పె డ
పూర్ ణ</w>
పని చేశారు</w>
పదవి కి</w>
పడ్ డ</w>
న్యూ జి
నే రుగా</w>
ద ాయ
తె లీ
తీర్ మా
త రి
డు గా</w>
టీడీ పీ
జే డీ
జరగ లేదు</w>
చేస్తు న్నాడు</w>
చూడ వచ్చు</w>
గ్రా మ్</w>
గణ నీ
గఢ ్</w>
కోసమ ే</w>
కూ ర్చు
కు ంటా
కాన్ ఫ
కల ్యాణ్</w>
ఒక్క సారిగా</w>
ఒక్ కొ
ఉత్ స
ఉ ల్లం
ఉ ండి</w>
ఆనంద ంగా</w>
అ ప్పుడే</w>
ం జ
6 5</w>
5 ,
4 ,
ించిన ప్పుడు</w>
హ ్యు
స్థాన ాలకు</w>
సహ జ
సహ కారం</w>
సము ద్ర</w>
వె ళు
వ ంట
రెస్పా న్స్</w>
రాజ్య సభ</w>
రజనీ కాంత్</w>
యా ప్</w>
యా తో</w>
భా లు</w>
బయలు దే
ఫేస్ బుక్</w>
ప్రమా ద</w>
ప్రమా ణ
పొడి గ
పొ డి</w>
పర్యట న</w>
పరిష్ కార
పడు తున్న</w>
పట్ట ణం</w>
ప ్య
ని తిన్</w>
తున్న ారని</w>
తు ండ
తీ సిన</w>
తా ల</w>
త లు
డి సె
డబ్ ల్య
చేసుకు న్నాడు</w>
చేయ బడింది</w>
చూ సిన</w>
గుండ ె</w>
క్ టర్
కొంచె ం</w>
కార్మి కులు</w>
క చ్చితంగా</w>
ఆర్ ఎస్
అభివృద్ధి కి</w>
అధికార ం</w>
ంద ించిన</w>
ీ లు</w>
హి ందు
హ ర్ష
స్తున్నా మని</w>
స్తా నని</w>
సులభ ంగా</w>
సాంస్కృ తిక</w>
సా న్</w>
సమీపం లోని</w>
సమస్య లను</w>
సభ్య ుడు</w>
స తీ
ష ు</w>
శుభ్ర ం</w>
శ ె
వ్యతిరే క
వెబ్ సై
విక్ర య
లో పే
రూప ంలో</w>
రా నున్న</w>
యెహోవా సాక్ష
మ్ య</w>
మై తే</w>
మున్సి పల్</w>
భాజ పా</w>
భక్ తులు</w>
బీసీసీ ఐ</w>
ప్రపంచ ంలోని</w>
ప్రదేశ ం</w>
పొ డ
పెట్టుబడు లు</w>
ప ించిన</w>
ని ల్
న టీ
ధ్ వం
దా స్</w>
తేలి ంది</w>
ట్రా న్స్
చె ను</w>
గ ార్
ఖ రారు</w>
కో వి
కే బినెట్</w>
కార్యకర్ తలు</w>
ఇంటర్ నెట్</w>
ఇ ట
ఆలో చి
ఆయన తో</w>
ఆనంద ్</w>
అనుమా ని
అత్యా చారం</w>
అందుబాటు లోకి</w>
అంగ ీ
ాల్ లోనూ</w>
స్వీ కారం</w>
స్వ చ్ఛ
స్ ఫూ
స్ కా
విజ న్</w>
వి భా
రాయ ల్</w>
యాక్ టివ్</w>
భూ కం
బ్ర హ్
బుధ వారం</w>
బహు శా</w>
బచ్చ న్</w>
ప్ల స్</w>
ప్రె స్</w>
ప్ర సం
పునరు ద్ధ
నీటి ని</w>
న లి
దా నం</w>
డొ నాల్డ్</w>
డి పాజి
టార్ క్</w>
జాగ్ర త్త</w>
జా జ్</w>
చేసు కొ
చేయ బో
చి పో
చని పో
గల రు</w>
ఖ ై
కోహ్ లి</w>
కు ల్
కంట్రో ల్</w>
ఇంటర్ నేషనల్</w>
అవి నీతి</w>
హ క్కు</w>
స్తున్న ా</w>
స్త ా</w>
సె ప్టె
సె క్స్</w>
సి లిం
సి రి
సా మె
సహ జ</w>
సంచల నం</w>
షే క్</w>
శ్రీ దేవి</w>
శతా బ్ద
విరు చుకు
విమర్శ ించారు</w>
విచార ణకు</w>
ల్ కర్</w>
లో పు</w>
ల కే</w>
రి క
యు వ</w>
మార్ చి</w>
మా ధ
భ ్రా
బంగ ారు</w>
బ లోపే
ఫై నా
ప్ ట్</w>
పీ ఠ
నిజ మైన</w>
న మ్ము
ద్ ది</w>
తున్న ా</w>
గ్రీ న్</w>
గౌర వం</w>
క్ర ే
కూ టమి</w>
కీ ర్తి</w>
కలు పు
క వి
ఓపె న్</w>
ఒక వేళ</w>
ఒ ంట
ఆండ్ర ాయిడ్</w>
అధ్య క్ష</w>
అ కౌ
ంద ా
19 8
ా నే</w>
సి బ్బ
సి ఆర్</w>
సార్ వ
సల హా</w>
సమాచార ాన్ని</w>
స స్పె
శ్ వర్
వి ప
వది లే
యెహోవా ను</w>
యూని ట్</w>
మొద లు</w>
మా ను
మహ ్మ
మహ ా</w>
మమ తా</w>
ఫ్ర ంట్</w>
ప్రకా ష్</w>
పౌ రస
పోయ ే</w>
ప సి
ప ది</w>
ను ండ
నిజ మే</w>
నట ులు</w>
న ల్ల
దావీ దు</w>
దర్యాప్ తు
దయ చేసి</w>
తీసు కొని</w>
తరల ించి</w>
త ాయని</w>
త ద్వారా</w>
టి డిపి</w>
జ్య ో
జా తీ
చేయ బడిన</w>
క్రెడి ట్</w>
కు న్నాయి</w>
కు నేందుకు</w>
ఇ బ్బంది</w>
అధ్యక్ష తన</w>
అంశ ాలపై</w>
అంత కు</w>
అ ప్</w>
ం క్</w>
i n</w>
3 4</w>
హో దా</w>
స్టే షన్లో</w>
స్ వి
స్ పోర్
సాధ ించ
సమీ ప
సమా జ
సందర్భ ంలో</w>
వెం ట</w>
వె లి
విరు ద్ధ
వాస్త వం</w>
లో నికి</w>
ల ండ
ర్ ను</w>
రా శ
యో గా</w>
య ార్
మా ం
మ నీ
భూ ష
బ్యా నర్</w>
బ్ లా
బె దిర
ప్ర కృతి</w>
పిలు పు
నాగ ార్
ద్ వీ
తు పా
తీ సి</w>
ఢిల్లీ లోని</w>
ఛ ైర్
చో ప్రా</w>
చెంద గా</w>
చర్ మం</w>
చ రణ
గుజరా త్
గంట ల్లో</w>
క్షీ ణ
క్ స్
కోర్ టుకు</w>
కృష్ ణా</w>
కార్ ల</w>
కార ి
కల దు</w>
కర్ స్</w>
ఎవర ి</w>
ఎగ్ జి
ఇచ్చ ే</w>
అశ్ విన్</w>
అంద రి</w>
s t
a l</w>
స్థా పించ
సై న్స్</w>
సై నిక</w>
సంద ీ
వి ష్ణ
వల సి
వరు స</w>
మే లు</w>
మ స్</w>
మ త</w>
భ యం</w>
బాక్ సాఫీ
బల ం</w>
బ ార్
బ దు
ఫ్ టీ</w>
ఫే స్</w>
ప్రభావి తం</w>
ప్ర శాంత
పూర్వ క</w>
పద వి</w>
న ారా</w>
దొ క</w>
దు ల</w>
త్త ా</w>
త ారా</w>
ణ ు</w>
డైరె క్ట్</w>
ట్ తో</w>
టె క్</w>
జరి మా
చే స్తాయి</w>
గ ంగ
కారు లో</w>
కా బో
ఏ మైనా</w>
ఎన్ సీపీ</w>
ఉద్యో గ
ఉత్తర్ వులు</w>
ఆనంద ం</w>
అశో క్</w>
అనుమ తి
అనుకూల ంగా</w>
ంత ు</w>
ించుకు న్న</w>
హా సన్</w>
స్ట ూ
స్ త్ర</w>
సేవ లను</w>
విద్యార్థ ి</w>
వాట్ సా
వ స్తున్నాయి</w>
వ ంగా</w>
లై ఫ్</w>
లి లో</w>
రి కి
యా ంటీ</w>
ముంబ యి
మాట ల</w>
మర ణాలు</w>
మ ణి</w>
బ్యాం కు
పోషి స్తున్నారు</w>
పిం డి</w>
ధా వన్</w>
దు గా</w>
డబ్ బు
ట్ లోకి</w>
జ మ్
చు ట్టు
కోల్ పోయారు</w>
కోరుకు ంటు
ఒ కర
ఐ సీసీ</w>
ఎక్కు వ
ఆప రే
ఆధార ్</w>
ఆంధ ్ర</w>
ఆ శా
ఆ డు
ంద ాయ్</w>
io n</w>
8 .
7 0
ూ రి</w>
స్వా తంత్ర
స్ మి
స్ మా
సింధ ు</w>
సి న్
సక్ సెస్</w>
శు క్ర
శా ను</w>
వ్యవస్థ ను</w>
వీ లు</w>
ల్ లోనే</w>
లేక పోయింది</w>
రాజకీ యాలు</w>
యా ను</w>
మహ్మ ద్</w>
మర ణాల</w>
బి నే
ప్రే మి
ప్రాంత ాల</w>
ప్రవేశ పెట్ట
పై నా</w>
నించి న</w>
నాలు గో</w>
న చ్చ
దే వ్</w>
దీ ప
తో న్న</w>
తెలు పు
తయ ారీ
డె న్</w>
టా క్</w>
చెంది ంది</w>
చక్క ె
గల దు</w>
గ ార
ఖ ్యా
ఒక సారి</w>
ఒ లిం
ఉచి త</w>
ఈ శా
ఇండ ో
ఆ కాశ
అధికార ంలోకి</w>
అత్యుత్త మ</w>
అ ంబ
ంద ాం</w>
ంట ాడు</w>
ంగ ల్</w>
5 .
3 6</w>
హ్యు ందాయ్</w>
స్ప ంది
స్థ లికి</w>
సినిమా టో
సి ద్ధా
సద రు</w>
స న్నా
స త్
శ్వ ర</w>
శి ష్య
శ త్రు
వే త్త</w>
వు తోంది</w>
విశ్ వస
వార ే</w>
వర్ గ</w>
వంశ ీ</w>
వ క్
లైంగ ిక</w>
ఫిల్ మ్</w>
ప్ర వర్త
పారిశ్రా మిక</w>
పరిష్ కారం</w>
ప ండ
నే ర్
నిర్ ది
నిరోధ క</w>
న మైన</w>
ధ ్రు
ద ంబ
తె గ
చై త
చెప్ప ాలి</w>
చూ సింది</w>
గ్యా స్</w>
గ్ లో
గ్ గు</w>
గు రి
కోల్ పో
కార్ డు</w>
కాం బినే
కా ను
కల సి</w>
ఉండ వు</w>
ఇవ్వ లేదు</w>
ఆరోగ ్యానికి</w>
ఆ న్</w>
అసెంబ్లీ లో</w>
అంద ించిన</w>
అంత రి
ంత ి
3 9</w>
2 6
ే ష్</w>
ాల న్నారు</w>
హి మా
సు ం
సీపీ ఐ</w>
సిం గి
షి ప్</w>
వ్ర ాయ
వ్యవహ ారం</w>
వ్య యం</w>
వె స్ట
వె బ్</w>
వ ింగ్</w>
లు న్నారు</w>
రై తు
యు ద్ధ</w>
మను ష
బా ంబ
ప్రారంభ ించిన</w>
పోరా టం</w>
పు నర్
పి లి
నిబంధ నలు</w>
న గా</w>
ధ ైర్
దీ పి
తని ఖ
డం లేదు</w>
జ ట్లు</w>
చర్చ ించారు</w>
గు రి</w>
గ ై
క్రీ స్తు</w>
కో ట</w>
కొన్ని సార్లు</w>
కై వ
కింగ్ స్</w>
కి ర
కి యా</w>
కా వు</w>
క పై</w>
ఇష్ట పడ
ఇక్క డే</w>
ింప జే
ాయ న</w>
స్ వర్
సౌకర్ య
సే ందుకు</w>
సె క్ర
సిబ్బ ంది
సినిమా తో</w>
సర్ టిఫి
సం ఘటనా</w>
షి యా</w>
విధా నాన్ని</w>
లక్ష లకు</w>
ర్ డ్</w>
రెండ ిం
రష్ మిక</w>
మే ఘ
మార ్</w>
మంగళ వారం</w>
మ త్
భారత దేశ
బ్ బ</w>
బ హ
బ రు
ప్రశ్ నించ
ప్రగా ఢ</w>
పిల్ల లను</w>
పా క్ష
పట్ట ణ</w>
నించి ంది</w>
ద్ర వ్య
ద్ ది
దో హ
దార ్</w>
డ్ డ</w>
జరిగి ందని</w>
చేసి న
చ ంద్ర</w>
గట్టి గా</w>
క్ర మ</w>
కు ప్ప
కాపా డ
క లను</w>
ఒడి శా</w>
ఊ ర
ఉష్ణోగ్ర త</w>
ఉన్న ారని</w>
ఉన్న ా</w>
ఆదేశ ించింది</w>
అవ స
అ ఖి
r o
స్తున్న ట్టు</w>
సై న్
సాధ ించారు</w>
సం ఘటనలు</w>
వె స్ట్</w>
వి లీ
వల్ల ే</w>
లి యా</w>
ల వ్</w>
రెండ ూ</w>
మ్ మును</w>
మ ల</w>
భి న్న</w>
ఫ్రా న్స్</w>
ఫు ల్</w>
ప్రెసిడె ంట్</w>
పుష్ కల
పు ట్టి
పాల న</w>
పాక్ష ిక</w>
పం ట</w>
నే ర
నివా ళ
నాయ క్</w>
నాణ్య త</w>
ద త్</w>
తో ను</w>
ట ంలో</w>
జోడ ించండి</w>
జూ నియర్</w>
చేయ ి</w>
చి దంబ
చ ాయి</w>
ఘో ర</w>
కొ ట్టు
కు ల్</w>
కను క</w>
కనిపి స్తోంది</w>
క ంగ
ఈ డీ</w>
ఇంగ్ ల
ఆటోమే టిక్</w>
అల వా
అంత కుముందు</w>
అం శాలు</w>
అం కి
ీ యులు</w>
ి య
హోం మంత్రి</w>
స్త్ర ీ</w>
సు ల</w>
సీ రియ
సరిహద్దు లో</w>
శ ారీ
వి శాఖ
వాహ నాల</w>
వ సర
ళ ీ
లి ష్</w>
రోడ్ డు
రోజు న</w>
యువ తి</w>
మొ ట్ట
బిలి యన్</w>
బలోపే తం</w>
ప్రొడ క్షన్స్</w>
ప్రా ముఖ్య
ప్ర సార
పెం పొంద
పాత్ర ను</w>
పాకి స్తా
పడ తాయి</w>
నీటి తో</w>
నీ తి
న తో</w>
తర గతి</w>
తమిళ ం</w>
డబ్బ ులు</w>
ట ప్పుడు</w>
ఛ త్తీ
చొ ర
గ్ర ా</w>
గరి ష్టంగా</w>
కర ణ్</w>
ఎనిమి ది</w>
ఎం సీ</w>
ఎ గ
ఉన్న ప్పుడు</w>
ఉండ డం</w>
ఆస్ప త్రి</w>
ఆ కాం
అభినంద నలు</w>
అనుసంధా నం</w>
అక్ టో
అ న్ని
ం ట్స్</w>
ించా మని</w>
ించ బడు
స్థా నాన్ని</w>
స్తు ల</w>
సె క్యూ
సభ కు</w>
ష ిక</w>
శ ాలలో</w>
వ్యవ సాయం</w>
వే త</w>
విమా న</w>
వార్ త
వార ు
వా ష
ల్ల ీ
లే ని
రా నుంది</w>
బ్రా ండ్</w>
బా క్స్</w>
బడ్జె ట్లో</w>
బ ద్ద
ప్రాంత ీయ</w>
ప్రమా దానికి</w>
ప్రత్య క్ష</w>
ప్ర ీ</w>
పె ట్టి
పరి హారం</w>
పని చేస్తుంది</w>
ప టి</w>
న్ లను</w>
నే నే</w>
దూ సు
దూ రంలో</w>
దా టి
తప్పని సరిగా</w>
చ్ చ</w>
చికిత్ స
గరి ష్ట</w>
కాండ ము</w>
కల ం</w>
కర్ణా ట
కర్ త</w>
ఓ టమి</w>
ఇచ్చ ాడు</w>
ఇక్క డి</w>
ఇ స్తుంది</w>
ఆర్ బీఐ</w>
ఆర్ టీసీ</w>
అప్పగ ించారు</w>
అక్ష య్</w>
అందు వలన</w>
అ ను</w>
5 5</w>
3 :
2 50</w>
ించుకు ని</w>
ించు కోవడం</w>
స్ కర్</w>
సై న్యం</w>
సెల వి
సెర్ చ్</w>
సి స్</w>
సమి తి</w>
సందే శ
వే సుకు
వెల్ల డి
విమా నం</w>
విద్య ార్
విజ్ఞ ప్తి</w>
వార్ షిక</w>
వర్ధ న్</w>
రావ డంతో</w>
రా ధా
యా జ
మ్ మర
మే నా</w>
మె ట్రో</w>
బి జి
బాహు బలి</w>
బ ార్</w>
బ జాజ్</w>
ప్రారంభ మైంది</w>
ప్రశ్ నకు</w>
ప్రణాళ ిక
ప్ర త్యా
ప్రత్యా మ్
పు గా</w>
పరి జ్ఞా
పండు గ</w>
ప దం</w>
నాయ ు
నటి స్తుంది</w>
న లకు</w>
ధ్ వ
ధి ని</w>
ధ ్</w>
తు ంద
తర్వా తి</w>
ణ్ ణి</w>
టర్ లో</w>
జమ్ మూ
జ ె</w>
చారి త్ర
గుండ ె
క్రీ డ
కైవ సం</w>
ఏ మ
ఎ లా
ఉద్యో గులు</w>
ఉగ్రవా ద</w>
ఆసక్తి కరమైన</w>
ఆర్ ట్స్</w>
ఆప రేషన్</w>
ఆది త్య
ఆ ం
అసో సి
అద్ వా
అడ గ
అ బద్ధ
4 8</w>
ించ ని</w>
హా మీ
సంవత్స రాలు</w>
సం భాష
ష ో</w>
వ్యతిరే క</w>
వ ంగ
లో నుండి</w>
లాక్ డౌన్</w>
ల కి</w>
రు లో</w>
రి ల
రాష్ట్ర ాలకు</w>
రాజకీయ ాల్లో</w>
రా ం
యో గి</w>
యిం ట్</w>
మె న్</w>
మె ంటు
మా దిరి
మంట లను</w>
భవిష్య త్తులో</w>
బ్యాం కులు</w>
బె యిల్</w>
బా గానే</w>
బ న్</w>
ప్రమా ణ</w>
పొ ర
పెరి గిన</w>
పునరా వృ
పు త్</w>
పిలుపు ని
పని లో</w>
న్యాయమూ ర్
న్యాయ వాది</w>
నెలకొ ల్
నిరు ద్యో
ని నా
నాగార్ జున</w>
నర్ లు</w>
దీని లో</w>
ణ మే</w>
జరి పిన</w>
జయ లలి
చెప్ప ే
చెప్ప ి</w>
గ లుగు
ఖా ళీ</w>
కో ప
కుంటు ంది</w>
కు న్నాను</w>
కర్ణాట కలో</w>
క ైనా</w>
ఎలక్ ట్రా
ఉత్పత్ తులు</w>
ఉ న్నాం</w>
ఇవ్వ డం</w>
ఇన్ స్టా
ఇంధ న</w>
ఇ దీ</w>
ఇ టు</w>
అడి గాడు</w>
4 9
3 7</w>
ించు టకు</w>
ాల్ సింది</w>
ా న</w>
సే కర
సె ంటర్</w>
సమ న్
సన్నా హాలు</w>
సం రక్షణ</w>
వ్యక్ తిని</w>
వైఎస్ సార్</w>
విధ ించింది</w>
లాభ ం</w>
రం జన్</w>
మొద లైన</w>
మె రు
మె ద
మృ త్య
మవు తోంది</w>
మలయా ళ</w>
బ్రి టి
ఫై ర్</w>
ఫ ార
ప్ర కార
పు ట్టిన</w>
పద్ధ తి</w>
పడ్ డా
ప రా
న్యూ స్</w>
నిర్మా తగా</w>
నియ మి
నిపుణ ులు</w>
నిందితు డు</w>
ని ం
ద ార్
తెలుగు దేశం</w>
తయ ార
త మే</w>
డి శ్
టై మ్</w>
జూ లై</w>
చే కూ
చెల రే
చ రు
కో ర
ఐ ఐ
ఇమ్రా న్</w>
ఆధి క్య
అదు పు</w>
అత డికి</w>
అంది స్తున్న</w>
అ బ్బ
ండ ే
u r
4 2</w>
ించే లా</w>
స్టా క్</w>
స్క్రీ న్</w>
స్ క్</w>
సిం గ
సగ టు</w>
శాస్త్ర ం</w>
శారీ ర
శరీ ర
వ్యాపార ం</w>
వే త
వివర ణ</w>
వ శా
లో న
రిజర్ వే
రాల ే
మ్మ ద్</w>
ముస్లి ం</w>
మినహాయ ింపు</w>
బ ాలు
ప్ర వాహ
పే జీ
పెరుగు తోంది</w>
పుష్కల ంగా</w>
పడ ే
పక్క న</w>
న్ ః</w>
నె ను</w>
ని వ
దొ రక
ద ను</w>
తెలి పిన</w>
తి ః</w>
తర హా</w>
డిశ్ చార్
డా న్</w>
జీవి తాన్ని</w>
జ ిం
చెంద ాడు</w>
చిత్ర ాల్లో</w>
చక్క గా</w>
గొ డవ
గుర ించిన</w>
కుమార్తె లు</w>
కా శ్మీ
కలి సి
ఒకే సారి</w>
ఎస్ సీ</w>
ఆస్త ి</w>
ఆ వేద
అర్ ధ
అధ్యక్ష ులు</w>
అధికార ులను</w>
అంశ ాలను</w>
అం బా
6 00</w>
ించు కొ
హా నికి</w>
స్వల్ ప</w>
స్వ తంత్ర</w>
స్థాయి కి</w>
సోదరు డు</w>
సిన్ హా</w>
సమ గ్ర</w>
సందీ ప్</w>
సంగీ తాన్ని</w>
శుక్ర వారం</w>
వ్యాయా మం</w>
వు తున్నాయి</w>
వీరి ని</w>
వీటి కి</w>
వి లి
వాళ్ లను</w>
వాం ఛ
వచ్చ ాడు</w>
లీ గ్</w>
యు ండ
యా క్సి
య ండి</w>
మై క్రో
మరి కొన్ని</w>
మంట లు</w>
బి డ్డ
ఫొటో లు</w>
ఫిర్యా దు
ఫి బ్ర
ప్రొఫె సర్</w>
ప్ర కటి
పెరుగు దల</w>
పూ రి
పాయిం ట్ల</w>
నిర్మా తలు</w>
నిర్ధార ణ</w>
నిరస నలు</w>
దృ క్
దూ ర
ద ౌ
తెలి పాడు</w>
ట్ లేదు</w>
జాగ్ర త్తలు</w>
చేసు కోవాలని</w>
చదవ ండి</w>
గో వా</w>
గో ళ
గృ హ</w>
గా నూ</w>
గంట ల</w>
కాల ్</w>
కార ్యా
కన్న ు
ఏ జె
ఎవర ో</w>
ఎ న్ని</w>
ఇరా న్</w>
అహ్మ దా
అమెరి కన్</w>
అ మ్ము
అ ది
అ డ్డ
ాల న్నీ</w>
స్ గా</w>
సమర్ ప
సంబ ందించిన</w>
శ ృ
వ్యవ సాయ
వెను క
వె ల్</w>
విధ మైన</w>
వాహ నం</w>
వనరు ల</w>
వంత ్</w>
వ ళి</w>
రైల్ వే
రు చి
రికార్ డు
రమ ణ</w>
ర ాయి
ర కాలు</w>
యె రూ
మే యర్</w>
మే కర్స్</w>
మూవీ స్</w>
ముఖ ం</w>
మీ టర్లు</w>
మార్కె టింగ్</w>
మ రు
బాల ీవు
బాక్సాఫీ స్</w>
బయ ట</w>
ప్రాతి ని
ప్ర వర్
పోలీసు లను</w>
పో తోంది</w>
పూర్వ కంగా</w>
ప ండ్లు</w>
నిర్ణయ ించింది</w>
నిర్ వచ
నవ్ వు
దాని తో</w>
ద య</w>
థ ్
తప్పని సరి</w>
డి యో
చెప్ప వచ్చు</w>
చిత్రీకర ణ</w>
చర ణ</w>
గ త
క్ష మ
కౌన్సి ల్</w>
కోర్ టును</w>
కేంద్ర ంలో</w>
కు దు
కార్యకలా ప
కల కలం</w>
ఏ మాత్రం</w>
ఎస్ బీఐ</w>
ఎ ంట్ర
ఇ తరులు</w>
అధి గమ
అందు కుంది</w>
l o
4 :
2 7
1 25</w>
ో ని</w>
హ ై</w>
స్వాగ తం</w>
స్తా మన్నారు</w>
సెక్యూ రి
సీ ఈ
సమీప ంలో</w>
సంవత్స రానికి</w>
శాసన సభ</w>
వెం క
విరా ళ
వా న్</w>
వర ద
వన్ డే</w>
వ త్</w>
లోప ల</w>
ల ్యూ
రూ పొందిన</w>
రాజ్యా ంగ</w>
రా ను</w>
ర వి</w>
యూ పీ
మో స
బ్యానర్ పై</w>
బడ్డ ారు</w>
ఫో ర్స్</w>
ఫీచర్ లు</w>
ప్రారంభ ించింది</w>
ప్రాధాన్య త</w>
ప్రాంత ాలలో</w>
పిలు స్తారు</w>
పాండ ే</w>
పడి పోయింది</w>
న్ లోని</w>
నిశ్ చ
నా టక</w>
నవ ంబర్</w>
దేవు నికి</w>
దిగ్ భ్రా
ద హ
త్ర ిక</w>
తెలియ ాల్సి</w>
తీసుకు నే</w>
ట్విట్ట ర్లో</w>
జ డ్
చేయ నుంది</w>
చే స్తాం</w>
చక్కె ర</w>
చం పే
కుంటు న్నారు</w>
కు నే
కా మె
కల్ప న</w>
కథ లు</w>
కంప్యూ టర్</w>
ఉచి తంగా</w>
ఆఫీ సర్</w>
ఆ ల్</w>
ఆ యిల్</w>
ఆ దు
ఆ ట</w>
అవార్ డు
అర్హ త</w>
అప్ లి
అ దీ</w>
ంద ీ</w>
4 0
ించ బడి
స్పూ న్లు</w>
స్పష్ట త</w>
సౌకర్ యం</w>
సు బ్బ
సమా నంగా</w>
సమ యానికి</w>
శ్వా స</w>
శా తంగా</w>
వ్యతిరే కి
వేది క</w>
వు న్నాయి</w>
విశ్వవిద్యాల యం</w>
విభ జన</w>
వా టర్</w>
వయ సు</w>
వంద ల</w>
లో గా</w>
ల ం
రె డ్</w>
రూ పొంది
రిల యన్స్</w>
ర ని</w>
మె హ
మా ల</w>
మహిళ లకు</w>
మ ్య
మ ను</w>
భో జనం</w>
బారి న</w>
ప్రత్యే కమైన</w>
పే తు
పా న్ని</w>
పరి క
పట్ట ు</w>
నే నె
నా న్న
నరేంద్ర మోదీ</w>
దక్క ింది</w>
తో నూ</w>
తెలియ రాలేదు</w>
తు న్నాం</w>
తు డు</w>
తగిన ంత</w>
జార్ ఖండ్</w>
జయ ంతి</w>
చేసా డు</w>
చే తులు</w>
చెప్ప ండి</w>
చెంది న
చూ సుకు
గూ ర్చి</w>
గూ ర్
గాల ింపు</w>
గ ందర
క్య ు
కే ష్</w>
కు దర
కీల క
కార్యక్రమా న్ని</w>
కార్ తీ
కాంగ్రె సు</w>
కనీ స</w>
కథానాయి కగా</w>
ఒ కట
ఉల్లం ఘ
ఈశా న్య</w>
ఇబ్బ ందు
ఇప్పటి వరకూ</w>
అభిప్ర ాయం</w>
అద్భు త</w>
అంతర్ గత</w>
అ న్నా
r i
e d</w>
8 ,
6 0
ుల ైన</w>
ిం ట్</w>
హె డ్</w>
సైకి ల్</w>
సరి పో
సంస్ కృతి</w>
శ్ర ద్ధ
శర వేగంగా</w>
శ ని
వైద్య ం</w>
వి రి
వాట్సా ప్</w>
వా లో</w>
లా ంచ్</w>
యూనివర్ సిటీ</w>
యూ రో
ముక్క లు</w>
ము లలో</w>
మనో హర్</w>
మధ్య లో</w>
మ తులు</w>
మ తం</w>
ప్రా సె
ప్రశం సలు</w>
పో తున్నారు</w>
పొందు తున్నారు</w>
పెరి గి</w>
పురా తన</w>
పు ల్</w>
పార ే
పట్ట ించుకో
ప ాయి</w>
నె లకు</w>
నె క్
నిర్మ ించిన</w>
ని ద్ర</w>
నటి స్తున్నాడు</w>
ధ ్య</w>
ధ ూ
దె బ్బ</w>
దా ల</w>
తొ మ్మి
తెలుసు కోవ
తె ల్ల
తి పై</w>
తప్ప క</w>
తగ్గి స్తుంది</w>
డ్ర ో
డీ ఎం
ట్ల యితే</w>
టి స్</w>
జిల్లా కు</w>
జట్టు కు</w>
గ్రా మ</w>
గెలి చి</w>
గురు వారం</w>
గ ణా
ఖ రి</w>
క్క ె
కో ణం</w>
కీల కమైన</w>
క ైన</w>
క మా
ఐ ఫోన్</w>
ఏడు గురు</w>
ఎన్న డూ</w>
ఊ పి
ఆ క్సి
అమ్మ ాయి</w>
అత్య వసర</w>
అంత ర
అ ంది</w>
u m
6 4</w>
ించిన ట్టు</w>
స్నేహి తులు</w>
స్తు ండ
సోమ వారం</w>
సెన్ సెక్స్</w>
సీ లు</w>
సర్వీ స్</w>
సమ ంత</w>
ష్ టికి</w>
ష ార్
శి శు
వై స్</w>
వహి స్తున్న</w>
వహ ించిన</w>
వ ్య</w>
లా డు</w>
రి గా</w>
ర వ్</w>
యొద్ద కు</w>
మో సం</w>
మృత్య ు
ముంబై ః</w>
ము డి</w>
మ రె
భూష ణ్</w>
బ్యాం కింగ్</w>
బలహీ న
బల ంగా</w>
ఫై నల్</w>
ప్రేక్ష కులు</w>
ప్రయా ణీ
ప్రమా ణం</w>
ప్రతి దీ</w>
పాఠశాల లు</w>
పరిస్థి తు
ప ల
నీ య
నిషే ధం</w>
నిర్ భ
నియోజక వర్గం</w>
ని త్య
ధో ని</w>
దేవు ని
దా డులు</w>
ద శా
తేదీ న</w>
త ప్పుడు</w>
డౌ న్
డ ారు</w>
జర ీ</w>
జ ొ
చేసు కోవడం</w>
చెప్ప డం</w>
చె ల్లి
చిన్న ార
గ్ర ఫీ</w>
గ లను</w>
కుమారు డైన</w>
కారణ మని</w>
కస్ట మర్
కలె క్టర్</w>
కనుగొ న
క ది
అధ్యక్షు డిగా</w>
అట వీ</w>
ం ట్లు</w>
4 4</w>
ుల ర్</w>
ించు చు
ించు కోవాలి</w>
హాస్పి ట
హ త
స్త ారని</w>
సే తు
సె ట్</w>
సూచ నలు</w>
సు ష్
సు లను</w>
సి సి</w>
సార్వ త్రిక</w>
సా లు</w>
స పోర్ట్</w>
ష్ట మైన</w>
షా ల</w>
ష ర
శాంత ి
శతా బ్
శ బ్
వే త్తలు</w>
వెలుగు లోకి</w>
వీ ర్</w>
వివా హ</w>
వాష ింగ్
లే వ
లభ్య ం</w>
ర్ గా</w>
రై ంది</w>
యెరూ ష
యూ నియన్</w>
య ీ</w>
య ంగ్</w>
మొదలు పెట్ట
మొత్ తాన్ని</w>
మార్గ దర్శ
మాన వ
మాధ్య మ
మ సీ
మ ందులు</w>
భాష ా</w>
భాగస్వా మ్యం</w>
భవ నం</w>
బాల కృష్ణ</w>
ఫీ జు</w>
ప్రతి నిధులు</w>
ప్రకాశ ్</w>
పోలి స్తే</w>
పే స్</w>
పెరుగు తున్న</w>
పెరి గి
పె ళ్ళ
పి లువ
పా టి
పలు కు
పరిమి తి</w>
పరిమి తం</w>
పదార్థ ాలు</w>
న్ని స్</w>
నోటీ సులు</w>
నిలి చాడు</w>
ధ్ వర్
ధ ర్</w>
ద్దీ న్</w>
దొ ంగ
దు ః
త్ర ా</w>
తా గు
డీ స్</w>
జర్ మనీ</w>
జ ాల
చెబు తోంది</w>
చ ంద
ఘ ు
గంట లకు</w>
ఖా తాలో</w>
ఖా త
ఖ ్
కు ండ</w>
కి డ్
కళా శాల</w>
కలప ాలి</w>
కన్ను మూ
ఏ దే
ఎ ర్
ఉద్యో గాలు</w>
ఉదాహ రణ</w>
ఇది లా</w>
ఆరోగ్య కరమైన</w>
ఆత్ మ</w>
ఆ ధ్వర్
అరు దైన</w>
అను కో
అగ్ ని</w>
అంద ించే</w>
9 ,
3 5
1 వ</w>
ు లుగా</w>
ించి నా</w>
హి క</w>
హా జరు</w>
హత్య కు</w>
స్వల్ ప
స్త ంభ
సామె తలు</w>
సా ఫ్ట్</w>
సర్ వే</w>
సరిహ ద్దు</w>
సంబం ధ</w>
స వాల్</w>
వే సి
వెలు గు</w>
వివాదా స్పద</w>
విద్యార్థ ుల</w>
విచారి స్తున్నారు</w>
ల్ లోని</w>
లక్షణ ాలను</w>
ల క్ష</w>
ర్ లోని</w>
రు డు</w>
రక్ష ణ
ర ద్దు
యా త్ర</w>
మొత్త ంలో</w>
మే న
ముగి సిన</w>
మార్గ ంలో</w>
భ ట్</w>
బీ ఎస్పీ</w>
ప్ర ాయ
పౌ ర</w>
పే ర్లు</w>
పి స్తోంది</w>
పక్ష ాలు</w>
ప ో</w>
ప ద</w>
న్యూజి లాండ్</w>
నో టిఫి
నె మ్మ
నె టి
నిలి చారు</w>
నిధ ులను</w>
దుర్ మరణం</w>
దీ పా
ది గి</w>
తె రి
తు ండగా</w>
తమిళనాడు లో</w>
డ ్యు
ట్ట ే</w>
టన్న ుల</w>
జనా భా
జగన్ మోహన్</w>
చెప్ప ెను</w>
గ ిం
ఖా తా</w>
క్రి యా
క్ లు</w>
కౌ ంటర్</w>
కో ణ
కూరగాయ లు</w>
కు ంభ
కా ని
కా దా</w>
ఏర్పా టుకు</w>
ఎ ప్పటికీ</w>
ఉండ ి
ఉంట ా
ఇన్నింగ్ స్లో</w>
అవ్ వ
అదే విధంగా</w>
ండ్ స్</w>
e t
e s
ించు కొని</w>
ారా వు</w>
హ ్య
హ ్</w>
స్టో రే
సూ పర్
వేర్ వేరు</w>
వే లాది</w>
వే చి</w>
వు ల
వీరిద్ద రూ</w>
విజయ వాడ</w>
వి భిన్న</w>
వాల ా</w>
వర ీ</w>
వ శ
ళ్ల తో</w>
రూపొందు తున్న</w>
రు ణ</w>
రు జు
రాజ్ నాథ్</w>
రా ణ
యో హా
మి క్</w>
బౌ లర్
బి యా</w>
బాధితు రాలి</w>
ఫొ టో</w>
ఫ ై</w>
ప్రవే శ</w>
ప్రయా ణం</w>
పేర్కొ న్నాడు</w>
పెరి గే</w>
పర్యాట కులు</w>
పరిశ్రమ లు</w>
ప సు
ప రాజ
న్న ాయని</w>
నీ యు
నివ సి
నిధ ుల</w>
దేశ ాలకు</w>
దారు ణంగా</w>
దారు ణ</w>
తక్ష ణమే</w>
టీ వీ
జరిమా నా</w>
జ త</w>
చేస్తున్న ారని</w>
చారిత్ర క</w>
గ్ స్</w>
క్య ారె
కేంద్ర పాలిత</w>
కా య</w>
ఉన్న ప్పటికీ</w>
ఉన్న ట్టు</w>
ఉ పరి
ఇంటర్ వ్యూ
ఇ ల్లు</w>
ఆలస్ యం</w>
ఆత్మహత్య కు</w>
ఆ ఫ్
ఆ ఫర్</w>
ఆ క
అని పించ
అ మ్
201 6</w>
ీకర ణ</w>
సా న్ని</w>
సంఘ ాలు</w>
శని వారం</w>
వాళ్ లకు</w>
వ డ
లేద ో</w>
లా గే</w>
రూ పం</w>
ర కం</w>
య్య ి</w>
యువ ల్</w>
యు నై
యునై టెడ్</w>
య ింగ్</w>
మొదటి సారి</w>
మూవీ లో</w>
భవిష్య త్తు</w>
బ్రి టన్</w>
బ స్సు
ప్రా ంత</w>
ప్ర వక్
ప్ర ణ
ప్ర ఖ్యా
పేరు ను</w>
పార్ల మెంటు
పా తం</w>
పశ్చి మ
పడు తోంది</w>
పట్ నం</w>
నై ట్</w>
నె ల్ల
నిర్మా ణానికి</w>
నిర్ది ష్ట</w>
నిర్ వాహ
నాశ నం</w>
నా ను</w>
న ైన</w>
న మ
ధర ల</w>
ద్ వై
దేవు డైన</w>
దృ ష్టికి</w>
దినోత్స వం</w>
ది న</w>
తెలి సిన</w>
తా మని</w>
తర గ
డ ్యా
డ బుల్</w>
టై గర్</w>
జు ట్టు</w>
చంద్ర శేఖ
గుర్తు ంచు
గుర య్యారు</w>
గమ ని
కె సిఆర్</w>
కూ లీ
కి ని</w>
కి ంద
కాన్ఫ రెన్స్</w>
కా డ
కా జల్</w>
కపో వడం</w>
ఐ గుప్
ఎఫ్ ఐ
ఇంజనీ రింగ్</w>
ఆయన పై</w>
ఆడి యో</w>
అస్ సలు</w>
అలా ంటి
అమ లు
అనుమా నం</w>
అధికార ులకు</w>
అం శాన్ని</w>
అ హ
4 9</w>
ే నే</w>
ించుకు న్నాడు</w>
ించ ెను</w>
ాల ా
ాల నే</w>
ారీ లో</w>
హై కోర్టులో</w>
హి త</w>
స్థి తి</w>
సృష్ట ించింది</w>
సామ ్రా
సమా చార</w>
సం భ
సం చ
సం ఘటన
షే ర్లు</w>
వ్యవ స్థాప
వే ంద్ర</w>
వృ త్తి</w>
విశ్రా ంతి</w>
వర్ కింగ్</w>
వర ంగల్</w>
లా డు
లక్ష్ మి</w>
ర్ యం</w>
ర్ జీ</w>
రో డ్</w>
రే ట్లు</w>
రు ణాలు</w>
రు చి</w>
రాజకీ యం</w>
రా బో
మొట్ట మొదటి</w>
మొ హ
మన ల్ని</w>
మ రా
భి వృద్ధి</w>
భాష లో</w>
బ్యా డ్
ప్రారం భి
ప్రయత్నించ ండి</w>
ప్రదేశ్ లోని</w>
ప్రచు ర
ప్ర దాయ</w>
పార్ క్</w>
ప ండి
నేత ల</w>
ని రీ
నారాయ ణ
న ంద</w>
ధ్రు వీ
ధ న
ద్ద ీ</w>
దు లు
దర్శకు డిగా</w>
దక్షిణా ఫ్రికా</w>
తర పున</w>
తగ్ గింది</w>
త క
ట్ మెంట్</w>
ట రు</w>
జీవ న</w>
జా న్
జర్ నలి
జయలలి త</w>
జట్టు లో</w>
చే తు
ఘ నంగా</w>
గే ర్
గు లను</w>
గు ణ
గా నో</w>
గణా ం
కుమార స్వామి</w>
కార్ లు</w>
కా నున్నారు</w>
కల ర్</w>
ఏపీ లో</w>
ఏ దీ</w>
ఉగ్రవా దులు</w>
ఇన్ స్టిట్యూట్</w>
ఆధార ాలు</w>
అయ్య ే</w>
అనే క
అంది స్తోంది</w>
ం ట</w>
4 7</w>
ూ ర్</w>
ాల ీ</w>
ా వు</w>
హింద ీలో</w>
హిం స
స్వీ కర
స్టి క్</w>
సౌకర్ యాలు</w>
సై న్య
సెప్టె ంబర్</w>
సి ఎం</w>
సాధార ణ
సమస్య ను</w>
శె ట్టి</w>
వై ట్</w>
వి గా</w>
వాహ న</w>
వా ని</w>
లా ల</w>
ల కు
మోహ న్రెడ్డి</w>
మి గి
మార్ క్</w>
మర ిం
బ్రే క్</w>
బై క్</w>
ప్రసి ద్ధ</w>
ప్ర వా
పొంద వచ్చు</w>
పూర్ ణ
పాకి స్థా
పరిపాల న</w>
పని ని</w>
నీటి లో</w>
ని త్యం</w>
నరేంద్ర మోడీ</w>
నటి స్తుండగా</w>
న లుగు
న ందు</w>
ధా న్ని</w>
దిగ్గ జం</w>
త ారని</w>
టి న్</w>
టక ై</w>
జై లు</w>
జర ప
చెప్ప లేదు</w>
చంద్ర న్</w>
గౌ త
క్ష మాప
క్రమ ం</w>
క్క ీ</w>
కో టి</w>
కూ టమి
ఏర్పా టు
ఉన్నతాధికార ులు</w>
ఇంత వరకు</w>
ఆ రాధ
అవు ట్</w>
అర్ ధం</w>
అమ్మ కాలు</w>
అబ్ దు
అప్రమత్త ంగా</w>
అతని ని</w>
అ సిస్ట
అ వాంఛ
అ మ్మ</w>
అ న్నింటి
r a
5 1</w>
3 8</w>
ించే ది</w>
ించ బడ్డాయి</w>
ించ నున్న</w>
స్పష్ట మైన</w>
స్టో రీ</w>
స్ క్రి
స్ ః</w>
సేతు పతి</w>
సి వి
షి య
శిఖ ర్</w>
శా సన</w>
వెల్లు ల్లి</w>
విష యానికి</w>
వి క</w>
వ ంటి
లి న్</w>
రాజ్య సభలో</w>
రా వి
రంగ ాల్లో</w>
మొద లై
మూ ర్తి</w>
ముంబ యి</w>
మధ ్యా
మ ాల్
మ ాయా
భ రి
బౌ లింగ్</w>
బిల్లు ను</w>
బిజి నెస్</w>
బాగు ంది</w>
ప్రతి కూల</w>
పో వడం</w>
పొ త్తు</w>
పలి కారు</w>
పరిమా ణం</w>
న్న ు
నిక ల్</w>
నరసిం హ
నమ్మ క
న ట్లుగా</w>
ధృ వీ
దేశ ంలోనే</w>
దూసు కె
త్ వాన్ని</w>
తో డు</w>
తెలియ ని</w>
తీసుకుంటా మని</w>
డ్ ని</w>
టెస్టు లో</w>
జరు గ
జ ారీ
జ డే
చౌ దరి</w>
చేయ ాల్సి</w>
చె రు
చర్ చి
గో ధు
గుర ైన</w>
క్ల ారిటీ</w>
క్రొ త్త</w>
కో ణంలో</w>
కొ రియా</w>
కే ం</w>
కు దిరి
కార్యకలా పాలు</w>
కలు గ
ఎవ రికి</w>
ఎంచు కోండి</w>
ఉ ంచి
ఆశ్ చర్
ఆల య</w>
ఆట గాడు</w>
అవు తున్నాయి</w>
అభ్యర్థ ిగా</w>
అధికార ుల</w>
అ వే
అ యన</w>
అ ద్ద
అ జిత్</w>
అ ండ
a me</w>
9 .
8 5</w>
4 6</w>
201 5</w>
19 6
ాల్సి ందిగా</w>
హాస్పి టల్</w>
హరీ ష్</w>
స్ఫూ ర్
స్థి రంగా</w>
స్ క్
సెంచ రీ</w>
సురే ందర్</w>
సురక్షి తంగా</w>
సా ఫ్
సర్ కార్</w>
సమీ ప</w>
సంస్థ లకు</w>
సంప్రద ాయ
స ల్</w>
శ్రీ రామ్</w>
వేధ ింపు
వి లో</w>
వాద నలు</w>
వద్ద ని</w>
రె గ్య
యూ పీ</w>
మొత్త ంగా</w>
మి ని
మన్ మోహన్</w>
మధ్యా హ్
మండ ల
మ య్యే</w>
భ యా
బె ం
ఫోర్ డ్</w>
ప్రభు త్వంలో</w>
ప్ప ులు</w>
పరస్ప ర</w>
పత్ర ిక</w>
ప ింగ్</w>
ప శు
న్ లలో</w>
నిరీ క్ష
నిరా శ
న యన
దే వా</w>
దారు ణం</w>
తీసు కు</w>
తిరస్ కర
తమిళ ్</w>
టీ మ్</w>
ట ం
జన వరి</w>
జం ట</w>
జ ల</w>
చో ట</w>
చెప్ప ా
చు రు
చిదంబ రం</w>
గంగ ూ
క్ లీ
కో చ్</w>
కిర ణ్</w>
కర్నూ లు</w>
కరో నా
కనిపించ నున్నారు</w>
ఎరు పు</w>
ఎన్ ఆర్
ఉల్లి పాయ
ఉప సం
ఉంట ాడు</w>
ఇంజి నీ
ఆసక్ తిగా</w>
ఆర్థ ికంగా</w>
అహ్మ ద్</w>
అస్ సా
అల ం
అమరావ తిః</w>
అనుకుంటు న్నారా</w>
అని పించింది</w>
అన ూ
అ ప్పు
ండ ింగ్</w>
ంట ్రా
10 0
్యా ల</w>
హ ల్</w>
స్టే డి
సే న్</w>
సి యా</w>
సి పి
సి క్
సలహా దారు</w>
సమకూ ర్చ
సమ ృ
సంతా నం</w>
సంగీ త
శి ల్
శా స్త్ర</w>
వై పున</w>
వేరియ ంట్</w>
వెలువ డ
వె న్యూ</w>
విస్తృ త</w>
విడుద లకు</w>
వి గ్ర
రా బ
రవీ ంద్ర</w>
రణ ్
ర కమైన</w>
మై దా
మే నని</w>
మె జ
మంత్రి త్వ
మ గ
బం ధ</w>
ఫా స్ట్</w>
ప్రీమి యం</w>
ప్రవాహ ం</w>
ప్ర మో
పె ళ్
పూర్త యింది</w>
పూ రి</w>
పా డు
పర ారీలో</w>
నిషే ధ
నిర్ లక్ష్యం</w>
నిర ంతరం</w>
ద్వై పాక్షిక</w>
దుర దృష్ట
ది ద్దు
తెలీ దు</w>
తు ంటారు</w>
తీవ్ర త</w>
టెండ ూ
టి న</w>
చట్ట ము</w>
గ్లో బల్</w>
గ ణి
క్ ర</w>
కోవి ంద్</w>
కేంద్ర ంగా</w>
కూ ర్</w>
కలి శారు</w>
కర ణలు</w>
క న</w>
ఐ ఏ
ఏమి టో</w>
ఎన్నిక లకు</w>
ఎ ర్ర
ఉపాధ్య క్షుడు</w>
ఉద్రిక్ త
ఉ డిక
ఇ ంద్ర
ఆర్ ఆర్</w>
ఆదిత్య నాథ్</w>
అవకా శాన్ని</w>
అమె జాన్</w>
అభ్య ర్
అత్యా చార
అంద ంగా</w>
ం ట్లో</w>
ం కా</w>
e a
c h
8 00</w>
5 9</w>
20 21</w>
్రా వు</w>
ించు ము</w>
స్థి తిలో</w>
స్థాప న</w>
స్ సులు</w>
సెన్ సార్</w>
సూ ర్య
సు న్ని
సంతో ష్</w>
సంతృ ప్తి</w>
సం క్రా
ష ీ</w>
శ్రీనివా స
వ్ వరూ</w>
వా క్య
వద్ద కు</w>
ల్ల ె
ల్ పై</w>
రోజు రోజు
రె డీ</w>
రూ మ్</w>
రా బోయే</w>
రా డు</w>
యా త్ర
య ందు</w>
మి రి
మార ాయి</w>
మహా త్
మ ద్రా
భ ్ర
బె ట్టు
బు ద్ధి
బా ధ</w>
ప్రారంభ ంలో</w>
ప్రాతిని ధ్యం</w>
ప్రత్య ర్థ
పోష ించారు</w>
పురుష ుల</w>
పర లో
ప వార్</w>
న్నా ము</w>
నివార ణ</w>
నివా స
ని ఫ్టీ</w>
ని తీ
నాయకు డిగా</w>
న చ్చింది</w>
ద్ర ో
దేవాల యం</w>
దృష్టి లో</w>
త్యా న్ని</w>
త్తు గా</w>
తున్న ారా</w>
తాత్ కాలిక</w>
తమ న్నా</w>
డ్రై వర్
డిగ్రీ ల</w>
టి కె
జో క్యం</w>
జీ ఎస్టీ</w>
జా న
జగ న్నా
చేస్తు న్నాం</w>
చేసి నట్టు</w>
చేశా మని</w>
చర్య లను</w>
చక్క ని</w>
గు లా
గణనీ యంగా</w>
ఖ ే
కోహ్ లీ
కోల్క తా</w>
కు ర
కట్టు బడి</w>
క ము</w>
క డి
ఓ టమి
ఎస్ట ి</w>
ఎందు క
ఉపయోగ ించ
ఇన్నింగ్ స్</w>
ఇంగ్ల ండ్</w>
ఇ దొక</w>
ఆర్ పి
ఆ ఫ్రికా</w>
అవాంఛ నీయ</w>
అవ న్నీ</w>
అ ప్పుడ
ంబ రు</w>
6 3</w>
ో త్స
ొ ద్దు</w>
ొ ద్ద
ీ స్</w>
స్వ స్థ
స్వ రాజ్</w>
స్టార్ ట్</w>
స్ యం</w>
సె మీ
సె ట్స్</w>
సీ ఎం
సాగు తోంది</w>
సా గర్</w>
సందే హం</w>
షో ర్</w>
ష ను</w>
శ్వర రావు</w>
శాశ్వ త</w>
శాఖ ల</w>
వృ ద్ధ
వీడియో లు</w>
వీ క్ష
వ నే
లే డు</w>
ర్ షి</w>
రూపొంద ించిన</w>
రాజ స్థా
యా జమా
మూ రి</w>
మార్కె ట్లోకి</w>
మార్ గాలు</w>
మహ ర్షి</w>
మ లు</w>
భార ం</w>
బ రిలో</w>
బ తు
బ క
బ ంగా
ఫ్రె ంచ్</w>
ఫైనా న్స్</w>
ఫలిత ాలను</w>
ప్రోత్ సాహ
ప్రాంత ాన్ని</w>
ప్రజ ల
పే ద</w>
పె ళ్లి
పు ట్</w>
పాల ు
పరు స్తుంది</w>
న్యూ యార్
నె ంట్</w>
నుంచ ీ</w>
ని ఘ
నాయక త్వం</w>
నయన తార</w>
నడు పు
న న్నారు</w>
థి యే
త లం</w>
త ంత
డే విడ్</w>
డాల ర్లు</w>
డ ట</w>
టీ లు</w>
టి ని</w>
ట ాలు</w>
ట లు</w>
జీ ర్
జ ాయ్</w>
చేస్తున్నా మని</w>
చే స్తాడు</w>
చెల్ల ింపు
చూ చి</w>
చని పోయి
చ ంప
గు డ్</w>
గర్ వ
కోల్ పోయింది</w>
కేంద్ర మంత్రి</w>
కృ షి
కు న్నా</w>
కర్ నాటక</w>
ఒక్క టే</w>
ఐ శ్వర్
ఎస్ ఐ</w>
ఎంట్ర ీ</w>
ఉండ కూడదు</w>
ఇంగ్లీ ష్</w>
ఆవేద న</w>
ఆయ నే</w>
ఆ పిల్</w>
అనారో గ్య
అతని తో</w>
అంతే కాక</w>
అంతరి క్ష</w>
అ య్యా
ందు ను</w>
ంటు న్నాయి</w>
o f</w>
20 00</w>
10 00</w>
ాయ ్
స్తున్న ారా</w>
స్త ాయని</w>
స్ పోర్ట్</w>
సైని కులు</w>
సేవ ల</w>
సెక్ర టరీ</w>
సాను భూతి</w>
సాధ ించి</w>
సా గింది</w>
సహ కార</w>
సర్ దు
సర్ కారు</w>
సముద్ర ం</w>
సమావేశ మయ్యారు</w>
సమ యాన్ని</w>
వు తాయి</w>
విపరీ తంగా</w>
వి ప్ల
వచ్చ ా
లా వా
ల ాయ
రూప ాయి</w>
రి మా
రామ కృష్ణ</w>
రా ఘ
ర ఘు
యోహా ను</w>
యూ ర
య న్ల</w>
య ట్</w>
మోడీ కి</w>
ముక్క లుగా</w>
ముంబై లో</w>
మిన హా</w>
మరి కొందరు</w>
మ ాలి
మ ంటూ</w>
బ్రిటి ష్</w>
బో ల్
బహి రంగ</w>
బ ్య
ప్రేక్ష కులను</w>
ప్రి య
పే రి
పార్టీ ని</w>
పర్ సన్</w>
పంచాయ తీ</w>
ప చ్చి
న్నా మని</w>
ని స్
నా న్</w>
ధా న్
దోహ ద
దాదా పుగా</w>
ద ాల్
డె వల
డిసె ంబర్</w>
టు న</w>
టి వ్
ట ొ
జవా న్లు</w>
జరి పారు</w>
చేయ డంలో</w>
చేయ గల
చే సె
చే తి
క్రైస్త వులు</w>
క్ లో
కుటుంబ ంలో</w>
క త్రి
ఏ టా</w>
ఎంత గానో</w>
ఎంటర్టైన్ మెంట్స్</w>
ఎ త్త
ఇప్పటి దాకా</w>
ఆది త్య</w>
అంద ించాడు</w>
అంత గా</w>
అ సహ
అ క్రమ</w>
అ ండగా</w>
ంత ిని</w>
ం ను</w>
c t
5 6</w>
్యా ం
ించు ను</w>
ి కలు</w>
హో ట
స్మి త్</w>
సో న
సె క
సు ను</w>
సిలిం డర్</w>
సి బిఐ</w>
సంక్షో భ
స వ
వైర ల్గా</w>
వే సు
వెలు ప
వి త్త
వి డా
వాస్త వ
వార ంతా</w>
వయ స్సు</w>
లేద ంటే</w>
ర్ లకు</w>
రికార్ డ్</w>
ర ిం
యా న</w>
మొత్ తానికి</w>
మీ ర్</w>
మీ తో</w>
మిశ్ర ా</w>
మ ాయ
మ య్య
మ నే</w>
బ్యా ట్స్
బు లె
బాధి త</w>
బయ టికి</w>
ఫ్యా మి
ఫు డ్</w>
ఫిబ్ర వరి</w>
ప్రాంత ానికి</w>
ప్రశాంత ంగా</w>
పేరి ట</w>
పెం పు</w>
పునరు త్
పు రో
పు ం
పీ వీ</w>
పాల్గొ న్న</w>
పాల య్యారు</w>
పర్యట నలో</w>
పరిస్థి తుల్లో</w>
ప ాయం</w>
ని వే
నంద మూరి</w>
ధ ై
దెబ్బ తి
దుః ఖ
దీపి కా</w>
తీ యులు</w>
తా గ
త ాల
త ః</w>
డౌన్ లోడ్</w>
డీ జీ
టె న్నిస్</w>
టీ స్</w>
జేడీ ఎస్</w>
జీ ని</w>
చ్చ ాయి</w>
చేప ట్టింది</w>
చె దర
చె డు</w>
చంద్ర శేఖర్</w>
గ్ర ి
గొ డు
గృ హ
గు ప్ప
గడి చిన</w>
గ తంగా</w>
క్రియా శీ
కోట్ లుగా</w>
ఎస్యూ వీ
ఎ ము
ఇ దో</w>
ఆలస్ యంగా</w>
ఆరో పి
అసోసి యేషన్</w>
అపొస్తలు డైన</w>
అన్ వేష
అంద రి
అ దృష్ట
ంశ ం</w>
ంభ ీ
ంటా ను</w>
ుల ంద
ు ల్లో</w>
ించే వారు</w>
హా ని</w>
స్ర ో</w>
స్తా ము</w>
స్ కీ
స్ కి
సొ ంత
సూర్ య</w>
సాను కూల</w>
సా మర్
సర్ వే
సభ్య ులతో</w>
సత్య నారాయణ</w>
సంస్థ కు</w>
స ్రా
స బ్</w>
షన్ లను</w>
శై లి</w>
వ్యా క్సి
వ్యక్ తికి</w>
వే త్త
వెస్ట ిం
విలీ నం</w>
విజయ వాడ
విజయ వంతంగా</w>
విచార ణలో</w>
వార ీగా</w>
వార ంలో</w>
వా టా</w>
వంగ త</w>
ల్ చు
లావా దే
ర్యా మ్</w>
ర కుల్</w>
యే లు</w>
యూ ట్యూ
మే మి
మెం ట్లో</w>
మీ రే</w>
మిం టన్</w>
మా మూ
మంది ర
మంత్రి వర్గం</w>
బ్యా క్
బాధ పడు
బంగా ళ
బ ిం
ఫ ండ్</w>
ప్రా చీ
పో టు</w>
పేర్కొ న్న</w>
పు చ్చు
పాయిం ట్</w>
పా య</w>
పా పు
పత్ర ం</w>
ప ూ</w>
న్నా వు</w>
నిర్వహి స్తారు</w>
నిరా శ</w>
నట ించాడు</w>
నగర ంలోని</w>
ధి ప
ద్ వేష
థ ు
తో టి</w>
తృ ణ
తున్న ాయని</w>
డే ందుకు</w>
డీఎం కే</w>
ట్వి టర్</w>
ట్ట ం</w>
టి క్స్</w>
జన తా</w>
జ స్
ఛైర్ మన్</w>
ఛత్తీ స్
చేయ బడ
చు న్నది</w>
చి హ్
గ్ నే
క్ష ు
కోరి క</w>
కేరళ లో</w>
కూ ల్
కు ల్లో</w>
కని పించింది</w>
క ప్పుడు</w>
ఓ ట్ల</w>
ఓ కే</w>
ఏ కా
ఉపయోగ ించి</w>
ఉద్యో గ</w>
ఈ రోజు</w>
ఇది గో</w>
ఇచ్చ ి</w>
ఆసుప త్రి</w>
ఆధ్వర్ యంలో</w>
ఆ స్
ఆ ప్</w>
అలా నే</w>
అద్వా నీ</w>
ంట ోంది</w>
ంట ా</w>
an d</w>
9 5</w>
5 8</w>
ు లపై</w>
ించ గల
ార నే</w>
హిమా చల్</w>
హ ను
స్థా నానికి</w>
స్ట్రే షన్</w>
స్టై లిష్</w>
స్ ధా
సూచి స్తుంది</w>
సుప్రీం కోర్టులో</w>
సీ బీ
సీ న్</w>
సీ జ
సాధ ించాడు</w>
సమా జం</w>
సంయుక్ త</w>
సందేశ ం</w>
శారీర క</w>
వ్యా ధ
వై కుం
వు డు</w>
విష యా
విలి య
వాహ నాలను</w>
వాల ి
వస్తు ందని</w>
వ డ్
లై న్లో</w>
లిం గ్
లా నికి</w>
లా గు</w>
లక్ష ్యాన్ని</w>
రెగ్య ులర్</w>
రావి పూడి</w>
రహ దారి</w>
యె దు
మే షన్</w>
మె ర్
ముంద స్తు</w>
మాధ్యమ ాల్లో</w>
మహే శ్</w>
మంచ ు</w>
మ మ్మల్ని</w>
మ ంటే</w>
బ్ర హ్మ
బె ల్</w>
బె ర్
బహి ష్
బరి లోకి</w>
బదు లుగా</w>
బడి న
ఫ ా</w>
ప్రా మా
ప్రస్తు తానికి</w>
పూజ లు</w>
పరిగణ న
పడ టం</w>
న్న ో</w>
న్ సీ
నోటిఫి కేషన్</w>
నో ట్</w>
నే రం</w>
నే త్రి</w>
నె హ్ర
ని ధి
నరే ష్</w>
దు మార
దు ండ
ది వంగత</w>
ద ండ
థా మస్</w>
త్త ారు</w>
తూర్ పు
తీసుకు ంటు
తీసు కోండి</w>
ణ ులు</w>
డె ంట్</w>
టర్ స్</w>
ట మే</w>
జగన్ మోహన్రెడ్డి</w>
జ మ్ము</w>
జ త
చేయ ాల్సిన</w>
ఘటనా స్థలికి</w>
గ్ లా
గొ ఱ్ఱ
గే మ్</w>
గు ను</w>
గంగూ లీ</w>
క్య ూ</w>
క్ య</w>
కొ ట్టింది</w>
కె మి
కూడ దని</w>
కు లతో</w>
కి షోర్</w>
కి న</w>
కరీ ం
క రా
ఔష ధ</w>
ఎమ్మెల్ సీ</w>
ఎక్క డ
ఎం ఎస్</w>
ఎ ండ
ఉదాహరణ లు</w>
ఇంత కు</w>
ఆమె పై</w>
అవార్ డులు</w>
అయి న
అక్టో బర్</w>
అక్క డి
అ బ
ంతో నే</w>
ీ ని</w>
ించుకు నే</w>
ించ డ
హిం స</w>
స్వే చ్ఛ
స్వ తంత్ర
స్తు ంటారు</w>
సి ఫార్
సా తాను</w>
సమీ కర
సమస్య ల</w>
సంఖ్య ను</w>
ష ారు
శి బి
శరీ రంలో</w>
శక్తి వంతమైన</w>
వ్వ రు</w>
వ్యవస్థ లో</w>
వేయ డం</w>
వే టు</w>
వు తున్నారు</w>
విరుచుకు పడ్డారు</w>
విమా నాలు</w>
వార స
వా ల</w>
వా డిని</w>
వా డి
వర్తి స్తుంది</w>
వరు ణ్</w>
వంత ె
లోక్ సభలో</w>
లో య
లేక పోయారు</w>
లా భాలు</w>
లభి స్తాయి</w>
లక్ష్ మ
ల ారా</w>
రై ళ్లు</w>
రు ణం</w>
రీ సెర్చ్</w>
రీ తిలో</w>
రాజ ైన</w>
రా మ</w>
రా త్ర
యూ జర్
మ్యా న్</w>
మే మిటి</w>
మెగా స్టార్</w>
ముగ ింపు</w>
మీ లో</w>
మండ ల</w>
మ ల్</w>
మ లు
భౌ తిక</w>
బ్ లో</w>
ప్రసంగ ం</w>
పురస్ కార
పునరావృ తం</w>
పరిస్థి తులను</w>
పరిశు ద్ధ
పను లను</w>
పని చేసే</w>
ను న్నది</w>
నిర్మా ణ
దృశ ్య
దీపా వళి</w>
దీప క్</w>
ద వ</w>
ద ర్</w>
త్ న</w>
తెలంగా ణ
తిరి గి
తల్లిదండ్ర ులకు</w>
తన యుడు</w>
తన పై</w>
తంత ్య
త ట్టు
ట్ లే</w>
టీ 20
ట ూ</w>
జీ వ</w>
జరి గే
జరగ నుంది</w>
జరగ డం</w>
చేయ ు</w>
చు వల్</w>
చిన్న ారి</w>
గౌత మ్</w>
గెలు పు</w>
గడు పు
గ ంభీ
కోర్ సు</w>
కై క</w>
కే శ్</w>
కే టీఆర్</w>
కే ఎల్</w>
కె న
కార్మి కుల</w>
కన్న ీ
ఉత్ పాద
ఇన్ ఫో
ఇ స్రో</w>
ఇ చ్చే
ఆశ లు</w>
ఆర్ డి
ఆరోపణ లను</w>
అవ తర
అ మర
అ ఫ్
అ టు
u n
9 9</w>
5 :
1 20</w>
ీ ర్
ించు కోవడానికి</w>
ించు కోలేదు</w>
ించ టానికి</w>
ాయ ో</w>
హౌ స్</w>
హెల్ త్</w>
హెచ్చ రించారు</w>
హెచ్చ ర
హు టా
హుటా హు
స్నే హ
స్త ారా</w>
స్ట్ర ీ
సై ట్</w>
సిం జర్</w>
సా గి
సర ళ
షా హి
వైఎస్ సార్
వై మా
వెళ్ లే
వెల్లడ ించలేదు</w>
వీ లు
వివ రి
విడి చి
వి భే
వి న్న
వా టా
వలె నని</w>
వర్ స్</w>
వది లి
లక్ష్ మీ
రోజు వారీ</w>
రోజు రోజుకు</w>
రా క్</w>
ర జ
యోజ న</w>
ము లోని</w>
ము తో</w>
మీ ర్
మి క్స్</w>
మహ బూ
భారత దేశానికి</w>
భవిష్య త్</w>
బ్ లూ</w>
బో తున్నారు</w>
ఫో న్లు</w>
ఫైన ల్లో</w>
ఫె డ
ఫీ చర్</w>
ప్రే రే
ప్రి యు
ప్రస్తావ ించారు</w>
పోయా ను</w>
పొ ల
పేలు డు</w>
పిలుపుని చ్చారు</w>
పిటి షన్ను</w>
పవి త్ర
పత్ర ాలు</w>
ప ంత్</w>
న్యా య</w>
నే పాల్</w>
నే నూ</w>
నె ంబర్</w>
నె ం</w>
ను వ్
నిశ్చ య
నిర్ణయ ించారు</w>
న ది
దూ సుకు
దా గా</w>
ద రి
త్ తులు</w>
తో సి
తు ఫా
డాల ర్ల</w>
టు తో</w>
టి లో</w>
టార్ గె
ట ౌ
జే డీ</w>
జి యో</w>
జరగ కుండా</w>
జడే జా</w>
చేసుకు నే</w>
చేసు కోవడానికి</w>
చే త
చెప్ప ాను</w>
చూ స్తున్నారు</w>
చ ంద్</w>
గ్రా మానికి</w>
గంట కు</w>
క్రీ డా</w>
క్యా ప్</w>
క్ వి
కొ లె
కొ బ్బ
కొ ట్టి</w>
కుల్ దీప్</w>
కుటుంబా లు</w>
కాల ానికి</w>
కార్యక్రమ ాలను</w>
కార్ డ్</w>
కార్ డు
కల గ
కపో వచ్చు</w>
కనిపించ డం</w>
క ళ</w>
ఒక్కొ క్క
ఏమిట ంటే</w>
ఏ కైక</w>
ఉపయోగి స్తారు</w>
ఉపయోగ ం</w>
ఉత్ సాహ
ఉ ద్ధ
ఇ ంది
ఆలోచ నలు</w>
ఆది వారం</w>
ఆ మ్
అధి నేత్రి</w>
అంత ్య
ండ్ కు</w>
4 1</w>
ింగ్ లో</w>
హక్కు ల</w>
స్వా తంత్య
స్మార్ట్ ఫోన్</w>
స్ప ద
స్థా నిక
స్థ ూ
సిరీ స్లో</w>
సి టీలో</w>
సా ల</w>
సా గు</w>
షన్ కు</w>
శ శి
వ్యా ధి
వైమా నిక</w>
వై వి
వేస వి</w>
వే యు
వెల్ల డి</w>
విప ణి
విడుద లైంది</w>
విజ యాలు</w>
వాస్త వ</w>
వాళ్ ళ</w>
వ ొ
లా గా</w>
రాష్ట్రా న్ని</w>
రాధా కృష్ణ</w>
యె ను</w>
యువ కు
య థ
మ్ర ా</w>
మె రి
మూ డు
ము క్
మి కంగా</w>
మరిం తగా</w>
మరా ఠ
మరణ ించిన</w>
భూమి ని</w>
బ దులు</w>
ఫో న్లో</w>
ఫ ్యూ
ఫ లం</w>
ప్రేమ లో</w>
ప్రతిష్టా త్మకంగా</w>
పున ః
పు ల్
పు ర</w>
పరిశోధ నలు</w>
పడు తున్నాయి</w>
ప ారా
ప చ్చ
నెల్ల ూరు</w>
నున్న ట్టు</w>
నటు డిగా</w>
న ృ
న నే</w>
ధ్వం సం</w>
ద్రా క్ష
దీర్ ఘ</w>
దర్శ నం</w>
ద గిన</w>
తొ ందర
తె ల్
తి క్</w>
తల్లిదండ్ర ుల</w>
తరు వా
డీ గా</w>
డ యా
ఠా కూర్</w>
ట్ట మైన</w>
ట్ట కే
టెండూ ల్కర్</w>
టి ఆర్ఎస్</w>
జె ండా</w>
జీ గా</w>
చేస్తు ందని</w>
చేసుకు న్నాయి</w>
చెప్పుకొ చ్చారు</w>
చె క్</w>
చి ట్
చక్ర వర్
ఘన త</w>
ఖండ ించారు</w>
క్రీ స్తు
కొనసాగు తున్న</w>
కుండ ానే</w>
కుంటు న్న</w>
కా ఫీ</w>
క ై</w>
ఒ బా
ఎన్న ు
ఎదుర్ కోవ
ఎ పి
ఉత్ తీర్
ఇతరు లకు</w>
ఇంజి న్</w>
ఆల య
ఆరోగ్య ంగా</w>
ఆయ న్ను</w>
అనుమా నా
అను కున్న
అతిథ ిగా</w>
అ లీ
అ బ్రా
ంద న్న</w>
ండి న</w>
6 :
5 3</w>
ై న
హైదరాబాద్ లోని</w>
స్ మార
సు ధీ
సమూ హ
సమా జా
సమకూ రు
సం కల్
ష న
శాఖ కు</w>
శ త
వేగ ంతో</w>
వే ల
వి శ
వార ె
వ ది</w>
వ ణ
లేకపో వడం</w>
రోడ్ లు</w>
రే పింది</w>
రె ట్లు</w>
రాజకీయ ాల్లోకి</w>
రా సిన</w>
రా గా</w>
యువ త</w>
మ్యా న్
మొద ట్లో</w>
మీడి యాతో</w>
మి ర్చి</w>
మా సి
మా వో
మా ది
భర త్</w>
భ ూ</w>
బౌలర్ లలో</w>
బాలీవు డ్లో</w>
బల గాలు</w>
బ డె
ప్రశ్ ని
ప్రకట నలో</w>
ప్ర వచ
పౌరస త్వ</w>
పెరుగు తున్నాయి</w>
పీ ఎఫ్</w>
పించ ాడు</w>
పసు పు</w>
పరిగణన లోకి</w>
పంచాయ తీ
ప గ
నిజా లు</w>
నింది తుల</w>
ని జ</w>
నర్ గా</w>
న ైనా</w>
థా ం
థ ్</w>
తొ ల
తే జ</w>
తర వాత</w>
తనిఖ ీ</w>
డ్రై వింగ్</w>
డి ంది</w>
డబ్ల్య ూ</w>
ట్టకే లకు</w>
ట్ లోనే</w>
టి కల్</w>
జ ో</w>
జ ార
ఛా ంపి
చౌ హాన్</w>
చేయ టం</w>
చిత్ర ంగా</w>
చా ల</w>
గో ల్డ్</w>
గడ్ కర
గ ారి
కోరు తూ</w>
కోట్ లతో</w>
కేసు లుః</w>
కృ త</w>
కూ ర్
కీల కం</w>
కార్తీ క్</w>
క ప్పు</w>
ఓ వర్</w>
ఒకర ి</w>
ఎదు ట</w>
ఎంపి కలు</w>
ఎ ట్టకేలకు</w>
ఉ మే
ఈ స్ట్</w>
ఆస్ప త్ర
ఆసుప త్ర
ఆందోళ నలు</w>
ఆ కు
అభ్య ంతరం</w>
అడు గుల</w>
అంబా నీ</w>
అంది స్తున్నాడు</w>
అంద ించాలని</w>
అంద రికి</w>
అ లె
ంద నే</w>
ంద ంటే</w>
a s
7 1</w>
6 లో</w>
4 3</w>
00 0
ించ టం</w>
హుటాహు టిన</w>
స్తున్నా ము</w>
స్ పేస్</w>
సౌ త్</w>
సై బర్</w>
సామ్రా జ
సమావే శాలు</w>
సత్య ం</w>
శ్రీ కాంత్</w>
వ్యాఖ్య లపై</w>
వైకుం ఠ
వేయ ాలని</w>
వెళ్ళ ి
వు కు</w>
విమాన ంలో</w>
వినియోగ దారులకు</w>
విధ ించిన</w>
విజయ వంతం</w>
వహి స్తున్నాడు</w>
వడ్ డీ
ల్ డింగ్</w>
లై తే</w>
లే షన్</w>
లే న
లండ న్</w>
రి యా
రావ డానికి</w>
ర జి
మ్ ను</w>
మో షే</w>
మిరి యాలు</w>
మార ావు</w>
మాట్లా డే</w>
మా ండ
మర్ చిపో
మ యం</w>
భారత దేశంలోని</w>
బ్యా టరీ</w>
బి య్య
బి డ్డ</w>
బడు ను</w>
బ ాల్
ఫ్యా న్స్</w>
ఫ్ ల
ప్రొ డ్యూ
ప్రేమ ను</w>
ప్రాతి పది
ప్రా ణా
ప్రజ ల్లో</w>
ప్రచార ంలో</w>
ప్రక్రియ ను</w>
పో లో</w>
పొందు తారు</w>
పొంద డానికి</w>
పై డి
పె ండ
పూర్ లో</w>
పుస్త కాలు</w>
పీ సీసీ</w>
పా స్</w>
పర్యా వర
పద్ధ తిలో</w>
పత కం</w>
నే టి</w>
నీ లో</w>
న మ్
ధా ల</w>
దాని లో</w>
దర్శ క</w>
ద న్నారు</w>
థ ె
తె ర</w>
తు ందన్నారు</w>
తీసు కోలేదు</w>
తీవ్ర స్థాయిలో</w>
తప్ప ి
డి యో</w>
డ ార్
జి తే
జి కల్</w>
జరిగి ందో</w>
జ న్లు</w>
చ్ చె
చేస్తున్న ట్టు</w>
చ క్ర</w>
ఘర్ష ణ</w>
గొట్ట ారు</w>
గాయ పడి
గ ారి</w>
క్యా పి
కో చ్
కై ఫ్</w>
కే ట్</w>
కు ంటూ</w>
కిడ్ నా
కావ ాల్సిన</w>
కార్మి కులకు</w>
కార ా
కాంగ్రె స్కు</w>
కలిగ ించే</w>
కత్రి నా</w>
ఎప్పటి కప్పుడు</w>
ఎగ్జి క్యూ
ఎం జాయ్</w>
ఎ ఫె
ఉత్ కం
ఇ ప్పు
ఆ పై</w>
అధ్యక్షు రాలు</w>
అం గుళ
అ య్యాడు</w>
అ ణ
ం కు</w>
in g</w>
8 0
7 :
ే య
ించు కోవచ్చు</w>
ించ ె
ించ కుండా</w>
ి నేని</w>
హోం శాఖ</w>
హింద ూ
హ ాలీవుడ్</w>
హ స్త
స్థాన ాలను</w>
స్థ ులు</w>
స్టోరే జ్</w>
స్టేషన్ కు</w>
సో నియా
సెక్యూరి టీ</w>
సుకు మార్</w>
సీ ఎ
సిద్ధా ంత
సాక్ష ్య
సరి కి</w>
సమా న
శరీ రం</w>
వ్యక్ తమ
వేగ వంతం</w>
వె ంబ
వు తున్న</w>
విడ త</w>
వస్తు వులు</w>
లోత ట్టు</w>
లో టు</w>
రియ ర్</w>
రి వ్యూ</w>
రాశ ి</w>
రాజ్యా ంగ
రాజ ్యం</w>
యా కో
యంత్ర ా
య ైన</w>
మృతి చెందారు</w>
ము డి
మీ ర
మీ దికి</w>
మి యా</w>
మారు గా</w>
మా ఫీ</w>
మద్దతు గా</w>
మ లే
బొ గ్గు</w>
బి హార్</w>
బి ఎస్
బాధితు రాలు</w>
బా ప్తి
బడ్జె ట్తో</w>
ఫొటో లను</w>
ప్రాజెక్ టులు</w>
ప్రభుత్వ ంపై</w>
ప్రతి బిం
పోటీ లో</w>
పో ల
పో రు</w>
పుం జు
పా త
పా టుగా</w>
పరిశ్రమ ల</w>
పరిణా మ
పరి స
పరస్ప రం</w>
పని చేసిన</w>
పం పు
నే నే
ను ను</w>
నీ కె
నిల్ వ</w>
నిల కడ
నిర్మా ణంలో</w>
నియ మాలు</w>
ని రూప
ని ది</w>
ని త్యా
నా క్ష
నవీ న్</w>
ధర లను</w>
దేవి శ్రీ</w>
ది ల్లీ
దా సు
దర్శక త్వ
ద రు</w>
ద యా
త్ర ై
త్ర ీ</w>
తే జ్</w>
తు లతో</w>
తీసుకు న్న
తగ్గ ింపు</w>
డ్ లు</w>
డబ్ ల్యూ
టా ల</w>
జె ండ
జీవ నం</w>
జరుపు తున్నారు</w>
జ ై</w>
ఛ ాలె
చైత న్య</w>
చేస్తు న్నాను</w>
చేసి ందని</w>
చే యాలో</w>
చూడ లేదు</w>
చట్ట ాన్ని</w>
గీ తా</w>
గాయ ని</w>
గ లం</w>
క్ష ంగా</w>
కో పం</w>
కే ర్</w>
కెరీ ర్</w>
కూ డు
కళా శాల
క త్తి
ఒక డు</w>
ఐ రో
ఐ తే</w>
ఎప్పుడ ైనా</w>
ఇ ళ్లు</w>
ఆ తి
ఆ జ్ఞ
అమి త్
అభిమాను లకు</w>
అడు గు</w>
అందజే శారు</w>
ంద ్
ండ్ లో</w>
l i
a m
C o
ే శ్
ే జ్</w>
ించ నున్నట్లు</w>
హో మ్</w>
హ ారి
స్త్రీ లు</w>
సే వల
సీపీ ఎం</w>
సి పి</w>
సి ని</w>
సి క్</w>
సా హం</w>
సందర్ బ
స ద్
షాహి ద్</w>
షన్ ల</w>
ష యా</w>
శుభ్ర ంగా</w>
శు ద్ధి</w>
శీ తా
వెర్ షన్</w>
వె న్నె
వృ క్ష
విశ్వా స
విధ ించారు</w>
వల స
వ స్తున్నారు</w>
ల్ ట్</w>
లే చి</w>
లి ద్ద
రే పు
రు సు
రా నా</w>
రవి చంద్రన్</w>
రంగా నికి</w>
ర మైన</w>
యె షయా</w>
య ్
య ౌ
మె యిల్</w>
ముస్లిం లు</w>
ముఖ ర్జీ</w>
ము ప్పు</w>
మాధ వ్</w>
భాష లలో</w>
భార్య ను</w>
భా గాలు</w>
భ ్యా
బ్యాడ్ మింటన్</w>
బోర్ డ్</w>
బెంగళూరు ః</w>
బు మ్రా</w>
బిజెపి కి</w>
బాలిక ను</w>
బా బా</w>
ప్రార్థ న</w>
ప్రసార ం</w>
ప్రతి రోజూ</w>
ప్ర థ
ప్యా సింజర్</w>
పోరా డు
పోరా డ
పెంచు తుంది</w>
పి యన్</w>
పరిశీల ించారు</w>
పరి ష
పం పించారు</w>
పం పారు</w>
ప ద్ద
ప క్క</w>
నెహ్ర ూ</w>
నిమి త్త
నిపుణ ుల</w>
నిజ ాయి
నింది తులు</w>
నా ది</w>
న య
దృ ఢ
దు స్తులు</w>
దు బ
ది శ</w>
ది గి
దళ ం</w>
థ ్ర
త్రు ల్లో</w>
తెలుసు కోండి</w>
తెలియ లేదు</w>
త మ్ము
ట్రై లర్
టార్గె ట్</w>
జే పీ</w>
జీ ల</w>
జ ే</w>
చేసి నా</w>
చివ రి
చి క్క
గ్ర ౌ
గో యల్</w>
గెలుచు కుంది</w>
గందర గో
ఖ చ్చి
కోరి ంది</w>
కొలె స్ట్ర
కాల ోని</w>
కార్యాల యంలో</w>
కార్యా చరణ</w>
కా ంట్రా
క ప్ప
క తో</w>
క ంటి
ఐ ఐటీ</w>
ఎడ మ</w>
ఎక్స్ ప్రెస్</w>
ఉండే వి</w>
ఇవ్వ డానికి</w>
ఇండి యాకు</w>
ఆలోచ ించ
ఆ రా</w>
ఆ చూ
అబ్రా హా
అను సరి
అను చరు
అనంత పురం</w>
అత్యు న్నత</w>
అ ల</w>
అ దె
అ కాడ
H o
99 9
7 7</w>
6 1</w>
1 లో</w>
1 1
్య ూ</w>
ించు కోండి</w>
ాలో నే</w>
హె బ్ర
స్వ ంత</w>
స్పోర్ ట్స్</w>
స్థానిక ంగా</w>
స్ట ింగ్</w>
సో దరి</w>
సె ప్
సు ల్
సీ బీ</w>
సినిమ ాలకు</w>
సి ఫార
సదుపాయ ాలు</w>
వేయ ాలి</w>
విస్త ార
విషా దం</w>
విధాన ంః</w>
విజ య</w>
వాగ్ వాదం</w>
వహ ించాడు</w>
వస్త ాయని</w>
వది లి</w>
లో తు
లే వని</w>
రె వెన్యూ</w>
రె న్
రాష్ట్ర వ్యాప్తంగా</w>
రావ ాలని</w>
రాజే ంద్ర
యు న్న
మ్యాన్ యువల్</w>
ము లకు</w>
ము న్న
మారు తుంది</w>
మర్ స్</w>
మన స్సు
మన సు</w>
బృంద ాలు</w>
బీ సీ</w>
బాంబ ు</w>
బ ార
ఫి క్స్</w>
ఫ డ్
ప్రో టీ
ప్రసి ద్ధి</w>
ప్రవేశ ం</w>
ప్రత్యే కత</w>
ప్ర భ
ప్ర చార</w>
పే ర్లను</w>
పెట్టు కుంది</w>
పెట్ట ే
పెట్ట డం</w>
పెంచి ంది</w>
పాల్ పడిన</w>
పార్లమెంట రీ</w>
పా డ
పర్వ త
పడి పో
నెమ్మ దిగా</w>
నూ నె
నీ స్</w>
నివేది కను</w>
న ాలకు</w>
న పై</w>
దేశ ాలతో</w>
ది క్</w>
దళ ాలు</w>
తోసి పు
తొలి సారిగా</w>
తొమ్మి ది</w>
తెరకెక్క ించిన</w>
తలె త్త
తమ న్</w>
త మైంది</w>
ణా త్మక</w>
ట్ లు
టి కెట్</w>
జో హార్</w>
జంతు వులు</w>
జ ాయ
జ నులు</w>
చర్య ల</w>
గె లవ
గాంధీ ని</w>
గర్ భి
గడ్కర ీ</w>
గడు వు</w>
గ వ</w>
ఖర్చ ులు</w>
ఖ ర
కొ నే</w>
కొ క</w>
కాలు ష
కార ులను</w>
కామె డీ</w>
కాంబినే షన్లో</w>
కర్ణా టక
కరీం నగర్</w>
క ని</w>
ఓ టర్లు</w>
ఐ టి</w>
ఏర్ పడిన</w>
ఏ కీ
ఎస్యూ వీ</w>
ఎవ రిని</w>
ఎంటర్టైన్ మెంట్</w>
ఎ ల్లో</w>
ఉత్తరా ఖండ్</w>
ఉండే లా</w>
ఉంట ాయని</w>
ఉ స్మా
ఇలా గే</w>
ఇ సు
ఇ ను
ఇ ంటర్</w>
ఆగ స్టు</w>
ఆ గ్నే
అహ్మదా బాద్</w>
అయి పోయింది</w>
అభ్యర్థ ుల</w>
అని రు
అధికార ంలో</w>
అం బులె
ందు రు</w>
i l
g h
f o
9 0
8 2</w>
3 50</w>
18 0</w>
ీ కి</w>
ిం చ</w>
ాల్ లోనే</w>
ార్ ధ
ాయి లు</w>
ాయ ు
హాజర ైన</w>
హా ట్</w>
స్వా మి
స్పంద ించలేదు</w>
స్థిర మైన</w>
స్థాని కుల</w>
స్కూ టర్</w>
సో ష
సై నా</w>
సృష్ట ించిన</w>
సురే శ్</w>
సీజ న్లో</w>
సీ టు</w>
సర దాగా</w>
సమాధా నాలు</w>
సదుపాయ ాల</w>
సగ టున</w>
సంతృ ప్
ష ్ర
ష మీ</w>
వేడు క</w>
వే రు
వెచ్చ ని</w>
వు ల్లో</w>
విష్ణ ు</w>
విమాన యాన</w>
వి సు
వి గ్రహం</w>
వస్తు వుల</w>
వశా త్తు</w>
వచ్చి నప్పుడు</w>
లె క్
లిం క్</w>
లి కా
రే వంత్</w>
రెండు సార్లు</w>
రి స్</w>
రావ ాల్సి</w>
రామ్ చరణ్</w>
రక్ త</w>
రంగ ారెడ్డి</w>
రం గులు</w>
యో టా</w>
యెహోవాసాక్ష ులు</w>
యు ద్ధా
మై ందని</w>
మీ దుగా</w>
మి ది</w>
మారి పోయింది</w>
మా స్</w>
మహే ంద్ర</w>
మని షి
మన లో</w>
భావ ించారు</w>
భవ న్</w>
బీ ఎస్</w>
బయో పిక్</w>
బ ో</w>
ఫే మ్</w>
ప్రీమి యర్</w>
ప్రాధా న్యం</w>
ప్రా ణ</w>
ప్రభుత్వా సుప
ప్రభా వాన్ని</w>
పే ందుకు</w>
పురో గతి</w>
పురస్ కారం</w>
పుట్టి న
పి స్తున్నాయి</w>
పవి త్ర</w>
న్ స
నే ల
నెరవే ర్చ
ను ండి
నిరస న
ని మ్మ
ని తో</w>
ని కో
నామినే షన్</w>
నా గే
నమోద ైన</w>
నగర ాల్లో</w>
ధైర్ యం</w>
దొ రికి
దేశ ీ
దేశ ంగా</w>
దు ష్
ది ల్లీ</w>
దగ్ గ</w>
తె రు
తె గ</w>
తా నని</w>
డ్ర గ్స్</w>
ట్రే డ
టై టి
టె ల్</w>
ట ల</w>
ట ను</w>
జై లుకు</w>
జిల్లా లు</w>
జి ఎస్టి</w>
జర్ మన్</w>
చేసు కోండి</w>
చర్ చి</w>
చని పోయిన</w>
గ్రా డ్యు
గీ త</w>
గాయ ం</w>
గమ నించిన</w>
గ ని</w>
ఖ న్నా</w>
క్షి ప
క్ వార్
కొనసాగు తుంది</w>
కూల ంగా</w>
కుప్ప కూలి
కుంట ోంది</w>
కాంగ్రె స్
కా ళ
కలి గే</w>
కథ నం</w>
ఒక్క రికీ</w>
ఒక టిగా</w>
ఎక్క డికి</w>
ఎం ఐ
ఊర ట</w>
ఉప శ
ఉద్దేశ ించి</w>
ఉత్తీర్ ణ
ఇన్ సూ
ఇంటర్ వ్యూ</w>
ఇ జ్ర
ఇ కపై</w>
ఆం క్షలు</w>
ఆ దరణ</w>
ఆ డిన</w>
అసిస్ట ెంట్</w>
అల్ల ం</w>
అరు ణా
అ థ
ంత ికి</w>
8 8</w>
7 4</w>
7 2</w>
5 7</w>
10 ,
ించు కోవాలని</w>
ించిన ది</w>
ారు ః</w>
ా లో</w>
స్వర ూ
సె క్ష
సింగి ల్</w>
సి ల్
సి ందే</w>
సాహ ో</w>
సారథ ి</w>
సాఫ్ ట్
సర్ వో
సమీ క్ష</w>
సమా ఖ
సందే హ
సందర్భ ాల్లో</w>
శ్ చా
శ ాలకు</w>
వివే క్</w>
వివ రాల</w>
వి సి
ల్ స్లో</w>
లేకపో యా
లా ట</w>
లంద రికీ</w>
రోజు ల
రూప కల్పన</w>
రిజర్ వ్</w>
రాష్ట్ర ాలలో</w>
రాజ్ పుత్</w>
రచ న</w>
రంగు ల్లో</w>
యథ ార్థ
ముఖ్య మంత్రులు</w>
మి స్</w>
మి జో
మా బాద్</w>
మల్ టీ
మరణ ించాడు</w>
మర ణ</w>
భూకం పం</w>
భా స్కర్</w>
బాప్తి స్
బ స్సులో</w>
ప్ల ై</w>
ప్రారంభ మైన</w>
ప్రకట ించలేదు</w>
ప్ మెంట్</w>
పోస్ట ర్</w>
పోయి నా</w>
పుల్ వా
పి ల్ల</w>
పరిణా మాలు</w>
పరి కర
పరాజ యం</w>
పథ కాన్ని</w>
పంచు కున్నారు</w>
ప ల్
నేపథ ్య
నీ లం</w>
నిలి చిన</w>
నిరా కర
నియమ ించారు</w>
నినా దాలు</w>
నిఘ ా</w>
ని ష్</w>
ని క్స్</w>
నా వి
న ై</w>
ద్ర ి</w>
దొ రుకు
దు ః</w>
దిగ్భ్రా ంతి</w>
దా ం</w>
దక్షి ణ
తీసుకు ంటారు</w>
తాల ూ
త గిలి
డీ జల్</w>
డిమా ండ్
టీ ం</w>
ట గా</w>
జో రు</w>
జీ కి</w>
జరగ నున్నాయి</w>
జరగ నున్న</w>
చేయ ును</w>
చేయ టానికి</w>
చే యి
చర్ స్</w>
చక్రవర్ తి</w>
గో వి
గో ల్
గొ ట్టు
గూర్ చి
గుజరాత్ లో</w>
గ డ్డ
కోవ డంతో</w>
కోల్ పోయిన</w>
కొట్ట ే
కొ న్న</w>
కొ ద్దీ</w>
కేంద్రా నికి</w>
కుదు ర్చు
కు న్నది</w>
కు డి
కి లో</w>
కార్పొ రేట్</w>
కారణ ంగానే</w>
కష్ట ాలు</w>
కల వ
కన బడ
కం ప్
ఐ దో</w>
ఎ వ్వరూ</w>
ఉంట ూ</w>
ఉంచ ారు</w>
ఇండ ె
ఇ స్తారు</w>
ఇ వే</w>
ఆమె తో</w>
ఆ క్రమ
అవకాశ ాలను</w>
అను కున్న</w>
అధి ప
అంద ించింది</w>
అంతర ాయం</w>
ంటి క్</w>
ంట ు</w>
7 00</w>
5 4</w>
4 లో</w>
14 4</w>
్రా లు</w>
ూరు లో</w>
ా మని</w>
హైదరాబా దు
హా ల</w>
హ ూ
స్పి న్న
స్టూ డియో
సో ద
సినిమాటో గ్రఫీ</w>
సహ కర
సరి లేరు</w>
సమ్ మె</w>
సమన్ వ
సమ క్ష
సంస్ కరణ
సంబంధ ాలను</w>
సంద డి</w>
సంతోష ం</w>
సంతృ ప్తి
సం కీర్
స త్తా</w>
స కాలంలో</w>
శాస్త్ర ి</w>
శ ్యా
వైఎస్సార్ సీపీ</w>
వెంకటే శ్వర</w>
వె యి
వీరిద్ద రి</w>
విస్త ీర్
విచార ణ
వర కే</w>
లి స్ట్</w>
లబ్ ధి
ల సిన</w>
ల ర్లు</w>
రె స్ట
రీ గా</w>
రాజ్యా ంగం</w>
ర ాలను</w>
ర త్
ర కాలు
యువ కుడు</w>
మూ ర్
ము ట్ట
ము చ్చ
మాట్లా డిన</w>
మలయా ళం</w>
మర ల</w>
భు వనే
భావ ో
భారతదేశ పు</w>
బ్యూ టీ</w>
బెం గుళ
బి ఎస్</w>
బాల ా
బంగాళ ా
బంగ ార
ప్రాంత ంలోని</w>
పో లేదు</w>
పూ ణ
పూ జ</w>
పురుష ులు</w>
పు ను</w>
పర్ చ
పడ లేదు</w>
ప డం</w>
నో రు</w>
నెట్ వర్
నె లా</w>
నిర్వహి స్తున్నారు</w>
నిర్ మూల
నిమి ష
ని రూ
ని ధు
న కి
దుకా ణాలు</w>
దు ష్ట
ది క్కు
దార ులను</w>
తీరు పై</w>
తీ సింది</w>
తిరస్ కరించింది</w>
తా ళ
తమ ను</w>
డిస్ కౌ
ట్ లా</w>
టీడీపీ కి</w>
టి వి
జ్ ఞ</w>
జే షన్</w>
జీ లో</w>
జవా బు</w>
చ్ ఛ</w>
చెంది నట్లు</w>
చె ట్లు</w>
చూ సి
చు న్నాను</w>
చా ంపి
చంద్రబాబు నాయుడు</w>
చ దర
గెలి చింది</w>
గుప్ తా</w>
గ ల్</w>
క్రా స్</w>
క్ టార్
కొనసాగు తున్నాయి</w>
కొంత కాలం</w>
కొ ట్టిన</w>
కెమె రా
కు లో</w>
కార్ మిక</w>
కార ుడు</w>
కా సే
కా ం</w>
కలుగు తుంది</w>
కరోనా వైరస్</w>
క కు</w>
ఓవర్ లలో</w>
ఒక్క సారి</w>
ఒంట రిగా</w>
ఎన్నిక లలో</w>
ఎక రాల</w>
ఎంత ో
ఉల్లి పాయ</w>
ఉపాధ్యాయ ులు</w>
ఉపయోగ పడుతుంది</w>
ఉండే ందుకు</w>
ఉండ డానికి</w>
ఉంచ ండి</w>
ఉ ర్
ఇ ంటె
ఆన్ లైన్లో</w>
ఆ క్
అవసర మైతే</w>
అరి కట్ట
అభి వర్ణ
అనుమానా స్పద</w>
అడ్డు కున్నారు</w>
ం లో
i s
6 2</w>
5 2</w>
2 లో</w>
ు డి</w>
ించిన ందుకు</w>
ించ డాన్ని</w>
ించ డమే</w>
ాలి టీ</w>
ారి టీ
హ్యా చ్
సే కరణ</w>
సూచ ించింది</w>
సూ క్ష
సీసీ టీవీ</w>
సీఎ ంగా</w>
సీ ఎస్</w>
సివి ల్</w>
సినిమా ల</w>
సి న్</w>
సామర్థ ్య
సా ని</w>
సా ంగ్</w>
సమర్ పించ
సన ్ర
సం క్లి
ష్ ఠ</w>
షూ టింగ్
ష రీ
శి వా
వ్యవహార ంపై</w>
వెళ్ లా
వు తారు</w>
వీ లుగా</w>
విధా నంలో</w>
విక్ర యి
వికె ట్ల</w>
వి శాఖ</w>
వాషింగ్ టన్</w>
వాయు వు</w>
వా డి</w>
వా ట
వస తి</w>
వ ూ
ళ్ లుగా</w>
ల్యా ండ్</w>
ల్యా ం
లి క్</w>
లభ ించ
లంద రూ</w>
ర్ లలో</w>
రెండో సారి</w>
రెండ ే
రె ట్ట
రి ష
రి పోర్
రి పబ్లిక్</w>
రాజే ష్</w>
ర ాయి</w>
ర నౌ
యెరూష లే
య ాల
మ్యా న్ని</w>
మెజ ారిటీ</w>
మూ త
ము ంచె
మి స్
మి మ్మును</w>
మి డ్</w>
మార ిన</w>
మాయా వతి</w>
భా గాన్ని</w>
బో తోంది</w>
బాధి తులు</w>
ఫ్రి కా
ఫ్యామి లీ</w>
ప్రాచీ న</w>
ప్రా ణం</w>
ప్రతి స్పంద
ప్రజా దరణ</w>
పోయ ే
పైడి పల్లి</w>
పెద్ద లు</w>
పె ను</w>
పార్లమెంటు లో</w>
పార్టీ లకు</w>
పార ు
పరిశీల ించి</w>
పద్ధ తులు</w>
పద్ మ
ప ల్లి
ని న్న</w>
నా కె
నట్ లే</w>
న ాల్లో</w>
ది ద్ద
త్రై మాసి
త్ర ో
త్తి న</w>
త్ వానికి</w>
తే ల
తెరకెక్కి స్తున్న</w>
తి తో</w>
డ్రై వ్</w>
డే టా
డిపాజి ట్</w>
డ ను</w>
జాబి తాను</w>
జరుగు తుందో</w>
జనాభా లో</w>
జ ారి
చేయు టకు</w>
చేయ కుండా</w>
చేప ట్టి
చెల్ల ించ
చర్య లకు</w>
చది వి
గొ డవ</w>
గు మ్మ
కౌ ర్</w>
కోవ ాల్సిన</w>
కో డ్</w>
కొబ్బ రి</w>
కొంత కాలంగా</w>
కొ వ్వు</w>
కు న్నా
కా నున్నాయి</w>
కమ్యూని కేషన్</w>
క పాటి</w>
క ంటె
ఒబా మా</w>
ఎగ్జిక్యూ టివ్</w>
ఎ త్తు</w>
ఉస్మా నియా</w>
ఉపసం హర
ఉద్ దేశం</w>
ఉత్పత్తు ల</w>
ఉగ్రవా దు
ఈ లో</w>
ఇన్స్టా గ్రా
ఆల ౌ
ఆర్ ఆర్ఆర్</w>
ఆతి థ
ఆ దర్శ
ఆ చరణ
అమరావ తి</w>
అభి షేక్</w>
అప్లి కేషన్</w>
అనుమాని స్తున్నారు</w>
అధి కం</w>
అడి గి
అందు కోసం</w>
అందు కున్నారు</w>
అం జ
అ రణ
ంగా నూ</w>
a n</w>
99 9</w>
8 లో</w>
1 1,
ె ం</w>
ు ని</w>
ించాల న్నారు</w>
ాలి ః</w>
ాల య</w>
హో టల్</w>
హార్ దిక్</w>
స్థల ంలో</w>
స్ట ార
సెల్ ఫీ</w>
సె ంటర్
సుం కర</w>
సు ందర్</w>
సీ ఐ
సి సి
సి గ్గు
సా నియా</w>
సా నికి</w>
సం ఘటనపై</w>
స వాలు</w>
శర్ మ
వ్యా ధులు</w>
వ్యవహరి స్తున్నారు</w>
వైపు లా</w>
వేరియం ట్లలో</w>
వేడుక కు</w>
వెళ్లి న</w>
వెళ్ల ే</w>
వెల్లు వె
విశాఖ పట్నం</w>
విని యో
విధా నాలు</w>
వి లేక
విలేక రు
వయ సు
వ ణి
లై న
లె ఫ్
లా ఠ
ర్ ట్</w>
రి స్క్</w>
రాల ిని</w>
రా ణి
రవీ ంద్ర
ర ప్ప
యు ల</w>
మ్యూజి యం</w>
మో ను</w>
మృ తికి</w>
మూవీ ని</w>
మూ డే
మీ రె
మాం సం</w>
మా నే
మా న</w>
మసీ దు</w>
మంత్రిత్వ శాఖ</w>
భర్ తీ</w>
భ రో
బ లా
బ ందో
ఫ ాలో
ప్లా ట్
ప్రాతిపది కన</w>
ప్రయాణి స్తున్న</w>
ప్రత్యామ్ నాయ
ప్రతిపక్ష ాలు</w>
పొ రుగు
పై ల
పెంచ ారు</w>
పునరుద్ధ ర
పాల నలో</w>
పార్ కింగ్</w>
పాఠ శాలలో</w>
పరిచ య
పర ార
పంట లు</w>
ప ించి</w>
ప వర్
నొ క్క
నై తిక</w>
నే షన్</w>
ను డు</w>
నిల బడ
ని వేద
ని లో</w>
దేశ ాలలో</w>
దృక్ పథ
దు ం
త్తు తున్నాయి</w>
తెలి సి</w>
తెలి పాయి</w>
తున్న ట్టు</w>
తీసుకు న్నాడు</w>
తి రగ
తగ్గు తుంది</w>
డె లి
డవ ైన</w>
ట కును</w>
జ్ మెంట్</w>
జె ట్</w>
చ్ఛ ేద
చెబు తారు</w>
చూ శారు</w>
చర్చ కు</w>
చదు వు</w>
గ్ర ి</w>
గౌ డ</w>
గిరి జన</w>
గ ది</w>
గ ం
ఖ ాయ
క్ర ే</w>
క్కు లు</w>
కఠి నంగా</w>
కట్టు ది
క మర్
ఐసీ ఐసీ
ఏ సీ</w>
ఎఫ్ సీ</w>
ఎన్ ఐ
ఎదుర్కొ ంటున్న</w>
ఉష్ణోగ్ర తలు</w>
ఉల్లిపాయ లు</w>
ఉద్రిక్ త</w>
ఉద్య మం</w>
ఉద్య మ
ఈ మేరకు</w>
ఇవ్వ ాలి</w>
ఇరు వు
ఇన్సూ రెన్స్</w>
ఇండో నే
ఆశ్రయ ించారు</w>
ఆశ్చర్ యం</w>
ఆల యంలో</w>
ఆధిక్య ంలో</w>
ఆటగా ళ్లు</w>
ఆచూ కీ</w>
ఆకాం క్ష
ఆకర్ష ణ
ఆ డి</w>
ఆ జా
ఆ గి
అవకాశ ముంది</w>
అల్ల రి</w>
అమెరికా కు</w>
అభిమాను లతో</w>
అనేక మంది</w>
ంటా ం</w>
ం గు
at ion</w>
N ame</w>
5 00
201 2</w>
1. 5</w>
ింపు ను</w>
స్వాతంత్ర ్య</w>
స్తో ందన్నారు</w>
సె లె
సుష్ మా</w>
సుల్ తా
సార ా</w>
సా మూ
సర స్సు</w>
సమ్ మె
సంక్రా ంతి</w>
సంకే త
సం పూర్ణ</w>
స గం</w>
ష్ య</w>
శర ద్</w>
వే రుగా</w>
వే ణు</w>
వె డ
వృ త్తా
విస్తృ తంగా</w>
విశ ాల్</w>
వివర ంగా</w>
విధా న</w>
విడా కులు</w>
వి న్న</w>
వార్త ల్లో</w>
వసూ ళ్లు</w>
వంత ు</w>
లి ని</w>
లా డ
ల తోపాటు</w>
రె హ
రూపొంద ించారు</w>
రూ పా
రీ కి</w>
రి తో</w>
రాజే ంద్ర</w>
యు న్న</w>
యి ర్
యాకో బు</w>
యా ంటీ
య స్
మోదీ కి</w>
మెగా పిక్సెల్</w>
మృ దు
ముగి య
ముఖ్య మంత్రి
మిలి యన్ల</w>
మావో యి
మార్గ ాల్లో</w>
మ ళ
భిన్న మైన</w>
బ్రె జిల్</w>
బు ల్స్</w>
బి జీగా</w>
బడ్ డాడు</w>
బడె ను</w>
బంధు వులు</w>
బ ై</w>
ఫోటో లను</w>
ఫీ ల్డ్</w>
ప్లా స్టిక్</w>
ప్ర వీ
ప్ర గతి</w>
పేద రి
పెట్టు కోవాలి</w>
పెట్ట ాడు</w>
పించ ే</w>
పాల్ పడి
పా ది
పా క్ట్</w>
పరిశ్రమ లో</w>
పని చేయ
ప దే
న్న ార
న్ పై</w>
నివా సం</w>
నిల బెట్టు
నిర్ధార ించారు</w>
నాయు డు
నాక్ష ి</w>
నా గ్</w>
న చ్చు
న ంతో</w>
దేశ ీ</w>
దె ల</w>
దృశ ్యాలు</w>
దా నిక
దశ ల్లో</w>
త్రా గ
త్యా లు</w>
తీ ర్చ
తరల ించగా</w>
త ర్</w>
డ్ డు
డిశ్చార్ జ్</w>
డ ూ
డ లు</w>
ట్వి టర్లో</w>
ట్ బాల్</w>
టెలి విజన్</w>
టూ రి
జీ హెచ్
జరుగు తాయి</w>
చై నాలో</w>
చేయ నున్నట్లు</w>
చే స్తోందని</w>
చెల్ల ింపు</w>
చె క్క
చూ చు
చదర పు</w>
చ న</w>
గ్రా ముల</w>
గౌర వ</w>
గోధు మ</w>
గొడవ లు</w>
గొ ండ</w>
గుర్త ించి</w>
గుర్త ించ
గుప్ప ించారు</w>
గ దా</w>
క్ కే
కొలెస్ట్ర ాల్</w>
కొ విడ్</w>
కొ న్నారు</w>
కెరీ ర్లో</w>
కెప్టె న్గా</w>
కుటుంబ సభ్యులు</w>
కిడ్నా ప్</w>
కి షన్</w>
కా క
కష్ట పడి</w>
కపో వడంతో</w>
ఓపె నర్</w>
ఐసీఐసీ ఐ</w>
ఎఫ్ఐ ఆర్</w>
ఎగు మతి</w>
ఉత్పత్తు లను</w>
ఉ రి
ఉ నికి
ఉ ందో</w>
ఇం కే
అస్సా ం</w>
అభినంద ించారు</w>
అనారోగ్య ంతో</w>
అధికార ాన్ని</w>
అద ంతా</w>
అడు గులు</w>
అంద రు</w>
అ రే
ం తు
ం జర్స్</w>
9 లో</w>
7 లో</w>
7 6</w>
7 3</w>
3 00
15 0
0 తో</w>
ిం ప</w>
ాల న్న</w>
హెచ్చరి కలు</w>
హా ఫ్</w>
హా ని
స్ప ి</w>
స్తు లను</w>
స్ట్ర ి
స్క్రి ప్ట్</w>
స్ పై</w>
సై ఫ్</w>
సె ంట్</w>
సామర్థ ్యాన్ని</w>
సాధ న</w>
సభ్య ులను</w>
సతీ మణి</w>
సంక్షోభ ం</w>
సం ప్రదాయ</w>
శాస్త్ర వేత్తలు</w>
వ్యా సం</w>
వ్య య
వైఎస్ ఆర్</w>
వేడు కలు</w>
వే సే</w>
వే డి
వే గాన్ని</w>
వెళ్ళ ి</w>
వె ంట్</w>
వు న్నారు</w>
వీడియో లో</w>
విమానాశ్ర యం</w>
వినియోగ దారుల</w>
విటమి న్లు</w>
వి చారం</w>
వారిద్ద రూ</w>
వశ ్య
వర ో</w>
వచ్చు ః</w>
ల్ తో</w>
లే నని</w>
లె స్</w>
లక్ష్ మీ</w>
లక్ష ల
లక్ష ణం</w>
రెస్ట ారె
రావ త్</w>
యో బు</w>
యే ట్</w>
యూ ష్</w>
యుద్ధ ంలో</w>
యు న్నాడు</w>
యజమా ని</w>
మ్ మా</w>
మృత్యు వాత</w>
మూ లం</w>
మాదిరి గానే</w>
మా ను</w>
మరొ కరు</w>
మధ్యాహ్ నం</w>
మధు మే
భూ తిని</w>
భావో ద్
భావ న</w>
భా న్ని</w>
భ య</w>
బా ణ
బహు ళ</w>
బందో బ
బం తుల్లో</w>
బ స్టర్</w>
బ ండ
ప్రి న్సి
ప్రా ముఖ్యమైన</w>
ప్రభుత్వాసుప త్రికి</w>
ప్రదర్శ ి
ప్ర క్క
పొ ంది</w>
పేతు రు</w>
పెట్టు బడి
పెట్ట ే</w>
పె ర్
పుర ములో</w>
పు వ్
పు రోగ
పాపు లర్</w>
పరిస్థి తుల</w>
పని తీరు</w>
పడు తుందని</w>
పక్ష ులు</w>
పండు గ
ప యోగ
ప నికి</w>
ప దే</w>
న్ షియల్</w>
నో ట్ల</w>
నే ప
నీకె వ్వరు</w>
నివాళ ుల
నిలి చాయి</w>
నిర్వహ ించే</w>
నిర్మ ించ
నిర్ణ యి
నిర్ బంధ
నాయక త్వంలో</w>
నా మా</w>
నగ రాలు</w>
న ను
న డవ
ధ ా</w>
దీ క్ష</w>
దిన ము</w>
దిగ్గ జ</w>
దిగు మతి</w>
దంప తులు</w>
తెలుగు తో</w>
తెలియజే య
తా నే</w>
తమిళనాడు లోని</w>
తప్ప ి</w>
త నే</w>
డైరె క్టర్
డు న్న</w>
డ ై</w>
డ నే</w>
ట్రం ప్
టీ కి</w>
ట ారు</w>
ఛార్ జ్</w>
చూడ ాలని</w>
చూ పు</w>
చు న్నాడు</w>
చంద్ర యాన్</w>
ఘటనా స్థలానికి</w>
గ్రౌ ండ్</w>
గో రు
గూర్చి యు</w>
గాంధీ కి</w>
గందరగో ళం</w>
గ దిలో</w>
క్లా స్</w>
క్ తో</w>
కొర టాల</w>
కొనసా గింది</w>
కొట్టి పారే
కొ ణి
కే షన్స్</w>
కె న్</w>
కు ట్ర</w>
కు గాను</w>
కీ పర్</w>
కిలో మీటర్లు</w>
కార్ డులు</w>
కా నున్న</w>
కా గి
కమిటీ ని</w>
కంగ నా</w>
క ళ్ళు</w>
క పిల్</w>
ఏ ల
ఏ ముంది</w>
ఎ లి
ఎ త్తి
ఉన్న ారా</w>
ఉండ టానికి</w>
ఇట లీ</w>
ఇందు లోని</w>
ఇంటర్వ్యూ లో</w>
ఇ ంట
ఆహ్వా నించారు</w>
ఆహ్వా నించ
ఆర్ ట్</w>
ఆధి ప
ఆదాయ ాన్ని</w>
ఆకర్ష ణీ
ఆందోళ నకు</w>
ఆ ఫ
ఆ దాయ</w>
అవార్ డును</w>
అను రా
అని పిస్తుంది</w>
అత్యాచార ానికి</w>
అతని పై</w>
అంద ించడానికి</w>
అంద రినీ</w>
అంత క
అంగుళ ాల</w>
అ ఫీ
అ దృ
అ ట్టి</w>
ంత గా</w>
u l
th um
n e
Ho me</w>
8 4</w>
2. 0</w>
ై నను</w>
ింగ్ స్</w>
ాల ంటూ</w>
హు స్
హ ాల్</w>
స్టార ర్</w>
స్టా ండ
స్కో రు</w>
స్ కే
సౌ దీ</w>
సె యింట్</w>
సె గ్
సూచ న</w>
సు మారుగా</w>
సు ధా
సీ ఏ
సీ ఆర్
సామూ హిక</w>
సాఫ్ట్ వేర్</w>
సమావేశ మైన</w>
సంకే తాలు</w>
సం గ్</w>
సం క్రమ
స మ్మ
స మర
షో రూమ్</w>
శరీ ర</w>
శం కు
వ్యూ హం</w>
వ్యక్తి గతంగా</w>
వ్య ర్థ
వైద్య ుల</w>
వైకుంఠ పురములో</w>
వేయ ండి</w>
వెళ్లి పో
వెంకటే ష్</w>
విష్ణ ు
విషా ద
విలువ లు</w>
విఫల మైంది</w>
విద్యార్థ ులను</w>
విడి చి</w>
వి గ్రహ
వా దీ</w>
వా ద</w>
వచ్చి న
వం ట</w>
లోప ే</w>
లో పం</w>
ల ంగా</w>
రో గి</w>
రొ మా
రూ పు
రీ లో</w>
రిజి స్ట్రేషన్</w>
రా కుండా</w>
రజి నీ
రక్ తం</w>
యో ధ
యూరో పియన్</w>
యు ండు
యి ర్</w>
మే ళ
మెం ట్లు</w>
మూల ంగా</w>
మూ ల</w>
ముందు గానే</w>
మాస్ కులు</w>
మార్ పి
మార్ కులు</w>
మన సు
మన ంద
మద్ద తి
మం తు
మ న్గా</w>
భార తీయులు</w>
భా మ</w>
భ త్
బ్యా టింగ్
బ ే</w>
ఫు టే
ఫర్ మేషన్</w>
ఫ ం
ప్రో త్స
ప్రోత్స హి
ప్రా క్
ప్రశంస ించారు</w>
ప్రవర్ తన</w>
ప్రయోజ నాల</w>
ప్రభు వు</w>
ప్రభా వాలు</w>
ప్రతి ష్ఠ
పో తున్న</w>
పెట్టు కుని</w>
పె ద
పు రి</w>
పిం ఛ
పాల ైంది</w>
పర్యవే క్షి
పరిశోధ కులు</w>
పడ తారు</w>
పక్ష ాల</w>
పక్ష ం</w>
ప ృ
నైపుణ ్య
నేత లతో</w>
నివాళుల ర్
నిర్ణయ ించుకు
నిబంధ న</w>
నార్ త్</w>
నట న</w>
న ల్లో</w>
న ంబర్</w>
ధై ర్య
ధ ను
దో షు
దిగు వ
దారితీ స్తుంది</w>
దాన య్య</w>
దర్శకత్వ ంః</w>
థ ో
థ ం</w>
తెరకెక్కు తోంది</w>
తెర వ
తె రా
తీ శాడు</w>
తి ప్పి
తి ప్ప
తర్వా తే</w>
డు లో</w>
డీజీ పీ</w>
ట్ర ీ
జీ త్</w>
జిల్లా ల</w>
జ మ్ము
చేస్తా ను</w>
చేయ గలి
చే రి</w>
చే తికి</w>
చెల్ల ించాల్సి</w>
చెబు తుంది</w>
చె ంచ
చిత్ర ంతో</w>
చిం త
చక్క టి</w>
గొ ంతు</w>
గు ల
గాయ పడ్డ
గ ద్ద
ఖా తా
ఖ ండి
క్ష ణ
క్రి మి
కోలు కున్న
కో ల్</w>
కొర త</w>
కొద్ది సే
కొణి దెల</w>
కేటాయ ించారు</w>
కు న్నాం</w>
కాని స్టే
కలి సిన</w>
కఠి నమైన</w>
క లకు</w>
క మీ
ఒత్తి డిని</w>
ఐ దే
ఏడా దికి</w>
ఎయిర్ పోర్
ఎన్నిక య్యారు</w>
ఉద ్యా
ఉద య
ఉ ందిః</w>
ఇం కో</w>
ఆర్ టీ
ఆ కార
అల హా
అభ్యర్థ ులను</w>
అనుభ వి
అధి క
అంచ నాలను</w>
అంకి తం</w>
అ త్త
ంత ర
en t</w>
9 6</w>
6 9</w>
6 7</w>
3 వ</w>
200 4</w>
20 20
ో ల్
ూ నే</w>
ార ంటూ</w>
హెచ్ డీ
హె డ్
హృ ద
హార ిక</w>
హ ్య</w>
హ ల్
స్ట ే</w>
స్ట ుల</w>
సౌ రవ్</w>
సై రా</w>
సే వా</w>
సూ చీ
సు దీప్</w>
సీ ట్ల</w>
సాం ప్రద
సర్వీ సెస్</w>
సమస్ త</w>
సభ్యు లుగా</w>
సబ్ సి
సన్ని వేశ
సద్ వినియోగం</w>
సందర్బ ంగా</w>
శాస్త్ర ీయ</w>
శా ం
వేత నాలు</w>
వే తనం</w>
వెల్లడ ించిన</w>
వె ల
వు న</w>
వీటి తో</w>
విలు వై
విల న్</w>
విజ్ఞ ా
వాయ ు</w>
వస్తు వులను</w>
వర్గ ాలకు</w>
వచ్చ ాను</w>
వ స్తారు</w>
వ రిలో</w>
వ డు</w>
ళ్ళ ను</w>
ల్లు లు</w>
ల్లు డు</w>
లై కా</w>
లి ఫ్ట్</w>
లా ది
లభ ించే</w>
లభ ించలేదు</w>
ర్ లేదు</w>
రోగ నిరోధక</w>
రియ న్</w>
రాబా ద్</w>
రా ని</w>
రమే శ్</w>
ర ండి</w>
య్య ా</w>
యూట్యూ బ్</w>
యువ కులు</w>
యు న్నది</w>
య న్లు</w>
మొదల య్యాయి</w>
మైదా నంలో</w>
మేనే జర్</w>
మే జర్</w>
మె ట్రిక్</w>
మె క్సి
మృ తుల్లో</w>
మృ త</w>
ము మ్మర
ము న్న</w>
మీ రే
మార్ లు</w>
మాట్లాడ లేదు</w>
మహ మ్మద్</w>
మవు తాయి</w>
మర ణానికి</w>
మత్త యి</w>
మంత్రి వర్గ</w>
మంత్రి మండలి</w>
భయ ం
బొ త్
బియ్య ం</w>
బాప్తిస్ మం</w>
బ స్సులు</w>
ఫ్యా క్
ఫె ల్</w>
ప్రాముఖ్య త</w>
ప్రభుత్వ మే</w>
ప్రత్యేక ించి</w>
ప్రణ బ్</w>
ప్రజాస్వా మ్య</w>
ప్రఖ్యా త</w>
ప్ర శాంత్</w>
ప్ర వహి
ప్ర తా
పౌరు లు</w>
పెళ్ళ ి</w>
పెట్రో లి
పునరుత్ థా
పు లో</w>
పీ డ
పాఠ ం</w>
పరిధి లోని</w>
పర మే
పట్టు కుని</w>
ప ండు</w>
న్న ే
న్న ప్పుడు</w>
న్ సర్
న్ మెంట్</w>
ను లో</w>
ను బట్టి</w>
ను గా</w>
ను కు</w>
నివాళ ులు</w>
నివా స</w>
నిలు పు
నిల వ
నిజా మాబాద్</w>
నిజ ంగానే</w>
ని మ
నా య</w>
నడు మ</w>
నకి లీ</w>
న మి
న దే
దృశ ్యం</w>
ద ిం
త్త ూ</w>
తే నె</w>
తెలియ డం</w>
త లుగా</w>
డు గు</w>
డా క్యు
టీ జర్
జ్ఞా నం</w>
జాయ ింట్</w>
జా ద
జరి గి</w>
జ ట్ల</w>
చేయ ాలనుకుంటు
చే తన
చెన్నై లో</w>
చూ స్తూ</w>
చూ శాను</w>
చిత్త ూరు</w>
చా టు
ఘట నే</w>
గ్రా ండ్</w>
గుడ్ లు</w>
గ ల్
ఖచ్చి తమైన</w>
క్రై మ్</w>
క్రి స్</w>
కోర్ టు
కొడు కులు</w>
కొ లు
కేసు ల్లో</w>
కి పైగా</w>
కాల కు</w>
కల్ స్</w>
కడ ప</w>
కంపెనీ ల</w>
క మ్</w>
ఒక్క రు</w>
ఏమి టీ</w>
ఏ ంట
ఎలక్ట్రా నిక్</w>
ఎన్ నిక</w>
ఎక్క డి
ఎ వ్వ
ఎ ండీ</w>
ఉండ టంతో</w>
ఇప్పటి కి</w>
ఇ ళ్ల</w>
ఆహ్వా నం</w>
ఆర్ జేడీ</w>
ఆమోద ించింది</w>
ఆప్ షన్
ఆ లి
ఆ మ్</w>
ఆ ద్
అవు తున్నారు</w>
అవు తాయి</w>
అమ లులో</w>
అక్క ినేని</w>
అంత్య క్రియ
అ న్య
ంట ారా</w>
ంచి న</w>
o l
l e</w>
a b
7 8</w>
6 6</w>
5 లో</w>
201 3</w>
1 30</w>
హెచ్చరి క</w>
హిం సా
హా సిని</w>
హ రి</w>
హ యా
స్వల్ప ంగా</w>
స్వ యం</w>
స్థలా న్ని</w>
స్తు ంటే</w>
సులు వుగా</w>
సీతారా మ
సార ా
సమృ ద్ధి
సమాఖ ్య</w>
సభ ్య</w>
సన్ర ై
సంత కం</w>
సంక్షే మం</w>
సంకీర్ ణ</w>
సం రక్ష
సం ధ
షార్ ట్</w>
శ్రే ణి</w>
శ్రీల ం
శిశు వు</w>
శాంతి యు
శా ం</w>
వై న్</w>
వెలుప ల</w>
వె ల్
వె తు
వు ంటే</w>
విద్యా శాఖ</w>
విద్య ను</w>
వి శి
వార్ నర్</w>
వా డే</w>
వర్ షాల</w>
వచ్ చేసింది</w>
వ రి
లెక్క ింపు</w>
లు న్న</w>
లీ ట్</w>
లి జె
ల లోని</w>
ర్ లతో</w>
రోజ ే</w>
రె ంట్</w>
రుకు గా</w>
రాలే దని</w>
రా మారావు</w>
రా ణి</w>
రా కు</w>
రంగ ాలలో</w>
యు ను</w>
యి నా</w>
యా క్ట్</w>
మ్యాచ్ లు</w>
మోహ న్
మొదల వుతుంది</w>
మొక్క లు</w>
మె సే
ము ద్ర</w>
మీ రూ</w>
మి స్టర్</w>
మరొ కటి</w>
మనుష ులు</w>
మన మె
మ ద
భార ీ
భరో సా</w>
భక్ తి
బ్ర ౌ
బ్ స్</w>
బొ మ్మ
బి ట్</w>
బాధి తుల</w>
బయ ల్
ఫ్ర ీ
ప్రేక్ష కులకు</w>
ప్రారంభ ోత్స
ప్రా చు
ప్రసంగ ించారు</w>
ప్రవేశ పెట్టారు</w>
ప్రతిష్టా త్మక</w>
ప్రతి భ
ప్రకార మే</w>
ప్ లి
పోలీసు లపై</w>
పో సి</w>
పొంద ాడు</w>
పొ డవైన</w>
పెట్ట ాలి</w>
పాల్గొ ని</w>
పా టిల్</w>
పరిస్థి తిలో</w>
పరిజ్ఞా నం</w>
ప చ్చ</w>
నేతృ త్వంలో</w>
నే లా</w>
నుండ ే</w>
నీ యా
నిలకడ గా</w>
నిర ంతర</w>
నిక ర</w>
ని ంద
నటీ నటు
నట ించబో
న న్</w>
ధ న</w>
దే వేంద్ర</w>
దీర్ఘ కాలిక</w>
దిగు వ</w>
దిగు మ
ది నే
ది గింది</w>
దాని వల్ల</w>
దా ట
ద స్త్ర
త్తు ను</w>
తీసి కొని</w>
తీర్మా నం</w>
తి క
తలు పులు</w>
తన తో</w>
త ము</w>
త ని</w>
ణ్ ని</w>
ణ ్యం</w>
డై ంది</w>
డెవల ప్మెంట్</w>
డయా బె
ట్రే డ్</w>
టీ ఆర్ఎస్
ట చ్</w>
జో రుగా</w>
జరిగి తే</w>
ఛ ేద
చేసుకొ ంది</w>
చేయ కూడదు</w>
చే పలు</w>
చే తి</w>
చెందు తున్న</w>
చె పు
చి న
చట్ట ాలు</w>
చంద్రశేఖ ర
చ ీ</w>
ఘటన తో</w>
గో పాల
గుర్త ించిన</w>
గాలి స్తున్నారు</w>
గడ చిన</w>
గ ్యం</w>
గ ల్ల
క్రికె ట్లో</w>
క్రి ష్</w>
కొట్ట ారు</w>
కేట ాయి
కురి సే</w>
కుదిరి ంది</w>
కు క్క
కార్యాల య
కాద న్నారు</w>
కర్ ర</w>
కనె క్
ఐ డియా</w>
ఏ ను
ఎడ ్యు
ఎగు మ
ఎం ఎల్
ఎ మో
ఊపి రి
ఉద్ధ వ్</w>
ఇశ్రాయే లు</w>
ఇబ్బ ంది
ఇ స్తామని</w>
ఇ ళ్ల
ఇ ప్ప
ఇ ని
ఆ గిపోయింది</w>
ఆ కా
అర్ హు
అభిప్రాయ పడ్డారు</w>
అబ్దు ల్లా</w>
అనుమత ించ
అను భూతి</w>
అడి గిన</w>
అంతర్ జాతీ
అంత టా</w>
అంగీకర ించలేదు</w>
ంద రూ</w>
ండ ె
ంట ో
th e</w>
T h
్ర ి
ొ చ్చ
ె లు</w>
ార న్న</w>
హైదరాబా దు</w>
హీరో లుగా</w>
హర్ష వర్ధన్</w>
హరి యా
స్పంది స్తూ</w>
స్టీ వ్</w>
స్టీ ల్</w>
సో మే
సొ సై
సీ ట్లను</w>
సిబ్బంది కి</w>
సి కి
సార ీ</w>
సాంకేతి కంగా</w>
సహో ద
సమాజ ంలో</w>
సన్న ద్ధ
సదు పాయం</w>
సంత కాలు</w>
సం పద</w>
స ాల్
శ్రీ మతి</w>
శ్రద్ధ ా</w>
శ్ వరి</w>
శ య
వ్యవహార ాలు</w>
వై దొ
వై ఖ
వెళ్లి ంది</w>
వు ంటాయి</w>
వీర ంతా</w>
వినియోగ దారులు</w>
విధ ి</w>
విజ్ఞ ాన</w>
వార ును</w>
వాతావర ణంలో</w>
వా క్కు</w>
వర్ గానికి</w>
ల్ డ
లోత ైన</w>
ర్ తో</w>
రెట్ట ింపు</w>
రావ ాలి</w>
రాబ ట్టింది</w>
రా త
రవి శంకర్</w>
రవి కుమార్</w>
రజినీ కాంత్</w>
రంగా ల</w>
ర కంగా</w>
యూ దా</w>
యా వత్</w>
మోడీ ని</w>
మొదలు పెట్టారు</w>
మై త్రీ</w>
మై త్రి</w>
మే మి</w>
మె యి
ముంబై లోని</w>
మీద ను</w>
మి క
మార్గ దర్శక
మార్ గాన్ని</w>
మా మ</w>
మా నం</w>
మా తో</w>
మహారాష్ట్ర లోని</w>
మ ద్య</w>
భి వృద్ధి
భావి స్తారు</w>
భాగస్వా మ్య
భవ న</w>
బ్రి టీ
బ్రి క్స్</w>
బ్ ల
బందోబ స్తు</w>
ఫ్ లో
ఫ్ లి
ప్రో గ్రా
ప్రత్యామ్ నాయ</w>
పోస్ట ుల</w>
పో తున్నాయి</w>
పొ ట్ట
పెరుగు ద
పుల్వా మా</w>
పిటి షన్
పిక్ సల్</w>
పాల క</w>
పా కు</w>
పని చేయడం</w>
పడ్డా ను</w>
పడు తూ</w>
పం పించ
న్నింటి నీ</w>
న్న ారో</w>
నై నను</w>
నెలకొ న్నాయి</w>
నెట్ వర్క్</w>
నెటి జన్లు</w>
నిర్వహ ించడానికి</w>
ని పై</w>
నాగ ాలా
నటీ నటులు</w>
న ంటూ</w>
ధ్వం సమ
ధి లో</w>
ధాన్ యాలు</w>
ద్వి చక్ర</w>
దోషు లుగా</w>
దో షి
దొరక లేదు</w>
దినోత్స వ</w>
దక్క ాయి</w>
థ్ర ిల్ల
తేల్ చి</w>
తెలు పు</w>
తున్నా మని</w>
తు ంటాయి</w>
తీసుకెళ్ల ారు</w>
తీసు కోవడానికి</w>
తీ ర్చు
ణ ిక</w>
ఢిల్లీ కి</w>
టి తో</w>
టి క్కె
టా న్ని</w>
జ్యో తి
జ్ లో</w>
జరుపు కుంటారు</w>
జగన్నా థ్</w>
చొర వ</w>
చేసి నప్పుడు</w>
చేయు ము</w>
చేయ డ
చూ సే
చిన్నార ులు</w>
చిత్ర ాల</w>
చి వర
చాల ని</w>
చల్ల ని</w>
చని పోయాడు</w>
చ వి
చ ట్ట</w>
ఘటన ను</w>
గ్రీ కు</w>
గ్ న
గొప్ప గా</w>
గెలు చుకు
గ ట్ట
క్ టర్లు</w>
కౌ ట్</w>
కోర్ ట్</w>
కేరళ లోని</w>
కేంద్రా లు</w>
కార్యకలా పాల</w>
కార్ లను</w>
కా మర్స్</w>
కా డు</w>
కలు సుకు
కలి గింది</w>
కర్ త
కనె క్ట్</w>
కథా నాయకుడిగా</w>
కంట ె</w>
క ాలి</w>
క ల్లో</w>
క బీర్</w>
క ంటూ</w>
ఒక్కొ క్క</w>
ఏ ళ్లు</w>
ఏ టీ
ఎవరి నీ</w>
ఎప్పుడ ో</w>
ఎన్నిక లను</w>
ఎడి షన్</w>
ఎక్క డి</w>
ఎ స్పీ
ఎ స్పి</w>
ఉపయోగ ించే</w>
ఉప రాష్ట్రపతి</w>
ఉ రి</w>
ఉ భయ</w>
ఉ జ్
ఇశ్రాయేలీయు ల</w>
ఇన్ స్ట
ఇత ని</w>
ఇండి యన్స్</w>
ఆసక్తి కరంగా</w>
ఆయు ధాలు</w>
ఆంగ్ ల
ఆ దేశాల</w>
ఆ దా
ఆ ఖరి</w>
అయో ధ్య</w>
అప్పటి కి</w>
అనుమా నాలు</w>
అడి గారు</w>
అంత ి
అంగీ కరి
అ ల్</w>
అ ఫ్</w>
అ న్నిటి
అ దిరి
అ జ
u s</w>
o n
9 00</w>
ించు డి</w>
ార్థ ం</w>
ాయి ల్</w>
హో రా
హోరా హో
హె లికా
హి మాల
హి ట్ట
స్మార క</w>
స్పె ష
స్పంద ించిన</w>
స్టే షను</w>
స్ సా
సొ లొ
సీ జ్</w>
సింగ పూర్</w>
సాయ ు
సమా న</w>
సమా జ్</w>
సమస్య లకు</w>
సమక్ష ంలో</w>
సమ స్త
సన్రై జర్స్</w>
సతీ ష్</w>
సంఖ ్యా
సం చి
ష్ర ్
ష నర్</w>
వ్యాఖ్య లను</w>
వెన క
వె ళ
వృ త్తి
వు డ్</w>
వీ ల్</w>
విరుద్ధ ంగా</w>
విమాన ాలను</w>
విపరీ తమైన</w>
విద్యు త్తు</w>
వి స్
వి ప్ప
వి కా
వారంద రికీ</w>
వాటి ల్లి
వా నిని</w>
వంద లాది</w>
వ స్త్ర
ళ్ళ లో</w>
లో ంచి</w>
లేకపో వడంతో</w>
లా స్</w>
రో షన్</w>
రై ళ్ల</w>
రామ చంద్ర
రాజే ందర్</w>
రాజ ులు</w>
రాజ న్</w>
రా ంచ
రనౌ త్</w>
యెదు ట</w>
య ీ
మ్ కు</w>
మైక్రో సాఫ్ట్</w>
మై లు
మె చ్చు
మూ ల్</w>
ముర ళీ</w>
ముంబయి ః</w>
ము నుండి</w>
ము ద్దు
మీడి యాకు</w>
మార ెడ్డి</w>
మహే ంద్ర
మహిళ లపై</w>
మలు పు</w>
మ ర్యా
మ య
మ న్న</w>
భే టీలో</w>
భయా ందోళ
బ్యూ రో</w>
బె ంచ్</w>
బహు మతి</w>
బహ ు</w>
బల గ
బయలుదే రి</w>
బ బు
ఫొటో ను</w>
ఫలి తాల</w>
ఫ ౌ
ప్లాట్ ఫా
ప్రాజెక్ టుకు</w>
ప్రాంత ాలను</w>
ప్రమాద ంపై</w>
ప్రభా కర్</w>
ప్రణాళ ికలు</w>
పోలీ స్
పోయి న
పై సలు</w>
పే సర్</w>
పెళ్ లికి</w>
పెట్రోలి యం</w>
పెట్టుబడు ల</w>
పె రుగు</w>
పె న్
పు దు
పిల్ల లతో</w>
పిం క్</w>
పాల్గొ ంటారు</w>
పాల సీ</w>
పా ప</w>
పర్యట నకు</w>
పరుగు లకే</w>
పను ల</w>
పడ డం</w>
పట్టు కొని</w>
ప ప్పు</w>
న్యాయ వా
న్న ర</w>
న్ లకు</w>
న్ యు
నెల ల్లో</w>
నెరవే ర్
నిబంధ నల</w>
నిందితు లపై</w>
ని స్తుంది</w>
నటి గా</w>
న ంబ
ధ ార్
దారితీ సింది</w>
దళ ి
దగ్గర గా</w>
దక్క ించుకుంది</w>
ద ల
థాం క్స్</w>
తున్న ప్పుడు</w>
తీర్ చి
తీ ర</w>
తాత్ కాల
తరువా తి</w>
తగ్గ ాయి</w>
తండ్ర ి
త ద
డి పి
డా నికే</w>
ట్ట ా
ట్ లపై</w>
టౌ న్</w>
టె స్
టీ ఎంసీ</w>
టీ 20</w>
టివ్ గా</w>
టి నెంట్</w>
టర్ న్</w>
ట ప్</w>
జా తీయ
జర్ మనీ
జ ులు</w>
జ లా
జ పా
ఛ ే
చేస్తు ండగా</w>
చేయ ించారు</w>
చేయ బడుతుంది</w>
చేపట్ట ాలని</w>
చెప్ప ు</w>
చెన్నై ః</w>
చూ స్తారు</w>
చట్ట ాలను</w>
చ ార్య</w>
గవర్ న
గ ంజ్</w>
క్షమాప ణ</w>
క్ష న్లో</w>
క్ష ణం</w>
క్రే జ్</w>
క్ర ీ</w>
కోలు కోవాలని</w>
కోట్ ల
కొను ము</w>
కె టి
కుటుంబ ంతో</w>
కాలే జీ</w>
కాలుష ్యం</w>
కార్యకలాప ాలను</w>
కా న్</w>
కా కు
కల్పించ ే</w>
కరె న్సీ</w>
కనిపి స్తున్నాయి</w>
క స్</w>
ఓ టే
ఒలిం పిక్</w>
ఒక్ కో
ఒక ప్పుడు</w>
ఐ పి
ఏర్ పాట
ఏ యే</w>
ఎం బీ
ఎ నర్జీ</w>
ఎ ంటర్</w>
ఉద్యో గులకు</w>
ఉద్యో గుల</w>
ఉండే వారు</w>
ఉండ రు</w>
ఉంటు ందా</w>
ఉంచ ాలి</w>
ఉ ంచి</w>
ఇన్స్టాగ్రా మ్లో</w>
ఇంజినీ రింగ్</w>
ఇం జన్
ఇం కె
ఆద్ మీ</w>
అవసర మని</w>
అలహా బాద్</w>
అయ్య ర్</w>
అప వి
అను వద
అన వసర
అన ర్
అడి గింది</w>
అడి గి</w>
అఖి లే
అక్కడ కు</w>
అంబ ే
అంతే గాక</w>
అంత కంటే</w>
అం శాల</w>
అ స్వస్థ
అ ండర్</w>
ండ ీ
ంట ై
e x
e m
a g
2 2
15 ,
12 .
1 10</w>
ై నట్లు</w>
ించు ట</w>
ించా డని</w>
ాల ైన</w>
ా ని</w>
హార ెడ్డి</w>
హార ీ</w>
స్పంద ించింది</w>
స్ప ై
స్నే హం</w>
స్ లు</w>
సౌ ంద
సైన్ సెస్</w>
సుధీ ర్</w>
సు భా
సు ంద
సీ స్</w>
సికి ంద్రా
సాహి త్యం</w>
సాను కూలంగా</w>
సాం ఘ
సా స్</w>
సర్వో న్నత</w>
సంత ర
స స్</w>
స త్యాన్ని</w>
షో లో</w>
షి యన్</w>
ష ్యా
శ్వా స
శాస్త్ర ంలో</w>
వ్యూ హా
వ్యాక్సి న్</w>
వ్యక్ తులను</w>
వేస విలో</w>
వే స్తున్నారు</w>
వే ణు
వెన క</w>
వె ంచ
వీ రే
విషయ ాల్లో</w>
విభే దాలు</w>
విధా నాలను</w>
విద్యార్థ ిని</w>
విజే తగా</w>
విజయ సాయి
వి రమణ</w>
వి పక్షాలు</w>
వి కీ
వార ణా
వాణిజ ్యం</w>
లు లు</w>
లా కు
లా ంటి
ర్యాల ీ</w>
రే ట్లను</w>
రే టును</w>
రెహ మాన్</w>
రూ రల్</w>
రిజర్ వు</w>
రి న</w>
రామ కృష్ణ
రా త్రి
రహ దారి
రస ాయ
రచ నలు</w>
రంగు లో</w>
ర సం</w>
ర గా</w>
ర కర
యిర్ మీ
మెరుగు పరచ
మె యిన్</w>
మె న్స్</w>
మె త్తారు</w>
మూవీ కి</w>
ముర ళీ
ముఖ ేష్</w>
మీ దే</w>
మార్గదర్శక ాలను</w>
మాన వు
మాట లను</w>
మా లో</w>
మనో జ్</w>
మన స్సు</w>
మధ్య ే</w>
మత్ స్య
మ ించిన</w>
భువనే శ్వర్</w>
భాగ ాలుగా</w>
భా వాన్ని</w>
భవ న్లో</w>
బ్ర ో
బ్బ ులు</w>
బీజేపీ తో</w>
బీఎస్ ఈలో</w>
బి న్</w>
బా ల</w>
బలి పీఠ
ఫీ జు
ఫడ్ నవీ
ఫ ు</w>
ప్రొడ్యూ స్</w>
ప్రాణ ాలను</w>
ప్రమా ణాలు</w>
ప్రపంచ ాన్ని</w>
ప్రపంచ ానికి</w>
ప్రపంచ కప్</w>
ప్యాకే జీ</w>
పొ టా
పొ ందే</w>
పెరుగు తూనే</w>
పెరిగిపో తున్నాయి</w>
పెట్టుబడు లను</w>
పెట్టు కున్నారు</w>
పెంచ డానికి</w>
పృ థ్
పు ట్టి</w>
పిలు పు</w>
పరిక రాలు</w>
పరి చారు</w>
పథ కాలు</w>
పడ గా</w>
పట్ట ించుకోలేదు</w>
పచ్చి మిర్చి</w>
ప య
న్న ట్టు</w>
న్ నియు</w>
నౌ కా
నొ కరు</w>
నే ల</w>
ను కుంటు
నిర్ వా
నిర్ వర్త
నిరా కరించారు</w>
నియామ కం</w>
నిమిత్త ము</w>
నిజాయి తీ
నర్ సింగ్</w>
నమ్మ కంగా</w>
న ల్
దేశీ యంగా</w>
దిల్లీ ః</w>
దారు ణ
దాటి ంది</w>
దశా బ్ద
దళ ్</w>
ద ంత
త్రి పుర</w>
తగ్ గి</w>
తగిలి ంది</w>
త త్
డ్ జ్</w>
డిస్ క్</w>
డి విజ
డి ఫ
డ లో</w>
డ గు</w>
ట్ లోని</w>
ట్ పై</w>
ట్ ః</w>
టె ంపు
టీ రియల్</w>
టి వి</w>
ట ిం
జ్యో తి</w>
జ్ ను</w>
జో డీగా</w>
జై పూర్</w>
జాగ్ర త్త
జరి పించ
జరి పి</w>
చేస్తా మన్నారు</w>
చేయ లేదని</w>
చేయ మని</w>
చెప్పు కో
చెప్ప గా</w>
చె ట్టు</w>
చు రుకుగా</w>
చిత్ర ాలను</w>
చక్క ర్లు</w>
గె ల
ఖ ర్
ఖ మ్మ
క్రీడా కారి
క్క ా</w>
క్ వాలి
క్ పై</w>
కోవ డంలో</w>
కోలు కున్నారు</w>
కో ట్</w>
కో ట
కొనసాగు తూనే</w>
కె పా
కార్యకర్ తల</w>
కాం పాక్ట్</w>
కలుగ జే
కలిగి స్తుంది</w>
కర ణం</w>
కనిపించ ే</w>
కం ప
క ళ్లు</w>
క ణ
ఒక్క రికి</w>
ఒక్క టి</w>
ఒకట ే</w>
ఏర్ పడ్డాయి</w>
ఏ డ్
ఎలక్ట్రా నిక్స్</w>
ఎమ్మెల్యే ల</w>
ఎన్ ఎస్
ఎదురుచూ స్తున్నారు</w>
ఎంఐ ఎం</w>
ఎం పి</w>
ఎ కర
ఊ రి
ఉపయోగ ించారు</w>
ఉత్త మ్</w>
ఉండ బో
ఉ ప్ప
ఈ టల</w>
ఇష్ట మైన</w>
ఇం ట్లోనే</w>
ఇ స్తున్నారు</w>
ఆవి డ</w>
ఆయ న్ని</w>
ఆఫీ స్</w>
ఆది కాండము</w>
ఆంగ్ ల</w>
ఆ రె
ఆ చర
అలవా టు</w>
అల ర
అమెరి కాలోని</w>
అభిమాను ల</w>
అభిప్రాయ ాలు</w>
అఫ్ గా
అను మాన
అను ప
అగ్ని ప్రమాదం</w>
అకౌ ంట్</w>
అంద ించడం</w>
అంగీ కారం</w>
అ లి
అ ణు
ంగ ి</w>
c e</w>
8 7</w>
10 .
్రా జు</w>
్ర ం</w>
ేశ్ వరం</w>
ే లు</w>
ించబడ తాయి</w>
ార్ థ</w>
హై డ్ర
హా స
స్వే చ్ఛ</w>
స్వ భావం</w>
స్మ ాల్</w>
స్టో ర్</w>
సెంచ రీలు</w>
సు దీర్ఘ</w>
సిలిం డ
సి యా
సి క్కి
సా వి
సర్వీ సులు</w>
సము దాయ
సమర్ప ణలో</w>
సమయ ంలోనే</w>
శతాబ్ద ంలో</w>
వై సీ</w>
వై భవ
వేయ డానికి</w>
విస్త రి
వినో ద్</w>
విని పిస్తున్నాయి</w>
విదేశ ాల్లో</w>
విజే త</w>
వాగ్ దా
వా జ్
వర్ష పాతం</w>
వనరు లు</w>
ల్ డ్
లోతు గా</w>
లై నంత</w>
లా గు
లక్ష్మ ణ్</w>
ల ాలూ</w>
ల ార్
ల డ
ల గ్
ర్ య</w>
ర్ ఫా
రోజుల పాటు</w>
రై ళ్లను</w>
రై నా</w>
రై తులను</w>
రూపాయ లకు</w>
రియ ో</w>
రిజర్వే షన్లు</w>
రి వర్స్</w>
రి పై</w>
రాయ ల్స్</w>
రామ్ నాథ్</w>
రాజధా నిగా</w>
రా ష్ర్
రా ఫెల్</w>
రా దని</w>
రస ాయన</w>
రష్య న్</w>
రవి తేజ</w>
ర షీ
యోగ ్య
యువ తకు</w>
యు న్నారు</w>
యాక్సి స్</w>
యంత్రా ంగం</w>
మోదీ తో</w>
మేనే జింగ్</w>
మూ డో
మును బట్టి</w>
ముఖ్య మైనది</w>
మార్ చారు</w>
మాన వా
మాది రి</w>
మహా నటి</w>
మణి పూర్</w>
మ ంత్</w>
భద్ర తను</w>
భక్ తి</w>
బౌ లర్</w>
బోల్ తా</w>
బె యి
బీ భత్
బి క్</w>
బయల్ దే
బ ులు</w>
బ ారి</w>
ఫోటో ను</w>
ఫిలి ం</w>
ఫిర్యాదు తో</w>
ప్రవీ ణ్</w>
ప్రయోగ ం</w>
ప్రభుత్వా ల</w>
ప్రభు వైన</w>
ప్రదర్శ నలు</w>
ప్రథ మ</w>
ప్రతి భ</w>
ప్రజాస్వా మ్యం</w>
పోరా టంలో</w>
పె న్షన్</w>
పాల ైన</w>
పాఠ ాలు</w>
పాండ ్యా</w>
పా ట్
పర్యవేక్ష ణ</w>
పరిష్కర ించడానికి</w>
పరిశ్రమ కు</w>
పరిమి తులు</w>
పన్న ు
పడ దు</w>
పట్ట ణంలో</w>
ప యి
ప తనం</w>
ప తన
న్యూయార్ క్</w>
న్ స్లో</w>
నో బెల్</w>
నుండి యు</w>
ను వ్వ
నీ ళ్ళు</w>
నిర్వహి స్తున్న</w>
ని ప్పులు</w>
నాథ ్
నడు స్తోంది</w>
నంద ్</w>
న యం</w>
ధైర్ యంగా</w>
ధీ రుడు</w>
ధర ను</w>
ధ ాలను</w>
ద్వీ ప
దొ రి
దీని కోసం</w>
దీ క్షి
దీ క్ష
దిగ్ బంధం</w>
ది నం</w>
థ ర్
తో మర్</w>
తెలుసుకు న్నారు</w>
తె చ్చి
తీసుకె ళ్
తరు పున</w>
త పై</w>
డ్ ను</w>
డి తే</w>
డా ను</w>
టై ం</w>
టె ర్ర
టు ంది</w>
ట ంటే</w>
జో న్</w>
జె డ్
జీవిత ాలను</w>
జీ ల
జీ తం</w>
జితే ంద్ర</w>
జాన్ సన్</w>
జగ పతి</w>
చేసుకు ంటు
చేరు కో
చేయ ని</w>
చే ర్చు
చెప్ప ేది</w>
చెప్ప ాలంటే</w>
చె రి
చర్చ నీయా
చ తు
గౌ డ్</w>
గేర్ బాక్
గూ డ</w>
గు లో</w>
గ తేడా
గ తం</w>
ఖా ళీ
కొట్టు కు
కొ ల్
కెన డా</w>
కుమార ి</w>
కు లం</w>
కి శో
కాలే దని</w>
కాంబినే షన్</w>
కా సేపు</w>
కా వలసిన</w>
కర్ లు</w>
కరీ నా</w>
క క్ష
ఓ పి
ఒత్తి డికి</w>
ఏదే ని</w>
ఏక గ్రీ
ఏ ము
ఎమ్మెల్యే గా</w>
ఎడ్యు కేషన్</w>
ఎ ంద
ఊహ ించని</w>
ఇత డు</w>
ఇండి యా
ఇ షా
ఇ దె
ఆహ్ లా
ఆసక్తి కర</w>
ఆవిష్ కరణ</w>
ఆర్పి ఎమ్</w>
ఆర్ఎస్ ఎస్</w>
ఆజా ద్</w>
ఆ స్వా
ఆ వర
అల్ల ూరి</w>
అలా గని</w>
అల ర్ట్</w>
అమ్మాయి లు</w>
అభివృ ద్ది</w>
అప్ డేట్</w>
అథ ారిటీ</w>
అత లాకు
అడ్డ ం
అకాడ మీ</w>
అ శ్వ
అ రో
అ మే
అ న్నాను</w>
అ ధీ
అ చ్చ
ం లేదు</w>
ం ః
u g
gh t</w>
an d
9 2</w>
8 3</w>
3 లో</w>
12 :
10 5</w>
ై నది</w>
ై తే</w>
ుల ారా</w>
ించాల నే</w>
ించా లో</w>
ించా ము</w>
ాలు ంటాయి</w>
ార ే
ాయ త్
హ్యా పీ</w>
హ్యా పీ
హ్ లా
హుస్ సేన్</w>
హీరోయి న్స్</w>
హింద ీ
స్వాతంత్య ్ర</w>
స్మార్ట్ ఫో
స్థ ు
స్ట ాలి
సో దాలు</w>
సై జ్</w>
సే ల్స్</w>
సీరియ స్గా</w>
సీఈ వో</w>
సీ ట్లలో</w>
సిరీ స్ను</w>
సిం హ
సాధారణ మైన</w>
సర్ దార్</w>
సమా నం</w>
సమా జ్
సమర్థ వంతంగా</w>
సన్నిహి త</w>
సంస్థ లో</w>
సంస్థ లను</w>
సంస్ కరణలు</w>
స హ</w>
షి యో
ష ిం
శ ి</w>
వ్య త్యా
వై ఖరి</w>
వెస్టిం డీస్</w>
వెళ్లి పోయారు</w>
వెబ్సై ట్</w>
వె న్న</w>
వు పయోగ
వీ లైనంత</w>
వీ ట
విద్యార్థ ి
విజయ నగరం</w>
విజ ృ
విచార ణను</w>
వి శాల
వాహ నాన్ని</w>
వార ా</w>
వాజ్ పే
వా స
వర్ తన</w>
లేఖ లో</w>
లే మి</w>
లే టెస్ట్</w>
లెఫ్ టినెంట్</w>
లాఠ ీ
ర్యాల ీలో</w>
రో గులు</w>
రో గులకు</w>
రే ప్</w>
రికార్ డును</w>
రిక వరీ</w>
రాహు ల్
రాకపో కలు</w>
రా వాల
రా బడి</w>
రకాలు గా</w>
ర హా
ర ద్ద
యెహో వాయ
యూ దా
యా వ
మొదలై నవి</w>
మె ను</w>
మె టల్</w>
మె జార్
మాదిరి గా</w>
మా ని
మరొ క
మర మ్మ
మత పరమైన</w>
మందు ల</w>
మ ల్లి
భాగస్వా మి
భయ ంతో</w>
భ ాయ్</w>
బ్యాంకు లో</w>
బా ధా
బర్ గ్</w>
బడి నది</w>
బ ్యు
బ స్</w>
బ డే
బ ంద
ఫ్ర ే
ఫ్ర ీ</w>
ఫేస్ బు
ఫు ట్బాల్</w>
ఫడ్నవీ స్</w>
ఫ ారె
ప్రస్తా వి
ప్రసా ద
ప్రమాణ స్వీకారం</w>
పోష ించిన</w>
పోల వరం</w>
పోయి ందని</w>
పోయ ాలి</w>
పో వు
పో యెను</w>
పేద లకు</w>
పే క్ష
పెరుగు తాయి</w>
పెట్ట లేదు</w>
పె యిం
పూర్ వ</w>
పూరి త</w>
పూ ట</w>
పురు షు
పి లవ
పార్ ట్</w>
పలు మార్లు</w>
పర్వ త</w>
పరి కరం</w>
పన్న ుల</w>
పడ నుంది</w>
పడ గొట్ట
పక్క ల</w>
పంట ల</w>
పంజా బ్
ప శ్చా
ప రో
ప దాలు</w>
ప ట
నొ క్కి</w>
నైపుణ ్యం</w>
నేత లను</w>
నెలకొ న్న</w>
నె ల్</w>
ను ందని</w>
నివే దా</w>
నియోజకవర్గ ంలో</w>
నియమ ించింది</w>
ని రో
నారాయ ణ్</w>
నా న్న</w>
నా న
నగ ర్లో</w>
న దిలో</w>
ధ్వ జ
ధికార ి</w>
ద్రవ్య ోల్
ద్ర వ్య</w>
ద్ ధాలు</w>
దేవాల య
దే నా</w>
దు రు
ది ని</w>
దగ్గ రకు</w>
దక్క లేదు</w>
తో కూడ</w>
తెల్ సిందే</w>
తెరకెక్కి స్తున్నారు</w>
తృణ మూల్</w>
తుల య్యారు</w>
తీ రును</w>
తిరు పతి</w>
తిన డం</w>
తా ః</w>
తగ్ గిపో
తక్ష ణ</w>
తండ్ర ిని</w>
త ై
త గ
డె ల్</w>
డె ంట్స్</w>
డీ పీ</w>
డి వి
డి ఫె
టోర్ నీలో</w>
టీ చర్
టర్ గా</w>
జే మ్స్</w>
జా లు</w>
జా క్
జా ం
జ నాలు</w>
చ్ చెను</w>
చేసే ది</w>
చేసుకు ంటూ</w>
చేర్చ ారు</w>
చేయ ాలను
చెయ్య ాలి</w>
చనిపో గా</w>
చ ాలు</w>
గ్రే టర్</w>
గ్ర ె
గే ల్</w>
గుర్ తి
గు లు
గి ల్</w>
గణనీ యమైన</w>
క్రిమి నల్</w>
క్ లై
కోచ్ గా</w>
కో త</w>
కొర ిం
కొ లి
కేసు కు</w>
కెమె రాలు</w>
కి టి
కాల్ స్</w>
కాల్ షియం</w>
కాల ీ
కార్యదర్శ ులు</w>
కా స్తా</w>
కరు ణా
కపో వ
కనిపించ లేదు</w>
క చ
ఐపీ ఎల్లో</w>
ఐ ర్
ఎవర ె
ఎయిర్ టెల్</w>
ఎం ఆర్</w>
ఎ మర్
ఎ ండ్</w>
ఉండ నుంది</w>
ఉ క్కు</w>
ఈ వెంట్</w>
ఇశ్రాయేలీ యులు</w>
ఇటీవల ి</w>
ఇండి య
ఇండస్ట్ర ీలో</w>
ఇండస్ట్ర ీ</w>
ఇంటి ని</w>
ఆహ్వా ని
ఆశీర్ వద
ఆశ ించిన</w>
ఆవిష్ కర
ఆవి ర్
ఆదాయ పు</w>
ఆట ం
ఆంధ్ర ప్రదేశ్లో</w>
ఆందోళన కారులు</w>
ఆ న
ఆ చార
అవు తున్న</w>
అర్హ తః</w>
అమిత్ షా</w>
అమ ల్లోకి</w>
అమ లుకు</w>
అభివర్ణ ించారు</w>
అబ్రాహా ము</w>
అను బంధ</w>
అని శ్చి
అధికార ులతో</w>
అడ్ వా
అగ్ర స్థానంలో</w>
అంతర్జాతీ యంగా</w>
అంత కన్నా</w>
అ మీర్</w>
అ న్యాయ
అ దో</w>
ంధ ్ర</w>
ండ ెను</w>
ug u</w>
s h
re s
i re
el ugu</w>
9 8</w>
8 6</w>
8 1</w>
3 70
3 2
201 1</w>
12 8</w>
12 ,
ించ గలి
ాలు న్న</w>
హె క్టార్
హ తమ
స్ప ృ
స్ మృతి</w>
సోనియా గాంధీ</w>
సో వి
సు లకు</w>
సీబీ ఐ
సిద్ధా ంతం</w>
సి నీ
సి టీ
సాగు తున్నాయి</w>
సమృద్ధి గా</w>
సద స్సులో</w>
సద స్సు</w>
సచి వాల
సంభాష ణ</w>
సందర్ శి
సంకల్ పం</w>
స ై</w>
స డ
షా పింగ్</w>
శిక్ష ణ
శబ్ దం</w>
వ్యాప్ తిని</w>
వ్యవహర ించారు</w>
వ్యవస్థాప కుడు</w>
వ్యక్ తం
వైవి ధ్య
వేడుక ల్లో</w>
వెళ్లే ందుకు</w>
వెడ ల్
వె న్</w>
వుండ ాలి</w>
వు లలో</w>
విషా ద</w>
వి నూ
వాల ్యూ
వాయి స్</w>
వాటి తో</w>
వా సన</w>
వర్ చువల్</w>
వన్డే ల్లో</w>
వన ంత
వణి కి
వచ్చి ందని</w>
వచ్ చెను</w>
లే కుంటే</w>
లె క్క</w>
లి యో
లి యన్</w>
లభ్య త</w>
లభి స్తోంది</w>
ల సి</w>
రోడ్డు పై</w>
రోడ్ లపై</w>
రోజురోజు కూ</w>
రే కె
రీ ని</w>
రిజి స్టర్</w>
రాల ిగా</w>
రాజు గా</w>
రా ము
రా తి</w>
ర ాల్లో</w>
ర థ
య్య ి
యె ల్</w>
యూనివర్ శి
మేనే జ్మెంట్</w>
ముని గి
మీర్ జా</w>
మీ టర్</w>
మిం ప
మి డి</w>
మార్పి డి</w>
మాన్ యు
మా స్టర్</w>
మరణ ించింది</w>
మంది కిపైగా</w>
మ రుగు
మ యా
భాష లు</w>
భారత్ తో</w>
భార ్యా
భాగస్వా మి</w>
భవ నాలు</w>
బో య
బో తున్న</w>
బే స్</w>
బారి న
బహు మతులు</w>
బంగ్లాదేశ ్
ఫ స్ట్
ప్రి యమైన</w>
ప్రాసె సింగ్</w>
ప్రా ంగ
ప్రయోజన ాలను</w>
ప్రయత్ని స్తున్నారు</w>
ప్రమా దాలు</w>
ప్రత్య క్ష
పొ లి
పేర్కొ న
పెరుగు తూ</w>
పెడు తున్నారు</w>
పె ండ్
పుట్టిన రోజు</w>
పు ట్టు
పీ ల్చు
పిల్ల ల్ని</w>
పాయిం ట్లతో</w>
పాట ను</w>
పశ్చా త్తా
పరి శుభ్ర
పరి రక్షణ</w>
పద వీ</w>
పథ కానికి</w>
పడి తే</w>
నో యి
నో ట్లను</w>
నిల్ వ
నిర్వహ ణకు</w>
నిర్మి స్తున్నాయి</w>
నిరుద్యో గం</w>
నిరు త్
నా పై</w>
నా నా</w>
నష్ట ాలు</w>
నష్ట పోయాయి</w>
నలు పు</w>
నట ించగా</w>
న ంటే</w>
ధ్య క్షుడు</w>
ధి పతి</w>
ధ నం</w>
ద్ద ా</w>
దుమార ం</w>
దా ను</w>
తెలంగా ణా</w>
తుఫా ను</w>
తు లపై</w>
తీసుకొ చ్చారు</w>
తిరు వనంత
తిన డానికి</w>
డ ల్</w>
డ కు</w>
ట్రా క్</w>
టెంపు ల్</w>
జు లై</w>
జరుగు తుందని</w>
జ మ</w>
చేకూ రు
చెల్ల ించాలి</w>
చెల్ల ించాలని</w>
చెబు తూ</w>
చారి త్రా
చర్ మ
ఘ ర్</w>
గ్రే ట్</w>
గ్ర హీ
గో పీ
గేర్ బాక్స్</w>
గెలి చారు</w>
గు హ
గిం జ
గాయ పడ్డ</w>
గతేడా ది</w>
గణాం కాలు</w>
గ దులు</w>
ఖై దీ
క్లీ న్</w>
క్రీడ లు</w>
క్రి తమే</w>
క్ సీ
క్ వీ
క్ వా
కొ ల్ల
కొ చ్చింది</w>
కురు స్తున్న</w>
కు డైన</w>
కిలో ల</w>
కాళ ేశ్వరం</w>
కాల్పు లకు</w>
కాల లో</w>
కాల తో</w>
కార్యదర్శ ిగా</w>
కల్పించ ాలని</w>
కల యి
క సర
ఒక్క రి</w>
ఐశ్వర్ య</w>
ఐ ఓ
ఐ ఎన్
ఏర్ పడుతుంది</w>
ఏ రియా</w>
ఏ ంటో</w>
ఎవరి తో</w>
ఎక్క డు
ఎంచు కున్న</w>
ఎం సీ
ఎం ఎస్
ఉపయోగ ించడం</w>
ఉన్న ాయా</w>
ఉన్న వారు</w>
ఉత్స వ
ఉత్పత్ తిని</w>
ఉంటు ందో</w>
ఇన్ వెస్ట్</w>
ఇద్ద రిని</w>
ఇక్క డికి</w>
ఇ వే
ఆర్ డర్</w>
ఆర్ ఎఫ్</w>
ఆరోగ్య శాఖ</w>
ఆకు పచ్చ</w>
అవు తుందని</w>
అర్ పించారు</w>
అరె స్ట
అయి దు
అభి నంది
అబద్ధ ం</w>
అప్ప ు</w>
అధ్యక్ష త</w>
అదృ ష్టం</w>
అత్య వసర
అడ వి</w>
అగ్ర ి
అగ్ ర</w>
అంతక ంత
అ సంతృప్తి</w>
అ ట్లు</w>
i d
en t
T elugu</w>
9 :
200 6</w>
14 0</w>
1 60</w>
1 500</w>
ించుకు నేందుకు</w>
ించు చు</w>
ించిన ప్పటికీ</w>
ించాల న్న</w>
ించ వలసిన</w>
ాల్సి ందే
హెలికా ప్
హృ తిక్</w>
హర్యా నాలో</w>
హ సీ
స్నా నం</w>
స్థి తి
స్తున్నా నని</w>
స్తు ందా</w>
స్టూడియో స్</w>
స్టార్ స్</w>
స్ట న్</w>
సోన మ్</w>
సో నాక్షి</w>
సెల వు</w>
సూపర్ స్టార్</w>
సూ ర
సు శీ
సు ఖ
సిఫార సు</w>
సి ట్</w>
సి టి</w>
సహాయ ాన్ని</w>
సస్పె ండ్</w>
సర ా</w>
సమూ యేలు</w>
సమాధాన ంః</w>
స రే
స క్రమంగా</w>
శ్రే ష్ఠ
శుభ వార్త</w>
శివ సే
శి థి
శర త్</w>
శ రణ
వ్వ డం</w>
వై యస్</w>
వే ళ
వెళ్ తున్న</w>
వెయి ట్</w>
వెన్నె ల</w>
విధ ాలుగా</w>
విజయసాయి రెడ్డి</w>
విజయ శాంతి</w>
విజయ వంతమైన</w>
విజ యానికి</w>
వార ై</w>
వాడ కం</w>
వా పు</w>
వర్ష ాలతో</w>
వర్ షా
వయ సులో</w>
లభ ించాయి</w>
లగ్ జరీ</w>
ల ారీ</w>
ల కూ</w>
ల క
రో గ</w>
రే టింగ్</w>
రికార్ డులు</w>
రి న్</w>
రి ంది</w>
రా వ్</w>
రా ళ్లు</w>
రా త</w>
రా కేష్</w>
రణ ి</w>
య్య ాయని</w>
యుండ ెను</w>
య ాలి</w>
మ్యాచ్ ల</w>
మ్ తో</w>
మో దీని</w>
మొదటి సారిగా</w>
మై సూ
మెహ బూ
మూసి వేయ
ముగ్గు రిని</w>
ము ప్ప
ము ఠ
మి థు
మి డి
మార్పు లను</w>
మాట్లా డే
మహిళ ను</w>
మరణ ించగా</w>
మరణ ాలుః</w>
మ స
మ డ
భూమి పై</w>
భూ భాగం</w>
భార తి</w>
బ్యాం కుల</w>
బెంగ ాల్లో</w>
బె న్</w>
బిల్లు కు</w>
బి ల్</w>
బి గ్గ
బాలు డి</w>
బాల ుడు</w>
బదు లి
బడ్ డ</w>
బ ంద్</w>
ఫిర్యా దులు</w>
ప్రో గ్రామ్</w>
ప్రియా ంకా</w>
ప్రామా ణిక</w>
ప్రాచు ర్యం</w>
ప్రతిపాద న</w>
ప్రతి నిధి
ప్రణాళిక ను</w>
ప్రచు రణ
ప్ ను</w>
పో స్ట్
పొటా షియం</w>
పొంద ండి</w>
పొ గ
పైల ట్</w>
పేదరి కం</w>
పే జీ</w>
పెట్రో లు</w>
పె ంప
పురస్ కర
పి తరు
పి త</w>
పారి శు
పా టకు</w>
పా క్షి
పశ్చిమ బెంగాల్</w>
పరు గె
పరీక్ష ా</w>
పరీక్ష లో</w>
పరిశు ద్ధా
పరిశీల న</w>
పరిణా మం</w>
పరి హార
పరి ణ
పను ల్లో</w>
ప ఠా
ప ట్టింది</w>
న్యాయమూర్ తులు</w>
న్ సు</w>
నో కియా</w>
నె ట్లో</w>
నె గ్
నీ రవ్</w>
నీ కి</w>
నివాస ంలో</w>
నిల దీ
నిర్వహ ించనున్నారు</w>
నిర్మి స్తున్నాడు</w>
నిర్ణ ీ
నిర్ణ యానికి</w>
నియోజకవర్గ ాల్లో</w>
నితీ శ్</w>
ని లువ
ని మ్మ</w>
నాయ కుల</w>
నామినే ట్</w>
నా నా
నవ్వు తూ</w>
నట ించడం</w>
న ాలోని</w>
న శ
న చ్చిన</w>
న ంతరం</w>
ధ్వజ మెత్తారు</w>
ధీ మా</w>
ద్రవ్యోల్ బ
దో వ</w>
దో పి
దేశ ాల
దేవు ణ్ణి</w>
దే వ్
దీ ంతోపాటు</w>
ది వ్యా
దార ుడు</w>
దశా బ్
ద ము</w>
ద త్తా
తో పు
తో ందన్నారు</w>
తే దీని</w>
తె దే
తూర్పు గోదావరి</w>
తు ను</w>
తప్పు గా</w>
తప్ప ులు</w>
తక్ష ణం</w>
త గి
డ్రా గన్</w>
డ్ర ా</w>
డైరె క్ట
డ ార్</w>
ట్రె ండ్</w>
టై ప్</w>
టె స్టులు</w>
టీ స్పూన్</w>
టర్ లకు</w>
టర్ ను</w>
జీర్ ణ
జవా బి
జగ దీ
జ స్ట్</w>
ఛత్తీస్ గఢ్</w>
చై నాకు</w>
చేస్త ారా</w>
చే రే
చెబు తున్నాయి</w>
చురు గ్గా</w>
చు న్నారు</w>
చు న్న
చిట్ కాలు</w>
చిక్కు కు
చట్ట బద్ధ
చం ట</w>
చ చ్చి
గ్రే డ్</w>
గో య్</w>
గవర్ నర్
గఢ ్
గడ్ డ</w>
ఖర ార
ఖమ్మ ం</w>
క్ష న్లు</w>
క్రైస్త వు
క్రియాశీ ల</w>
కోల్ పోయాడు</w>
కోరుకుంటు న్నాను</w>
కో ర్</w>
కేంద్రా ల</w>
కే శ
కురి పించారు</w>
కు లుగా</w>
కిశో ర్</w>
కాల్పు ల</w>
కాల ము</w>
కాను కగా</w>
కా మెంట్</w>
కా న
కష్ట ంగా</w>
కశ్మీ ర్లో</w>
కళ ్యా
కల ్యా
కనిపి స్తాయి</w>
కది ల
కట్ట డ
క ల్లా</w>
క త
ఓ దార్
ఓ ం</w>
ఐక్య రాజ్య
ఐఏ ఎస్</w>
ఏదే మైనా</w>
ఎస్యూవీ ని</w>
ఎన్డీ ఏ</w>
ఎన్ టీ
ఎదు గు
ఉత్సాహ ంగా</w>
ఇస్లా ం</w>
ఇవ్వ ండి</w>
ఇన్ఫో సిస్</w>
ఇ ప్పుడే</w>
ఇ తి
ఆహార ాన్ని</w>
ఆ వశ్య
ఆ నంది
అనురా గ్</w>
అని ప
అ పార
అ న్నా</w>
ందు కే</w>
ందర ్రెడ్డి</w>
ండ్ లలో</w>
ంటె డ్</w>
ంగా న్ని</w>
ం ట్గా</w>
thum b</w>
o r</w>
l a
ire fo
g o
e d
a m</w>
1 1:
ే తర</w>
ించ నున్నాడు</w>
హెబ్ర ీయులు</w>
హీరోయి న్లు</w>
హిందు వులు</w>
హా కీ</w>
హ త</w>
స్వీ య</w>
స్వి ఫ్ట్</w>
స్వా స్థ
స్ఫూ ర్తి</w>
స్పిన్న ర్</w>
స్ప ార్
స్థల ంలోనే</w>
స్తున్న ాయని</w>
స్కో ర్</w>
సొలొ మోను</w>
సే కరి
సె న్స్</w>
సూ పర
సూపర ిం
సాహి త్య</w>
సాధ ించడం</w>
సా డు</w>
సహాయ ంతో</w>
సహ కరి
సర ం</w>
సమాధాన మి
సమర్ ధ
సమన్ వయ
సంవత్సర ాల్లో</w>
సంభవ ించిన</w>
సంభవ ించింది</w>
సంభ వి
స వాళ్లను</w>
ష్ట ి</w>
షరీ ఫ్</w>
షన్ తో</w>
శీతా కాలంలో</w>
శాసన సభలో</w>
శా స
వ్యక్ తుల</w>
వేయ ించాలి</w>
వే ద</w>
వుండ ే</w>
విస్తర ించింది</w>
విమా నాల</w>
విమర్శ ల</w>
వి యా</w>
వారస త్వ</w>
వాద నను</w>
వాద న</w>
వర ేజ్</w>
వయ స్సు
వన్డే లో</w>
వంతె న</w>
వ దులు
లోప లికి</w>
లో న్</w>
లై సెన్
లు పై</w>
లీ టర్ల</w>
లిజె న్స్</w>
లబ్ ధి</w>
లక్ష లాది</w>
ల ంటే</w>
ర్ర ీ</w>
ర్థ ం</w>
రో గుల</w>
రొ ట్ట
రొ క</w>
రే ఖ
రెడ్ డి
రూపొంద ించింది</w>
రు గ్
రి స్
రామ య్య</w>
రా వు
రషీ ద్</w>
రవా ణి</w>
రక్త పోటు</w>
ర ష్యా
యౌ వన
యేసు క్రీస్తు</w>
యెహో షు
యూ దు
యన్ షి
మ్యాచ్ ల్లో</w>
మోదీ పై</w>
మో షే
మో డ్</w>
మో టో
మైన దని</w>
మృతి పై</w>
మును పటి</w>
ముగ్గు రి</w>
ము ండ
మిశ్ర మం</w>
మి రెడ్డి</w>
మి టో</w>
మామూ లు</w>
మా ది</w>
మా టే
మల్టీ స్టారర్</w>
మధ్య ప్రదేశ్లో</w>
భో పాల్</w>
భారత దేశాన్ని</w>
బ్రా హ్మ
బ్ లె
బ్ లూ
బ్ లాక్
బో లె
బె ల్
బె ంజ్</w>
బాల య్య</w>
బాధ్య త
బల వంతంగా</w>
బ ూ</w>
ప్లే యర్</w>
ప్రారంభ ించండి</w>
ప్రశ్ నించింది</w>
ప్రయాణి కులకు</w>
ప్రభావ ంతో</w>
ప్రతిబిం బ
ప్రతిపాద నను</w>
ప్రకట నా</w>
ప్ర ో</w>
పౌరస త్వం</w>
పోవ డానికి</w>
పొంద డం</w>
పొ రుగు</w>
పేజీ లోని</w>
పునరుద్ధ రణ</w>
పు రుగు
పు రి
పు రంలో</w>
పిల్ల ల్లో</w>
పి చ్చి
పాక్షి కంగా</w>
పల్ల ె
పరిపాల నా</w>
పరి రక్ష
పని లేదు</w>
పని చేస్తున్న</w>
పడ ాలి</w>
పట్ట ించుకోవడం</w>
ప ణ
న్నిటి ని</w>
న్ యా</w>
నో పా
నే ం</w>
నిర్ణీ త</w>
నిరా కరించింది</w>
నియోజ క</w>
నిందితు డి</w>
ని స్తాన్</w>
ని ండి
నడు స్తున్న</w>
న డ్
ధా టికి</w>
ద్వార ానే</w>
ద్ద ని</w>
దేవ దూ
దీక్షి త్</w>
దిన మున</w>
దా టి</w>
థ ీయులు</w>
త్తు ల</w>
త్ లో</w>
తొలగ ించారు</w>
తే నే</w>
తు ందిః</w>
తిరుగు బాటు</w>
తగ్ గిన</w>
ణా భివృద్ధి</w>
డైరె క్షన్</w>
డబ్బు ను</w>
డ ిం
ట్ర ం</w>
ట్టు కు</w>
ట ాల
జ్ డ్</w>
జై ల్లో</w>
జె న్సీ</w>
జీవ న
జి యో
జ వహ
చ్చే ందుకు</w>
చేస్తున్న ారా</w>
చేస్తా నని</w>
చేసే లా</w>
చేసి ందన్నారు</w>
చేయ డమే</w>
చెల్ల ించాల్సిన</w>
చెప్ప ాలని</w>
చూపించ ాడు</w>
చుట్టు పక్కల</w>
చీ కటి</w>
చిన్న ారి
చిన్న ప్పటి</w>
చిత్ర మిది</w>
చాలా మందికి</w>
చార్ జ్</w>
చా హల్</w>
చర్ మ</w>
చని పోయింది</w>
చది వి</w>
చట్ట పరమైన</w>
చం పిన</w>
చ ింగ్</w>
చ లా
గ్రామ స్తులు</w>
గ్ర ే</w>
గె ను</w>
గి న్నె
గాయ ాలతో</w>
గడ ప
గ డ</w>
గ ంగా</w>
క్ర ో</w>
క్యాపి టల్</w>
కొరిం థీయులు</w>
కొట్టి వేసింది</w>
కొ రి
కూతు ళ్లు</w>
కుటుంబా న్ని</w>
కుం ట్ల</w>
కింద కు</w>
కి నా
కాల ా
కాల పై</w>
కార్పొ రే
కార్ పో
కల వు</w>
కల లు</w>
కమర్ షియల్</w>
కథ ా</w>
క ప్లో</w>
ఓపె నర్లు</w>
ఒ మర్</w>
ఒ డ్డు
ఐపీ సీ</w>
ఐగుప్ తు
ఏ ం
ఎవరి కైనా</w>
ఎదుర్కొ ంటున్నారు</w>
ఎంచు కోవడానికి</w>
ఉపశ మనం</w>
ఉపయోగ ించడానికి</w>
ఉత్తీర్ణ త</w>
ఉత్ పన్న
ఈ సీ</w>
ఈ వెం
ఇలా ంటివి</w>
ఇన్స్టా గ్రామ్</w>
ఇద్ద రికీ</w>
ఇట ాలి
ఇంత వరకూ</w>
ఇంటర్ నల్</w>
ఇంగ్లీ షు</w>
ఇంగ్ లాండ్
ఆలి వ్</w>
ఆగ లేదు</w>
ఆకర్ షి
ఆ ఫర్
ఆ పే
ఆ చంట</w>
అవు తారు</w>
అరే బియా</w>
అమ రు
అబ్బ ాయి</w>
అఫీ షియల్</w>
అనుకూల మైన</w>
అనిరు ధ్</w>
అద్భు తం</w>
అత డిపై</w>
అందు కున్నాడు</w>
అంద ాల</w>
అంద రం</w>
అంగీకర ించారు</w>
అ సాధారణ</w>
అ భ్యా
ం పు</w>
s o</w>
o u
lo w</w>
I P
8 :
6 8</w>
10 :
్ర ీ</w>
ే య</w>
ాలనుకుంటు న్నాను</w>
హ్యాచ్ బ్యాక్</w>
హో స్ట్</w>
హెచ్డీ ఎఫ్సీ</w>
హర్ష ం</w>
హ ు</w>
హ సన్</w>
స్వర్ ణ</w>
స్పె యిన్</w>
స్టే ట్స్</w>
స్టాలి న్</w>
స్ట ్రె
స్ట ్రా
సౌ ర</w>
సెక ండ్</w>
సె హ్
సూ సైడ్</w>
సురక్షి త</w>
సున్ని తమైన</w>
సు నా
సీ కి</w>
సిక్కి ం</w>
సి ఇ
సాహి త్య
సహజ ంగా</w>
సర్టిఫి కెట్</w>
సర్ లు</w>
సర్ క్యూ
సరిహద్దు ల్లో</w>
సమావేశ ాల్లో</w>
సమ తు
సబ్ జెక్
సం జీ
స జా
ష్ ణ</w>
షి క్
ష ్రా
శ్రీ కాకు
శే ష
శాఖ లు</w>
శతాబ్ దం</w>
శంకు స్థాపన</w>
శ స్త్ర
వ్యాప్ త</w>
వ్యవస్థ కు</w>
వ్యక్ తీ
వైభవ ంగా</w>
వైద్య ుడు</w>
వేడు కలో</w>
వే శాడు</w>
వే ది</w>
వెంక య్య
వె ద
విస్త రణ</w>
విష యాల</w>
విశ్వా సాన్ని</w>
విశ్వస నీయ
విమర్శ కుల</w>
విం డో</w>
వి డిగా</w>
వి ందు</w>
వా ట్ల</w>
వస తులు</w>
వశా త్తూ</w>
వరద లు</w>
వంత ి</w>
ల్యాం ప్స్</w>
ల్ లేదు</w>
లోయ లో</w>
లై వ్</w>
లావాదే వీ
లా గి
లా ం
లక్ష్య ంతో</w>
ల ౌ
రే ంజ్</w>
రు తు
రిటై ల్</w>
రి క్</w>
రాజకీ యాల</w>
రాజకీ యంగా</w>
రాజ శేఖ
రా చ
య్య ాల
యూని ట్ల</w>
యు న్నాను</w>
యా స్</w>
మ్మ ని</w>
మ్ లు</w>
మోహ న
మోడీ తో</w>
మెర్ సిడె
మృతదే హం</w>
ము లు
ము ఫ్
ము గు
మిత్ర ులు</w>
మి ని</w>
మార్ చి
మాన వులు</w>
మా మ
మర ే</w>
మద్రా స్</w>
మండ లానికి</w>
భి ప్రాయ
భర్ తను</w>
బ్ లే
బీభత్ సం</w>
బీ చ్</w>
బి తే</w>
బి ఎమ్
బాధి తులకు</w>
బాద్ లో</w>
బహు మ
బయట పడింది</w>
బయ లు</w>
బద్ద లు</w>
బ ాయ్</w>
బ రు</w>
బ తి
ఫిలి ప్ప
ప్రేమ కు</w>
ప్రే రణ</w>
ప్రయత్ నంలో</w>
ప్రమాద కరమైన</w>
ప్రకట ించాయి</w>
ప్ర స
పోటీ గా</w>
పో లి</w>
పో ర్చు
పో గొట్టు
పే జీలు</w>
పెట్ట డానికి</w>
పెంచి న</w>
పూర్త యిన</w>
పించ ాయి</w>
పి స్తున్న</w>
పి న్</w>
పార్టీ గా</w>
పా పం</w>
పరి గణి
పని చేస్తున్నారు</w>
పథ కాలను</w>
పత కాలు</w>
పడ ేలా</w>
ప ్యం</w>
ప వ
న్యాయ స్థాన
న్ లతో</w>
నొ క్కి
ను ల</w>
ను జ్
నీ తిని</w>
నిలు స్తుంది</w>
నిలిచి పోయాయి</w>
నిర్వహ ించి</w>
నిర్వహ ించ
నిర్మి స్తోంది</w>
నిర్భ ర్</w>
నియమి తులయ్యారు</w>
ని న్న
ని ఖి
నమూ నా</w>
న యెడల</w>
న దులు</w>
ధి పతి
ద్ దేశ
దోషి గా</w>
దో చు
దేశ ములో</w>
దే మీ</w>
దుం పలు</w>
దిశ లో</w>
దాడు లకు</w>
దహ న
దశ కు</w>
దళ ాల</w>
దరఖా స్తు
దంప తులకు</w>
త్రైమాసి కంలో</w>
త్య ా</w>
తేలి కపాటి</w>
తెలుసు కోవాలి</w>
తెలియజే సింది</w>
తెరకెక్క ింది</w>
తెచ్చు కున్న</w>
తీ సే
తాత్కాల ికంగా</w>
తలు పు</w>
తప్ప దు</w>
తగ్గు ముఖం</w>
తగ్గ ించింది</w>
డ్యూ యల్</w>
డైరె క్షన్లో</w>
డు కు</w>
డి ఎం
టై మ్స్</w>
టెలి ఫోన్</w>
టెక్నాల జీ
టి క్
టా న్</w>
జీహెచ్ ఎంసీ</w>
జార్ జ్</w>
జరగ దు</w>
జ ూ</w>
చేసుకు ంటున్నారు</w>
చేసి నందుకు</w>
చేశా మన్నారు</w>
చేయ నున్న</w>
చే పడు
చూసు కోవాలి</w>
చూడ టానికి</w>
చూ సేందుకు</w>
చురు కైన</w>
చు న్న</w>
చిత్ర మైన</w>
చి త</w>
చాలా నే</w>
చర్ మాన్ని</w>
చద వడం</w>
ఘా ట
ఘ ్
గ్రామ ాల్లో</w>
గౌ రవి
గూ డె
గుర్త ించడం</w>
గు డి</w>
గు ంపు
గమ ్య
ఖా ళ
ఖ ్య
కొంద రికి</w>
కొ చ్చి</w>
కేసు లను</w>
కె ళ్ల
కు ము</w>
కి సాన్</w>
కి మ్</w>
కావ ాల్సి</w>
కార్యకలాప ాలకు</w>
కార్ బన్</w>
కార ులకు</w>
కార ి</w>
కా ంతి</w>
కర న్</w>
కమా ండర్</w>
కథానాయి క</w>
కంపెనీ కి</w>
క వి</w>
క లుగా</w>
క ట్టి</w>
క ట్ట</w>
ఒకరి నొకరు</w>
ఐరో పా</w>
ఏ వి</w>
ఎలా గ
ఎమ్మెల్ సీలు</w>
ఎదు రైంది</w>
ఎగు వ</w>
ఎక్కు వే</w>
ఎందు కో</w>
ఎంటర్టై నర్</w>
ఎ స్టేట్</w>
ఊ హా
ఉమే శ్</w>
ఉప న్యా
ఉన్న త
ఉద్యో గి</w>
ఉంట ాను</w>
ఉంట ాం</w>
ఈ వీ
ఈ లాగు</w>
ఈ య
ఇరువు రు</w>
ఇన్ స్పె
ఇన్ ఫె
ఇతరు ల</w>
ఆహ్లా ద
ఆశా భావం</w>
ఆర్ బిఐ</w>
ఆయ ో
ఆనంద ాన్ని</w>
ఆకర్షణీ యమైన</w>
ఆ డాడు</w>
అలీ ఖాన్</w>
అయి దు</w>
అప్పుడ ప్పుడు</w>
అనూ హ్య
అనుసర ించి</w>
అనుసంధా నించ
అను వర్త
అను కూల</w>
అనారో గ్యం</w>
అంటు న్నాడు</w>
అ స్త
అ సాధ్యం</w>
అ సాధ్య
అ మో
అ ట్లా
ంది కి</w>
ండ ో
o n</w>
o m
it y</w>
h a
b r
F irefo
7 5
20 22</w>
19 :
10 8</w>
ించ దు</w>
ించ కూడదు</w>
ాలో నూ</w>
ాయ ె
హాస్పిట ల్లో</w>
హ ఠా
స్వచ్ఛ మైన</w>
స్పా నిష్</w>
స్తు ందో</w>
స్ట్రీ ట్</w>
స్ట్ర ీ</w>
స్టై ల్</w>
స్కూ లు</w>
సోష ల్
సే ఫ్టీ</w>
సె డాన్</w>
సె ట్ట
సూపరిం టెండ
సూచీ లు</w>
సు బ్ర
సు న్న
సీ ని</w>
సికింద్రా బాద్</w>
సిం ధి
సి టి
సాయు ధ</w>
సాధ్య మైన
సా ధికార
సమా ధి</w>
సంబం ధాన్ని</w>
సందర్భ ం</w>
సం పద
స వాళ్లు</w>
స భా
ష ్యూ
శ్రీ ధర్</w>
శృ తి</w>
శా ని
శ ు</w>
శ బ్ద
వ్యాపార ాలు</w>
వ్యాధ ుల</w>
వ్యా స
వ్యవ ధి</w>
వె య్యి</w>
వుండ దు</w>
వీటి పై</w>
వీ వీ</w>
విశ్వా స</w>
విశే ష</w>
విన య్</w>
వికీ పీ
వి పక్ష</w>
వాస్త వాలు</w>
వార ాల</w>
వాగ్ దానం</w>
వా న</w>
వా ది
వా గ్</w>
వర్ డ్</w>
వచ్చా క</w>
ళ్ళ కు</w>
లో నున్న</w>
లో కం</w>
లీ డ్</w>
లా ఖ
లక్ నో</w>
ల ంతా</w>
రూపాయ లను</w>
రీ ల</w>
రిష బ్</w>
రి పబ్లి
రాజ శేఖర్</w>
రవా ణా
రమ ్య
రణ్ వీర్</w>
యొ ద్ద</w>
యూ వీ</w>
యుద్ధా నికి</w>
యాద వ్
యాజమా న్యం</w>
మ్ సన్</w>
మే మీ</w>
మే జి
మెహ తా</w>
మెర్సిడె స్</w>
మెద డు</w>
ముమ్మర ం</w>
ముని సి
మిశ్ర మాన్ని</w>
మి షన
మి ర్</w>
మాలి క్</w>
మార్గదర్శ కాలు</w>
మార్కె ట్లలో</w>
మార్ కు</w>
మాట ల
మా ద
మర్యా ద
మరు స
మను షు
మంది రం</w>
మ దు
భూకం ప</w>
భు జ
భావ ాలను</w>
భాగ ాలను</w>
భద్ర తకు</w>
బ్రా డ్
బ్య ాలె
బ్ బు
బెంగళూరు లో</w>
బు ర
బు ద్ధ
బీజేపీ ని</w>
బి ందు
బా ట</w>
బట్ట ారు</w>
ప్రయాణి కుల</w>
ప్రభ ు</w>
ప్రదేశ ంలో</w>
ప్రక్రియ లో</w>
ప్ర ింట్</w>
ప్ర మే
పోరా టానికి</w>
పొడ వు</w>
పొందు తున్న</w>
పెంప కం</w>
పు లను</w>
పిల్ల లున్నారు</w>
పాల్ పడ్డారు</w>
పారిశ్రా మిక
పా నీ
పల్ల వి</w>
పరిశు ద్ధ</w>
పరిమి త</w>
పథ కాల</w>
పట్టు కున్నారు</w>
ప దాన్ని</w>
న్నా డని</w>
నై రు
నేత గా</w>
నెల లోనే</w>
నిష్ క్రమ
నిర్వహ ించడం</w>
నిమి షాల</w>
నిబంధ నలను</w>
నిబంధ నలకు</w>
నాల ే</w>
నాణ్య మైన</w>
నవా జ్</w>
నమ్మ కాన్ని</w>
నమూ నాలను</w>
న వ్వు</w>
న క్ష
ధర్ నా</w>
దై వ
దేశ పు</w>
దూ ర</w>
దూ కుడు</w>
దుర్ గ
దా డిని</w>
దహ నం</w>
దగ్ గు</w>
ద ూ</w>
త్మ కమైన</w>
తే జ
తెదే పా</w>
తు ది
తిరు మల</w>
తప్పు దోవ</w>
తప్ప ింది</w>
త ాలి
త డ
డా నికీ</w>
ట్యా ం
టై ంది</w>
టీ టీ
జో షి</w>
జీల కర్ర</w>
జి యా</w>
జా తులు</w>
జరుగు తున్న
జరిగి నట్లు</w>
జరగ లేదని</w>
జ ్యూ
ఛాలె ంజర్స్</w>
ఛా న్స్</w>
చ్ఛేద ము</w>
చ్ఛ ి
చ్చ ా
చేస్తున్న ా</w>
చేసె ను</w>
చేరుకు న్నాయి</w>
చేర ాయి</w>
చేయ బడి</w>
చే ద్దాం</w>
చెయ్య ి</w>
చె ల్</w>
చూ సే</w>
చూ చి
చదవ ండిః</w>
చం పు
చ త్తీ
చ ండీ
ఘన విజయం</w>
గ్ లో</w>
గో ల్</w>
గే లా</w>
గే ందుకు</w>
గు ండా</w>
గర్భ ం</w>
ఖ డ్
క్షిప ణి</w>
క్షి ప్
క్షమాప ణలు</w>
క్యారె క్టర్</w>
క్యా ష్</w>
కోరు తున్నారు</w>
కో ట్లా
కొ నియా
కేటాయ ింపు</w>
కే న్</w>
కూరగాయ ల</w>
కూడ ద
కుంభ కోణం</w>
కుంటా ం</w>
కు ద
కీ రవాణి</w>
కి య
కాశ్మీ ర్లో</w>
కావ డానికి</w>
కాలే జ్</w>
కార్య ములు</w>
కాయ లు</w>
కా వున</w>
కా మెంట్స్</w>
కా దు
కల్పించ డం</w>
కర ే</w>
కన్నుమూ శారు</w>
కద ూ</w>
కథ లో</w>
కథ ను</w>
కత్తి ర
కట్టుది ట్టమైన</w>
క వర్</w>
క మ్మ</w>
ఓ టింగ్</w>
ఒలిం పిక్
ఐ ఆర్
ఏర్ పరచు
ఏ మైంది</w>
ఏ ఐ</w>
ఏ ఆర్</w>
ఎరు వుల</w>
ఎన్నిక ైన</w>
ఎన్ ఫీల్డ్</w>
ఎత్తు లో</w>
ఎత్త ైన</w>
ఎడి టింగ్</w>
ఎంత మాత్రం</w>
ఎం ఎం</w>
ఎ ండి
ఊపిరి తి
ఉపయోగ ించాలి</w>
ఉత్పత్ తి
ఉంటు న్నారు</w>
ఉంట ోంది</w>
ఇదే ం</w>
ఇది వరకే</w>
ఇంది రా</w>
ఇండో ర్</w>
ఇంటి గ్రే
ఇం జ
ఇ న్న
ఇ తను</w>
ఆస్ కార్</w>
ఆలోచ ించండి</w>
ఆర్ జ
ఆరోపి స్తున్నారు</w>
ఆదేశ ాలను</w>
ఆటో మొబైల్</w>
ఆకర్షణ గా</w>
ఆంధ్ర ప్రదేశ్
ఆ స్తులు</w>
ఆ శ</w>
ఆ వాలు</w>
ఆ లియా</w>
ఆ దర
ఆ గిపో
అవి నా
అవస రాలు</w>
అవ ే</w>
అయో ధ్య
అభ్యర్థ ులకు</w>
అప్లి కే
అనుకుంటు న్నాను</w>
అను కోలేదు</w>
అన ౌ
అధ్య ాయ
అదుపు లో</w>
అందు కో
అంత ం</w>
అండ మాన్</w>
అంచ నాల</w>
అ వా
అ లియా</w>
అ ఫి
అ దొక</w>
అ టల్</w>
ంత రంగా</w>
ంటు ందని</w>
ంట ింగ్</w>
ంగ ే
io n
i r
go v</w>
R ea
A l
9 4</w>
9 1</w>
8 వ</w>
8 9</w>
ొచ్చ ని</w>
ింప బడ
ించి రి</w>
ించా మన్నారు</w>
ించ ా</w>
ించ రు</w>
ి య</w>
ాల్ కు</w>
ార్థ ్</w>
ా కు</w>
హ్యాపీ గా</w>
హైదరాబాద్ కు</w>
హెచ్ డీ</w>
హల్ చల్</w>
హక్కు లు</w>
స్వచ్ఛ ంద</w>
స్వ ప్
స్థి ర</w>
స్తున్న ప్పుడు</w>
స్తా డని</w>
స్త ం
స్ట రీ</w>
స్ కో</w>
స్ కె
సోవి యట్</w>
సెహ్ వాగ్</w>
సూ ద్</w>
సులభ మైన</w>
సుభా ష్</w>
సుధా కర్</w>
సు డు</w>
సీఆర్ పీఎఫ్</w>
సిఫార్ సు</w>
సి స్తూ</w>
సి బి
సావి త్రి</w>
సాను భూతిని</w>
సాంప్రద ాయ
సా గిన</w>
సర్ వా
సమూ హం</w>
సన్ని వే
సజా వుగా</w>
సంతోష ాన్ని</w>
సం కల
స హి
స త్య</w>
ష్ ఠా
షా కి
శరీ రానికి</w>
వ్యయ ంతో</w>
వ్యతిరే కం</w>
వై యస్
వై నా</w>
వె సులు
వె ండి
వృత్తా ంత
వు న్న
వీ సా</w>
విశ్లేష ణ</w>
వివా దాలు</w>
విపణి లోకి</w>
వినూ త్న</w>
విధ ులు</w>
విడి చారు</w>
విడ దీ
విం డో
వి స్</w>
వి సర్
వి ఫలం</w>
వాహన ాలకు</w>
వాహన దారులు</w>
వాళ్ల ం</w>
వార్ తలను</w>
వాతావర ణ
వాట్ స
వా ట్</w>
వన్డే లు</w>
వ లో</w>
వ ని
ళ్లి ంది</w>
ల్ లో
లో కంలో</w>
లై సెన్స్</w>
లే వీ
లూ కా</w>
లా టిన్</w>
లా ంటివి</w>
ల నూ</w>
ర్ ః</w>
రోజు ల్లోనే</w>
రో హ
రొమా ంటిక్</w>
రేపు తోంది</w>
రే సులో</w>
రుచి కరమైన</w>
రు ణాల</w>
రిమా ండ్</w>
రాష్ట్ర ప
రాజ స్తాన్</w>
రహదారి పై</w>
రహ స్
రహ దారులు</w>
రక్ తంలో</w>
రంగ ే
ర హిత</w>
ర చ్చ</w>
యు వి</w>
యా గో</w>
మౌ నంగా</w>
మోడీ పై</w>
మొదటి ది</w>
మే ని
మె ట
ముగ్గు రికి</w>
ముగి సి
ముగి శాయి</w>
ము ద్ద
ము గల</w>
మీడి యం</w>
మీ నన్</w>
మీ ది</w>
మీ కి</w>
మా తృ
మహిళ లను</w>
మహాత్ మా</w>
మహబూ బ్
మహ మూ
మల్ టీ</w>
మరుస టి</w>
మరణ శిక్ష</w>
మర ం</w>
మన సులో</w>
మన మే</w>
మ ింగ్</w>
భౌ గోళ
భగ వంతు
భ ద్రా
బోధ న</w>
బో తుంది</w>
బైబి ల్లో</w>
బాద్ ః</w>
బా ద
బట్ట లు</w>
బ రో
బ రాక్</w>
బ ట్టి
ఫౌ ండే
ఫే ర్</w>
ఫె ర్
ఫీచర్ స్</w>
ఫి ట్
ఫం క్షన్</w>
ప్రియ దర్శ
ప్రాణ నష్టం</w>
ప్రయా ణ</w>
ప్రయత్ నించారు</w>
ప్రమాద కరం</w>
ప్రధా న్</w>
ప్రధా నిగా</w>
ప్రతా ప్</w>
ప్రచార ాన్ని</w>
ప్రకాశ ం</w>
పౌరు ల</w>
పోయ ారని</w>
పో తాయి</w>
పొంద ాయి</w>
పే దల</w>
పెద్ద ది</w>
పెట్టుబడు లకు</w>
పె ద్ది
పలి కింది</w>
పర్య టి
పరీక్ష ల్లో</w>
పరిస ర</w>
పరిమా ణంలో</w>
పను లకు</w>
పద వీ
పడ మ
పడ టంతో</w>
పటి కే</w>
న్యూజి లాండ్
న్నింటి ని</w>
నో చు
నెరవే రు
నె ట్ట
నూ తన
నిలి చి</w>
నిర్మ ించాడు</w>
నా తన</w>
నర్ సిం
నడ్ డా</w>
నడ ప
న చ్చి
న ం
ధా ర</w>
ద్వార ం</w>
దొ ర
దే హ
దృష్టి ని</w>
దృష్ట ్యా</w>
దూ కు
దుండ గులు</w>
దాడు ల్లో</w>
దక్షిణా ఫ్రికా
ద క్కు
థ్రిల్ల ర్</w>
థ ా</w>
త్రా గు
త్తి ంది</w>
త్ పత్తి</w>
తే లు
తెల్ల వారు
తెలుసుకు ందాం</w>
తెలుసు కోవడానికి</w>
తెలుసు కో
తెలంగా ణకు</w>
తెరకెక్క ించారు</w>
తు రు
తీసి వేయ
తిరస్ కరించారు</w>
తి మో
తా మే</w>
తల నొప్పి</w>
తట్టు కో
ణ ్య
డిస్కౌ ంట్</w>
డిఫ రెంట్</w>
డా లో</w>
డ ార
డ ర్స్</w>
ట్రే డింగ్</w>
ట్రాన్స్ మిషన్</w>
టెస్టు ల్లో</w>
టెలి కాం</w>
టార్ క్ను</w>
జ్ వరం</w>
జరిగి ందా</w>
జరప ాలని</w>
జట్టు ను</w>
జ నరే
ఛార్ జింగ్</w>
చేసే వారు</w>
చేసుకు నేందుకు</w>
చేయాల నే</w>
చేయ వలసిన</w>
చేయ గల</w>
చెప్ప ే</w>
చె ల్లు
చె బితే</w>
చె క్క</w>
చూడ టం</w>
చరిత్ర లోనే</w>
చట్ట ానికి</w>
చ ల్
ఘర్ష ణలో</w>
గ్రూ పు
గో ప్య
గొ ంతు
గే షన్</w>
గి స్తూ</w>
గల్ల ంత
గర్ వంగా</w>
గణ ేష్</w>
గణ తంత్ర</w>
గంట లు</w>
గ గా</w>
ఖరీ ఫ్</w>
ఖ ాయం</w>
క్రమ శిక్షణ</w>
క్ర మి
క్ సీ</w>
క్ విం
క్ తి</w>
కోరి న</w>
కో స
కొ మరం</w>
కొ న్నా
కొ డ
కేసీ ఆర్
కూల్ చి
కూర్ చో
కూ లి</w>
కారణ ాలను</w>
కారణ ాలతో</w>
కారణ మైన</w>
కాన్ఫ రెన్
కానిస్టే బుల్</w>
కా మ్</w>
కా కినా
కస్ట డీ
కల్ వ
కల్ పించారు</w>
కలు షి
కల హ
కర్ణాటక లోని</w>
కరి వే
కర మైనది</w>
క రువు</w>
క పూర్
ఔ ట్</w>
ఒప్పు కోలేదు</w>
ఒక రికి</w>
ఏ ఐ
ఎస్ ఎస్</w>
ఎల్ ఈడీ</w>
ఎన్డీ యే</w>
ఎక్కడ ైనా</w>
ఊపి రి</w>
ఉద్రిక్త త</w>
ఉద్యో గు
ఉద్యో గాల</w>
ఉద్యా నవ
ఉత్త ే
ఉత్కం ఠ</w>
ఉండ ును</w>
ఉంటు ందన్నారు</w>
ఇషా ంత్</w>
ఇంత కుముందు</w>
ఇండస్ట్ర ీస్</w>
ఇం క</w>
ఇ ర్ఫా
ఇ మ్
ఇ మే
ఇ కపోతే</w>
ఇ ంటీ
ఆశ్చర్య ంగా</w>
ఆయు ష్</w>
ఆయు ష్
ఆఫ ర్లు</w>
ఆగ్నే య</w>
ఆక స్
ఆ గ్రా</w>
ఆ గ్రహ
ఆ ఖ
అవసర ాలను</w>
అర్థ ం
అర్ బన్</w>
అర్ పించ
అరుణా చల్</w>
అయ్యా ను</w>
అభిప్రాయ ాన్ని</w>
అప్రమత్త మైన</w>
అన్నా డుః</w>
అనుమ తులు</w>
అందు కని</w>
అం తు
అ ప్లై</w>
ంద ంటూ</w>
ంట ల్</w>
ంగ ో
ంగ ు</w>
ం లోను</w>
s e</w>
o d
in e</w>
di a</w>
7 వ</w>
7 9</w>
7 50</w>
200 9</w>
200 8</w>
19 పై</w>
19 5
16 ,
14 .
ె స్ట్</w>
ించ బడి</w>
ించ డంపై</w>
ి యల్</w>
ాయి లో</w>
ా నీ</w>
హౌ సింగ్</w>
హే తు
హీరో లు</w>
హి ల్స్</w>
స్వాతంత్ర ్యం</w>
స్ప త్రికి</w>
స్నేహితు డు</w>
స్త్రీ ల</w>
స్ మెంట్</w>
స్ ధ
సొంత ంగా</w>
సే కరించారు</w>
సె ప్ట్</w>
సుబ్బ ారెడ్డి</w>
సు వార్
సు బ్రహ్మ
సు దీర్ఘ
సు ందర
సీరియ స్</w>
సి తార</w>
సి ఎ
సాధార ణం</w>
సాంఘ ిక</w>
సా ంగ్
సహకార ంతో</w>
సహ చరు
సస్పె న్షన్</w>
సర్దు బాటు</w>
సర్ వ్</w>
సముద్ర ంలో</w>
సమయ ాల్లో</w>
సంస్ కరణ</w>
సంవత్సర ాల
సంప్రద ింపులు</w>
సంఘ ాల</w>
సంగీత ంః</w>
సం స్థా
సం ప
స జీవ
ష్ట ు</w>
షు గర్</w>
శ్రీనివాస రావు</w>
శ్రీకాకు ళం</w>
శ్ర మి
శై లిలో</w>
శాశ్వ తంగా</w>
శా త
శ ్య
శ య</w>
వ్యూహా త్మక</w>
వ్యతిరే కత</w>
వ్యక్ తిగా</w>
వై సిపి</w>
వేసుకు ని</w>
వే సేందుకు</w>
వే దా
వెళ్ళ డానికి</w>
వెళ్ల లేదు</w>
వెలు వర
వెంక య్య</w>
వెం కీ</w>
వె హి
వు లో</w>
వీ ళ్ల
వీ రుడు</w>
విస్తృ తమైన</w>
విస్ మర
విషయ మే</w>
విశ్వా సము
వివాద ంపై</w>
విలువ ను</w>
విభాగ ాల్లో</w>
విభా గాలు</w>
వి హార
వి క
వాషింగ్ ట
వార్ తా</w>
వా సులు</w>
వా మ
వా త
వా డును</w>
వది ల
వచ్చ ా</w>
వం ద</w>
వ ళ
వ ను</w>
లో పాలు</w>
లై న్స్</w>
లేకపోయా డు</w>
లు ండ
లిం గ</w>
లక్ష్య ాలను</w>
ల ంచ
ర్యాం కింగ్
ర్ నీ</w>
రోజ ్</w>
రోజ ంతా</w>
రో మన్</w>
రే పు</w>
రే డియో</w>
రెడ్ డికి</w>
రె జ్
రె చ్చ
రూ ట్</w>
రుసు ము</w>
రియ ల్
రిమా ండ్కు</w>
రాజకీయ ాలకు</w>
రా జ</w>
రకర కాల</w>
రంగ ాలకు</w>
యోధ ుడు</w>
యెరూష లేము</w>
యూర ప్</w>
యువ రాజ్</w>
యి స్</w>
యి డ్</w>
యాప్ స్</w>
యా త్రి
య ము
మొదలు కొని</w>
మొద లె
మేఘ ాలయ</w>
మెరుగు పరుస్తుంది</w>
మె ప్ప
మె గ్
మృతి చెందగా</w>
ముఖ్య మైనవి</w>
మి త్రు
మి చెల్</w>
మాస్ క్</w>
మార్కె ట్ల</w>
మాట్లాడు తున్నారు</w>
మాట్లాడ టం</w>
మాట్లా డి
మల్ హో
మరి కొంత</w>
మరాఠ ీ</w>
మర ే
మధుమే హం</w>
మ ్యు
మ యింది</w>
భాష ను</w>
భాగ ంగానే</w>
బౌ లర్లు</w>
బు ర్
బీ హార్
బిఎమ్ డబ్ల్యూ</w>
బి గ్
బాధ పడుతున్నారు</w>
బహిష్ కర
బ ల్
బ రే
బ ంతి</w>
ఫ్రె ండ్స్</w>
ఫ్యా షన్</w>
ఫ్యా న్</w>
ఫేస్ లిఫ్ట్</w>
ఫె స్టి
ఫీ ల్డింగ్</w>
ఫార్ మా
ప్రారంభ ించాడు</w>
ప్రాంత ాల్లోని</w>
ప్రతి పత్తి</w>
ప్రకట ించాడు</w>
ప్ర సక్
ప్ర కంప
పో వడంతో</w>
పో టుతో</w>
పొ దు
పే టలో</w>
పెరి గిపోయింది</w>
పెరగ డం</w>
పెట్టు కున్న</w>
పుట్ట గొడు
పీ యూష్</w>
పా నికి</w>
పా టు
పసి ఫిక్</w>
పర్ స
పరిశోధ నా</w>
పరిశీల ించండి</w>
పరి స్
పరి చింది</w>
పరి చి
పద్ మా
పద్ మ</w>
పదార్థ ాల</w>
ప ధ
ప ట్లో</w>
న్నా నని</w>
న్న దే</w>
నేత లకు</w>
నే ని
నెల లు</w>
నె లాఖ
నీ తో</w>
నివాళులర్ పించారు</w>
నివా ళి</w>
నివసి స్తున్నారు</w>
నిలిపి వేశారు</w>
నిర్వహి స్తోంది</w>
నిర్వహ ించాలని</w>
నిర్మ ించింది</w>
నిర్మ ించనున్నారు</w>
నిరూ పించ
నికో బార్</w>
నిందితు లకు</w>
నా కూ</w>
నవ సరం</w>
నమ్మక ంతో</w>
నమోద వగా</w>
నదే మన
నడు చు
నట ించి</w>
నట నకు</w>
నచ్చ లేదు</w>
నగ రానికి</w>
న వారు</w>
న న్న</w>
ధ్య ంలో</w>
ధృవీ కర
ధార ణ</w>
ధా నికి</w>
ధర్ మ</w>
ధ న్</w>
ద్ర ా</w>
దా నియ
దర్యాప్తు ను</w>
దంప తుల</w>
త్ మ</w>
తో ట
తెలి వి
తెరా స</w>
తెరకెక్కు తుంది</w>
తుపా ను</w>
తుంద నే</w>
తది తరు
తగ్గ ించడానికి</w>
తగ్గ డం</w>
త లపై</w>
త న్</w>
త ట
డ్రా మా</w>
డ్ కు</w>
డై ర
డేటా ను</w>
డి సి
ట్రైలర్ ను</w>
ట్రి కల్</w>
ట్ర య
ట్ట ర్</w>
టీవీ ఎస్</w>
ట యోటా</w>
జొ న్న</w>
జై లులో</w>
జా తుల</w>
జా తి
జస్ ప్రీత్</w>
జట్టు ః</w>
చోటు చేసుకు
చేస్తున్న ది</w>
చేయ వలసి</w>
చెప్పుకొ చ్చాడు</w>
చెప్ప డానికి</w>
చెందిన వారు</w>
చె రో</w>
చె ర
చూడ డానికి</w>
చి రు</w>
చి కా
చరిత్ర ను</w>
ఘో రంగా</w>
గ్రా మాలు</w>
గ్రా ఫర్</w>
గో డ
గొ గోయ్</w>
గెలుచు కున్న</w>
గెలు పొందారు</w>
గుజరాత్ లోని</w>
గు డి
గా డ్
గల రా</w>
గర్భి ణీ</w>
క్ష ా
క్లా సిక్</w>
క్రి య</w>
క్యా న్ని</w>
క్య ంగా</w>
క్క ిన</w>
క్ ట్స్</w>
కౌ ంటర్
కోవ టం</w>
కో లు</w>
కో గా</w>
కొ వ్
కై తే</w>
కేటాయ ించిన</w>
కేటాయ ించింది</w>
కే మీ</w>
కూలీ లు</w>
కూ ర్చ
కూ రుకు
కాల ంలోనే</w>
కార్యాల యాలు</w>
కార ుల</w>
కార ంగా</w>
కాంగ ్</w>
కాం స్య</w>
కశ్మీ ర్కు</w>
కలిగ ించింది</w>
కర ్ర
కన్నుమూ త</w>
క ంద
ఒప్పంద ాన్ని</w>
ఐ రన్</w>
ఏ మై
ఎమర్ జెన్సీ</w>
ఎపి సో
ఎదురు దెబ్బ</w>
ఎడ మ
ఎగ్జి ట్</w>
ఎగు మతులు</w>
ఎంత ైనా</w>
ఎంచు కోవచ్చు</w>
ఎంచు కుంది</w>
ఎ గి
ఉప గ్ర
ఉద్యో గులను</w>
ఉండ ు
ఉంటు ందిః</w>
ఉంచి ంది</w>
ఇర్ఫా న్</w>
ఇన్ వె
ఇన్ ఫర్మేషన్</w>
ఇదే నా</w>
ఇతరు లతో</w>
ఇ క
ఆశీర్ వాద
ఆరోపణ లపై</w>
ఆరోగ ్యాన్ని</w>
ఆది లా
ఆకస్ మిక</w>
ఆకర్ష ణ</w>
ఆ రా
ఆ జ్ఞ</w>
అహ ం
అవ మాన
అమ్మ కాల</w>
అప్ప ీ
అప్ డే
అపొస్తలు ల</w>
అపవి త్ర
అన్ వయ
అనుకో కుండా</w>
అను వాద
అదే ం</w>
అతిథ ి</w>
అక్ తర్</w>
అంట ారా</w>
అ సదు
అ భయ
అ ధ్యా
అ ధు
అ దర
అ థ్
ందు లో</w>
ంత్ర ి
ండ్ ల
ం ట్
t o</w>
i c</w>
f or
f low</w>
e c
a p
I n
I I</w>
9 3</w>
6 5
4 వ</w>
2. 5</w>
2 3
1. 2</w>
్ వం
ొద్ద ని</w>
ే ను</w>
ింప వలెను</w>
ించబో తున్నారు</w>
ించ ాలంటే</w>
ించ లేదని</w>
ించ మని</w>
ించ గల</w>
ాలి క్</w>
ాల జీ</w>
ాల కి</w>
ా భి
హి త
హార్ మో
హార్ ట్</w>
హాజర ై</w>
హా స్ట
హా ం
హరీ శ్</w>
హరి కృష్ణ</w>
హయా ంలో</w>
హక్కు ను</w>
హ ాయి
స్వీ కరించిన</w>
స్రా వం</w>
స్తు త
స్తు ందిః</w>
స్త ్రా
సొ మ్ము</w>
సెలవి చ్చు
సెక్ష న్ల</w>
సూపరింటెండ ెంట్</w>
సూచ ించిన</w>
సీ జన్
సినిమ ాలలో</w>
సినిమ ాలను</w>
సామా న్య
సాక్ష ్యం</w>
సాంకేతి కత</w>
సాంకేతి క
సాం ప్రదాయ</w>
సహ నం</w>
సల హాలు</w>
సర్వే లో</w>
సర్టిఫి కేట్</w>
సర స్వ
సమావే శాన్ని</w>
సమాజా నికి</w>
సమాచార ంతో</w>
సమస్య కు</w>
సమర్థ వంతమైన</w>
సద స్సు
సంస్కృ త</w>
సంబంధ మైన</w>
సంప్రద ించండి</w>
స రుకు
షారు ఖ్</w>
శ్రీ ను</w>
శ్ య</w>
శివా జీ</w>
శివ కుమార్</w>
శిక్ష ణా</w>
శాఖ లో</w>
శా ఖా
శరీర ంలోని</w>
శ ూ
వ్యా ప
వ్యవస్థ లు</w>
వేడుక లకు</w>
వే లకు</w>
వెళ్ లాడు</w>
వెలుగు చూసింది</w>
వెలి కి
వెంబ డ
వెం కట్</w>
వీరిద్ద రు</w>
వీ రు
వీ డ
విస్తార మైన</w>
విషయా న్నీ</w>
విష మ
వివర ించింది</w>
విరుద్ధ ం</w>
వినియోగ దారు</w>
విన డానికి</w>
విధ ్వం
విధ ేయ
విజయ ంతో</w>
వార్ తా
వారిద్ద రి</w>
వా ణి</w>
వర్గ ంః
వదిలే సి</w>
వద ల
వచ్చే ది</w>
వ ింత</w>
లోన ైనా</w>
లొ ంగి
లేద ట</w>
లేఖ ను</w>
లేకపో యాను</w>
లేకపో తున్నారు</w>
లిద్ద రూ</w>
లిం గ
లా ంగ్</w>
లకు పైగా</w>
ల య్యారు</w>
ల క్</w>
ర్ మి
రై డ్</w>
రే ఖ</w>
రీ తో</w>
రాల ి
రాయ ్
రాజస్థా న్లో</w>
రా సు
రా వచ్చు</w>
రా మో
రహ స్య</w>
రవీంద్ర న్</w>
య్యాల వాడ</w>
యేసు ను</w>
యెహోవాసాక్ష ుల</w>
యూ ఎస్</w>
యువ తిని</w>
యాప్ ను</w>
య ాలోని</w>
మోహ ర
మొహ మ్మద్</w>
మైన స్</w>
మైన ప్పుడు</w>
మెక్సి కో</w>
మె త్తగా</w>
మె ట్రో
మూడు సార్లు</w>
మూ త్ర
మున్సి పాలి
మున కును</w>
ముఖ ి</w>
ము రుగ
ము గాను</w>
ము క్కు</w>
మీద ట</w>
మీ యులు</w>
మీ నా</w>
మి శ్రమ</w>
మార్ చుకు
మహి మ
మహమ్ మార
మహమూ ద్</w>
మహబూబ్ నగర్</w>
మవు తున్నాయి</w>
మర ణి
మయా ంక్</w>
మద్రా సు</w>
మంది లో</w>
మంత్ర ుల</w>
భో జన</w>
భార్య కు</w>
భాగస్వా మ్య</w>
భా నికి</w>
భర్ తీ
భ వి
బౌ లింగ్
బో స్</w>
బో ధి
బె నర్
బృంద ాన్ని</w>
బీఎస్ ఈ</w>
బాలిక పై</w>
బాగు ంటుంది</w>
బా ని
బా ట
బక ాయి
బ ది</w>
ఫో న్
ఫిలి ష్
ప్రొ టె
ప్రార్థ ి
ప్రాథ మికంగా</w>
ప్రాణ ాలతో</w>
ప్రాజెక్టు లను</w>
ప్రాజెక్టు ల</w>
ప్రా వి
ప్రా ధ
ప్రస్తావి స్తూ</w>
ప్రసా ర</w>
ప్రయత్ నించి
ప్రధాన మైన</w>
ప్రత్యర్థ ి</w>
ప్రతి ష్ఠా
ప్ర దేశాలు</w>
ప్ కు</w>
పోటీ కి</w>
పో రులో</w>
పో తే</w>
పో తారు</w>
పో క్
పొందు తుంది</w>
పే పర్
పెద్ది రెడ్డి</w>
పెంచ డం</w>
పె ను
పూర్త య్యాయి</w>
పు నా
పీ ట్</w>
పీ ఎస్</w>
పిటిషన్ పై</w>
పిక్ చర్స్</w>
పి స్తున్నారు</w>
పార్ల మెంట్లో</w>
పారు దల</w>
పారి కర్</w>
పాయ ల్</w>
పా నం</w>
పరు చు
పరిజ్ఞా నాన్ని</w>
పరిక రాల</w>
పరి పూర్ణ</w>
పరి చిన</w>
పరలో క</w>
పని కి
పదవి ని</w>
పట్ నాయక్</w>
పంచాయతీ రాజ్</w>
పం పిన</w>
ప ట్టి</w>
ప క్
న్యాయ ా
నొ క</w>
నై తే</w>
నేపథ ్యం</w>
నె న్స్</w>
నిర్వహ ించేందుకు</w>
ని మ్మర
నాథ న్</w>
నట ించనున్నారు</w>
నగ రాన్ని</w>
న ాలతో</w>
న ార్</w>
ధి గా</w>
ధర్ మే
దో స
దేవ గన్</w>
దే నికి</w>
దెబ్బతి న్నాయి</w>
దిశ ా</w>
ది ల
దారి లో</w>
దర్యాప్తు లో</w>
ద ట్టమైన</w>
థ ్యాం
థ లిక్</w>
త్వ రి
త్రి పాఠ
త్యా నికి</w>
తోసిపు చ్చింది</w>
తోపు లాట</w>
తెలుసుకు ని</w>
తె ప్ప
తూర్ పున</w>
తు లుగా</w>
తీసుకోవ ాల్సిన</w>
తా కింది</w>
తరల ించినట్లు</w>
తమ ై</w>
తన కి</w>
త లతో</w>
త డి</w>
త గల
ణి ని</w>
డై లా
డెలి వరీ</w>
డె డ్</w>
డి విజన్</w>
డయాబె టిస్</w>
డ న్</w>
డ ంటే</w>
ట్రి బ్యు
ట్ర స్ట్</w>
ట్యా క్స్</w>
టె న్షన్</w>
టీటీ డీ</w>
టీ కా</w>
టా మ్</w>
ట ాలకు</w>
జీవి తా
జి షీ
జి యా
జా మున</w>
జవా బు
జన్ మని
జట్టు లోకి</w>
జ ాయి
చైర్ మన్గా</w>
చేస్త ారని</w>
చేసుకు ంటారు</w>
చేప ల</w>
చెల్ల ించే</w>
చెప్పి న
చూడ ాల్సిందే</w>
చూ పిన</w>
చు ండగా</w>
చిత్ర ంపై</w>
చి తే</w>
చంద్రబాబు కు</w>
ఘా ట్</w>
ఘన తను</w>
గ్రా ములు</w>
గ్ ని
గో డ</w>
గూర్ చిన</w>
గు రువు</w>
గి తే</w>
గాయ ాల</w>
గర్ భ</w>
గ ంటి</w>
ఖర్చు తో</w>
ఖ నిజాలు</w>
క్రూ యి
క్రమ బద్ధ
క్రమ ంలోనే</w>
కో రు</w>
కో రాడు</w>
కొనసాగు తున్నారు</w>
కృష్ణ న్</w>
కుదర దు</w>
కుటుంబా ల</w>
కుటుంబ సభ్యులకు</w>
కు ట్ర
కి లా</w>
కావాల ంటే</w>
కార్యక్రమ ాల్లో</w>
కా పీ
కసర త్తు</w>
కల్వ కుంట్ల</w>
కలిగి వుండ
కలి సే</w>
కరె న్సీ
కమి టీలో</w>
కమ ల్
కనె క్షన్</w>
కని పించారు</w>
కన బడు
క ప్పు
క ట్
ఓడి పోయింది</w>
ఒకరి పై</w>
ఐ డీ
ఏక కాలంలో</w>
ఎక్క డో</w>
ఎ ద్
ఎ ద
ఉర్ దూ</w>
ఉపరి తలం</w>
ఉపరి తల</w>
ఉపయోగ ించవచ్చు</w>
ఉత్త ర్</w>
ఉగ్రవా ది</w>
ఉ య్యాలవాడ</w>
ఈ జి
ఇవ్వ బడింది</w>
ఇని స్టిట్యూట్</w>
ఇ ళ్లకు</w>
ఇ తర
ఆస్పత్ర ులకు</w>
ఆలోచ నా</w>
ఆలస్ య
ఆల యానికి</w>
ఆరోప ించింది</w>
ఆరె ంజ్</w>
ఆయో గ్</w>
ఆపరే టింగ్</w>
ఆక్సి జన్</w>
ఆ రో</w>
ఆ గ్ర
అసో ం</w>
అసహ ్య
అసదు ద్దీన్</w>
అవు ట్
అవసర ాలకు</w>
అవ య
అల స
అరణ ్య
అభిప్రాయ ాలను</w>
అబ్ బాస్</w>
అప్ప ులు</w>
అనే వి</w>
అను కున్నారు</w>
అనారో గ్య</w>
అతలాకు తలం</w>
అఖిలే ష్</w>
అంది స్తామని</w>
అంద రిని</w>
అంజ లి</w>
అ సం
అ పార్
అ న్</w>
అ ంధ
ంధ ్ర
ండ ర్
ంట ే
ంచ ు</w>
u s
ri ght</w>
or t
i s</w>
4 50</w>
20 19
2 1వ</w>
13 :
13 ,
10 వ</w>
్ర ియ
ే సింది</w>
ు డైన</w>
ించుకు ంటు
ించాల ంటూ</w>
ించ వలసి</w>
ాలు న్నాయని</w>
ాలు న్న
ాల లోని</w>
హే మంత్</w>
హె బ్</w>
హక్కు లను</w>
హ ం
స్వీ కరించారు</w>
స్వాగ తి
స్వాగ త
స్వ రాలు</w>
స్వ య
స్ర వంతి</w>
స్నా ప్
స్థి తికి</w>
స్థాయి ని</w>
స్తున్నా మన్నారు</w>
స్ట్రే ట్</w>
సొసై టీ</w>
సై న్</w>
సూక్ష ్
సూ ర్యా
సీ మా
సీ ట్లకు</w>
సినిమా గా</w>
సి క్కు</w>
సార ం</w>
సామర్ ధ్యం</w>
సాధ్యమైన ంత</w>
సాక్ష ులు</w>
సా గే</w>
సా ంద్ర
సహాయ పడ
సవర ణలు</w>
సర్ జరీ</w>
సమాజ్ వాదీ</w>
సభ ా</w>
సన్ని ధిని</w>
సన్న గా</w>
సంస్థ ల్లో</w>
సందే శాన్ని</w>
సంత తికి</w>
సం కల్ప
స న్
షర తులు</w>
షన్ లలో</w>
ష ార
ష ణ</w>
శివ రాజ్</w>
శి వన్</w>
శాంత ిని</w>
శా డుః</w>
శతాబ్ద పు</w>
శ ారా</w>
శ బరి
వై విధ
వై ంది</w>
వేధింపు లకు</w>
వేధింపు ల</w>
వే సే
వే లం</w>
వే చి
వెల్లడ ించాడు</w>
వె ర
వె ంటి
వృద్ధి ని</w>
వు నా</w>
వీరి తో</w>
వీ ల
విస్తర ించి</w>
విషయ ాలపై</w>
వివే కా
విరాళ ంగా</w>
విమా నాన్ని</w>
విప్ల వం</w>
వికె ట్కు</w>
వికా స్</w>
వి రమ
వార్ డు</w>
వారి గా</w>
వాణిజ ్య
వాటి పై</w>
వా డె
వా ఖా
వా క్యం</w>
వా ంగ్</w>
వల్ల నే</w>
వర్ థ
వర్ క్స్</w>
వర ల్డ్
వచ్చే ందుకు</w>
వచ్చి నట్లు</w>
లో కేష్</w>
లేవ నె
లేని ది</w>
లే ట్</w>
లే జ్</w>
లెక్క లు</w>
లె జె
లీ క్</w>
లాభ ాల్లో</w>
లాది మంది</w>
లాగి న్</w>
లా హో
లా వణ
ల య్యాయి</w>
ల నే</w>
రో వర్</w>
రైతు కు</w>
రే ట్ల</w>
రె బల్</w>
రూపొందు తోంది</w>
రీ సెంట్</w>
రీ త్యా</w>
రి క</w>
రాత్ర ంతా</w>
రాజ్య ము</w>
రాజధా నిలో</w>
రాజ ా
రాజ మ
రా శాడు</w>
రా క్ష
రహ దారుల</w>
రచయి తగా</w>
ర లేదు</w>
య్యా ను</w>
యూజర్ లు</w>
యు గ
యు ఎస్</w>
యా సి
యా ని
యా నా</w>
మ్యా చు
మో స్ట్</w>
మైలు రాయి
మైన ర్</w>
మైన దిగా</w>
మేని ఫె
మే రీ</w>
మెరు గ్గా</w>
మెజార్ టీ</w>
మెగ్ నీ
మె స్
మె డ</w>
మృతు రాలి</w>
ముర ళి</w>
ముగి సే</w>
ముంద ంజ
ము ః</w>
మీద కు</w>
మి ల
మి నీ</w>
మి థ
మాల్ దీ
మార్ గాల</w>
మార ే</w>
మానసి కంగా</w>
మాట్లా డాడు</w>
మా మిడి</w>
మన స్సులో</w>
మంత టా</w>
మ యిన</w>
మ ట్టి</w>
మ ట్ట
మ గ</w>
భూమి కి</w>
భావోద్ వే
భార్యా భర్
భారత్ లోని</w>
భాగస్వా ములు</w>
బ్రిటీ ష్</w>
బ్యాటింగ్ కు</w>
బో నీ</w>
బే కింగ్</w>
బు ల్లె
బీజేపీ పై</w>
బి హారీ</w>
బాధ్య తను</w>
బహి రంగ
బర్ ట్</w>
బయ టి</w>
బడ లేదు</w>
బడ తాయి</w>
బట్ట ే</w>
బ టన్</w>
ఫ్రె ండ్</w>
ఫ్యాక్ టరీ</w>
ఫే మస్</w>
ఫీచర్ లను</w>
ఫాలో యింగ్</w>
ఫ రూ
ప్రై మ్</w>
ప్రాణా ంత
ప్రాజెక్ టును</w>
ప్రా సెస్</w>
ప్రవేశ పెట్టిన</w>
ప్రమా దాన్ని</w>
ప్రధా నికి</w>
ప్రకట ించడం</w>
ప్ర వర్తి
ప్పటి కి</w>
పౌరు లకు</w>
పోష కా
పెడ తారు</w>
పెట్టు కొని</w>
పెట్ట ాలని</w>
పు ల్స్</w>
పు ల్ల
పీ ఎన్
పాల్ పడింది</w>
పాట ించాలి</w>
పాట ించాలని</w>
పర్య వ
పరుగు లతో</w>
పరిస్థితు లలో</w>
పరిష్కార ానికి</w>
పరిగణ లోకి</w>
పరి ధి</w>
పర దై
పట్టి క</w>
పక్క ా</w>
నై వే
నేపథ్య ంలోనే</w>
నే మో</w>
నే ను
నే తల
నే చు
నెక్ సాన్</w>
ను ండగా</w>
నివస ించే</w>
నిర్వాహ క</w>
నిర్వహ ించింది</w>
నిర్మ ించబడింది</w>
నిర్ దేశం</w>
నియోజక వర్గ</w>
నితీ ష్</w>
నిఖి ల్</w>
నిందితు డిపై</w>
ని ంప
నాలు గవ</w>
నాయ ర్</w>
నామ ము</w>
నరసిం హారెడ్డి</w>
నమ స్
నడి పించ
నటి స్తోన్న</w>
నగ దును</w>
న బీ</w>
న ంది</w>
ధో రణి</w>
ధు నిక</w>
ధా న్యం</w>
ధర్మ శాస్త్ర
ధర లకు</w>
ద్ర వం</w>
ద్ వా
దేవ త</w>
దృ గ్
ద సరా</w>
ద నం</w>
థ ీ
త్త ాయి</w>
త్ ను</w>
తొలగ ించడానికి</w>
తెలి వైన</w>
తెచ్చు కుంది</w>
తీసుకు ంటున్నారు</w>
తీసుకు ంటుంది</w>
తీ రంలో</w>
తిమో తి</w>
తి వారీ</w>
తరి గిన</w>
తరలి స్తుండగా</w>
తర ఫు</w>
తప్ప లేదు</w>
త లుః</w>
త త్వ
ణా లో</w>
డె న్
డాల ర్</w>
ట్రో ఫీ
ట్రా న్సి
ట్టు ను</w>
టోర్ నీ</w>
టే షన్</w>
టెక్ నికల్</w>
టె ంట్</w>
టూరి జం</w>
ట ాలె
ట చ్
జి యం</w>
జి న్</w>
జా ల</w>
జా బ్</w>
జరగ ాలి</w>
జ ్యు
జ ార్</w>
జ ారు
జ న్య
ఛత్తీ స్</w>
ఛ ాయా
చో రీ</w>
చేశ ారా</w>
చేశ ా</w>
చేయ లేరు</w>
చే ప</w>
చెప్ప ారని</w>
చెదర గొట్టారు</w>
చె డ్డ
చె డు
చూప ించిన</w>
చీ కటి
చార్ జి</w>
చారిత్రా త్మక</w>
చల్ల గా</w>
చం పి
చ ందా</w>
చ ందర్</w>
ఘో ష్</w>
గ్రా స్</w>
గ్రా మాల</w>
గ్యా ంగ్</w>
గొ ట్టి</w>
గే ర్</w>
గే ట్</w>
గు రై
గా వ్</w>
గా న్</w>
గా ఢ
గా ం</w>
గర్ భవ
గంభీ ర్</w>
గందర గోళ
గ ్యు
గ ీ</w>
గ డం</w>
ఖరీ దైన</w>
క్షేత్ర ం</w>
క్షే త్ర</w>
క్ల బ్</w>
క్రి స్టి
క్యా ం
క్క డా</w>
క్ ల</w>
క్ ః</w>
కోహ్లీ కి</w>
కోలుకున్న వారి</w>
కోరుకు ంటున్నారు</w>
కోణ ాల్లో</w>
కో య
కొని రి</w>
కొని న</w>
కొ త్తి
కై రా</w>
కెమె రాను</w>
కెమి కల్</w>
కూటమి గా</w>
కిలో మీ
కాలి ఫోర్
కార్యకర్ తలకు</w>
కార కాలు</w>
కా మ
కవి త</w>
కల్పి స్తుంది</w>
కల్ పించింది</w>
కలప ండి</w>
కర ి</w>
కనిపించ దు</w>
కద లి
కథ నాలు</w>
కడి గే
క ట్టు</w>
క ట్టి
క ంటి</w>
ఓవర్ లో</w>
ఒప్పంద ంపై</w>
ఒకరి కొ
ఐసి సి</w>
ఏకగ్రీ వంగా</w>
ఏ వీ</w>
ఎన్ కౌంటర్</w>
ఎద్ దేవా</w>
ఎక్కువ మంది</w>
ఎంతో మంది</w>
ఎంత కాలం</w>
ఎ ప్పు
ఉపయోగ ించిన</w>
ఉన్నా మని</w>
ఉన్న ాయ
ఉత్కం ఠ
ఉ రు
ఉ ధృ
ఉ ం
ఈ క్వి
ఇన్స్పె క్టర్</w>
ఇంధ నం</w>
ఇ ట్ల
ఆస్ప త్రుల్లో</w>
ఆస్త ి
ఆయుష్ మాన్</w>
ఆట లు</w>
ఆచరణ లో</w>
ఆందోళన కారులను</w>
అస్వస్థ తకు</w>
అవస రాల</w>
అవకాశ ాలున్నాయి</w>
అవ త
అలం కర
అరు దుగా</w>
అమర ీ
అన్వేష ణ</w>
అన్నింటి నీ</w>
అని పిస్తోంది</w>
అత్యా ధునిక</w>
అణ చి
అడ వులు</w>
అక్క డున్న</w>
అంబులె న్స్</w>
అంది స్తారు</w>
అందజే య
అంద ించేందుకు</w>
అంత ట</w>
అంత కు
అ ల్లుడు</w>
అ ల్లా
అ యి</w>
అ మృ
అ క్రమ
ంత వరకు</w>
ంట ారని</w>
ంట ప్పుడు</w>
ంగా ను</w>
ం ట్ను</w>
in d
i v
i g
Th e</w>
Rea d</w>
O S</w>
200 7</w>
15 :
14 ,
1, 000</w>
్రియ ాల్</w>
ింపు నకు</w>
ింప బడిన</w>
ించి ందన్నారు</w>
ింగ్ కు</w>
ాల కూ</w>
ాయత్ నం</w>
హై డ్రో
హెచ్చర ించింది</w>
హృ దయ</w>
హాస్పిట ల్కు</w>
హాయి గా</w>
హ డా
స్వర్ ణం</w>
స్ర ్
స్మా త్తుగా</w>
స్పష్ట ం
స్థూ ల</w>
స్తు ందన్నారు</w>
స్ట్ర ో
స్ట్ర ు
స్టేషన్ లలో</w>
స్ట ర్
స్కూ ల్లో</w>
స్ స
సౌకర్య వంతమైన</w>
సౌ ండ్</w>
సేవ లకు</w>
సృ జనా
సూత్ర ం</w>
సు వార్త</w>
సు ముఖ
సు కు</w>
సీఈ ఓ</w>
సీ క్రె
సిబ్బంది ని</w>
సిపి ఐ</w>
సింధి యా</w>
సామా న్యు
సామా న్య</w>
సాగు తుంది</w>
సా హెబ్</w>
సమస్య లతో</w>
సమకూర్చ ారు</w>
సమకూ ర్చు
సమ య</w>
సమ గ్ర
సమ కాలీ
సభ్యు డిగా</w>
సభ్య త్వం</w>
సబ్సి డీ</w>
సంబం ధాల</w>
సందర్శ ించారు</w>
సం త</w>
స పోర్
షూ ట్</w>
షా కింగ్</w>
ష ార్</w>
శ్వర్ లు</w>
శ్రీనివా స</w>
శ్రీ నగర్</w>
శ్ర ు
శ్యా మ్</w>
శు భార
శిక్ష లు</w>
శి వుడు</w>
శి వు
వ్యూ హ
వ్యూ స్</w>
వ్యక్తి త్వం</w>
వై భ
వై ఫల
వేగ వంతమైన</w>
వే స్</w>
వే రొక</w>
వెసులు బాటు</w>
వెళ్ల ాలని</w>
వెల్ల డైంది</w>
వెబ్సై ట్లో</w>
వెనక వైపు</w>
వెంబ డి</w>
వెంట ా
వీర ంద
వీ ధి</w>
విస్తీర్ ణం</w>
వివ క్ష</w>
విపణి లో</w>
విప త్తు</w>
విధ ాలా</w>
విడ తలో</w>
విజయ సాయి</w>
విజయ న్</w>
విగ్ర హాన్ని</w>
వి రోధ
వి యత్
వి ది
వి ః</w>
వాళ్ల ే</w>
వార ా
వార ం
వా ష్</w>
వా దులు</w>
వస్తు వు
వయ స్సులో</w>
వచ్చు నని</w>
వ ౌ
వ త్త
ల్ల ింగ్</w>
లే రని</w>
లే నా</w>
లే దుః</w>
లే కుండానే</w>
లు ప్
లీ ప్</w>
లి క్
లా న్ని</w>
ల కును</w>
ర్యా ల</w>
రెండిం టి
రెండ వది</w>
రె క్క
రూపు దిద్దు
రీ జి
రియ ాలిటీ</w>
రిటై ర్
రి షి</w>
రాహుల్ గాంధీ</w>
రావ ాల్సిన</w>
రాజమ ండ్ర
రా న్</w>
ర ాలకు</w>
య్య ే
యో గ</w>
యే తర</w>
యూపీ లో</w>
యూపీ ఏ</w>
యూ త్</w>
యువ కుడి</w>
యా పై</w>
యం ను</w>
య కు</w>
మ్ర ో
మ్ మీద</w>
మౌ తుంది</w>
మో తా
మొదలు పెట్టింది</w>
మొ న్న
మైన ప్పటికీ</w>
మేమి ద్ద
మే ర
మెసే జ్</w>
మెగ్నీ షియం</w>
మునిసి పల్</w>
ముందంజ లో</w>
ము సాయి
ము కు</w>
మిగ తా
మి మీ</w>
మి త్ర</w>
మా ళ
మహే శ్
మహమ్ మారి
మధ ు</w>
మ ్యంలో</w>
భూ మిక</w>
భీ మ్</w>
భార తం</w>
భయా న
బ్రహ్ మాన
బ్యాట్స్ మన్</w>
బ్యా ట
బ్బ ు</w>
బో తున్నాడు</w>
బూ డి
బిల్లు లు</w>
బాధ్య తలను</w>
బాధితు డు</w>
బాధ పడుతున్న</w>
బాంబ ే</w>
బా వుంది</w>
బా లు</w>
ఫైన ల్కు</w>
ఫి న్</w>
ఫ ిం
ప్లే య
ప్రోత్సహ ించడం</w>
ప్రోటీ న్</w>
ప్రిన్సి పల్</w>
ప్రి య</w>
ప్రారంభ మయ్యాయి</w>
ప్రశ్ని స్తున్నారు</w>
ప్రయాణీ కులు</w>
ప్రభావి త</w>
ప్రకార ము</w>
ప్ర దానం</w>
పౌ డర్</w>
పోటీ లు</w>
పో ల్స్</w>
పో గా</w>
పొర పా
పొ ద్దు
పేతు రాజ్</w>
పెంచ ే</w>
పె యింట్</w>
పుస్త కాన్ని</w>
పుష్ ప</w>
పుర పాలక</w>
పీ పుల్స్</w>
పీ జీ</w>
పిలువ బడే</w>
పి టీ
పాల్ పడ్డాడు</w>
పాత్ర లలో</w>
పాత్ర కు</w>
పల్ సర్</w>
పర్యవ సా
పరుగు లకు</w>
పరీక్ష లను</w>
పరీక్ష లకు</w>
పరిస్థి తికి</w>
పరిష త్</w>
పరిధి లోకి</w>
పరి పూర్ణ
పరి చే</w>
పరా మర్
పర చు</w>
పద ార్
పడు తున్న
పక్ష ి</w>
పంపి ణీ
ప ందు
న్నింటి కీ</w>
నే నా</w>
నెల లుగా</w>
నె ్
నె దర్
నున్న ారని</w>
నివేది కలో</w>
నిరీక్ష ణ</w>
నిధు లతో</w>
ని శ్చి
నాలు గు
నా గ</w>
నా ం</w>
నష్ట ాలను</w>
నమ్మ కమైన</w>
నక్ష త్ర
న పుడు</w>
న క్క
న క్
ధూ మ
ధా న్య
ధర్మే ంద్ర</w>
ధ రి
ద్య ం</w>
దౌ త్య</w>
దోహ దం</w>
దోష ం</w>
దై న
దే ని</w>
దే ని
దుర్ ఘటనలో</w>
దు కు</w>
దీపి క</w>
దివ్యా ం
దిన ములు</w>
దిగ్ విజయ్</w>
దా న్నే</w>
దక్క ించుకున్న</w>
ద వాఖా
త్రు లలో</w>
త్యా గం</w>
తో ందిః</w>
తె చ్చి</w>
తీసుకొ చ్చిన</w>
తీసుకుంటా ం</w>
తీసుకు న్నట్లు</w>
తీసుకు ంటే</w>
తీర్పు పై</w>
తీ స్తున్నారు</w>
తిరుగు లేని</w>
తి న</w>
తల్లి కి</w>
డ్ డి
డో నాల్డ్</w>
డీ సీపీ</w>
డీ వీవీ</w>
డిస్ ప్లే</w>
డి ప్ల
డబ్ల్య ు
డ ్రె
ఠా క్రే</w>
ట్రి పుల్</w>
ట్రా న్స్</w>
ట్ర ీ</w>
ట్ర క్కు</w>
టోర్ న
టె న్
టీ ని</w>
టి యాగో</w>
జ్ఞా నము</w>
జో డిగా</w>
జై న్</w>
జిల్ల ాలలో</w>
జాల ం</w>
జాద వ్</w>
చైర్ పర్సన్</w>
చై నీస్</w>
చేరే ందుకు</w>
చేర డం</w>
చేయాల న్నారు</w>
చేయ వద్దు</w>
చేయ బడి
చేయ ను</w>
చే స్తూనే</w>
చెలరే గింది</w>
చెందు తున్నారు</w>
చెంద ాల్సిన</w>
చె వి
చూపించ ే</w>
చుకు ంటే</w>
చిరు నామా</w>
చిత్ర ాలలో</w>
చిత్ర ాలకు</w>
చార ి</w>
చా వ
చర్య ను</w>
చర్చ లకు</w>
చర్ మానికి</w>
చరణ ్
చదివి న</w>
చట్ట ంలో</w>
చ ప్ప
గ్రాడ్యు యేట్</w>
గౌర వాన్ని</w>
గో త్ర
గొఱ్ఱ ె
గె లాక్
గూడె ం</w>
గుర ించే</w>
గుర వుతున్నారు</w>
గు డార
గిన్నె లో</w>
గారి కి</w>
గాయ పడ్డాడు</w>
గా వ
గల దని</w>
గ ించి</w>
గ ాలు
గ లు</w>
ఖాళ ీగా</w>
ఖండ ించింది</w>
ఖ ్రియాల్</w>
క్షే మ
క్షీణ ించింది</w>
క్లి నికల్</w>
క్రే జీ</w>
క్రీడాకారి ణి</w>
క్రియే టివ్</w>
క్రియాశీ ల
క్రి స్మ
క్రి ంద
క్ లుప్
క్ టు</w>
కోల్ పోయి</w>
కోర్ సులు</w>
కో డె
కొనుగో లు
కొనసాగి స్తున్నారు</w>
కొ చ్చిన</w>
కొ ంది</w>
కేంద్ర ాల్లో</w>
కే ల
కె ళ్
కుమారు ని</w>
కుంటా మని</w>
కుంటా ను</w>
కిటి కీ
కాల ం
కార్యక్రమా ల</w>
కాబో తోంది</w>
కా వలసి
కా మెంట్లు</w>
కా ంచ
కష్ట మే</w>
కళాశాల లు</w>
కళ ా</w>
కల వర
కర్నూ ల్</w>
కర్ నాట
కర్ కు</w>
కమిటీ కి</w>
కను మ
కని కర
కన బరి
కన బ
క ముందే</w>
క నే</w>
క దులు
ఒలింపిక్ స్లో</w>
ఒ వైసీ</w>
ఒ యు</w>
ఐదు గు
ఐక్యరాజ్య సమితి</w>
ఐఐ టి</w>
ఐ సో
ఐ డి
ఏర్ పడి
ఏ మో</w>
ఏ మని</w>
ఎయి మ్స్</w>
ఎదుర్కొ న్న</w>
ఎదుర్కొ నేందుకు</w>
ఎదుర్కొ ంటు
ఎం లు</w>
ఎ లక్ష
ఉపయోగ ించండి</w>
ఉన్న వారికి</w>
ఉన్న దని</w>
ఉన్న ందున</w>
ఉద్ భవ
ఉడిక ించాలి</w>
ఉండ డంతో</w>
ఉంట ారని</w>
ఉంచి న</w>
ఉ ల్లి</w>
ఇరు వర్గాల</w>
ఇన్స్ట ాల్</w>
ఇన్ సు
ఇన్ వెస్ట
ఇద్ద రికి</w>
ఇది లా
ఇండె క్స్</w>
ఇండస్ట్ర ియల్</w>
ఇంటిగ్రే టెడ్</w>
ఇంగ్ లిష్</w>
ఇ స్తూ</w>
ఆహార ాలు</w>
ఆశి స్తున్నాను</w>
ఆల్ టో</w>
ఆల యాన్ని</w>
ఆల క
ఆర్ కి
ఆరంభ ం</w>
ఆప్ షన్</w>
ఆదిలా బాద్</w>
ఆ స్తుల</w>
అశ్ వి
అవార్డు లను</w>
అవ మా
అల్ పా
అయి నను</w>
అమరీ ందర్</w>
అబ్దు ల్</w>
అనుమతి స్తుంది</w>
అధ్యా ప
అధి పతి</w>
అంతరి క్ష
అ నా
అ ణు</w>
అ గ
అ క్రమంగా</w>
అ క
ండి రి</w>
ంగ ల</w>
t t
m p
e n</w>
an g
a c
R R</w>
Firefo x</w>
6 వ</w>
5 వ</w>
5 000</w>
370 ని</w>
20 24</w>
2 50
199 9</w>
18 ,
10 4</w>
1, 8
1 19</w>
ొ మా</w>
ు లే</w>
ియ ైన</w>
ింపు ల</w>
ించుకు న్నాయి</w>
ించుకు ంటున్నారు</w>
ించ ాయని</w>
ిం టి</w>
ాలో కి</w>
ాల కే</w>
హోట ల్లో</w>
హైదరాబాదు లోని</w>
హె ర్
హి మ
హాజర వుతారు</w>
హ ద్దు
స్ఫూర్ తిగా</w>
స్థా వర
స్తు ంటాడు</w>
స్త ీ</w>
స్త ి</w>
స్టు లో</w>
స్టాండ ర్డ్</w>
స్ కోరు
సే వ్</w>
సె టప్</w>
సృష్ట ి</w>
సూ య</w>
సుశీ ల్</w>
సుల్తా న్</w>
సురక్షి తం</w>
సుప్రీం కోర్టును</w>
సునా మీ</w>
సుకు ని</w>
సు నీ
సు జీత్</w>
సీక్రె ట్</w>
సీ ఎల్</w>
సిలిండ ర్ల</w>
సిద్ద ం</w>
సిం గర్</w>
సి రియా</w>
సామ గ్రి</w>
సాధ ించగా</w>
సహోదరు లు</w>
సహోదరు డు</w>
సర్క్యూ ట్</w>
సరఫ రా
సమ్ మేళ
సము ద్రా
సమా జ</w>
సమ ై
సంతా పాన్ని</w>
సంక్షే మానికి</w>
సం ఘటనలో</w>
స లా
స జీవ</w>
స ంగా</w>
షే ర్ల</w>
షారు క్</w>
ష ాలి
శ్రే య
శిష్య ులు</w>
శిక్ష ను</w>
శి వాల
శాస్త్ర వేత్త</w>
శాఖ ను</w>
శా ంపి
శ ార
శ న్</w>
వ్యాయా మాలు</w>
వ్యవహార ంలో</w>
వ్యక్ తులకు</w>
వ్ ఞ
వై సీపీ
వే స్తూ</w>
వే ధి
వే తన
వే డిగా</w>
వెళు తుంది</w>
వెల్లడ ించాయి</w>
వెంకటే శ్వర్లు</w>
వె ట
వు తుందని</w>
వీరే ంద్ర</w>
విశ్వసనీయ త</w>
వివర ాలకు</w>
విలియ మ్సన్</w>
విమానాశ్ర యంలో</w>
విధ ుల</w>
విత్త నాలు</w>
విడుద లై</w>
విచార ించారు</w>
వికీపీ డియా</w>
వి పత్తు
వి చ
వాషింగ్ట న్ః</w>
వాల ేదు</w>
వార్ డు
వాట్స ప్</w>
వా సు
వా ద్రా</w>
వా కు</w>
వర్ష ాలకు</w>
వర్ సెస్</w>
వరుస లో</w>
వర దల</w>
వం తులు</w>
వ స్తోన్న</w>
లేకపో లేదు</w>
లే మని</w>
లే డీ</w>
లు క్కే
లీ లా</w>
లీ టరు</w>
లావాదే వీలు</w>
లాయ ర్</w>
లాగు న</w>
లా ండ
లభ ించిన</w>
లక్ష లుగా</w>
ర్యాంకింగ్ స్లో</w>
ర్ పై</w>
రౌ త్</w>
రోడ్ ల</w>
రోజు కి</w>
రై లులో</w>
రే ణు
రిజర్వే షన్</w>
రి పీట్</w>
రి క్టర్</w>
రాజ ును</w>
రా థో
రసాయ నాలు</w>
రణ ను</w>
యు పి
యా క్టర్</w>
మ్యాచ్ ను</w>
మోహ రించారు</w>
మొ టి
మై నట్లు</w>
మై క్రో</w>
మె రుగు</w>
మృతదే హ
ముగ్గు రూ</w>
ముగు స్తుంది</w>
ముఖ ానికి</w>
ముంద డుగు</w>
ము లోనుండి</w>
ము ప్పు
మీ రా</w>
మార్చ డానికి</w>
మానవ జాతి</w>
మా ని</w>
మహే ష్
మనుష ుల</w>
మధ్య కాలంలో</w>
మణి శర్మ</w>
మండ లిలో</w>
మ ాల్</w>
మ ల్ల
మ త్తులో</w>
మ ఠ
మ ట్టం</w>
భీ మా</w>
భాష ల్లోనూ</w>
భారత్ ను</w>
భ జన్</w>
బౌ ద్ధ</w>
బోయ పాటి</w>
బి ర్
బహి ర్
బంగ్ లా</w>
ఫౌండే షన్</w>
ఫెడ రల్</w>
ఫె న్</w>
ఫు ట్</w>
ఫీ ల
ఫార్ మా</w>
ప్రేమ తో</w>
ప్రసం గి</w>
ప్రశంస ల</w>
ప్రవేశ ించి</w>
ప్రయాణ ించే</w>
ప్రయా ణానికి</w>
ప్రయా ణంలో</w>
ప్రమే యం</w>
ప్రదేశ ాలలో</w>
ప్రదర్శ ించారు</w>
ప్రకట నను</w>
ప్ర యి
ప్ర దీప్</w>
పోస్టు మార్
పొలి టికల్</w>
పే రె
పెంచ ాలని</w>
పెం పు
పూణ ే</w>
పురి కొల్
పునరు ద్
పు లు
పు నాది</w>
పీ టీ
పీ టర్</w>
పి క్స్</w>
పాల్గొన నున్నారు</w>
పాలు పంచు
పాల ెం</w>
పాల కులు</w>
పార్టీ తో</w>
పారా మి
పార దర్శక
పాఠ శాలకు</w>
పాట్ నా</w>
పా డి</w>
పలు చోట్ల</w>
పర్యవేక్ష ణలో</w>
పరీక్ష కు</w>
పరి వర్తన</w>
పథ కంలో</w>
పడ కుండా</w>
పక్ష ంలో</w>
నొక్క ండి</w>
నైరు తి</w>
నే వారు</w>
నే రు</w>
నుంచ ో</w>
నీ లు</w>
నీ ని</w>
నిస్ సాన్</w>
నివార ణకు</w>
నిలిపి వేయ
నిరస నగా</w>
ని దర్శనం</w>
ని చ్చింది</w>
నాలు గే
నాగే శ్వరరావు</w>
నాకె ంతో</w>
నా ధ్</w>
నా గ్
నా కి
నడి చే</w>
న వాడు</w>
న లలో</w>
న మై</w>
న న్నె
న న్న
న దే</w>
న దు
న దీ</w>
న ట్లయితే</w>
న గ</w>
ధ్ వని</w>
ధికార ులు</w>
ధార ా
ద్వి తీయ</w>
ద్రవ్యోల్బ ణం</w>
ద్ర వ్యా
ద్ వ
దూ ర్</w>
దూ రమ
దురదృష్ట వశాత్తు</w>
దుకా ణ
దినే శ్</w>
దారు గా</w>
దాని కీ</w>
ద న్</w>
ద త్త
థె ర
థా కరే</w>
తొల గి
తేల్ చింది</w>
తేడా లు</w>
తెలుసు కోవడం</w>
తెరకెక్క నున్న</w>
తుపా కీ</w>
తు లలో</w>
తు ంటే</w>
తీసుకు నేందుకు</w>
తీసు కోవచ్చు</w>
తీవ్ర గాయాలయ్యాయి</w>
తీర్ మాన
తారా గ
తా గాలి</w>
తల్లి ని</w>
తన దైన</w>
తక్కు వ
త న్న
త గు</w>
ణి లో</w>
డ్రై వ్
డ్ర ి
డ్యూ ర
డ్యా న్స్</w>
డైర క్టర్</w>
డె మొ
డీ ఆర్
డిప్ల ొమా</w>
డిగ్రీ లు</w>
డి యం</w>
డా ఫోన్</w>
డబ్బ ింగ్</w>
డ వి
డ య్యాయి</w>
డ ంబ
ట రుకు</w>
జ్ర ే
జై లు
జీవి తానికి</w>
జీ బి</w>
జారీ చేసింది</w>
జాన పద</w>
జాతీ యా
జరుగు తున్నది</w>
జరిపించ ాలని</w>
జరగ ాల్సిన</w>
జయ ్
జన్మ దిన</w>
జడ్ జి</w>
జంతు వుల</w>
జం క్షన్</w>
జ య</w>
చై ర్</w>
చేశా డని</w>
చేయబో తున్నారు</w>
చేకూ ర్చ
చే రాడు</w>
చెల్ల ింపులు</w>
చెప్పుకొ చ్చింది</w>
చెప్ప లేను</w>
చూ శాడు</w>
చూ శా
చూ ద్దా
చు న్నా
చీ ల్
చి కెన్</w>
చాలా సార్లు</w>
చాల ె
చా ను</w>
చల న
చర్చనీయా ంశ
చనిపోయి నట్లు</w>
చక్ర ం</w>
చంద్ర ు
ఘ డ్</w>
గ్రూ పు</w>
గొ లు
గెలాక్ సీ</w>
గుర ై</w>
గార ూ</w>
గాంధీ తో</w>
గా మి</w>
గ ాల్
ఖై దు</w>
ఖరీ దు</w>
ఖ ా</w>
ఖ లీ
క్వీ న్</w>
క్వాలి టీ</w>
క్రిస్మ స్</w>
క్రియే ట్</w>
క్రికె ట్కు</w>
క్రికె టర్లు</w>
క్యా న్సర్
క్ ని</w>
కౌ శ
కౌ ంటింగ్</w>
కోవ ద్దు</w>
కో మ
కో డలు</w>
కొ చ్చ
కొ ందురు</w>
కేసు పై</w>
కేంద్ర ాలను</w>
కృష్ణ మూర్తి</w>
కృ త్రి
కూ రి</w>
కురు స్తున్నాయి</w>
కురి సింది</w>
కు లలో</w>
కు ంబ్
కీలక పాత్ర</w>
కియ ారా</w>
కాల్ చి</w>
కాల్ చి
కార్ ప్</w>
కార్ ట్</w>
కాన్ సెప్ట్</w>
కాగి తం</w>
కా స్ట్</w>
కస్టమర్ లు</w>
కస్టమర్ లకు</w>
కష్ట మైన</w>
కళా శాలలో</w>
కల్ప ించిన</w>
కల్ చర్</w>
కర్ మా
కన్ సల్
కనుగొ న్నారు</w>
కనిపించ నున్నాడు</w>
కథానాయి కలుగా</w>
కడు పు</w>
కంట ై
ఒడ్డు న</w>
ఏజె న్సీ</w>
ఏంట ంటే</w>
ఏ లీ
ఎస్ ఐ
ఎస్ ఎఫ్</w>
ఎఫ్ సి</w>
ఎన్ ఎల్</w>
ఎంచు కున్నాడు</w>
ఉత్తరా న</w>
ఉత్త మం</w>
ఉడిక ించిన</w>
ఉగ్రవాదు లను</w>
ఉగ్రవా దుల</w>
ఉగ్రవా దం</w>
ఇశ్రాయే లు
ఇవ్వ డంతో</w>
ఇన్ ఫ్ల
ఇద్ద రం</w>
ఇటాలి యన్</w>
ఇండె క్
ఇంటె లిజెన్స్</w>
ఇ బ్ర
ఆసక్ తిని</w>
ఆరోగ్య ంపై</w>
ఆధార ం</w>
ఆత్మ విశ్వాసం</w>
ఆటం కం</w>
ఆంగ్ లం</w>
ఆ రు
అహ రో
అస లైన</w>
అవి నీతి
అవసర ంః</w>
అర టి</w>
అమలు లోకి</w>
అమర్ చారు</w>
అభ్య స
అభ్య ంతర
అభి షిక్
అన్న దా
అనే దే</w>
అను గ్రహ
అధ్యయ న</w>
అధికార ి
అద్భు త
అడ్ మిని
అక్క డితో</w>
అంది స్తున్నాయి</w>
అంది స్తాయి</w>
ంబ ో
ంత్రి కుడు</w>
ం తులు</w>
ం ట్ల</w>
w s</w>
q u
o t
m m
co n
S h
Al so</w>
9 వ</w>
9 7</w>
3 1
200 3</w>
20 ,
2 వ</w>
2 1
్ర ో
ే తు
ుల ంతా</w>
ించుచు న్నాను</w>
ించు కొను
ించబడ లేదు</w>
ించ ారన్నారు</w>
ారు గా</w>
ార ంటే</w>
ా ము</w>
హ్ వాల్</w>
హైడ్ర ే
హె న
హార్ డ్</w>
హత్య లు</w>
హతమ య్యారు</w>
హ ్యూ
హ ో</w>
హ ే</w>
స్వాస్థ ్య
స్వ ార్థ
స్త ారో</w>
స్టేడి యంలో</w>
స్ట ా</w>
స్ట ర్స్</w>
స్ త</w>
సౌ లు</w>
సోమే శ్</w>
సై లె
సే ంద్ర
సెన్ సే
సూచ ీ</w>
సు ధ</w>
సీ త</w>
సీ క్
సీ ఐ</w>
సిల్ వర్</w>
సిపి ఎం</w>
సినిమ ాల్లోకి</w>
సి డ్
సాయ ంతో</w>
సాధ్య మేనా</w>
సా త్
సహ ేతు
సమన్వ య</w>
సమతు ల్య
సత్య రాజ్</w>
సంవత్సర ాలలో</w>
సంబ రాలు</w>
సంతో షి
సంతర ించుకుంది</w>
సంఘ ంలో</w>
సం విధాన</w>
సం గ్రహ
స ము</w>
స ఫ
స ని</w>
స జ్
స గు
షా ను</w>
శ్రీ శై
శ్రీ కారం</w>
శ్ర ద్ద</w>
శీర్ షి
శాస్త్ర వేత్త
శాంతియు తంగా</w>
శశి కళ</w>
శ శి</w>
వ్రా శాడుః</w>
వ్యా గన్</w>
వైయస్ సార్</w>
వేధ ింపులు</w>
వే తన</w>
వే డె
వెళ్ళ ింది</w>
వెళ్ లు
వెడల్ పు</w>
వెంచ ర్</w>
వు ండగా</w>
వీరి పై</w>
వీ ళ్లు</w>
వీ రే</w>
వీ ర</w>
వివాహ ేతర</w>
వివాదా స్పద
విలేకరు లతో</w>
విరా ళం</w>
విరా మం</w>
విభా గానికి</w>
విధ ుల్లో</w>
విద్య ార
విజయవాడ లో</w>
విజయ ్
విజయ ాలతో</w>
వి ను
వి త్</w>
వారణా సి</w>
వాడ ై</w>
వాటిల్లి ంది</w>
వర్గ ంలో</w>
వంశ స్థులు</w>
వ రాలు</w>
లో తు</w>
లే మీ</w>
లే క్</w>
లెక్క ల</w>
లీ డర్</w>
లాక్ డౌ
లంద రును</w>
ల ారీ
ల ాయి</w>
ల మీద</w>
రోజు లో</w>
రోజు లకు</w>
రో మీయులు</w>
రో గు
రూ పొందింది</w>
రు వ్
రీ మ
రి పోర్ట్</w>
రి చర్
రామో జీ</w>
రాజ్యాంగ ంలోని</w>
రాజీ వ్
రా స్య
రంగే ట్రం</w>
రం గుల</w>
రం ః</w>
ర ్రె
య్య ేందుకు</w>
యో గాలు</w>
యొద్ద నుండి</w>
యే ల్</w>
యు వన్</w>
య డం</w>
మ్యా ప్</w>
మో షన్</w>
మొ ఘ
మేమిద్ద రం</w>
మెహబూ బా</w>
మె మొ
మృత్యు వాత
మూడే ళ్ల</w>
ముఠ ా</w>
ము హ
ము సు
ము లుగా</w>
ము లతో</w>
మీడి య
మిలి యన్
మి ర్
మార్ టిన్</w>
మాధ్య మిక</w>
మాత్ర ాన</w>
మా ంత్రికుడు</w>
మస ాలా</w>
మల్హో త్రా</w>
మర్ చి
మర లా</w>
మనీ ష్</w>
మన లను</w>
మధ్య ప్రదేశ్లోని</w>
మద్దతు తో</w>
మత్ స్య</w>
మం జ్రే
మ ్యా</w>
మ యన్
మ న్న
మ నేది</w>
మ చ్చ
భౌగోళ ిక</w>
భో జన
భూ ములు</w>
భా వ</w>
భవ న
భర్తీ కి</w>
బ్ల డ్</w>
బ్బ ా</w>
బ్బ ర్</w>
బౌ ద్ధ
బొ ప్ప
బెట్ట ారు</w>
బృంద ాలను</w>
బు ద్ధి</w>
బిడ్డ కు</w>
బి యన్</w>
బాల ి
బా హ్య</w>
బా గ్</w>
బలగ ాలను</w>
బర్ త్</w>
బయట పడ్డారు</w>
బంధ ు</w>
ఫ్లి ప్
ఫ్లా ప్</w>
ఫ్లా ట్</w>
ఫ్రా ం
ఫ్ లో</w>
ఫిట్ నెస్</w>
ఫి దా</w>
ప్లా ంట్</w>
ప్రొ ఫైల్</w>
ప్రాజెక్ టులో</w>
ప్రస్తావ న</w>
ప్రసి ద్ది</w>
ప్రవేశ పెట్టింది</w>
ప్రభుత్ వర
ప్రతిపాద నలు</w>
ప్రతి స్పందన</w>
ప్రతి భా
ప్రజాస్వా మ్యాన్ని</w>
ప్రచు రి
ప్ షన్</w>
ప్ లె
పోష ించింది</w>
పోష ణ</w>
పోల్ చితే</w>
పోర్ టు</w>
పే స్ట్</w>
పెరుగుద లకు</w>
పుస్త కంలో</w>
పీఎన్ బీ</w>
పి పి
పి జి</w>
పాల్ పడ్డ
పాట ల</w>
పసి డి</w>
పలి కిన</w>
పరు వు</w>
పరీక్ష ను</w>
పరిశీలి స్తే</w>
పరిశీలి ద్దాం</w>
పరిశీల ించిన</w>
పరిగణ ించ
పరి చర్య</w>
పరమే శ్వర
పర మా
పని చేశాడు</w>
పద్ధ తిని</w>
పద్ద తి</w>
పత్ర ాన్ని</w>
పడ ాల్సిన</w>
పట్టి కలో</w>
పక్క నే</w>
పంజా బీ</w>
పం పింది</w>
ప రే
ప ప్పు
ప టా
న్ స్ను</w>
నో టు</w>
నేపథ ్య</w>
నేప ధ్యంలో</w>
నే మి</w>
నీ వే</w>
నిల బెట్ట
నిర్ణయ ాలను</w>
నిర్ గమ
నిర్గమ కాండము</w>
నిరసన కారులు</w>
నియోజక వర్గానికి</w>
ని య్య
ని బద్ధ
ని కొ
నాగ చైతన్య</w>
నష్ట ాల్లో</w>
నలుగు రి</w>
నరసింహ న్</w>
నమోద వుతున్నాయి</w>
న ాల్</w>
న వారిలో</w>
న వల
న ల
న మ్</w>
న దికి</w>
ధర ించి</w>
ద్ వంద
దొరికి న</w>
దేశ మును</w>
ది వా
దాల్ చ
దానియ ేలు</w>
దా సు</w>
దత్తా త్ర
త్రిపాఠ ి</w>
త్రి ష</w>
త్ తిని</w>
తోడ్ పాటు</w>
తోడ్ పడుతుంది</w>
తేలి కగా</w>
తేలి క</w>
తె చ్చిన</w>
తుండ టంతో</w>
తు రు</w>
తీసుకు న్నాను</w>
తీ పి</w>
తా గి</w>
తరు ణంలో</w>
తర హా
తమ్ము డు</w>
త ాయ
త నని</w>
డ్ ల</w>
డె బిట్</w>
డు గు
డీ ని</w>
డిశ్చార్ జి</w>
డి స్</w>
డి వై
డాక్ టర్
డం వల్ల</w>
ట్వీ ట్లో</w>
ట్రయ ల్స్</w>
ట్ర ా</w>
ట్ట ారు</w>
టొ యోటా</w>
టే జ్</w>
టీ రియా</w>
టీ చర్</w>
టి బె
టర్ లలో</w>
టర్ కీ</w>
ట వర్</w>
జేడీ యూ</w>
జెండ ాను</w>
జీవ నోపా
జీ వం</w>
జీ రో</w>
జి న్
జా మ్</w>
జా ప్యం</w>
జరి గాయని</w>
జరగ ాలని</w>
జన్మ ించారు</w>
జ న్స్</w>
జ ంతు</w>
చేర్ పించారు</w>
చేయాల న్న</w>
చేయ బడ్డాయి</w>
చే లా</w>
చెబు తోందిః</w>
చెప్పి నట్లు</w>
చెప్పా డుః</w>
చెప్ తున్నారు</w>
చెంచ ా</w>
చె త్త</w>
చె ట్ల</w>
చె క్కు
చూ స్తున్న</w>
చూ పారు</w>
చిక్కు కున్న</w>
చి లు
చల్ల టి</w>
చల న</w>
చర్చ ల</w>
చతు ర్
చంద్రశేఖ ర</w>
చ ్యూ
ఘాట ించారు</w>
ఘా టు</w>
గ్ లూ
గృ హాలు</w>
గూ ఢ
గుర వు
గు ంట</w>
గా కు</w>
గవర్ నర్లు</w>
గ ణ్</w>
ఖు రే
ఖడ్ గ
ఖ ిత</w>
క్షే మంగా</w>
క్ష ణ</w>
క్రైస్త వులకు</w>
క్రీ మ్</w>
క్ర ు
క్ట ార్</w>
కౌ న్
కోవ టానికి</w>
కోరుకు ంటారు</w>
కో స్ట్</w>
కో డి</w>
కొద్దిసే పటి</w>
కొట్ట ాడు</w>
కేసు లలో</w>
కేట గి
కేంద్రా న్ని</w>
కేంద్ర ీ
కే మి</w>
కే జీల</w>
కూ ర</w>
కూ డి</w>
కు శ
కు ది
కు డిగా</w>
కీల కంగా</w>
కాలే జీలో</w>
కాలు ష్య</w>
కార్మి కులను</w>
కారణ మవుతుంది</w>
కాకినా డ</w>
కాంగ్రె స్లో</w>
కా వల
కా టి</w>
కా ట
కా కపోతే</w>
కలు సు
కర్నాట కలో</w>
కర్ తలు</w>
కరివే పాకు</w>
కఠి న
కంటె ంట్</w>
కం పో
క ళ్ల
క లలో</w>
క డు</w>
క ండి
ఓపె నింగ్</w>
ఓ రియ
ఓ టర్ల</w>
ఒప్పంద ాలు</w>
ఒక రిని</w>
ఒంట రి
ఐగుప్ తు</w>
ఏ సీబీ</w>
ఏ మీ
ఏ నా
ఎస్ ఎల్</w>
ఎస్ ఆర్</w>
ఎన్న టికీ</w>
ఎన్డీ ఆర్ఎఫ్</w>
ఎన్ఐ ఏ</w>
ఎదుర య్యే</w>
ఎక్స్ పోలో</w>
ఎంద రో</w>
ఎ లె
ఎ లు
ఎ లీ
ఎ ప్పటి</w>
ఎ దిర
ఉండ ొచ్చని</w>
ఈ నెల</w>
ఇన్న ో
ఇంత టి</w>
ఇండ ో</w>
ఇంజ న్ను</w>
ఇ న్ని</w>
ఆహార ంలో</w>
ఆస్వా ద
ఆవిష్ కరించారు</w>
ఆలౌ ట్</w>
ఆర్థిక మంత్రి</w>
ఆరోప ణ</w>
ఆఫ్ ఘ
ఆధ్యాత్ మికంగా</w>
ఆదా ము</w>
ఆత్ మా
ఆకట్టు కో
ఆం క్ష
ఆ పి
ఆ ను
ఆ కృ
అస లే</w>
అల్ ప
అల రి
అయ్యా క</w>
అయి నట్లు</w>
అభ్యర్థ ి
అభిమాను ల్లో</w>
అభిమాను లను</w>
అఫి డవి
అప్ర మ
అప్పు ల</w>
అనే కం</w>
అను వైన</w>
అను బంధం</w>
అనర్ హత</w>
అన ై
అక్ష ర
అంబే ద్
అంబ టి</w>
అంట ాడు</w>
అంగీకర ించింది</w>
అంగీకర ించాడు</w>
అ సాధారణమైన</w>
అ య
అ మూ
అ న్యాయం</w>
అ ట్టి
n ame</w>
m a
l e
ct ion</w>
a y
R RR</w>
I D</w>
5 ,000</w>
19 0
16 వ</w>
14 :
13 .
12 వ</w>
0 లో</w>
్ర ే
ె క్క
ు రాలు</w>
ీవు డ్లో</w>
ీ యు
ించా డుః</w>
ించ లేరు</w>
ాలే వీ</w>
ాయి ని</w>
హాజరు కానున్నారు</w>
హర్ భజన్</w>
హరియా ణా</w>
హఠా త్తుగా</w>
హ ొ
స్వేచ్ఛ గా</w>
స్నాప్ డ్రాగన్</w>
స్తున్నా డని</w>
స్టేడి యం</w>
సౌ లభ్యం</w>
సో కి
సై బ
సై ంటి
సె షన్</w>
సూక్ష ్మ
సులభ తరం</w>
సీ ట్</w>
సినిమ ాలోని</w>
సిం ధు
సిం డ్రో
సాఫీ గా</w>
సాధ ించడానికి</w>
సాధ నం</w>
సా మర
సర్ కి
సర ైనది</w>
సమీక్ష ించారు</w>
సమీ క్షలు</w>
సమావే శాల</w>
సమస్య లపై</w>
సంస్కరణ ల</w>
సంప్రద ాయం</w>
సందర్శి స్తారు</w>
సందర్శ ించి</w>
సంజీ వ్</w>
సంఘ ానికి</w>
సంఘ టి
సంక్రమ ణ</w>
సం సిద్ధ
సం పూర్ణ
సం ఘ</w>
స రియ
స మే
స కల</w>
ష్రా ఫ్</w>
షా తో</w>
శ్రే ణులు</w>
శ్ వరు
శృ ంగ
శి శు</w>
శి రీ
శారీర కంగా</w>
శాని టై
శస్త్ర చికిత్స</w>
శ ౌ
శ వ
వ్వ ాలి</w>
వ్యా ధు
వ్యా జ
వ్యవహరి స్తారు</w>
వై పరీ
వేసు కోవాలి</w>
వేశ ాయి</w>
వేణు గోపాల్</w>
వే స్తారు</w>
వే జ్</w>
వెళ్ల ాలి</w>
వెళ్ల డం</w>
వెలువ డే</w>
వెంకయ్య నాయుడు</w>
వె ర్ష
వె న్
వు ంటు
వు ంటారు</w>
వీడియో లను</w>
విశ్వవిద్యాల యంలో</w>
విశ్వవిద్యాల య</w>
విరి గి
విభా గాల</w>
వినో దం</w>
విని పించారు</w>
విద్యార్ ధులు</w>
విజయ వంత
వి మో
వి ముక్
వి పక్షాల</w>
వి డ</w>
వాళ్ల తో</w>
వాజ్పే యి</w>
వా హిక</w>
వా ంగ్
వలసి ందిగా</w>
వల ే</w>
వర్ లో</w>
వర్ మ
వనరు లను</w>
వచ్చి నా</w>
వ స్తున్న
వ ంచ
ళి తే</w>
ళ న</w>
లోప లి</w>
లే త</w>
లీ లో</w>
లావణ ్య</w>
లాభ పడ్డాయి</w>
లక్ష ్యాలు</w>
లక్ష ణ</w>
ర్యా న్ని</w>
రోజురోజు కీ</w>
రోజు లలో</w>
రెడ్ డిని</w>
రె సి
రె న్</w>
రూపొంది స్తున్నారు</w>
రూపొంది స్తున్న</w>
రూప కల్ప
రుజు వు</w>
రిటై ర్డ్</w>
రాష్ట్ర ంగా</w>
రామచంద్ర ారెడ్డి</w>
రాజశేఖ ర
రాజకీయ ాలపై</w>
రా నున్నారు</w>
రా కేశ్</w>
రస వత్త
రవి శాస్త్రి</w>
రమ్య కృష్ణ</w>
రణ బీర్</w>
ర స్</w>
ర తన్</w>
ర ణ్</w>
యొ క</w>
యూని ట్లు</w>
యుద్ధ ము</w>
యిర్మీ యా</w>
యా ం
యజమా ను
మ్ర ొ
మోటార్ సైకి
మొదలుపెట్ట ాడు</w>
మైన టువంటి</w>
మే మంతా</w>
మే ట్</w>
మే టరీ</w>
మెరు పు</w>
మెంట ు</w>
మె మో
మృదు వైన</w>
మృతదే హాలు</w>
మృ తిగా</w>
మూ లాలు</w>
ముఫ్ తీ</w>
ము లోనికి</w>
మినహాయ ింపులు</w>
మి శ్రమ
మి ల్
మావోయి స్టులు</w>
మార్గ మధ్య
మాట ే</w>
మాట ను</w>
మా ర</w>
మా త</w>
మా గా</w>
మహేంద్ర సింగ్</w>
మరో పక్క</w>
మనస్సు ను</w>
మన స్
మన వి</w>
మన మంతా</w>
మన కి</w>
మందిర పు</w>
మంద న్న</w>
మండల ంలోని</w>
మ లి
మ తాన్ని</w>
భార్య తో</w>
భారత్ పై</w>
భారతీయు ల</w>
భాగస్వా మ్యాన్ని</w>
భాగ ్య
భా ను
భర్ తకు</w>
భరి తంగా</w>
భయం కరమైన</w>
భయ పడు
భ ్</w>
భ లే</w>
భ ద్ర</w>
భ ంగం</w>
బ్ బి
బో రిస్</w>
బొత్ స</w>
బెంగ ాలీ</w>
బు గ్గ
బి జీ</w>
బాధితు రాలిని</w>
బాధి తులను</w>
బాధ ను</w>
బాద ల్</w>
బా బ్ర
బా గుండ
బరు వును</w>
బట్టి యు</w>
ఫో న్ల</w>
ఫై లు</w>
ఫేస్బు క్లో</w>
ఫా లో</w>
ఫా మ్</w>
ప్లే ట్</w>
ప్రోత్ సాహం</w>
ప్రేక్ష కుల్లో</w>
ప్రాసె సర్</w>
ప్రారంభ ించడం</w>
ప్రారంభ మవుతుంది</w>
ప్రాథ మి
ప్రశ్నించ ాడు</w>
ప్రయాణీ కుల</w>
ప్రత్యామ్నాయ ం</w>
ప్రకట ించ
ప్ లు</w>
పోర్ టల్</w>
పోయ ేలా</w>
పోక్ సో</w>
పో ఖ్రియాల్</w>
పొ డిగా</w>
పై విచారణ
పే పర్</w>
పె డితే</w>
పె ంచి</w>
పూర్ వం</w>
పూ ల
పూ రీ</w>
పునరుత్థా నం</w>
పీ సీ</w>
పిటీ షన్</w>
పించ డం</w>
పి చ్చి</w>
పాల్గొ న్నాడు</w>
పాల్గొ ంటున్నారు</w>
పాల ా</w>
పారి పోయారు</w>
పాప ము</w>
పాఠశాల ల్లో</w>
పర్ చు
పరిష్ కరి
పరిమా ణ
పరి చేందుకు</w>
పరామర్ శ
పయి నీరు</w>
పదార్థ ం</w>
పద ార్ధ
పడ కండి</w>
పట్ట ించుకోవ
పక్క కు</w>
పండ గ</w>
న్నా మన్నారు</w>
న్ స్కు</w>
నౌ క</w>
నోటీ సు</w>
నైపుణ్య ాలను</w>
నేర్చు కోవచ్చు</w>
నేర్చు కున్నాను</w>
నే రాలు</w>
నే ట్</w>
నెదర్ లాండ్
నెక్ స్ట్</w>
నె గ
నీయు ల</w>
నిశ్చి త
నివ్వ లేదు</w>
నివసి స్తున్న</w>
నిలిచి పోయింది</w>
నిర్వహి స్తుంది</w>
నిర్మ ించడం</w>
నిరుత్ సాహ
నిర సిస్తూ</w>
నియమ ాలను</w>
నిమ్మర సం</w>
ని ప్పు</w>
నాశ నము</w>
నాయుడు పై</w>
నాయకు డి</w>
నామ మును</w>
నాగాలా ండ్</w>
నష్ట ాన్ని</w>
నష్ట పోయిన</w>
నల్ గొండ</w>
నరసింహ ారావు</w>
నమోదు చేసి</w>
నటి స్తుండ
న స్</w>
న లతో</w>
న ందు
న ంః</w>
ధ్వంసమ య్యాయి</w>
ధ్రువీ కరించారు</w>
ధను ష్</w>
ద్ర విడ్</w>
ద్ద రూ</w>
ద్ద రు</w>
దౌ ర్
దోపి డీ</w>
దై విక</w>
దేశ ్</w>
దే వే
దృఢ ంగా</w>
దృగ్ విషయం</w>
దుష్ ప్రభావాలు</w>
దిల ్రాజు</w>
దిగు బడి</w>
ది యు</w>
ది ను
ది త్య</w>
దారు లతో</w>
దక్షిణా న</w>
ద ైనా</w>
ద మ్ము
ద ఫ
త్యా గ
త్ తో</w>
తో డుగా</w>
తొలగ ించాలని</w>
తే మ</w>
తు ందట</w>
తీ రం</w>
తి య్య
తరహా లో</w>
తర లి</w>
తనిఖ ీలు</w>
తన కంటూ</w>
తగ్గ ించడం</w>
తగ్గ డానికి</w>
తక్కు వే</w>
తం లోనూ</w>
త ారో</w>
త ప
ఢ ీ</w>
డ్డ ింగ్</w>
డ్ లను</w>
డ్ డు</w>
డైరెక్టర్ గా</w>
డె మో
డీ లు</w>
డి పార్
ట్రై నింగ్</w>
ట్రా క్టర్</w>
ట్ర ై</w>
ట్ నీ</w>
టో ల్</w>
టై ర్లు</w>
టీమిం డి
టీ లకు</w>
ట స్</w>
ఝ ా
జ్ఞా నాన్ని</w>
జో స్</w>
జె డి</w>
జీ వీ
జి బి</w>
జల పా
జరుగు తూనే</w>
జరిగే ది</w>
జరిగి పోయింది</w>
జమ్మూ కాశ్మీర్</w>
జమ్మూ కశ్మీర్</w>
జన్ యు
జన తా
జ ైన</w>
జ ల్
జ క్క
ఛే ంజ్</w>
చో టా</w>
చేస్తు ంటారు</w>
చేసే వాడు</w>
చేసుకు న్నట్లు</w>
చేసుకు న్న
చేసుకు ంటే</w>
చేసు కోలేదు</w>
చేసి రి</w>
చేయబడ తాయి</w>
చేయ ూ
చేప ట్టి</w>
చే ంజ్</w>
చెంది నది</w>
చె రువు</w>
చూపు తుంది</w>
చు ర
చు ండెను</w>
చివర గా</w>
చికిత్ సలు</w>
చి ల్ల
చర్య గా</w>
చర్చ ించి</w>
చం పి</w>
గ్రామీ ణాభివృద్ధి</w>
గ్ర ిని</w>
గౌరవ ంగా</w>
గోవి ందం</w>
గోరు వెచ్చని</w>
గేర్బాక్ స్తో</w>
గెలు పొందింది</w>
గెలి చి
గుడ్ డు</w>
గుండె పోటుతో</w>
గింజ లు</w>
గి ట్టు
గవర్ నర్గా</w>
గలి గింది</w>
గల వు</w>
గరి ష్ఠ</w>
గడుపు తారు</w>
గ నై
గ ట్టు
గ గ
గ ంగా
ఖే ల్</w>
ఖర్ గే</w>
ఖండ ము</w>
ఖ జా
క్యాపి ట
క్ లూ
కోర్ సు
కొన డంతో</w>
కేంద్ర మంత్రులు</w>
కెమెరా లో</w>
కెమె రాల్లో</w>
కూర్చు ని</w>
కుంటు న్నాయి</w>
కు ందాం</w>
కి రీ
కావ ొచ్చు</w>
కారు కు</w>
కారణ మైంది</w>
కా ళ్లు</w>
కస్ట మర్</w>
కలుపు కోవాలి</w>
కల క
కరు ణ
కనిపించ బోతున్నారు</w>
కంప్ లీట్</w>
క త్తి</w>
ఒకే లా</w>
ఒకరికొ కరు</w>
ఒ బె
ఐ టి
ఏర్ పడతాయి</w>
ఏపీ కి</w>
ఏ రో
ఏ డో</w>
ఏ ఐసీసీ</w>
ఏ ంటీ</w>
ఎస్ డీ</w>
ఎవరి ది</w>
ఎలక్ ట్రికల్</w>
ఎము కలు</w>
ఎక నామి
ఎ లిమి
ఊహా గా
ఉపయోగ కరమైన</w>
ఉపయోగ కరంగా</w>
ఉన్నా ము</w>
ఉన్నా డని</w>
ఉత్తర ప్రదేశ్లో</w>
ఈ దు
ఈ జీ</w>
ఇస్లా మిక్</w>
ఇలా నే</w>
ఇరా నీ</w>
ఇన్ఫో టై
ఇను ము</w>
ఇత నికి</w>
ఇజ్ర ాయె
ఇచ్చ ాయి</w>
ఇంత కన్నా</w>
ఇంటి లో</w>
ఇ స్తోంది</w>
ఇ ష్యూ
ఇ ర
ఆహ్వా నించింది</w>
ఆవిష్ కరించింది</w>
ఆలోచ ించాలి</w>
ఆర్థిక శాఖ</w>
ఆర్ గనై
ఆధి క్యం</w>
ఆ దేశం</w>
ఆ చరణ</w>
అవు తుందా</w>
అర్హు లైన</w>
అర్ ధ</w>
అర్ జె
అప్ర మే
అన్య జను
అన్న పూర్ణ</w>
అన్న ం</w>
అనూహ్య ంగా</w>
అనుప మ</w>
అధ్య ాయం</w>
అథ్ లె
అంశ ంలో</w>
అంద ించనున్నారు</w>
అంత లోనే</w>
అ పో
అ నీ</w>
అ దృశ్య
అ ఘ
ంగ ంలో</w>
ం లా</w>
ం క
v i
o c
i t</w>
ar t
IP L</w>
C O
4 5
3 4
200 9లో</w>
199 8</w>
19 ,
15 వ</w>
1. 0</w>
్ర ౌ
ు ల్ని</w>
ీ లను</w>
ీ రు</w>
ీ కరి
ించు ట
ించ కండి</w>
ి స్తారు</w>
ాలే ంటి</w>
ాలనుకుంటు న్నారా</w>
ారి యా</w>
ారా ధ
ాయ ెను</w>
ాయ ుడు</w>
ా న్ని
హోరాహో రీగా</w>
హో రె
హెలికాప్ టర్</w>
హూ ర్
హిందు వుల</w>
హామీ లు</w>
హామీ లను</w>
హ రణ</w>
హ మీ
హ ంత
స్వ దేశానికి</w>
స్పె సి
స్పంద ించాడు</w>
స్ప ర్
స్థిర త్వం</w>
స్థి రా
స్థి తిని</w>
స్తున్న ందుకు</w>
స్త రు</w>
స్ట్రు మెంట్</w>
స్క్రీ నింగ్</w>
స్కీ మ్</w>
సోషల్ మీడియాలో</w>
సోద రీమ
సొ మ్ము
సైబ రాబాద్</w>
సైని కుల</w>
సేవ లో</w>
సెల్ ఫీ
సె ఫ్</w>
సె ట్లో</w>
సె కండ
సూక్ష్ మ</w>
సూ టిగా</w>
సు ల
సి ద్ది
సి ట్ట
సి గ్గు</w>
సామ్రాజ ్యం</w>
సాంద్ర త</w>
సా ద
సా క్షి
సహ జీవనం</w>
సహ కరించిన</w>
సస్పె న్స్</w>
సరి ప
సమీక్ష ా</w>
సమర యోధుడు</w>
సమకూరు స్తున్నారు</w>
సమకూ ర్
సంబంధ ించిన
సందే హాలు</w>
సంతా న
సంఘ ీ
సంక్షే మ
సం పన్న
స మ్మి
షో య
షోయ బ్</w>
శా ంక్</w>
శక్ తిగా</w>
శ ార్
వ్రా సిన</w>
వ్యాపార ులు</w>
వ్యాపార ి</w>
వ్యవస్థ లను</w>
వ్యతిరేకి స్తూ</w>
వ్యతిరేక ించారు</w>
వే ం</w>
వెళ్ళ ే</w>
వెళ్ళ ాడు</w>
వెను దిరి
వె బి
వివాదా ల</w>
విలువై న
విని యోగి
విధేయ త</w>
విదేశ ాలకు</w>
విడి పోయారు</w>
విజయవాడ ః</w>
విజయ ాలను</w>
విజ ు
వి భిన్నమైన</w>
వి క్
వి కలా
వాళ్ల ంతా</w>
వాల్యూ మ్</w>
వారి యర్</w>
వార ని</w>
వాతావర ణాన్ని</w>
వా స</w>
వా ను</w>
వసూ ళ్లను</w>
వర్ తన
వర స
వచ్చ ో</w>
వంతు న</w>
వంటి ది</w>
వ స్తు</w>
ళ్ళ ు
ళ్ లు
ల్ల ీలో</w>
లో య</w>
లై బ్ర
లేద ంటూ</w>
లేఖ నాలు</w>
లే దు
లె వరూ</w>
లియో న్</w>
లా జికల్</w>
లంచ ం</w>
ల ార్</w>
ల స్</w>
ల క్కీ</w>
ర్ లుగా</w>
ర్ ని</w>
రైల్ వేలు</w>
రై తే</w>
రే ం
రెడ్ మి</w>
రెండో ది</w>
రె హ్
రూపొందు తోన్న</w>
రూపొంద ించబడింది</w>
రూ బి
రీ స్</w>
రికార్డు లను</w>
రాయ బారి</w>
రాయ డం</w>
రాకపో కలకు</w>
రా సింది</w>
రా త్రికి</w>
రా గానే</w>
రా కీ</w>
రా క</w>
రవీ ందర్</w>
రణ్ బీర్</w>
రణ కు</w>
రక్ష ించారు</w>
ర కాల
యో చి
యెహోషు వ</w>
యూనివర్శి టీ</w>
యూనివర్ సిటీలో</w>
యూ లో</w>
యుండ ును</w>
యు ద్ధాలు</w>
యు టి
యాక్సి డెంట్</w>
యన్ షిప్</w>
యన గా</w>
మ్యూ చువల్</w>
మ్ స్లో</w>
మోటార్ సైకిల్</w>
మొద టగా</w>
మొ జాం
మైన ార్
మే లు
మే ంటి</w>
మెడి సిన్</w>
మె హ్ర
మె కు</w>
మృతు డికి</w>
మూసి వేశారు</w>
మూ డిం
మూ డవ
మున ందు</w>
ముఖ ా
ముంబయి లో</w>
ముందు వైపు</w>
ము హూర్
ము వలన</w>
ము క</w>
మీ రు
మీ రి
మీ ర</w>
మిల టరీ</w>
మి డ్
మి క్కీ</w>
మార్చు రీకి</w>
మారు తోంది</w>
మారి పోయాయి</w>
మాట లాడు
మా టకు</w>
మహిళ కు</w>
మహాత్ మా
మల్లి కార్
మరణ ించినట్లు</w>
మరణ ంతో</w>
మనుష్య ులు</w>
మన దేశంలో</w>
మన కున్న</w>
మంద న</w>
మంజ్రే కర్</w>
మం జూ
మ హో
మ న్లు</w>
మ న్నా</w>
మ ట్టు
మ ట</w>
భూ భాగంలో</w>
భూ భాగ
భావి స్తోంది</w>
భావి స్తున్నాను</w>
భావ ంతో</w>
భాగస్వామ్య ంతో</w>
భా ల</w>
భర్ తతో</w>
భర ించ
భద్ర తా
బ్రహ్మాన ందం</w>
బ్యాట్స్ మెన్</w>
బోర్ డు
బై డెన్</w>
బెదిర ింపు
బెంగుళ ూరు</w>
బె డ్</w>
బి ల్డింగ్</w>
బాల ె
బా డ్
బర్ డ్</w>
బడు తోంది</w>
బ ండ్ల</w>
ఫ్లా ష్</w>
ఫ్రె ష్</w>
ఫైనా న్షియల్</w>
ఫెస్టి వల్</w>
ఫెడ రేషన్</w>
ఫె యి
ఫిం గర్</w>
ఫి న్
ఫి జి
ఫల ించలేదు</w>
ఫ ్యూ</w>
ప్రేమ గా</w>
ప్రార్థ నలు</w>
ప్రారంభ ించడానికి</w>
ప్రామా ణి
ప్రాంత ాలుగా</w>
ప్రా ముఖ్యం</w>
ప్రసా ద్
ప్రసంగ ంలో</w>
ప్రసం గాన్ని</w>
ప్రయో గాలు</w>
ప్రభుత్వా స్పత్రికి</w>
ప్రభుత్వర ంగ</w>
ప్రదర్శ ించిన</w>
ప్రతి ఫల
ప్రజాస్వా మ్యంలో</w>
ప్రజ లపై</w>
ప్రచుర ించిన</w>
ప్రకట ించనున్నారు</w>
ప్ర ాయం</w>
పోష కాలు</w>
పోరా ట</w>
పోయి రి</w>
పోటీ ల్లో</w>
పో సాని</w>
పో వును</w>
పో త</w>
పొడిగ ింపు</w>
పొంద ొచ్చు</w>
పెరిగిపో తోంది</w>
పెట్టు కున్నాడు</w>
పెండ ింగ్లో</w>
పె యిడ్</w>
పృథ్ వీ</w>
పురస్కర ించుకుని</w>
పు కార్లు</w>
పీ వీ
పి ల్లా
పారి పోయాడు</w>
పాత్ర లను</w>
పాట ే</w>
పా స్పోర్
పా ము</w>
పా న్లో</w>
పల్లి లో</w>
పర్స నల్</w>
పర్యాట కులకు</w>
పరో క్షంగా</w>
పరిస్ ధి
పరిశీల నలో</w>
పరిమి తిని</w>
పరి సర
పర చి</w>
పని చేసింది</w>
పదే పదే</w>
పదు కొనే</w>
పద వులు</w>
పతి బాబు</w>
పడ ాల్సి</w>
పట్ట ాలె
పట్ట డం</w>
పగ టి</w>
పంజా బ్లో</w>
పంచ దా
పంచదా ర</w>
పం పు</w>
ప ర</w>
న్నిటి నీ</w>
నో ట్లు</w>
నొప్ప ులు</w>
నొప్ప ి
నొ ద్ద
నైపుణ ్యాలు</w>
నే న
నెల కొని</w>
నె హ్వాల్</w>
ను ః</w>
నీ ర
నీ ట</w>
నీ కి
నివేది కలు</w>
నిర్వహ ణలో</w>
నిర్ణయ ించుకున్నారు</w>
నిర్ లక్ష్యంగా</w>
నినా ద
నిందితు ల్లో</w>
ని చ్చే</w>
ని ంపు
ని ండి</w>
నాశ న
నా ః</w>
నష్ట పరిహారం</w>
నలు మూల
నర్ మ
నను సర
నటీనటు లుః</w>
నచ్చు తుంది</w>
నంద ్యాల</w>
నంద లి</w>
న నియు</w>
న టువంటి</w>
న గు</w>
ధ్రువీ కర
ధ్యా నం</w>
ధర్ మం</w>
దోష ము</w>
దేశ ్
దేవుని తో</w>
దెబ్బ కు</w>
దూ ష
దుర ద</w>
దుబ ాయ్</w>
దీ టుగా</w>
ది లీప్</w>
దారు లపై</w>
దా సరి</w>
దా చు
దా ంట్లో</w>
దర్శక ధీరుడు</w>
దరఖా స్తులు</w>
ద గిన
థా క్రే</w>
థ మన్</w>
త్త ర
తోడ్ పడ
తో డు
తేల్ చి
తే నె
తే జస్
తే ంటి</w>
తెలు ప
తెలి పి
తెల ప
తురు ము</w>
తున్నా ము</w>
తీసుకోవ ాల్సి</w>
తీసుకో లేదని</w>
తీసుకొ చ్చింది</w>
తీ హార్</w>
తి నే</w>
తి కే
తి కి
తాగు నీటి</w>
తా ండ
తరు ణ్</w>
తర పు</w>
తగ్గ ించి</w>
తండ్ర ియైన</w>
త ారు
త ాయా</w>
త థ
ఢిల్లీ ః</w>
డ్ గా</w>
డే టింగ్</w>
డీ జి
డిఎం కె</w>
డా లు</w>
డా న్స్</w>
డబ్ల్య ు</w>
టెర్ర రి
టీ20 లు</w>
టీ మ్
టీ ఆర్
టివి టీ</w>
టన్న ులు</w>
ట ట్లు</w>
జ్ఞాప క
జీవిత ాల్లో</w>
జీ వన్</w>
జీ ప్</w>
జీ తాలు</w>
జార్ ఖ
జవా న్ల</w>
జరిగి ంద
జయ ంత్</w>
జ ుల</w>
జ లు
జ మ
జ బ్బులు</w>
జ ప
ఛార్ జీలు</w>
చ్చ ా</w>
చేపట్టి నట్లు</w>
చే ద్దా
చే తుల్లో</w>
చే తుల</w>
చెల్ల ె
చెబు తున్న
చెబు తాను</w>
చెప్పు కోవచ్చు</w>
చెప్ప ాల్సిన</w>
చెందు తుంది</w>
చె డ్డ</w>
చూపించ డం</w>
చూ స్తుంటే</w>
చు క్కె
చి ల
చి న్నది</w>
చాలా వరకు</w>
చా క్
చల్ ప్రదేశ్</w>
చట్ట ాల</w>
చ కచ
ఘో రం</w>
గ్రి ల్</w>
గ్య ాల
గ్య ార
గోల్ డెన్</w>
గోపీ చంద్</w>
గో ర
గే మ్స్</w>
గెలు పొందిన</w>
గులా బీ</w>
గుర్త ించింది</w>
గుండ ు</w>
గు ల్
గు రైంది</w>
గు ణాలు</w>
గు ంత
గు ం
గి న్న
గాల ులు</w>
గలి గే</w>
గర్భ ధారణ</w>
గణ ే
గడ్డ పై</w>
గ ించింది</w>
ఖర్చు లను</w>
క్లి యర్</w>
క్రీడ ల్లో</w>
క్ర టిక్</w>
కోయ ంబ
కోప ము</w>
కోట్ లే</w>
కో త్స
కొనియా డారు</w>
కొనసాగు తోందని</w>
కొంద రి</w>
కొ నేందుకు</w>
కొ ను</w>
కే కలు</w>
కూ రు</w>
కుర ్రా
కుమార్తె ను</w>
కుదర లేదు</w>
కుటుంబ ాలను</w>
కు లే</w>
కు ర్
కు ండు
కు ంటాయి</w>
కి ందికి</w>
కార్యకర్ తలను</w>
కార్యకర్ త</w>
కారణ ాలున్నాయి</w>
కాన్ ఫి
కర్త వ్య
కరుణా నిధి</w>
కర ్రెడ్డి</w>
కనిపించ నుంది</w>
కంపెనీ లో</w>
కండ రాలు</w>
క ాల్లో</w>
ఒ రిజి
ఐర్ లాండ్</w>
ఐపీ ఎస్</w>
ఐఆర్ సీ
ఐ టీ
ఐ ఎల్</w>
ఐ 20</w>
ఏ వైనా</w>
ఏ క్
ఏ కే</w>
ఎవర ీ</w>
ఎల్ ఐ
ఎరు వులు</w>
ఎన్ సీ
ఎన్ కౌంటర్
ఎదురు కాల్పుల్లో</w>
ఎదు రుగా</w>
ఎగ బా
ఎక్ సైజ్</w>
ఎక రానికి</w>
ఎందు కీ</w>
ఎంత మంది</w>
ఎం సి</w>
ఎ టు
ఎ ండి</w>
ఊరి కే</w>
ఊ రు</w>
ఉల్లంఘ ి
ఉమే ష్</w>
ఉద్రిక్త తలు</w>
ఉద్యమ ంలో</w>
ఉద్దేశ ్యం</w>
ఉత్తరా ఖ
ఉత్త మ
ఉత్ సాహం</w>
ఉండ ొచ్చు</w>
ఉ ద్ద
ఈ జ్</w>
ఇసు క</w>
ఇష్టపడ తారు</w>
ఇశ్రాయేలీయు లకు</w>
ఇరా క్</w>
ఇబ్ర హీ
ఇప్పటి కైనా</w>
ఇక్క డకు</w>
ఇండోనే షియా</w>
ఇ స్సా
ఇ స్తాం</w>
ఇ వీ</w>
ఇ డి</w>
ఇ టి
ఇ ందు</w>
ఆసుపత్ర ులకు</w>
ఆశ్రయ ించింది</w>
ఆశీర్ వది
ఆఫీ సర్
ఆధిప త్యం</w>
ఆతిథ ్య</w>
ఆడ నుంది</w>
ఆటగా డిగా</w>
ఆకార ంలో</w>
ఆకట్టు కుంటుంది</w>
ఆంధ్ర ా</w>
ఆ రి
ఆ భర
ఆ ధార్
ఆ డ</w>
ఆ కలి
అసెంబ్లీ కి</w>
అవే ంటో</w>
అవస రాన్ని</w>
అలా ంటప్పుడు</w>
అరో రా</w>
అయ్య ో</w>
అయ్య ి
అమర్ చ
అమ ాయ
అమ ర్</w>
అభి యోగ
అభి యాన్</w>
అభయ ార
అపార మైన</w>
అనుకో ని</w>
అను వాదం</w>
అను కున్నాను</w>
అనారో గ్యా
అధ్యయ నాలు</w>
అధు నాతన</w>
అదుపు తప్పి</w>
అదిరి పోయే</w>
అడి గే
అట వీ
అఘ ాయి
అక్టో బరు</w>
అక్కడ క్కడ</w>
అక్క ర్లేదు</w>
అక్క డా</w>
అక స్మాత్తుగా</w>
అంబేద్ కర్</w>
అందు కుంటారు</w>
అంద లేదు</w>
అంద ం</w>
అంత టితో</w>
అంట ోంది</w>
అంచ నాలు
అంగీకర ించ
అ ష్
అ పోలో</w>
అ తు
అ తీ
అ తిగా</w>
అ టార్
అ జ్
అ జిం
అ క్క</w>
ంప ల్లి</w>
ంత ే</w>
ంత ంగా</w>
ండ్ర ు</w>
ంటి ని</w>
ంట ేనే</w>
ం బు
s e
p s</w>
in dia</w>
i f
co m</w>
at e</w>
a i
M S</w>
6 4
3. 5</w>
199 0</w>
19 .
18 వ</w>
17 5</w>
150 వ</w>
1, 0
1 200</w>
1 18</w>
1 1.
్ వ</w>
ే వారు</w>
ె స్</w>
ులంద రూ</w>
ుల ై</w>
ుల ూ</w>
ీ న్</w>
ీ నా</w>
ింప బడు
ించ బడ్డారు</w>
ించ బడే</w>
ి స్తుంది</w>
ాల నూ</w>
ారి స్</w>
ార ాయన</w>
హ్యా ండ్</w>
హో దా
హై కోర్టును</w>
హీ ను
హారి స్</w>
హాం కాంగ్</w>
హను మంత
హ ్రా
స్వీ ప్</w>
స్వయ ంచ
స్ఫూర్ తిని</w>
స్పార్ క్</w>
స్నేహితు లతో</w>
స్ధా నంలో</w>
స్థలా లు</w>
స్తో ందిః</w>
స్తు ంటాయి</w>
స్త ే
స్టో ర్లో</w>
స్టా ఫ్</w>
స్ట ో</w>
స్ వరం</w>
స్ ని</w>
సో ర్
సో కిన</w>
సై న్యా
సేవల ంద
సేవ ను</w>
సేంద్ర ీయ</w>
సే తు</w>
సే కరించిన</w>
సెల వు
సె ంటి
సూచి క</w>
సులు వు</w>
సు న్నా</w>
సు జిత్</w>
సీతారామ రాజు</w>
సీఏ ఏ</w>
సినిమాటో గ్రాఫర్</w>
సిట్ట ింగ్</w>
సిఇ ఒ</w>
సిండ్రో మ్</w>
సిం హా
సి మ్
సాక్ష్య మి
సవర ించిన</w>
సర్వ త్రా</w>
సర్ పంచ
సమావేశ ాలకు</w>
సమర్ పించిన</w>
సమన్వ యం</w>
సభ ను</w>
సదుపాయ ాలను</w>
సంస్థా గత</w>
సంవత్సర ాలకు</w>
సంబంధ ించినది</w>
సంఘ ర్ష
సంగ ారెడ్డి</w>
స రుకు</w>
షీ ట్</w>
షి యాలో</w>
ష ై
శ్రీ హరి</w>
శోధ న</w>
శో భ
శివ రాత్రి</w>
శిఖ రం</w>
శాసన మండలి</w>
శర్మ కు</w>
శర్ వా
శబరి మల</w>
వ్యాపార ాన్ని</w>
వ్యాఖ్యా నించ
వ్యా ధిని</w>
వ్యవహర ించాలి</w>
వ్యవహర ించాడు</w>
వ్యత్యా సం</w>
వ్యక్తం చేశారు</w>
వ్య భి
వో లు</w>
వొ డాఫోన్</w>
వైఖ రిని</w>
వై డ్</w>
వేరియం ట్లో</w>
వే షన్</w>
వెళ్ళ ండి</w>
వెన క్కు</w>
వృ ధా</w>
విశ్వ సి
విశేష మైన</w>
విశేష ంగా</w>
వివాద ంలో</w>
వివా దానికి</w>
విరాళ ాలు</w>
వినియో గ</w>
విని పిస్తోంది</w>
విధా నానికి</w>
విద్య కు</w>
విజయ ంపై</w>
విక్రయి స్తున్నారు</w>
విక్ర యాలు</w>
విం టు
వి రో
వి పి</w>
వి కారా
వాళ్ళ కు</w>
వాళ్ళ ం</w>
వాల ె
వార్ షి
వార్ తల</w>
వారి కే</w>
వార ే
వాటి ల్ల
వా ని
వా న
వా డే
వహ ించే</w>
వహ ించాలి</w>
వ సంత</w>
వ ల్లి</w>
వ జ
వ ంలో</w>
ళ్లి న</w>
ల్ య</w>
ల్ కి</w>
ల్ ః</w>
లోక సభ</w>
లైంగ ికంగా</w>
లై న్
లై నా</w>
లె త్త
లుక్కే యండి</w>
లు ంటాయి</w>
లీ కి</w>
లి ఫ్
లాండ రింగ్</w>
లభ ించనుంది</w>
లడ ఖ్</w>
లగ డ
ల వర్</w>
ల ంబ
రౌ ండ్</w>
రె గ్యు
రుణ మాఫీ</w>
రిపబ్లి కన్</w>
రిటైర్ మెంట్</w>
రి టర్
రాస్య త</w>
రాష్ట్ర ీయ</w>
రామ్ మోహన్</w>
రాత పరీక్ష</w>
రాజేంద్ర ప్రసాద్</w>
రాజకీయ ాలలో</w>
రాజ ్యాన్ని</w>
రాజ ీ</w>
రా నున్నాయి</w>
రా ను
రచయి తలు</w>
రక్ తాన్ని</w>
య్య ను</w>
యోగ ే
యె స్</w>
యూ దులు</w>
యువ జన</w>
యు పి</w>
యా పిల్</w>
య ర్స్</w>
య గు</w>
మ్యా నికి</w>
మ్ ములు</w>
మో ర్
మొక్క జొన్న</w>
మొ క్క</w>
మైన దే</w>
మేమి టంటే</w>
మేనిఫె స్టో
మేజి స్ట్రేట్</w>
మెద క్</w>
మెజ ారిటీ
మెగా పిక్సల్</w>
మె ల్ల
మె త్త
మృత్యువాత పడ్డారు</w>
మృతి తో</w>
ముల ాయం</w>
ముచ్చ ట
ముగి సే
ముంబయి లోని</w>
ము లోను</w>
ము లును</w>
ము చేత</w>
ము ందని</w>
మీడి యా
మీ కి
మిలి టరీ</w>
మిగి లి</w>
మి ర
మార్పు లకు</w>
మామూ లుగా</w>
మాన్ యువల్</w>
మాధ్య మం</w>
మాట్లాడ టానికి</w>
మల్ లే
మల్ కా
మలయా ళ
మరొక రికి</w>
మరి కొద్ది</w>
మరణ ించారని</w>
మయన్ మార్</w>
మన ది</w>
మధ్య ను</w>
మంది ర</w>
మండల ంలో</w>
మం తుడు</w>
మ లైకా</w>
మ య్యింది</w>
మ మ్మును</w>
భౌ తిక
భే టీకి</w>
భివృద్ధి కి</w>
భారతీయు డు</w>
భగ వత్</w>
భ ి</w>
బ్రి ట
బ్ డే</w>
బోలె డ
బృ హ
బుల్లె ట్</w>
బు ట్ట
బీ బీ
బిగ్గ ెస్ట్</w>
బి హార్
బి లో</w>
బి పిన్</w>
బాధ గా</w>
బాద్ లోని</w>
బాగు న్నాయి</w>
బాక్ సింగ్</w>
బలహీన త</w>
బరో డా</w>
బతు కు
బడు తున్నాయి</w>
బం ధాన్ని</w>
బ ారా
బ న్నీ</w>
బ ద
బ ట
ఫ్ లూ</w>
ఫో రం</w>
ఫై న్</w>
ఫీ ల్</w>
ఫిలిష్ తీయు
ఫి లిం
ఫి ట్</w>
ఫారె స్ట్</w>
ప్రొ టీ
ప్రారంభ ించి</w>
ప్రసక్ తే</w>
ప్రశ్న లను</w>
ప్రయాణి కు
ప్రభుత్వ ాలకు</w>
ప్రపంచ మంతా</w>
ప్రధా నిని</w>
ప్రదేశ ాల్లో</w>
ప్రత్యే కం</w>
ప్రతిపాద నకు</w>
ప్రతిపక్ష ం</w>
ప్రతి పాది
ప్రజ లే</w>
ప్రజ లతో</w>
ప్రచు రణ</w>
ప్రకటి స్తారు</w>
ప్రకట నలు</w>
ప్ర సర
ప్యాకే జీ
ప్ప ింగ్</w>
ప్ గా</w>
పోషి స్తున్న</w>
పోల్ చ
పోయా ం</w>
పో లింగ్
పో చారం</w>
పో కుండా</w>
పొదు పు</w>
పెళ్ళ ి
పూర్ వీ
పురస్కార ాలు</w>
పు లతో</w>
పు రావ
పు తిన్</w>
పీ టీసీ</w>
పాల్ పడు
పార్ వ
పాట ించడం</w>
పాట ించండి</w>
పాజి టివ్గా</w>
పాండ ్య</w>
పా స్వర్
పా శ్వా
పా ప్</w>
పా డారు</w>
పశ్చిమ గోదావరి</w>
పల్ల ె</w>
పలుకు తోంది</w>
పర్వ తం</w>
పర్యాట కులను</w>
పర్ వది
పర్ తి</w>
పరు గు</w>
పరిమి తమైంది</w>
పరి చర్య
పని చేయాలని</w>
పడగొట్ట ాడు</w>
పడ వచ్చు</w>
నె య్యి</w>
నె ను
నె ంబ
నృ త్యం</w>
నూ రి</w>
నీ యులు</w>
నిష్ పత్తి</w>
నిశ్ శబ్దం</w>
నివా డు</w>
నిల బె
నిల బడి</w>
నిర్బంధ ంలో</w>
నిర్ దోషులుగా</w>
నిరీక్ష ణ
నియంత్ర ణలో</w>
నియ మింప
నియ మం</w>
నిధి కి</w>
నిత్యా వసర</w>
నిజాయితీ గా</w>
నికి ని</w>
ని కా</w>
ని ంగ్
నా ను
నమోదు తో</w>
నమోద ై
నమూ నాలు</w>
నడి ప
నట ించే</w>
నగ ల</w>
న వ</w>
న డానికి</w>
న ందున</w>
ధూమ పానం</w>
దౌ త్య
దేశ ాలను</w>
దేశ మంతా</w>
దూసుకె ళ్
దుర్ వినియోగం</w>
దుర్ ఘటన</w>
దు వ్
దు డు
దీని నే</w>
దిగువ న</w>
ది గొ
దర్ యా
దక్షిణా ది</w>
ద నే</w>
థ్యాం క్స్</w>
థ ర్</w>
త్యా ల</w>
త్ తే</w>
త్ కు</w>
తొలగ ించి</w>
తే వ
తే ట
తెలియ దని</w>
తె చ్చింది</w>
తు షార్</w>
తు డి
తీసుకు వచ్చిన</w>
తీసుకు వచ్చారు</w>
తీసుకు ంటూ</w>
తీర ని</w>
తీయ గా</w>
తిం టారు</w>
తాలూ కు</w>
తాగ డం</w>
తా వు</w>
తా ళం</w>
తలె త్తు
తల ొ
తర బడి</w>
తయ ైన</w>
తప్ప ే
తప్ప ని</w>
తగిన న్ని</w>
తండ్ర ికి</w>
త నాన్ని</w>
త ట్టు</w>
ణ ే</w>
డ్రా ప్</w>
డ్ర ీ
డ్ కర్</w>
డో ర్</w>
డై తే</w>
డె స్క్
డిసె ంబరు</w>
డివి వి</w>
డిమాండ్ లను</w>
డిమా ండు</w>
డార్ క్</w>
డా నికి
డా ట్</w>
ట్రిబ్యు నల్</w>
ట్యా ంక్</w>
ట్ట ే
ట్ లర్</w>
ట్ నుంచి</w>
ట్ ని</w>
టైటి ల్ను</w>
టె స్టుల</w>
టీ రియ
టి డిపి
టర్ బో</w>
ట ై</w>
ట బుల్</w>
ట బు</w>
జ్ఞాప కార్
జ్ఞాన యుక్
జే సీ</w>
జె న్</w>
జీవి తాలు</w>
జీ త
జాయి న్</w>
జాన్ వీ</w>
జాక్ సన్</w>
జరిగి నా</w>
జరిగి నప్పుడు</w>
జరి పి
జనరే షన్</w>
జన సే
జగ పతిబాబు</w>
జ ారా</w>
ఛ ీ
చ్చే రి</w>
చోటు చేసుకున్న</w>
చొ ప్ప
చై నాతో</w>
చేస్తున్న ప్పుడు</w>
చేస్తు ందో</w>
చేస్తా ము</w>
చేసుకోవ ాల్సి</w>
చేయ ాలా</w>
చేయ నున్నాడు</w>
చేయ కండి</w>
చే య</w>
చెల్ల ించారు</w>
చెయ్య డానికి</w>
చెప్ప డంతో</w>
చెప్ప గలను</w>
చె వి</w>
చె త్త
చె ంది</w>
చూపు ము</w>
చూపి స్తుంది</w>
చూ పింది</w>
చుట్టు ము
చిత్రీకర ించారు</w>
చిత్ర ంలోని</w>
చికిత్స లో</w>
చకచ కా</w>
చంద్రశేఖర ్రావు</w>
చ ా</w>
ఘర్ష ణ
గ్రి డ్</w>
గ్రామ ాలకు</w>
గ్ర ంధ
గౌ రీ</w>
గో వాలో</w>
గో పి</w>
గొప్ప ది</w>
గెలి స్తే</w>
గె హ్లా
గుర్తుంచు కోండి</w>
గుర్తు చేశారు</w>
గు బా
గు జ్
గి లా
గా ంచిన</w>
గలుగు తారు</w>
గమనించ ండి</w>
గను ల</w>
గంట లలో</w>
గంట ల
గ వా
ఖా దీ</w>
క్ర ా</w>
క్యా బినెట్</w>
క్క ల్</w>
క్క ర్</w>
క్ లిం
కౌశ ల్</w>
కోల్క తాలో</w>
కోలు కుని</w>
కోయంబ త్త
కో నేరు</w>
కో ని</w>
కొత్తి మీర</w>
కొత్త గూడెం</w>
కొడు తోంది</w>
కొ ంటారు</w>
కెపా సిటి</w>
కృష్ ణా
కృ త్య
కూ ల్</w>
కూ టాలకు</w>
కుదు రు
కాల ాల్లో</w>
కార్యా చరణ
కార్య నిర్వాహక</w>
కార ానికి</w>
కార ము</w>
కాబో తుంది</w>
కాన్ పూర్</w>
కాంగ్రె స్తో</w>
కా శ్
కా బోయే</w>
కష్ట ాలను</w>
కవి త్వం</w>
కలె క్టర్లు</w>
కలిగి స్తోంది</w>
కల పై</w>
కర్ ల</w>
కరో నాతో</w>
కరి స్తూ</w>
కర మని</w>
కమ్యూని కేషన్స్</w>
కమ లా</w>
కని ప
కన క
కట్టు గా</w>
కంపెనీ లకు</w>
క వరేజ్</w>
క మ్ము
క పోయినా</w>
క న్ను</w>
క డం</w>
ఓడి పోయారు</w>
ఒరిజి నల్</w>
ఒప్పంద ంలో</w>
ఒంట రి</w>
ఐశ్వర్ య
ఐ దవ</w>
ఐ ఎఫ్
ఏల యనగా</w>
ఏర్పా ట్లను</w>
ఏమి టా</w>
ఏ వో</w>
ఏ క</w>
ఎస్ బిఐ</w>
ఎవ రు
ఎమ్మెల్యే లను</w>
ఎమో షనల్</w>
ఎపిసో డ్</w>
ఎదుర్కోవ టానికి</w>
ఎద గ
ఎంత వరకు</w>
ఎం ఏ
ఎ రుగ
ఎ పి</w>
ఎ టి
ఎ ండు
ఎ ంచ
ఊ పందు
ఉపాధ్య క్షు
ఉద్దేశ ించిన</w>
ఉదాహరణ గా</w>
ఉత్స వాలు</w>
ఉత్పాద కత</w>
ఉత్తర్ వులను</w>
ఉచి తం</w>
ఉండ వచ్చని</w>
ఉం చేందుకు</w>
ఉ డ
ఉ గా
ఉ క్రె
ఈయ నకు</w>
ఈజి ప్
ఇన్ పుట్</w>
ఇద్ద రి
ఇచ్చ ు
ఇంజనీ ర్</w>
ఇం కొక</w>
ఇ ల్ల
ఇ ంద్రా
ఇ ంచ
ఆస్ట్రేలి యాతో</w>
ఆసుపత్ర ులు</w>
ఆల ్రౌ
ఆయు ర్
ఆఫీ సు</w>
ఆక లి</w>
ఆ స్తులను</w>
ఆ రోజు</w>
ఆ రం
ఆ ఫ్ర
అసిస్ట ె
అవి నీ
అవ రో
అల్ల ాయ్</w>
అల ్యూ
అర్జె ంటీ
అర్ పించిన</w>
అయోధ్య లో</w>
అయి పో
అమ్మాయి ని</w>
అమ్ మో
అమ్ మా
అభ్యర్థ న</w>
అభ్యర్ ధ
అభిమా నం</w>
అఫ్గా నిస్తాన్</w>
అప్రమ త్తం</w>
అనూ హ్య</w>
అని పి
అత నే</w>
అడుగు పెట్ట
అట్లా ంటిక్</w>
అగ్ర నేత</w>
అందు తుంది</w>
అంతి మ</w>
అంతకంత కూ</w>
అంట ేనే</w>
అ సభ్య
అ సంతృప్
అ లో
అ ర</w>
అ మా
అ బీ
అ పా
అ ందిన</w>
ంభ ం</w>
ంద ె
ంగ ాలు</w>
ం మీద</w>
t h</w>
s c
r ic
p x</w>
p l
p h
n o
h tt
es t</w>
S A
M E</w>
I C
G B</w>
D L</w>
5 8
200 5</w>
200 1</w>
2 2,
17 ,
10 ,000</w>
1. 3</w>
1, 7
1 17</w>
1 /
్యూ షన్</w>
ొద్ద కు</w>
ులంద రికీ</w>
ు లలో</w>
ు డిని</w>
ీ ల</w>
ింపు లో</w>
ింపజే య
ింప గా</w>
ించు వాడు</w>
ించు కొన
ించబడు తోంది</w>
హో ల్
హైదరాబాదు లో</w>
హెల్ ప్</w>
హృదయ పూర్వక</w>
హింసా త్మక</w>
హర్ ష్</w>
హ ూ</w>
హ ాల్
హ వా</w>
స్వి ట్
స్విట్ జర్
స్వాధీ న
స్వా వల
స్వావల ంబ
స్వయంచ ాల
స్వ యం
స్పెసి ఫి
స్పెష ాలిటీ</w>
స్పంద ించి</w>
స్నేహి తుల
స్థాయి లను</w>
స్తు లకు</w>
స్తు ంటుంది</w>
స్తం భాలు</w>
స్త ం</w>
స్టీ రింగ్</w>
స్టా ప్</w>
స్క్రీ న్
స్కి ల్</w>
స్ ప్ర
స్ ట్లో</w>
సౌకర్య ాలను</w>
సైన్య ంలో</w>
సెగ్ మెం
సృష్టి కర్త</w>
సూర త్</w>
సూత్ర ాలు</w>
సూ చి</w>
సున్ని తంగా</w>
సీ లకు</w>
సీ నియ
సీ తా
సింగ్ ను</w>
సిం ఘ
సి ల్</w>
సి న
సి ఎల్</w>
సారా ంశం</w>
సామా గ్రి</w>
సాధికార త</w>
సాధ ించే</w>
సాగు నీటి</w>
సాగు తున్న</w>
సాగ లేదు</w>
సాక్ష ా
సహకార ాన్ని</w>
సవ ాలు
సర్టిఫి కె
సరిపో దు</w>
సమ్మె కు</w>
సమస్య గా</w>
సమస్త మును</w>
సమర్థ ంగా</w>
సన్నిహి తంగా</w>
సన్నివే శాలు</w>
సన్న ని</w>
సక్ సె
సంవత్సర ాలుగా</w>
సంవత్స ర</w>
సంప్రదాయ ాలు</w>
స లీ
షియో మి</w>
శు ద్ధి
శు ద్ధ
శీ తో
శాల లు</w>
శా ంత</w>
శ ారని</w>
వ్రా శాడు</w>
వ్యవహర ించిన</w>
వ్యవస్థ పై</w>
వ్యవ ధిలో</w>
వ్య ో
వో ల్
వైవి ధ్యం</w>
వైద్య శాలకు</w>
వై వీ</w>
వై ద్యా
వేడుక లను</w>
వే రే
వెహి కల్</w>
వెళ్లా ను</w>
వెతు కు
వెంటి లే
వె ళితే</w>
వె ని
వు లతో</w>
వు న్నది</w>
వీ ల్స్</w>
వీ ధు
విశేష ాలు</w>
విశి ష్ట</w>
విశాల మైన</w>
వివర ించాడు</w>
విలేకరు ల</w>
విమర్శ లను</w>
విమర్శ లకు</w>
వినో ద</w>
విధ ే
విద్యార్థ ులతో</w>
విది తమే</w>
విడిచి పెట్ట
విజృ ంభ
వి ప్</w>
వి ద్
వి చ్
వాస్తవ ాలను</w>
వాల ే</w>
వాల ంటీ
వారంద రూ</w>
వా డా</w>
వహి స్తూ</w>
వర్గ ీకర
వర్గ ాలను</w>
వర్ కౌట్</w>
వడ గ
వం శీ
వ స్తూనే</w>
వ లు</w>
వ దే
ళ్ల పై</w>
లౌ కి
లో బడ
లో క</w>
లై ట్లు</w>
లేద న్న</w>
లేక పోయాయి</w>
లే వీ</w>
లెజె ండ్</w>
లు న్న
లా జి
లక్ష ్య</w>
రోహి ణి</w>
రేకె త్త
రే గింది</w>
రెడ్ డిపై</w>
రూ ల్స్</w>
రుతు పవ
రీ ల్స్</w>
రి వ్యూ
రాయ ల
రాఘ వ</w>
రా ములు</w>
రా బర్ట్</w>
రజ నీ</w>
రక్ష ణకు</w>
ర ద్దీ</w>
యౌ వ
యు ండి</w>
యిం టి
యాజ కుడు</w>
యాక్ సెస్</w>
యా ంగి
యన్షి ప్లో</w>
య థా
మ్మ ట</w>
మొక్క ల</w>
మే క్</w>
మెగా వాట్ల</w>
మెంట ే
మెంట రీ</w>
మె లి
మె మరీ</w>
మె మర
మె కా
మృతు నికి</w>
మృతు డి</w>
మృతి పట్ల</w>
మృ గ
మూత పడ్డాయి</w>
ముస్లిం ల</w>
ముల న్నియు</w>
మును పు</w>
ముడి పడి</w>
ముఖ్య మంత్ర
ముఖ ్</w>
ము మీద</w>
ము గల
మీరె లా</w>
మీ ది
మీ దా</w>
మిత్ర ులారా</w>
మిజో రాం</w>
మిజో రం</w>
మిగిలి నవి</w>
మి ళి
మి న్న
మాల ్యా
మార్ చిన</w>
మారు మూల</w>
మారు తూ</w>
మారు తున్నాయి</w>
మానవా ళి</w>
మాట్లా డేందుకు</w>
మాటే మిటి</w>
మాట ల్లో</w>
మా స్టర్స్</w>
మహమ్మార ిని</w>
మవు తున్నారు</w>
మళ యా
మరు వ
మమ త</w>
మన సును</w>
మధ్య ప్రదేశ్
మంద ల
మంచి గా</w>
మ స్
మ సా
మ ట్టి
మ జ్
మ గా
మ ండ్</w>
భూ మ్మీద</w>
భూ ముల</w>
భూ గర్భ</w>
భి ప్రాయం</w>
భాష గా</w>
భారత ీ</w>
భాగ ము</w>
భర ద్వా
భగ త్</w>
బ్రిటి షు</w>
బ్రి డ్
బ్యాంకు ల్లో</w>
బ్ లు</w>
బో మని</w>
బొ మ్మ</w>
బెంగ ాల్లోని</w>
బీ టెక్</w>
బిజెపి లో</w>
బి నెట్లో</w>
బాల ్యం</w>
బాల ికలు</w>
బారిన పడి</w>
బాబ్ర ీ</w>
బా బాద్</w>
బా దా
బా డీ</w>
బా గ్
బబు లోను</w>
బడ్జె ట్ను</w>
బంగాళా దుంపలు</w>
బ ాయి</w>
బ డు</w>
ఫ్యా క్ట
ఫో న్లను</w>
ఫో న్ను</w>
ఫిల్ మ్స్</w>
ఫిబ్ర వరిలో</w>
ఫస్ట్ లుక్</w>
ఫలిత ాల్లో</w>
ఫర్ ని
ఫర్ డ్</w>
ఫ రో</w>
ప్లా నింగ్</w>
ప్లా ట్</w>
ప్రె షన్</w>
ప్రాముఖ్య తను</w>
ప్రాధ మిక</w>
ప్రాక్ టీస్</w>
ప్రవా స</w>
ప్రయోగ ించారు</w>
ప్రయా ణాలు</w>
ప్రభు వు
ప్రదేశ ంగా</w>
ప్రదర్శ ించింది</w>
ప్రత్య క్షంగా</w>
ప్రతిపాద ించింది</w>
ప్రతిపాద ించారు</w>
ప్రణాళ ి
ప్రజ లలో</w>
ప్రచార ానికి</w>
ప్రకట ించి</w>
ప్రకంప నలు</w>
ప్ర దేశానికి</w>
ప్ర గ
ప్ర కృ
ప్యాకే జీని</w>
ప్యా క్</w>
ప్ త
పోస్ట ులు</w>
పోల్ చుకుంటే</w>
పోలీసు లతో</w>
పో తూ</w>
పొర పాటు</w>
పే శారు</w>
పే లి
పే రొ
పెరగ డానికి</w>
పెరగ డంతో</w>
పెద్ద ఎత్తున</w>
పెడు తుంది</w>
పెట్టు కో
పూర్వ క
పూర్తి స్థాయి</w>
పూ ను
పుణ ్య
పుట్టగొడు గులను</w>
పు రంః</w>
పు డ
పు ట్టింది</w>
పీ రియ
పీ ఎస్
పిటి షన్లను</w>
పింఛ ను</w>
పి నర
పి డ్</w>
పాశ్వా న్</w>
పాల క
పార్ కు</w>
పాట లను</w>
పశ్చి మాన</w>
పర్యట ించారు</w>
పర్య ాయ
పరీక్ష ించిన</w>
పరీ క్షి
పరిష్ కార</w>
పరచ డం</w>
పర శు
పన్న ులు</w>
పని చేస్తాయి</w>
పదు ల</w>
పదవి లో</w>
పథ ంలో</w>
పత్రి కలు</w>
పతా కం</w>
పడ తాడు</w>
పఠా న్</w>
పట్టు కునేందుకు</w>
పట్ట ారు</w>
పండుగ ను</w>
పంట లకు</w>
పంచు కున్నాడు</w>
ప ాలి</w>
ప ము</w>
ప గు
ప క
న్యూఢిల్లీ లో</w>
న్న ం</w>
నేనె ప్పుడూ</w>
నేత లపై</w>
నే ంద్ర
నెగ్ గిన</w>
నెక్ ట్స్</w>
నువ్వ ే</w>
ను ద్దేశ
ను గూర్చి</w>
ను గాక</w>
నిలు వర
నిర్వా ణ</w>
నిర్మా ణా
నిర్ వీ
నిర్ దార
నిరుద్యో గులకు</w>
నిమ గ్న
నిజ మేనా</w>
నిక ో</w>
నిక ైనా</w>
నిందితు లుగా</w>
నించ ు
ని శి
ని రం
ని ప్ప
ని ట
ని ండిన</w>
నాల్ గవ</w>
నాయకు రాలు</w>
నాయక త్వంలోని</w>
నామినే షన్ల</w>
నా న్
నా డ్</w>
నా టి
నా గి
నా కేం</w>
నా కు
నవ్ వులు</w>
నల్ల గొండ</w>
నలుగు రికి</w>
నమ్ము తారు</w>
నడు స్తుంది</w>
నడు ము</w>
నడి చింది</w>
నడ క</w>
నట్ లును</w>
నట ేష్</w>
నగర ాలకు</w>
నగ రాల</w>
నగ రంగా</w>
న ల్ల</w>
న మే</w>
న ములు</w>
న దుల</w>
ధ్యా య</w>
ధో ర
ధీ టుగా</w>
ద్ర వ</w>
దేశ ాయ్</w>
దేశ ము</w>
దేవ గణ్</w>
దూ రాన్ని</w>
దీ ప్తి</w>
దిన కరన్</w>
దానిక ంటే</w>
దాడు ల</w>
దా డి
దర్శ న్</w>
దగ్గర లోని</w>
ద ించారు</w>
ద లను</w>
థ ాయ్
త్వ ర</w>
త్రాగ డానికి</w>
తో ందా</w>
తొ క్కి
తేలి పోయింది</w>
తే మ
తెల్లవారు జామున</w>
తెలుసుకోవ ాలంటే</w>
తెలంగాణ లోని</w>
తెరి చి</w>
తె చ్చారు</w>
తున్నా మన్నారు</w>
తుది శ్వాస</w>
తు ంటుంది</w>
తీసుకె ళ్ళ
తీసుకుంటా మన్నారు</w>
తీర్మా నాన్ని</w>
తీ స్తుంది</w>
తీ సే</w>
తీ ర్థ
తిం డి</w>
తల సాని</w>
తరి మి
తమ య్యాయి</w>
త మైనది</w>
త ను
త త్వం</w>
ఢీ కొన్న</w>
ఢీ కొని</w>
డ్ తో</w>
డైరెక్ట రేట్</w>
డీ ల్</w>
డీ కే</w>
డిఫె న్స్</w>
డిజి పి</w>
డి వి</w>
డి ఎస్</w>
డ ర్
డ మ్</w>
డ న్న</w>
ట్వి స్ట్</w>
ట్రె క్క
ట్రెక్క ింగ్</w>
ట్రా ఫి
ట్ర యం
ట్ కి</w>
టె ం
టూ ర్</w>
టింగ్ లో</w>
టర్ నో
ట మ్</w>
జ్ కు</w>
జో సెఫ్</w>
జె ర్
జీ డీపీ</w>
జాతీయా ధ్యక్షుడు</w>
జా తిని</w>
జా త</w>
జా గ్
జవా బులు</w>
జల మయం</w>
జల మయ
జరుగు తూ</w>
జరుగు తున్నాయని</w>
జరిగి ందన్నారు</w>
జరిగి ందంటే</w>
జను లకు</w>
జ ౌ
జ బ్బు
చైత న్య
చేస్త ాయని</w>
చేసుకు ంటా
చేర్ చిన</w>
చేర గా</w>
చేయ ొచ్చు</w>
చేయ క</w>
చే కూర
చెల్లి స్తారు</w>
చెల్ల ెలు</w>
చెన్నై లోని</w>
చూ పించింది</w>
చూ పించారు</w>
చుకు నే</w>
చివ రిగా</w>
చిల్ల ర</w>
చిరు త</w>
చిత్ర బృందం</w>
చికిత్స కు</w>
చా న
చంద్ర ుడు</w>
ఘ ట్టం</w>
ఘ ట్ట
గ్ర ో
గో స్వామి</w>
గుర ించ
గుజరా తీ</w>
గు ణంగా</w>
గీ త
గిట్టు బాటు</w>
గి ల్
గి ఫ్ట్</w>
గాయ మైంది</w>
గా డి
గవర్న మెంట్</w>
గమనించ వచ్చు</w>
గడి చి
గ మనం</w>
ఖా తాను</w>
ఖ ీ</w>
ఖ ని</w>
క్స్ డ్</w>
క్షే ప
క్షతగాత్ర ులకు</w>
క్ష ్
క్ష ులు</w>
క్లుప్ తంగా</w>
క్లి ష్టమైన</w>
క్రై ం</w>
క్రీడా కారులు</w>
క్రీ డ</w>
క్రా ంతి</w>
క్రమి త</w>
క్ర మే
క్కు వ</w>
క్ లను</w>
క్ గా</w>
కోవ ాల్సి</w>
కోలు కున్న</w>
కోట్లా ది</w>
కోట్ లకుపైగా</w>
కో డ
కొనసాగ ించారు</w>
కొట్ట డం</w>
కొ మ్మ
కొ నే
కొ న</w>
కేసు గా</w>
కెమె రాలను</w>
కెమె రాల</w>
కూర్చ ొ
కూ ల్డ్</w>
కూ లీ</w>
కుంబ్ లే</w>
కుంట ాడు</w>
కు ర్చ
కు మ్మ
కు తో</w>
కు క్క</w>
కావాల నే</w>
కావ లి
కాలే జీ
కాల పు</w>
కార్యాల య</w>
కా వల్
కా ంతి
కళా కారులు</w>
కళ లు</w>
కల్ నల్</w>
కర్ ఫ్యూ</w>
కరె క్ట్</w>
కరి స్తుంది</w>
కరా చీ
కన్నీ ళ్లు</w>
కథ ే</w>
కట్ట డి</w>
కక్ష ్య
క రే
క న్న</w>
క ధిపతి
క ణాలు</w>
ఔ రంగా
ఓ ర్
ఒలిం పిక్స్</w>
ఒక్కో సారి</w>
ఒక్క రే</w>
ఒక దానితో</w>
ఒక టి
ఐక్య రాజ్య</w>
ఐక్య ంగా</w>
ఐఆర్సీ టీసీ</w>
ఏర్ పడి</w>
ఏకీ భవ
ఏకా గ్ర
ఏ ళ్ళ</w>
ఏ మవు
ఏ డవ</w>
ఎస్ ఏ</w>
ఎర్ ర</w>
ఎమ్ ఎమ్</w>
ఎఫె క్ట్</w>
ఎన్ ని
ఎన్ జీ
ఎన్ ఎస్</w>
ఎదుర్ కో
ఎదుర వుతాయి</w>
ఎడి టర్</w>
ఎంఎస్ ఎం
ఎం జీ
ఎం జి
ఎం ఐ</w>
ఎ రి
ఉన్నా నని</w>
ఉనికి లో</w>
ఉద్యోగ ంలో</w>
ఉద్దేశ ంతో</w>
ఉత్పత్ తిలో</w>
ఉత్తర ప్రదేశ్లోని</w>
ఉగ్రవా దాన్ని</w>
ఉండ ాల్సిన</w>
ఉండ దని</w>
ఉంటు న్నాయి</w>
ఉంటు న్న</w>
ఉ లి
ఉ ప్పు
ఈదు రుగ
ఈ త</w>
ఈ డి</w>
ఈ ఈ</w>
ఇస్లా మా
ఇష్ట ా
ఇవ్వ బడిన</w>
ఇమే జ్</w>
ఇబ్బ ందిగా</w>
ఇప్ప ట్లో</w>
ఇన్ఫ్ల మేటరీ</w>
ఇన్ఫోటై న్మెంట్</w>
ఇతరు లను</w>
ఇంది రా
ఇం కొ
ఇ స్తున్న</w>
ఇ యర్</w>
ఆస్ట్రేలి యాకు</w>
ఆసుప త్రి
ఆవిష్ కరించిన</w>
ఆలోచ ించడం</w>
ఆల యాలు</w>
ఆర్టి కల్లో</w>
ఆరోపి స్తూ</w>
ఆయు ధ
ఆయన కి</w>
ఆఫ్ర ిక
ఆత్మహత్య లు</w>
ఆత్మ కు</w>
ఆకాంక్ష ించారు</w>
ఆకాం క్షి
ఆకాం క్ష</w>
ఆకట్టు కునే</w>
ఆ సీస్</w>
ఆ సన్న
ఆ త్ర
ఆ క్స్
అవసర మా</w>
అవతర ించింది</w>
అల్ బే
అలాంటి దే</w>
అలాంటి ది</w>
అలస ట</w>
అల సి
అరు ణ్
అయిదు గురు</w>
అమూ ల్య
అమ ల
అభ్యర్థ నను</w>
అభివృద్ధి లో</w>
అప్ లోడ్</w>
అప రా
అన్న దే</w>
అనౌ న్స్</w>
అనుసర ించండి</w>
అనుమాని తులను</w>
అనుభ వాన్ని</w>
అనుకుంటు న్నారు</w>
అను వర్తన
అను కర
అని వార
అధ్యయ నంలో</w>
అద్ద ె
అడగ డం</w>
అటార్ నీ</w>
అఖి ల</w>
అక్కడి క్కడే</w>
అందుబా టు</w>
అంద ర్నీ</w>
అ సి
అ మాను
అ న్నట్లు</w>
అ ధ్
అ క్రమా
ంద్ కు</w>
ంది గ్
ంద రికీ</w>
ంత రాలు</w>
ండె డ్</w>
ంటై న్</w>
ంచి ంది</w>
ం గుల</w>
p ro
l y</w>
i es</w>
er s</w>
a v
a d
5 50</w>
4 00
29 ,
201 4లో</w>
200 2</w>
2 1,
16 .
10 7</w>
10 6</w>
0 1</w>
్రె డ్
్య ంతో</w>
ో ప
ే వి</w>
ుల ని</w>
ీ లకు</w>
ింపు ము</w>
ించే వాడు</w>
ించుకోవ టం</w>
ించుకు ంటారు</w>
ించిన వారు</w>
ించిన ట్లుగా</w>
ించ వద్దు</w>
ిం గులు</w>
ి యా</w>
ార్ డ్</w>
ా ఫీ
హై లైట్</w>
హై లెట్</w>
హెన ్రీ</w>
హా స్య
హడా వు
హ ాల
[...]
