. 115903
the 78169
, 58313
of 36652
and 33013
to 32052
in 31481
is 26263
The 23634
a 23520
" 16556
for 11853
has 11165
are 10961
on 10588
was 10542
? 10248
that 9863
be 9264
by 8399
have 8356
this 7951
will 7741
with 7567
: 7443
it 7344
not 6970
He 6702
I 6599
at 6100
film 6033
as 6014
been 5703
said 5416
were 5414
from 5393
It 5333
also 5297
( 4779
) 4768
's 4710
his 4672
India 4657
you 4620
he 4594
This 4396
an 4219
But 4157
had 3533
Minister 3468
all 3384
police 3105
Rs. 2979
There 2906
What 2813
their 2760
They 2734
one 2729
no 2706
A 2685
them 2605
people 2566
they 2537
can 2524
In 2474
BJP 2472
government 2468
do 2454
or 2433
two 2385
about 2335
case 2268
! 2258
there 2257
out 2231
Congress 2178
up 2147
we 2139
time 2138
him 2093
We 2049
movie 2042
who 2005
its 1976
Modi 1966
' 1961
other 1950
her 1931
first 1918
Indian 1905
which 1904
incident 1838
being 1836
crore 1808
over 1775
However 1747
new 1745
state 1728
against 1722
so 1696
very 1691
Police 1668
She 1657
more 1654
into 1646
should 1636
what 1636
after 1592
made 1557
Delhi 1553
would 1520
your 1520
lakh 1507
many 1492
under 1465
Chief 1459
did 1455
How 1427
Rs 1415
Prime 1390
- 1377
day 1353
... 1345
Reddy 1341
us 1318
good 1305
our 1304
like 1292
You 1284
per 1269
country 1267
these 1258
am 1257
-@@ 1238
Singh 1236
hospital 1231
some 1212
Its 1200
any 1193
place 1186
three 1185
me 1182
took 1164
Pradesh 1157
but 1143
taken 1128
registered 1123
only 1120
such 1116
Hyderabad 1101
take 1099
party 1090
between 1084
't 1074
injured 1072
So 1072
Narendra 1072
Telangana 1066
well 1065
too 1060
And 1058
my 1052
water 1052
know 1051
S@@ 1051
than 1049
No 1042
when 1042
cases 1039
directed 1024
That 1013
work 1010
Why 1007
then 1005
life 1000
come 999
she 995
district 993
Gandhi 990
2 989
while 982
chief 979
New 979
going 970
get 960
number 960
need 955
D@@ 948
P@@ 948
1 947
B@@ 944
God 933
Kumar 932
For 926
s 923
here 916
/ 915
State 910
lead 910
media 908
soon 900
minister 900
family 894
world 893
T@@ 891
children 891
arrested 889
K@@ 882
same 880
during 878
Tamil 875
died 873
G@@ 865
if 858
crores 852
Telugu 845
All 845
leaders 844
un@@ 843
social 841
i 831
M@@ 831
t@@ 822
s@@ 820
C@@ 819
F@@ 809
es 805
role 802
does 799
man 796
% 791
won 791
Government 790
meeting 785
those 784
er 784
yet 780
last 775
Rahul 775
make 774
L@@ 774
go 769
5 765
Court 765
accused 762
spot 762
how 759
both 758
10 757
ing 757
most 753
cent 752
way 752
A@@ 749
others 749
H@@ 745
death 744
3 741
President 736
shall 734
just 733
dont 731
son 727
Is 723
elections 721
d@@ 721
released 716
part 714
given 712
killed 711
down 708
even 707
b@@ 704
already 704
leader 702
Ram 700
R@@ 698
love 695
in@@ 692
through 692
Rao 689
Pakistan 689
court 688
done 685
say 684
could 683
ers 682
much 682
set 681
Union 679
films 678
second 677
former 677
far 675
N@@ 674
came 666
back 666
produced 665
Sabha 665
al 664
Andhra 663
different 662
Do 661
As 661
p@@ 661
On 659
help 659
days 656
re@@ 654
seats 652
another 651
due 650
matter 650
important 648
Jehovah 644
health 644
Mumbai 644
k@@ 643
ar@@ 643
o 641
His 639
see 638
before 634
women 633
These 631
four 630
al@@ 630
got 629
home 627
m@@ 624
next 624
each 623
Thats 622
several 621
& 621
happened 619
After 617
want 616
4 614
wife 611
W@@ 611
present 611
asked 611
president 610
ed 609
E@@ 609
seen 608
Bank 607
music 607
again 605
situation 604
If 601
among 599
later 599
must 597
video 594
total 594
V@@ 594
every 590
power 590
n@@ 585
body 582
PM 581
TDP 579
Bollywood 579
team 577
e@@ 576
announced 575
20 572
name 571
held 571
h@@ 570
Sharma 570
available 566
members 565
50 564
across 563
city 562
c@@ 559
Khan 558
few 558
things 558
still 556
farmers 556
started 555
decision 555
lot 553
great 551
3@@ 551
where 549
y 547
release 546
National 545
details 544
high 544
l@@ 544
off 538
around 537
roles 535
u 534
officials 534
r@@ 534
i@@ 529
accident 528
recently 527
Party 526
years 526
treatment 526
w@@ 525
went 525
Many 524
may 523
Then 522
US 520
action 516
right 516
look 515
used 514
investigation 514
however 514
One 512
Shri 511
Some 511
never 510
actor 510
Who 510
it@@ 510
J@@ 510
including 509
er@@ 509
immediately 508
ation 508
led 508
students 508
reported 508
become 508
called 507
2@@ 506
th@@ 506
g@@ 505
able 505
away 505
director 504
year 503
long 500
regard 499
e 497
reached 496
12 493
complaint 491
use 491
8 487
age 487
says 483
f@@ 483
at@@ 482
known 482
states 480
area 480
special 479
house 477
15 476
daughter 475
y@@ 475
Kohli 473
Jesus 471
land 471
story 469
hit 469
an@@ 467
People 464
since 463
found 462
playing 461
Two 459
official 458
together 458
6 457
ar 456
ate 456
why 456
Maharashtra 456
30 455
sent 454
Lok 453
Karnataka 452
now 452
because 450
rushed 446
win 446
father 446
give 445
When 444
Chandrababu 443
To 443
issue 443
CM 442
end 442
O@@ 442
system 441
t 441
Both 439
men 439
Not 439
Assembly 438
features 436
true 435
Kashmir 435
political 434
World 434
100 434
various 433
temple 432
am@@ 431
persons 431
Shah 431
information 430
At 430
along 429
Babu 429
problem 428
times 427
a@@ 425
support 424
received 421
Sri 421
MP 421
7 421
4@@ 421
car 419
High 418
stars 415
five 414
prices 414
fire 413
doing 412
West 412
big 411
woman 410
Hindi 408
change 406
money 405
19@@ 405
news 404
event 403
S 403
en@@ 402
2020 402
Supreme 402
im@@ 400
China 400
Bible 399
ad@@ 398
6@@ 398
best 397
countries 396
match 395
lost 394
o@@ 394
K 392
huge 391
development 390
hand 390
own 389
today 389
month 388
person 387
working 387
really 387
An 386
issued 384
expected 384
ag@@ 383
attack 383
think 382
Ministry 382
25 382
viral 381
ic 381
ab@@ 378
Prasad 378
problems 378
added 377
occasion 377
election 376
u@@ 376
thing 375
v@@ 375
launched 374
Dont 374
Director 374
Secretary 373
shifted 373
5@@ 373
informed 372
further 372
play 372
didnt 372
Former 372
filed 371
market 370
left 369
following 369
st@@ 368
C 368
runs 368
Kapoor 366
TRS 366
national 366
I@@ 365
ch@@ 365
Vijay 364
local 364
married 364
Trump 364
Naidu 363
process 362
project 362
parents 361
el@@ 361
mother 360
shooting 360
order 360
9 359
played 358
COVID-19 357
Twitter 357
investigating 356
ak@@ 356
king 356
reason 355
Are 355
areas 355
Pawan 354
Mahesh 353
7@@ 353
comes 352
making 349
based 349
coming 349
or@@ 349
Test 349
Amit 349
States 349
en 349
tr@@ 349
attended 348
food 348
ap@@ 348
With 346
j@@ 346
girl 345
as@@ 345
major 345
ated 345
plays 345
Kalyan 343
dis@@ 343
include 343
politics 342
question 342
Krishna 342
sh@@ 342
positive 341
Gujarat 340
always 340
nothing 340
ating 339
large 339
11 339
oil 339
top 337
Health 337
South 336
price 336
gone 335
on@@ 335
became 333
Virat 332
8@@ 332
company 331
road 331
captain 331
Home 331
taking 330
needs 330
happy 330
cricket 330
phone 329
put 329
reasons 329
Punjab 328
40 328
NTR 328
workers 326
heart 326
dead 325
Centre 325
results 324
security 324
Nadu 324
condition 323
parties 323
14 321
e-@@ 321
series 320
expressed 320
ations 319
continue 319
told 318
is@@ 318
suicide 318
Bengal 317
happen 317
third 317
fans 316
il@@ 315
don 315
Central 315
small 314
cost 314
saying 314
less 313
coronavirus 312
ia 312
public 312
war 312
More 312
village 312
Yadav 311
female 311
ic@@ 311
date 311
anything 310
possible 309
ur@@ 309
response 309
getting 307
completed 307
Kerala 306
ent 306
Act 306
law 305
child 304
Gods 304
CBI 304
list 304
Arjun 303
issues 303
likely 302
million 302
Jammu 302
U@@ 301
rate 301
Theres 301
Three 300
history 300
example 300
cannot 299
everyone 299
16 299
key 298
24 298
de@@ 298
lives 297
Whats 296
Jehovahs 296
side 295
result 295
face 295
Charan 295
past 295
brought 294
500 294
medical 293
production 291
MLA 290
lodged 290
em@@ 290
let 290
According 290
industry 289
Finance 289
ly 288
Chennai 288
form 287
words 287
full 287
MLAs 287
shared 287
] 287
demanded 286
points 285
free 285
services 285
answer 284
ates 284
works 283
changed 283
ted 283
engine 283
period 283
joined 283
ana 282
decided 282
Rajasthan 282
show 282
Hospital 282
senior 281
Justice 281
R 281
school 281
Sh@@ 281
ant 280
questions 280
easy 280
start 280
Z@@ 280
ya 280
without 280
once 279
hard 279
till 279
av@@ 279
private 279
might 279
provide 278
[ 278
control 277
means 276
future 276
star 276
Parliament 276
Y@@ 276
gold 276
week 275
office 275
better 275
18 274
unto 274
ro@@ 273
something 273
Everyone 272
entire 272
General 272
200 272
Her 271
ala 271
districts 271
injuries 270
h 270
sp@@ 270
fight 269
sons 269
gave 269
b 268
Where 267
ul@@ 267
Here 267
Im 267
report 266
husband 265
Also 265
success 265
largest 265
et@@ 265
doctors 264
13 264
main 264
Mohan 263
ir@@ 263
increased 263
account 263
ur 263
Will 262
es@@ 262
k 262
Let 262
candidates 262
real 261
M 261
meet 261
z@@ 261
.@@ 261
currently 260
friends 260
post 260
leading 260
ever 260
assembly 260
id@@ 260
written 259
six 259
Rohit 259
months 258
visit 258
level 257
doesnt 257
old 256
paid 256
Jagan 255
human 255
serious 255
Several 255
B 255
word 255
ts 253
final 253
bus 253
Indias 252
met 252
Ch@@ 252
young 252
Of 251
Australia 251
parts 251
budget 251
Another 251
shot 250
needed 250
als 250
17 250
ha@@ 250
keep 249
truth 249
region 249
upon 248
little 248
Day 248
Their 248
Ram@@ 248
op@@ 248
wrong 247
places 247
ting 247
increase 247
test 246
le@@ 246
find 246
ol@@ 246
patients 245
YS 245
Lord 245
Uttar 245
pl@@ 245
job 245
worked 245
Sena 245
KCR 245
book 244
station 244
amount 244
bank 243
An@@ 243
strong 242
19 241
provided 240
petrol 240
g 240
night 239
capital 239
Al@@ 239
read 238
le 238
Tata 238
required 238
banner 238
live 238
upcoming 237
mind 237
Re@@ 237
Best 236
n 235
actress 235
underway 235
interest 235
Israel 234
Bihar 233
IPL 232
point 232
quite 232
behind 232
ra 232
wickets 232
ans 232
front 231
ah 231
difficult 231
blood 230
ani 230
T 230
cause 230
care 230
having 229
60 229
Yahweh 229
statement 228
couple 228
red 228
loss 228
L 228
earlier 228
business 227
understand 227
Raj 227
p 227
Ar@@ 227
driver 226
km 226
least 226
service 226
ways 225
families 225
et 225
international 225
run 225
towards 225
building 224
game 224
language 224
participated 224
United 224
heavy 224
percent 224
increasing 223
In@@ 222
ad 222
scheme 222
everything 222
Anil 222
seven 222
sector 222
growth 222
ite 221
movies 221
within 221
N 221
ings 221
Cabinet 221
himself 220
polls 220
thousand 220
My 220
began 220
secretary 220
head 219
University 219
ical 219
near 219
ors 219
passed 219
camera 218
common 218
Madhya 218
During 218
believe 218
education 218
though 217
ant@@ 217
efforts 217
ine 217
Other 217
popular 217
P 217
financial 217
ies 217
and@@ 217
di@@ 216
Special 216
qu@@ 216
seat 216
9@@ 216
ready 216
nation 216
23 215
International 215
deaths 215
Later 215
he@@ 215
highest 214
70 214
D 213
Bengaluru 213
general 213
England 213
diesel 213
murder 212
ministers 212
Governor 212
St@@ 212
Ravi 211
Rajya 210
Mar@@ 210
plan 210
ha 210
committed 210
While 210
vehicles 209
br@@ 209
announcement 209
bring 209
ics 209
single 208
active 208
wrote 207
ended 207
data 207
thought 206
spread 206
talk 206
disease 206
alleged 206
clear 206
Allu 206
brother 206
ed@@ 205
stop 205
Maruti 205
conducted 205
ac@@ 204
kind 204
using 204
bodies 204
th 204
ig@@ 204
ous 203
global 203
trying 203
ex@@ 203
m 203
basis 203
record 202
connection 202
Take 202
eat 202
open 202
song 202
languages 202
Commission 202
located 202
declared 201
changes 201
300 201
worth 201
1.@@ 201
Yes 200
18@@ 200
passengers 199
ance 199
East 199
candidate 199
study 199
ity 199
Haryana 199
rest 199
fact 198
isnt 198
failed 198
ent@@ 198
Ali 198
ones 198
Add 198
claimed 198
member 198
us@@ 197
skin 197
Dhoni 197
happening 197
whole 197
be@@ 197
LORD 197
se@@ 196
Directed 196
Malayalam 196
remain 196
22 196
spoke 196
complete 195
English 195
faith 195
recent 195
measures 195
District 195
est 194
marriage 194
rise 194
recovered 194
om@@ 194
anyone 194
80 194
close 193
created 193
Srinivas 193
employees 193
houses 193
light 193
heard 192
First 192
od@@ 192
allowed 192
season 192
um@@ 192
Ministers 192
recorded 191
according 191
act 191
ay@@ 191
central 191
morning 191
lockdown 190
over@@ 190
tax 190
group 190
cl@@ 190
makes 190
line 190
Shankar 189
up@@ 189
move 189
earth 189
deal 189
Music 189
companies 189
gets 188
looking 188
Department 188
hands 188
fl@@ 188
Am@@ 188
Th@@ 188
cant 188
field 188
Army 188
trade 188
ise 187
victim 187
wanted 187
formed 187
pay 187
Kannada 187
ist 187
'@@ 187
poor 187
Raju 187
experience 187
F 186
pressure 186
officer 186
U 186
often 186
takes 186
rich 186
revealed 186
Council 186
view 186
feel 186
Development 186
bl@@ 185
Our 185
Suzuki 185
similar 185
Since 185
O 185
Or 185
composed 185
21 185
cities 184
else 184
V 184
until 184
actually 184
hours 184
population 184
ering 183
offer 183
About 183
ish 183
launch 183
constituency 183
YSRCP 183
David 182
ian 182
responsibility 182
ut@@ 182
didn 182
economic 182
teams 181
daughters 181
technology 181
helps 181
early 181
income 180
schools 180
speak 180
simple 180
um 180
protest 180
either 180
century 180
air 180
late 180
acted 180
elected 180
successful 180
actors 179
Facebook 179
train 179
online 179
regarding 178
Every 178
vehicle 178
named 178
peace 178
course 178
confirmed 178
35 177
raised 177
higher 177
May 177
audience 177
add 177
2019 177
Can 177
Par@@ 177
followed 176
probe 176
Affairs 176
tell 175
iv@@ 175
admitted 175
By 175
quality 175
os@@ 175
try 175
closed 174
position 174
occurred 174
aw@@ 174
economy 174
ter 174
AP 174
From 173
hope 173
ness 173
current 173
projects 173
Only 173
0@@ 173
benefit 173
Raj@@ 173
producing 173
daily 172
Paul 172
discussed 172
ath@@ 172
relationship 172
healthy 172
posted 172
saw 171
pandemic 171
turned 171
De@@ 171
rain 171
beautiful 171
ai 171
programme 170
Con@@ 170
E 170
victory 170
suffered 170
2.@@ 170
Un@@ 170
Salman 169
offered 169
Bangladesh 169
Man@@ 169
Most 169
value 169
opposition 169
options 169
Dr 169
Air 169
leave 169
fear 169
happens 169
ay 169
hospitals 169
enough 169
Have 168
Education 168
spirit 168
committee 168
ara 168
el 168
Nobody 168
Sonia 167
hold 167
includes 167
caused 167
d 167
Priyanka 167
affected 167
products 167
join 167
scored 166
steps 166
turn 166
prime 166
roads 166
forward 166
ang@@ 166
built 166
fast 166
har@@ 166
respect 166
ou@@ 166
$ 166
Power 165
28 165
river 165
sc@@ 165
Earlier 165
ir 165
weight 165
Committee 165
eyes 165
benefits 165
Prakash 165
fell 165
Be 164
ons 164
ot@@ 163
rates 163
dr@@ 163
Christian 163
2018 163
title 163
fine 163
Even 163
gr@@ 162
Ramesh 162
ion 162
Shiv 162
rains 162
stated 161
Bharat 161
ants 161
governments 161
Kolkata 161
Opposition 161
per@@ 161
Good 161
Bill 161
Godavari 161
colour 161
l 160
reach 160
feature 160
call 160
markets 160
authorities 160
a-@@ 160
pe@@ 160
virus 160
ally 160
Devi 160
living 159
ling 159
knows 159
Suresh 159
Witnesses 159
ec@@ 159
goes 159
natural 159
effect 159
Article 158
16@@ 158
town 158
personal 158
stand 158
thats 158
Four 158
hi 158
GB 158
seized 157
Women 157
Lets 157
follow 157
Board 157
tweeted 157
ensure 157
ahead 156
continues 156
below 156
lakhs 156
letter 156
force 156
appointed 156
mobile 156
completely 156
mean 156
forces 156
Patel 155
bad 155
Pr@@ 155
above 155
cut 155
charge 155
stay 155
Ad@@ 155
150 155
ev@@ 155
ud@@ 155
deceased 154
ri@@ 154
Indians 154
board 154
involved 154
interesting 154
share 154
low 154
Election 154
Cup 154
rec@@ 154
GST 153
Railway 153
Farmers 153
rejected 153
research 153
tried 153
personnel 153
Now 153
ill@@ 153
Mahindra 153
vote 152
esh 152
Sam@@ 152
Film 152
trailer 152
20@@ 152
opportunity 152
mar@@ 152
votes 152
Africa 152
necessary 151
att@@ 151
construction 151
ats 151
ren@@ 151
end@@ 151
related 151
Donald 151
pain 151
Pro@@ 150
file 150
Such 150
seriously 150
begun 150
cast 150
undergoing 150
survived 150
26 150
Medical 150
society 150
eth 150
supply 150
laws 149
reports 149
MPs 149
application 149
youth 149
thy 149
locals 148
Mal@@ 148
arrangements 148
Chairman 148
out@@ 148
pictures 148
IT 148
alliance 147
demand 147
Hindu 147
la 147
pro@@ 147
officers 147
75 147
producer 146
incidents 146
c 146
treated 146
North 146
17@@ 146
certain 146
TV 146
nearby 145
ip@@ 145
return 145
jointly 145
Sanjay 145
approved 144
lower 144
site 144
developed 144
En@@ 144
receiving 144
sub@@ 144
activities 144
offering 143
ial 143
ative 143
risk 143
se 143
June 143
res@@ 143
cash 143
Jr 143
songs 143
ik@@ 143
Ajay 143
ast@@ 142
brothers 142
ment 142
Pooja 142
fourth 142
phase 142
Commissioner 142
Constitution 142
Anushka 141
biggest 141
moved 141
Those 141
model 141
term 141
Don 141
House 141
90 141
pur 141
serve 141
whom 141
par@@ 141
G 141
Har@@ 141
continued 140
giving 140
ist@@ 140
Chinese 140
served 140
half 140
Christians 140
custody 140
ying 140
remains 140
Actor 140
ug@@ 140
ji 140
Ma@@ 139
Doctors 139
Meanwhile 139
Rajiv 139
violence 139
car@@ 139
ye 139
training 139
born 139
card 139
begin 139
400 139
alone 139
Arun 138
offers 138
Banerjee 138
comments 138
almost 138
respectively 138
short 138
opportunities 138
ised 138
included 138
ty 138
YSR 138
X@@ 138
ak 138
performance 137
speed 137
Cricket 137
terms 137
villages 137
facilities 137
silver 137
reportedly 137
stopped 137
doctor 137
ful 137
Kejriwal 137
picture 136
wants 136
mon@@ 136
torque 136
fully 136
loan 136
allegations 136
RBI 136
Sar@@ 136
City 136
og@@ 136
z 136
mark 136
370 135
especially 135
carried 135
Tr@@ 135
29 135
critical 135
expectations 135
Read 135
0.@@ 135
Christ 135
Ra@@ 135
Railways 135
award 135
plans 134
department 134
Under 134
ask 134
learn 134
app 134
ery 134
toll 134
Family 134
ins 134
direction 134
space 134
evidence 133
ism 133
facing 133
Yet 133
1@@ 133
avoid 133
har 133
ages 133
Kal@@ 133
petition 133
post-mortem 133
Prabhas 133
dies 133
sure 133
els 132
campaign 132
24@@ 132
address 132
room 132
cr@@ 132
birth 132
ator 132
Deputy 132
SP 131
sold 131
railway 131
Everything 131
hi@@ 131
average 131
investment 131
Kingdom 131
leads 131
handed 131
justice 131
po@@ 131
looks 130
salt 130
via 130
Gold 130
ob@@ 130
Bangalore 130
man@@ 130
Google 130
hearing 130
introduced 130
Coronavirus 130
Goa 130
Rajinikanth 130
Dil 130
ruling 130
ph@@ 130
ing@@ 130
groups 130
arrest 130
considered 130
acting 129
CCTV 129
friend 129
Water 129
Heavy 129
players 129
Se@@ 129
review 129
Temple 129
green 129
ground 129
career 129
thou 129
nor 129
energy 129
status 128
rem@@ 128
themselves 128
conditions 128
NCP 128
loved 128
rule 128
note 128
int@@ 128
contest 128
step 128
non-@@ 128
Bal@@ 128
ib@@ 128
etc 127
ked 127
CPI 127
ability 127
ma 127
policy 127
attend 127
Mamata 127
box 127
kids 127
cricketer 127
foreign 127
School 127
ry 127
Asia 127
debut 127
spiritual 127
15@@ 127
UP 127
talks 126
Kar@@ 126
Institute 126
ys 126
April 126
Students 126
purpose 126
est@@ 126
Mo@@ 126
oc@@ 126
sea 126
outside 126
clean 126
31 126
difference 126
2014 125
broke 125
ceremony 125
Sachin 125
conference 125
Senior 125
ives 125
14@@ 125
headed 125
design 125
ide 125
pr@@ 125
x 125
kept 125
27 125
moment 125
exercise 125
33 125
la@@ 125
Bachchan 124
uk@@ 124
for@@ 124
tests 124
units 124
religious 124
July 124
session 124
waiting 124
rules 124
latest 124
damaged 124
Rajnath 124
reality 124
Nm 124
thee 124
sleep 124
Russia 124
numbers 124
ne@@ 124
protests 124
7.@@ 124
ep@@ 124
Me@@ 124
rear 123
banks 123
li@@ 123
ically 123
ago 123
dec@@ 123
air@@ 123
ot 123
previous 123
ordered 123
Just 123
Each 123
the@@ 123
die 123
innings 123
x@@ 123
10@@ 123
str@@ 123
looked 123
com@@ 123
community 123
bit 123
ions 123
funds 123
ice 123
photo 123
maximum 123
unit 122
north 122
ds 122
ministry 122
Hegde 122
Love 122
consider 122
inside 122
ens 122
wedding 122
era 122
Very 122
famous 122
Tollywood 121
massive 121
photos 121
Following 121
ass@@ 121
normal 121
scene 121
gives 121
student 121
Sa@@ 121
fall 121
Over 121
Y 121
sw@@ 121
minor 121
Ex@@ 121
Road 120
ps 120
Janata 120
ary 120
citizens 120
SC 120
kar 120
Varma 120
remained 120
gl@@ 120
ets 120
watch 120
speaking 120
Odisha 120
Because 120
ators 120
opened 120
evening 119
culture 119
sister 119
art 119
hear 119
El@@ 119
13@@ 119
Br@@ 119
45 119
Pakistani 119
prevent 119
suffering 119
billion 119
neither 119
3.@@ 119
border 119
identified 119
Raja 119
south 119
jobs 119
girls 119
Arvind 119
Public 119
verdict 119
sl@@ 119
festival 119
safety 119
majority 118
uri 118
agree 118
soldiers 118
returned 118
Research 118
capacity 118
bill 118
seems 118
victims 118
agreed 118
mis@@ 118
12@@ 118
names 117
shoot 117
knowledge 117
addition 117
decisions 117
nearly 117
32 117
Corporation 117
ali 117
cancer 117
con@@ 117
safe 117
idea 117
progress 117
ify 117
winning 117
ars 117
attention 117
Five 117
sing 116
ks 116
0 116
rainfall 116
Besides 116
sides 116
lo@@ 116
stage 116
Lanka 116
all@@ 116
ann@@ 116
crime 116
're 116
Japan 116
spent 116
ah@@ 116
raped 116
growing 116
message 116
British 116
character 116
rural 116
J 116
strength 115
K. 115
.. 115
infrastructure 115
testing 115
Did 115
dispute 115
ina 115
Apart 115
co@@ 115
ends 115
chairman 115
operation 115
r 115
ely 115
function 115
smartphone 114
_ 114
nations 114
inquiry 114
milk 114
Auto 114
false 114
ches 114
Ltd 114
Assam 114
notice 114
America 114
yourself 114
polling 114
stress 114
additional 114
os 114
American 114
sought 114
han 113
Cha@@ 113
management 113
battle 113
Guntur 113
Which 113
Akshay 113
Dis@@ 113
drink 113
freedom 113
tion 113
article 113
Tuesday 113
trains 113
ul 113
army 113
inc@@ 112
rally 112
Ne@@ 112
College 112
Nirmala 112
stories 112
March 112
BSP 112
Rajamouli 112
Motors 112
ents 112
users 112
Total 112
discussion 112
ive 112
Dev@@ 112
ra@@ 111
books 111
ence 111
wicket 111
Sha@@ 111
page 111
whether 111
congregation 111
talking 111
X 111
id 111
severe 111
extremely 111
Security 111
kill 111
version 111
throughout 111
visited 111
running 111
ure 111
6.@@ 110
hair 110
deep 110
responsible 110
ash@@ 110
arrived 110
thus 110
Among 110
save 110
Hence 110
class 110
begins 110
domestic 110
Shiva 110
refused 110
2017 110
ments 110
levels 110
Man 109
Kamal 109
Star 109
Corona 109
ai@@ 109
reduce 109
Does 109
symptoms 109
sha@@ 109
focus 109
sales 109
iz@@ 109
anti-@@ 109
airport 109
ain 109
animals 109
SBI 109
examination 109
BCCI 109
black 109
IC@@ 109
range 109
flow 109
Nothing 109
ath 109
Amitabh 108
helped 108
makers 108
Science 108
Vijayawada 108
Thus 108
Group 108
Defence 108
rev@@ 108
staff 108
faced 108
Please 108
host 108
les 108
Rajput 108
no@@ 108
boy 108
cur@@ 108
bail 108
'm 108
buy 108
ect 107
def@@ 107
France 107
Jaitley 107
Hes 107
Technology 107
il 107
Gopal 107
8.@@ 107
36 107
er-@@ 107
therefore 107
Bh@@ 107
caught 107
sugar 107
impact 107
Instagram 107
Wednesday 107
starring 106
Monday 106
ore 106
Nagarjuna 106
ology 106
Force 106
Ab@@ 106
65 106
chance 106
primary 106
display 106
Su@@ 106
priced 106
hand@@ 106
military 106
player 106
agriculture 106
As@@ 106
Gr@@ 106
teaser 106
tested 105
humans 105
na 105
credit 105
res 105
wins 105
electric 105
H 105
remake 105
sources 105
Chopra 105
holy 105
Section 105
notification 105
rights 105
matches 105
destroyed 105
types 105
ances 105
25@@ 105
essential 105
remaining 105
King 105
ered 105
Honda 105
ion@@ 105
thousands 105
centre 105
helmed 105
voice 105
fun 104
providing 104
crucial 104
Muslims 104
Open 104
ash 104
Rs.@@ 104
published 104
produce 104
Movie 104
charges 104
bench 104
ari 104
wh@@ 104
option 104
happiness 104
ang 104
extended 104
Asian 104
ie 103
Nath 103
Life 103
oo@@ 103
feet 103
score 103
wasnt 103
Jharkhand 103
Creations 103
stands 103
democracy 103
marks 103
bo@@ 103
ka 103
sustained 103
causes 103
ists 103
entered 103
Jag@@ 103
Haasan 103
accompanied 103
shocked 102
powder 102
ain@@ 102
none 102
insurance 102
placed 102
heroine 102
ita 102
Sitharaman 102
vegetables 102
inter@@ 102
immediate 102
ve 102
Out 102
rising 102
generation 102
pass 102
receive 102
schedule 102
gas 102
property 102
Rama 102
teachers 102
celebrated 102
contesting 102
Super 101
ub@@ 101
Others 101
war@@ 101
orders 101
temples 101
af@@ 101
ard 101
Tendulkar 101
rose 101
beginning 101
modern 101
temperature 101
Nag@@ 101
meetings 101
cont@@ 101
regular 101
cars 101
falls 100
ification 100
changing 100
ual 100
ab 100
Boss 100
welfare 100
sur@@ 100
weeks 100
overs 100
te@@ 100
WhatsApp 100
detained 100
sports 100
wait 100
prepared 100
employment 100
proper 100
pan 100
direct 100
movement 100
storage 100
denied 100
Dhawan 100
Therefore 100
imposed 100
ish@@ 100
Father 100
November 100
invited 100
Thank 100
effort 99
traffic 99
planning 99
resigned 99
Android 99
approval 99
crisis 99
ri 99
costs 99
Covid-19 99
estimated 99
Q@@ 99
itself 99
examples 99
cor@@ 99
provides 99
Zealand 99
ow@@ 99
corruption 99
mentioned 99
enter 98
tweet 98
signed 98
Further 98
search 98
kg 98
situated 98
supported 98
careful 98
accounts 98
religion 98
attacked 98
Today 98
remember 98
urged 98
terrorists 98
jail 98
shock 98
Agriculture 98
doesn 97
Hyundai 97
Your 97
Fans 97
shows 97
CEO 97
lies 97
speech 97
choose 97
ind@@ 97
pivotal 97
achieve 97
thinking 97
fish 97
cooperation 97
ada 97
des@@ 97
und@@ 97
AAP 97
ties 97
west 96
Bharatiya 96
worry 96
access 96
website 96
ret@@ 96
create 96
customers 96
ancient 96
Dr. 96
journey 96
confidence 96
reading 96
fresh 96
responded 96
ula 96
strike 96
sed 96
SUV 96
worship 96
enjoy 96
ines 96
+ 96
doubt 96
30@@ 95
missing 95
stood 95
type 95
operations 95
Word 95
Budget 95
Bar@@ 95
cinema 95
bi@@ 95
debate 95
ICC 95
John 95
ika 95
travel 95
challenges 95
felt 95
ch 95
Muslim 95
Sunil 95
answered 95
do@@ 95
ear@@ 95
ball 95
Sur@@ 95
fr@@ 95
Sensex 95
are@@ 95
wish 95
implemented 95
Recently 95
Chiranjeevi 94
appear 94
starred 94
ell@@ 94
im 94
videos 94
degree 94
baby 94
divided 94
37 94
ODI 94
1,@@ 94
challenge 94
anger 94
dedicated 94
ward 94
skipper 94
4.@@ 94
MS 94
white 94
revenue 94
August 94
Chhattisgarh 93
organised 93
Puri 93
plea 93
eg@@ 93
Bigg 93
ains 93
questioned 93
ter@@ 93
dry 93
de 93
relations 93
Mon@@ 93
Sinha 93
apply 93
mishap 93
coach 93
99 93
events 93
press 93
source 93
Association 93
write 93
Ashwin 93
prominent 92
legal 92
fo@@ 92
Ashok 92
birthday 92
Royal 92
Speaker 92
assistance 92
Trivikram 92
September 92
afraid 92
Children 92
Elections 92
eight 92
Award 92
Aadhaar 92
ge 91
ile 91
worried 91
promises 91
ging 91
accept 91
Time 91
Nagar 91
trust 91
separate 91
alert 91
Chandrasekhar 91
improve 91
diseases 91
aj@@ 91
me@@ 91
controversy 91
degrees 91
physical 91
ities 91
ess@@ 91
sound 91
Imran 91
matters 91
claim 90
pres@@ 90
leadership 90
ement 90
someone 90
scheduled 90
Sunday 90
arg@@ 90
-- 90
42 90
views 90
ten 90
Yogi 90
target 90
Principal 90
multiple 90
cover 90
hal@@ 90
chaired 90
fin@@ 90
Advani 90
y-@@ 90
established 90
colours 90
posts 90
toss 90
importance 90
Pal@@ 89
Jana 89
equal 89
solution 89
variant 89
COVID 89
amb@@ 89
judge 89
Company 89
criticism 89
Com@@ 89
600 89
SS 89
leaves 89
poster 89
electricity 89
October 89
aya 89
Foreign 89
round 89
protect 89
Amendment 89
sections 89
follows 89
batsman 88
Sp@@ 88
ow 88
Sindhu 88
investigations 88
Harish 88
injury 88
climate 88
34 88
schemes 88
so@@ 88
writer 88
az@@ 88
we@@ 88
cold 88
distance 88
ST 88
Gu@@ 88
Team 88
forest 88
our@@ 88
tourists 88
Sushant 88
digital 88
Limited 88
Officer 88
discharged 88
holds 88
ade 88
Sai 88
Vice 88
ta 88
east 88
relief 88
ini 87
constructed 87
Sub@@ 87
Chandra 87
finally 87
interested 87
discussions 87
reg@@ 87
wide 87
ach@@ 87
suspended 87
dangerous 87
der@@ 87
believed 87
Adityanath 87
constituencies 87
theres 87
ale 87
powered 87
5.@@ 87
ened 87
nature 87
stone 87
Ahmedabad 87
5,@@ 87
W 87
cup 87
guidelines 87
Kings 86
Six 86
accepted 86
significant 86
effective 86
pur@@ 86
produces 86
hurt 86
Ive 86
college 86
su@@ 86
decide 86
liked 86
ute 86
Friday 86
seem 86
Anand 86
brand 86
See 86
Co@@ 86
Make 86
knew 86
compared 86
remarks 86
Mohammed 86
allegedly 86
conduct 86
firm 86
Services 86
ses 86
worlds 86
presented 85
For@@ 85
Arts 85
commercial 85
ites 85
9.@@ 85
ship 85
iah 85
effects 85
allow 85
concerned 85
s. 85
aka 85
Around 85
Municipal 85
Var@@ 85
Amaravati 85
lose 85
under@@ 85
Son 85
ished 84
platform 84
Cr@@ 84
moving 84
Jerusalem 84
f 84
oath 84
39 84
demanding 84
goal 84
appeared 84
motorcycle 84
heaven 84
infection 84
250 84
teacher 84
bed 84
RRR 84
scared 84
re 84
Peter 84
compensation 84
shares 84
devotees 84
table 84
Rashmika 84
recovery 84
pre@@ 84
Red 84
rape 84
mental 84
ran 84
hero 84
,999 84
Sal@@ 84
institutions 83
Thursday 83
powerful 83
49 83
Pune 83
spoken 83
marry 83
cabinet 83
seeds 83
uc@@ 83
shown 83
seek 83
phones 83
ited 83
fighting 83
if@@ 83
individual 83
concern 83
55 83
sk@@ 83
warned 83
opposite 83
aircraft 83
2015 83
bur@@ 83
terrorism 83
December 82
advice 82
64 82
criticised 82
environment 82
Law 82
gain 82
manufacturing 82
particular 82
hundred 82
Moses 82
facility 82
stations 82
easily 82
Heres 82
French 82
notes 82
London 82
break 82
tw@@ 82
joy 82
resolution 82
38 82
fruits 82
damage 82
row 82
Social 82
initiated 82
He@@ 82
hot 82
cc 82
ium 82
grand 82
defence 82
wont 81
FIR 81
5-@@ 81
gar@@ 81
Europe 81
discuss 81
Look 81
Shetty 81
becomes 81
agreement 81
investigated 81
min@@ 81
S. 81
Everybody 81
negative 81
Get 81
Due 81
quickly 81
cha@@ 81
summer 81
urban 81
Keep 81
sale 81
granted 81
defeat 81
door 81
payment 81
learning 81
Mah@@ 81
proud 81
trees 81
section 81
noted 81
opposed 81
51 81
residence 80
ol 80
RTC 80
administration 80
iting 80
limit 80
co-@@ 80
Be@@ 80
NDA 80
ank@@ 80
e. 80
flights 80
confident 80
tions 80
bhp 80
busy 80
February 80
whose 80
drinking 80
answers 80
Parents 80
ns 80
unknown 80
85 80
Superstar 80
emb@@ 80
learnt 80
interview 80
Iran 80
talked 80
Deverakonda 80
Surender 80
ained 80
approach 80
presence 80
warm 80
mo@@ 80
Agarwal 79
reduced 79
centres 79
Karan 79
becoming 79
Moreover 79
comp@@ 79
comment 79
grief 79
usually 79
Click 79
ition 79
longer 79
technical 79
Civil 79
charged 79
simultaneously 79
Germany 79
ening 79
firing 79
lived 79
ek@@ 79
ious 79
forth 79
uses 79
Dutt 79
everybody 79
cancelled 79
ently 79
keeping 79
network 79
aid 79
3,@@ 79
Well 79
product 79
awards 79
Food 79
bat 79
inder 79
resources 78
holding 78
o-@@ 78
ti@@ 78
48 78
v 78
allocated 78
inf@@ 78
transmission 78
add@@ 78
Happy 78
anywhere 78
ched 78
request 78
Once 78
build 78
0-@@ 78
Oil 78
exactly 78
loans 78
iPhone 78
2016 78
documents 78
protesters 78
goods 78
Republic 78
Yoga 78
Check 78
numerous 78
drama 78
hath 78
Le@@ 78
lines 78
onion 78
servants 78
delivered 77
ied 77
Pandey 77
bul@@ 77
strengthen 77
PV 77
Go 77
hol@@ 77
entry 77
Vitamin 77
Car@@ 77
Pur@@ 77
internet 77
ov@@ 77
chopped 77
Fire 77
ern@@ 77
promised 77
fled 77
Office 77
correct 77
Welfare 77
ongoing 77
conc@@ 77
Engineering 77
joint 77
w 77
finance 77
ize 77
stock 77
deployed 77
garlic 77
fields 77
re-@@ 77
7,@@ 77
models 77
advised 77
represented 77
UK 76
wash 76
unique 76
plant 76
thanked 76
delayed 76
Ac@@ 76
grow 76
Apple 76
connected 76
species 76
Control 76
finished 76
beat 76
drive 76
ama 76
Ap@@ 76
fuel 76
competition 76
claims 76
om 76
Narasimha 76
63 76
acres 76
bear 76
mat@@ 76
sense 76
Great 76
removed 76
anniversary 76
Saturday 76
cameras 76
nagar 76
size 76
heat 76
hasnt 76
science 75
contains 75
JD 75
assured 75
War 75
stable 75
tree 75
fee 75
Kurnool 75
dev@@ 75
Sridevi 75
ality 75
Internet 75
postmortem 75
Kan@@ 75
circumstances 75
cards 75
28@@ 75
highly 75
un 75
beauty 75
clash 75
laid 75
soul 75
referred 75
starts 75
ho@@ 75
iya 75
lady 75
choice 75
havent 75
Manmohan 75
ru@@ 75
learned 75
resignation 75
acts 75
II 75
Service 75
emergency 75
strict 74
Nar@@ 74
asking 74
surface 74
carry 74
col@@ 74
aged 74
titled 74
hy@@ 74
January 74
featured 74
BSE 74
permission 74
Sandeep 74
Bo@@ 74
check 74
upset 74
subject 74
watching 74
Ak@@ 74
ising 74
sectors 74
2,@@ 74
severely 74
ICICI 74
Egypt 74
maintain 74
exc@@ 74
individuals 74
TMC 74
ters 74
Pradhan 74
ee 74
twice 74
develop 74
selected 74
self 74
travelling 74
ens@@ 74
rel@@ 73
've 73
ith 73
practice 73
Bajaj 73
Shraddha 73
Use 73
programmes 73
ans@@ 73
meets 73
properties 73
cultural 73
pat@@ 73
red@@ 73
apur 73
Kovind 73
amazing 73
Mix 73
j 73
location 73
headquarters 73
mix 73
Based 73
image 73
t-@@ 73
tour 73
dream 73
ind 73
plants 73
driving 73
standard 73
thi 73
patient 73
tha 73
tough 73
beyond 73
yes 73
sub-@@ 73
head@@ 73
Green 72
evil 72
Thakur 72
dismissed 72
limited 72
Av@@ 72
DMK 72
files 72
Im@@ 72
systems 72
ill 72
Chand@@ 72
seeing 72
Economic 72
games 72
manual 72
records 72
scale 72
Himachal 72
style 72
apostle 72
ane 72
respond 72
partnership 72
reply 72
loving 72
mistake 72
litre 72
celebrations 72
seeking 72
three-@@ 72
Jay@@ 72
ified 72
Productions 72
endra 72
opening 72
double 72
Additional 72
Pan@@ 72
Desam 71
performed 71
walk 71
items 71
Cl@@ 71
ending 71
00 71
ODIs 71
ils 71
cre@@ 71
automatic 71
faithful 71
58 71
Pawar 71
hel@@ 71
directly 71
increases 71
attacks 71
territory 71
ati 71
Governments 71
unt@@ 71
ning 71
ins@@ 71
Uttarakhand 71
Washington 71
program 71
LED 71
proposed 71
replied 71
annual 71
tournament 71
exist 71
super@@ 71
Per@@ 71
paper 71
showed 71
variants 71
forget 71
Rajendra 71
League 71
sin 71
Transport 71
designed 71
feeling 70
Prices 70
Nitin 70
det@@ 70
activity 70
River 70
Income 70
exam 70
booked 70
hor@@ 70
Whos 70
ier 70
condolences 70
44 70
Deepika 70
Before 70
Currently 70
covered 70
gearbox 70
two-@@ 70
manner 70
i-@@ 70
countrys 70
Tax 70
Black 70
ong@@ 70
Po@@ 70
AI@@ 70
ess 70
loves 70
59 70
iding 70
surprised 70
rivers 70
screen 70
2021 70
Ambani 70
fifth 70
European 70
Kishore 70
Vardhan 70
sad 70
Sw@@ 70
Pe@@ 70
fame 70
Jayalalithaa 70
adi@@ 70
bro@@ 69
mod@@ 69
enc@@ 69
sharing 69
couldnt 69
bowl 69
meaning 69
Watch 69
ail@@ 69
Naresh 69
Govt 69
link 69
murdered 69
facts 69
,9@@ 69
Alia 69
Bhatt 69
Still 69
off@@ 69
ush@@ 69
ke 69
Business 69
ional 69
pray 69
46 69
ham@@ 69
Lakshmi 69
Shikhar 69
ams 69
-up 69
minimum 69
IS@@ 69
800 69
ms 69
ram@@ 69
Fund 69
DA 69
device 69
ect@@ 69
ational 69
Qu@@ 69
Has 69
aiah 69
athi 69
weather 69
suspect 69
Bas@@ 69
requested 69
alongside 68
3-@@ 68
pan@@ 68
contain 68
perfect 68
gen@@ 68
Baahubali 68
apex 68
rescue 68
Tell 68
bar@@ 68
ber 68
kings 68
implementation 68
C. 68
ED 68
attempt 68
birds 68
Mr 68
achieved 68
clarity 68
ourselves 68
Post 68
Second 68
mode 68
vis@@ 68
Rs@@ 68
ste@@ 68
Human 68
ures 68
terror 68
Gar@@ 68
Korea 68
approximately 68
excellent 68
toward 68
studies 68
Petrol 68
millions 68
package 68
potential 68
submitted 68
Nav@@ 68
95 68
Judah 68
sm@@ 68
ruled 68
KL 68
ding 68
trouble 68
tea 67
Med@@ 67
statue 67
deputy 67
guest 67
demands 67
Show 67
Balakrishna 67
125 67
Visakhapatnam 67
umb@@ 67
diabetes 67
writing 67
Kumaraswamy 67
bike 67
Nam@@ 67
shops 67
rice 67
approached 67
47 67
masks 67
ged 67
Res@@ 67
atic 67
losses 67
han@@ 67
lie 67
Although 67
super 67
eye 67
serving 67
burnt 67
Vishnu 67
premium 67
floods 67
comm@@ 67
Rahman 67
internal 67
Manohar 67
Ha@@ 67
superstar 67
Russian 67
Nifty 67
appeal 67
Hindus 67
formation 67
Speaking 67
Te@@ 67
differences 67
worldwide 67
PM@@ 67
ible 67
Keerthy 67
ame 67
calls 67
to@@ 67
met@@ 67
rap@@ 67
Chidambaram 67
resulted 67
juice 67
lying 66
wonderful 66
Ravindra 66
pretty 66
File 66
Kh@@ 66
bu@@ 66
vaccine 66
Though 66
losing 66
prov@@ 66
untoward 66
shortly 66
Financial 66
Ranjan 66
# 66
ecting 66
bs 66
sexual 66
aja 66
Thackeray 66
{ 66
rooms 66
-year-old 66
boost 66
Vikram 66
Makers 66
Diwali 66
enjoyed 66
UTs 66
flight 66
Mand@@ 66
defeated 66
appropriate 66
biopic 66
Drink 66
appears 66
elled 66
edition 66
1,000 66
Job 66
tri@@ 66
Cor@@ 66
fan 66
54 66
Kuldeep 66
Similarly 66
bas@@ 66
Covid 66
blast 66
tbsp 66
Along 66
anybody 66
pieces 66
Kajal 65
understanding 65
anc@@ 65
listen 65
app@@ 65
except 65
proposal 65
Rev@@ 65
path 65
content 65
centuries 65
IN@@ 65
York 65
trading 65
Pandya 65
Mahendra 65
homes 65
Sriram 65
medal 65
Media 65
diet 65
2000 65
actions 65
handle 65
iron 65
simply 65
} 65
Lakh 65
eventually 65
Amazon 65
ti 65
ack 65
Sports 65
sol@@ 65
Mr. 65
existing 65
Details 65
ver@@ 65
Dec@@ 65
foods 65
Radha 65
Ayodhya 65
MA@@ 65
acc@@ 65
Mukesh 65
inspired 65
div@@ 65
foundation 65
strategy 65
Reliance 65
fought 65
Manipur 65
Legislative 65
'll 65
USD 65
log@@ 65
sal@@ 65
Bi@@ 65
indeed 65
mine 65
Like 65
med 65
congratulated 65
touch 65
V. 64
gu@@ 64
ented 64
Smith 64
terrorist 64
IT@@ 64
ust@@ 64
Otherwise 64
her@@ 64
Aamir 64
crops 64
sitting 64
addressed 64
waters 64
broken 64
Last 64
Col@@ 64
planned 64
quick 64
ail 64
angry 64
Up@@ 64
vision 64
ingly 64
1000 64
banking 64
Officials 64
fulfilled 64
in-@@ 64
transport 64
associated 64
Photo 64
sa@@ 64
hum@@ 64
Ajit 64
Mad@@ 64
amm@@ 64
Ahmed 64
category 64
Mandanna 64
ticket 64
form@@ 64
50@@ 64
earned 64
Comm@@ 64
ach 64
ours 64
ela 64
Thomas 63
duty 63
teaching 63
Nitish 63
dates 63
forms 63
hundreds 63
Major 63
managed 63
ulation 63
der 63
Young 63
Price 63
requires 63
Entertainment 63
72 63
gre@@ 63
material 63
rather 63
survey 63
2-@@ 63
4-@@ 63
nine 63
ency 63
HYDERABAD 63
News 63
distribution 63
ping 63
Swaraj 63
samples 63
Actress 63
adequate 63
specific 63
priority 63
sn@@ 63
Dr@@ 63
audiences 63
ata 63
ides 63
stat@@ 63
mostly 63
,@@ 63
carrying 63
Shami 63
vital 63
peak 63
installed 63
yan 63
passes 63
probing 63
Mission 63
Heat 63
alcohol 62
Di@@ 62
killing 62
pepper 62
Gadkari 62
ident@@ 62
ass 62
sometimes 62
alist 62
initiative 62
ized 62
mm 62
Nellore 62
pregnant 62
ena 62
fa@@ 62
Nepal 62
ological 62
ith@@ 62
aware 62
Shiv@@ 62
ender 62
dropped 62
deb@@ 62
mission 62
James 62
Narayana 62
ap 62
ight@@ 62
Bumrah 62
wear 62
Panchayat 62
plenty 62
rumours 62
starrer 62
nice 62
41 62
selling 62
particularly 62
poll 62
eating 62
honour 62
Sing@@ 62
ices 62
9,@@ 62
6,@@ 62
Fadnavis 62
wise 62
Rural 62
participate 62
awarded 62
lots 62
ong 62
Varun 62
governor 62
Nivetha 61
Locals 61
resolved 61
argument 61
ber@@ 61
lack 61
Ag@@ 61
BJPs 61
regularly 61
quit 61
Pl@@ 61
Investigation 61
garnered 61
threat 61
fellow 61
tradition 61
trans@@ 61
reviews 61
00@@ 61
advantage 61
instead 61
down@@ 61
coll@@ 61
tim@@ 61
rapidly 61
GDP 61
Soon 61
Vamsi 61
ements 61
truly 61
suffer 61
Tal@@ 61
Private 61
auto 61
loc@@ 61
tourist 61
char@@ 61
myself 61
Airport 61
Already 61
Khanna 61
Lal 61
Thousands 61
greater 61
priest 61
ton 61
impossible 61
postponed 60
ously 60
Collector 60
promise 60
Nandamuri 60
Sethupathi 60
Ford 60
aim 60
inn@@ 60
Das 60
wishes 60
crash 60
Hardik 60
anti 60
successfully 60
counsel 60
segment 60
preaching 60
eth@@ 60
ads 60
Industries 60
Mythri 60
complained 60
okay 60
Vis@@ 60
encounter 60
Selection 60
distributed 60
Ba@@ 60
Shar@@ 60
Samajwadi 60
stayed 60
truck 60
62 60
regions 60
wal 60
Kiran 60
War@@ 60
voters 60
crossed 60
Information 60
affairs 60
standards 60
farm 60
Work 60
mor@@ 60
10,000 60
4,@@ 60
fund 60
Project 60
captured 60
images 60
Ravipudi 60
Gur@@ 60
sort 60
Bha@@ 60
storm 60
flood 60
developing 60
Ramakrishna 60
adi 60
ush 60
plane 60
footage 59
contact 59
Johar 59
67 59
text 59
witness 59
celebrate 59
Akkineni 59
Come 59
supporting 59
Vijay@@ 59
batting 59
recommended 59
Rakul 59
ching 59
villagers 59
union 59
Na@@ 59
bilateral 59
followers 59
historic 59
mal@@ 59
Authority 59
Sometimes 59
skills 59
Next 59
Je@@ 59
Action 59
subsequently 59
floor 59
Gupta 59
collected 59
Afghanistan 59
ey@@ 59
Mishra 59
Leader 59
sisters 59
fixed 59
favour 59
independent 59
oll@@ 59
ays 59
hopes 59
background 59
medicines 59
ung@@ 59
original 59
certificate 59
US@@ 59
ians 59
influence 59
trial 59
abad 59
provisions 59
filled 59
Ganguly 59
fe@@ 59
threatened 59
Rukh 59
Indies 59
clearly 58
flour 58
judgment 58
regional 58
leaving 58
awareness 58
television 58
Psalm 58
please 58
collection 58
nam@@ 58
Preet 58
permanent 58
signs 58
Kaur 58
widely 58
values 58
officially 58
pp@@ 58
buses 58
ick@@ 58
appealed 58
spokesperson 58
joining 58
anda 58
Industry 58
mainly 58
helping 58
ards 58
57 58
healthcare 58
Modis 58
Madras 58
iled 58
contr@@ 58
Maharshi 58
shut 58
praise 58
AR 58
send 58
Finally 58
teach 58
Jadeja 58
Rel@@ 58
allotted 58
rupee 58
NEW 58
activists 58
At@@ 58
route 58
Warangal 58
NA@@ 58
Reserve 58
arms 58
Mahatma 58
em 58
Bhavan 58
Station 58
ide@@ 58
HDFC 58
method 58
Indira 58
Earth 58
IPC 57
wake 57
Siva 57
prayers 57
Goyal 57
inv@@ 57
ire 57
ISRO 57
parliamentary 57
uru 57
condemned 57
vs 57
Global 57
protesting 57
96 57
PTI 57
Katrina 57
VI@@ 57
ce 57
phases 57
rupees 57
go@@ 57
struck 57
ick 57
Samantha 57
besides 57
RAM 57
Rai 57
Bu@@ 57
dy 57
56 57
composing 57
Tests 57
ge@@ 57
taught 57
Scriptures 57
DELHI 57
worse 57
industries 57
tributes 57
residents 57
celebrities 57
expect 57
depends 57
emerged 57
Producer 57
picked 57
younger 57
attitude 57
organisations 57
colleges 57
ner 57
prayer 57
collapsed 57
Woman 56
Venkateswara 56
chosen 56
ami 56
starting 56
Satan 56
arent 56
fruit 56
fat 56
ple 56
proved 56
tive 56
ishing 56
Jews 56
ories 56
western 56
childhood 56
au@@ 56
Youth 56
apart 56
indices 56
Play 56
cons@@ 56
unveiled 56
ining 56
center 56
profit 56
Park 56
detailed 56
experienced 56
Were 56
explained 56
CP@@ 56
sa 56
methods 56
protection 56
itions 56
Sushma 56
gains 56
-based 56
uring 56
behold 56
linked 56
cool 56
ables 56
ation@@ 56
sup@@ 56
witnessed 56
eng@@ 56
Shi@@ 56
declined 56
god 56
We@@ 56
mandal 56
ma@@ 56
battery 56
ban 56
standing 56
visiting 56
Pat@@ 56
tor@@ 56
istic 56
Scheme 56
grew 56
ref@@ 56
Jo@@ 56
wished 56
onions 56
passenger 55
Sharad 55
S.@@ 55
welcomed 55
ser@@ 55
household 55
Insurance 55
port 55
CO@@ 55
likes 55
creation 55
Hero 55
Mohammad 55
Padukone 55
Movies 55
ff@@ 55
Mega 55
Rajesh 55
mated 55
mixed 55
Mur@@ 55
thank 55
ably 55
transferred 55
acy 55
rescued 55
External 55
53 55
ight 55
Fr@@ 55
coalition 55
mouth 55
ja 55
wards 55
creating 55
She@@ 55
investments 55
prove 55
resolve 55
length 55
peaceful 55
dubbed 55
deliver 55
four-@@ 55
labourers 55
Seven 55
8,@@ 55
Energy 55
crying 55
eggs 55
lay 55
tly 55
Kiara 55
forever 55
drugs 55
Ash@@ 55
fair 55
Advisor 55
code 55
ok@@ 55
tribute 55
gener@@ 55
var@@ 55
behalf 55
chilli 55
university 55
stake 55
difficulties 55
act@@ 55
2013 55
founder 55
Big 55
esh@@ 55
YouTube 55
Urban 55
welcome 55
agency 55
protein 55
infected 55
Any 55
Kam@@ 55
municipal 55
al-@@ 55
owing 55
Sol@@ 54
vitamin 54
dual 54
inch 54
conf@@ 54
owed 54
store 54
hill 54
judicial 54
India-@@ 54
banned 54
Top 54
amed 54
isn 54
gained 54
Kaif 54
offices 54
warning 54
certainly 54
year-old 54
Bur@@ 54
Aditya 54
work@@ 54
Op@@ 54
ection 54
reacted 54
RA@@ 54
ory 54
hits 54
part@@ 54
Abraham 54
respective 54
Theyre 54
anj@@ 54
user 54
ast 54
eligible 54
Plus 54
Space 54
aying 54
lands 54
abroad 54
slammed 54
ace 54
bridge 54
friendly 54
ok 54
secret 54
bagged 54
prepare 54
cholesterol 54
Dr.@@ 54
base 54
apuram 54
studying 54
Naga 54
120 54
real@@ 54
apalli 54
Note 54
Thanks 54
govt 54
glory 54
lock 54
ises 54
DGP 54
Wor@@ 54
Wh@@ 54
boys 54
ancy 53
RJD 53
pending 53
imm@@ 53
appreciated 53
unc@@ 53
Gang@@ 53
courts 53
aram 53
grown 53
crop 53
studied 53
sacrifice 53
San@@ 53
computer 53
characters 53
Or@@ 53
shocking 53
Tiger 53
friendship 53
77 53
43 53
addressing 53
Produced 53
cap@@ 53
literature 53
Gogoi 53
Char@@ 53
Films 53
trend 53
61 53
ther@@ 53
71 53
kingdom 53
Joseph 53
pol@@ 53
allows 53
je@@ 53
doubts 53
willing 53
select 53
escaped 53
equipment 53
Sukumar 53
anta 53
overall 53
Pant 53
express 53
None 53
net 53
lets 53
Devendra 53
Eat 53
ioned 53
Nor@@ 53
farmer 53
Sum@@ 53
Ladakh 53
Premier 53
Srikanth 53
hike 53
bar 53
ink@@ 53
fathers 53
frequently 53
che@@ 53
association 53
Motor 53
Oh 53
drug 52
jit 52
Sir@@ 52
German 52
engaged 52
iness 52
seed 52
minutes 52
ik 52
departments 52
industrial 52
cal@@ 52
constituted 52
elling 52
new@@ 52
Policy 52
clothes 52
RS 52
ls 52
sky 52
described 52
74 52
squad 52
peoples 52
ental 52
ured 52
izing 52
cylinder 52
RSS 52
Expo 52
balls 52
ues 52
Local 52
instance 52
B.@@ 52
ban@@ 52
Chris 52
track 52
debt 52
commits 52
Sat@@ 52
MoU 52
sec@@ 52
consecutive 52
Santosh 52
rest@@ 52
Vi@@ 52
Try 52
ond@@ 52
spend 52
Active 52
d-@@ 52
gun@@ 52
statements 52
conducting 52
suggested 52
Son@@ 52
alised 52
ut 52
self-@@ 52
ids 52
memory 52
civil 52
Repeat 52
strongly 52
Mor@@ 52
investors 52
scooter 52
policemen 52
2012 52
plus 52
sign 52
compl@@ 52
youths 52
duo 52
yesterday 52
critics 51
Mang@@ 51
piece 51
dark 51
tra 51
decades 51
USA 51
Geetha 51
ly@@ 51
nab 51
faces 51
older 51
principal 51
tension 51
Go@@ 51
Roy 51
29@@ 51
not@@ 51
Ro@@ 51
Rec@@ 51
Inter@@ 51
desire 51
ell 51
iy@@ 51
lam@@ 51
ley 51
motion 51
Thaman 51
82 51
Greek 51
basic 51
68 51
CC@@ 51
reduces 51
singer 51
totally 51
fighter 51
bre@@ 51
Blue 51
entering 51
opinion 51
700 51
kindness 51
CRPF 51
White 51
Entertainments 51
punishment 51
isation 51
SA@@ 51
KS 51
alli 51
dem@@ 51
Forest 51
li 51
Harsh 51
agricultural 51
Rawat 51
Democratic 51
feelings 51
Working 51
anna 51
Bhushan 51
unable 51
mandatory 51
division 51
Kod@@ 51
fre@@ 51
minerals 50
Deepak 50
window 50
Rem@@ 50
aries 50
gathered 50
danger 50
Venkatesh 50
straight 50
tips 50
aking 50
ek 50
lake 50
,000 50
middle 50
Whether 50
Behold 50
script 50
pet@@ 50
Osmania 50
144 50
favourite 50
supports 50
Ala 50
crew 50
organization 50
asks 50
promote 50
IIT 50
aside 50
Apply 50
definitely 50
require 50
nominated 50
onic 50
disciples 50
sight 50
Dar@@ 50
proof 50
ord@@ 50
Pa@@ 50
observed 50
Same 50
rail 50
arguments 50
sha 50
Ed@@ 50
velocity 50
BC 50
itation 50
contested 50
Production 50
rer 50
Express 50
MLC 50
imp@@ 50
Shahid 50
atmosphere 50
alive 50
Yojana 50
P. 50
Steel 50
concerns 50
expanded 50
69 50
CAA 50
male 50
owned 50
selection 50
bound 50
Games 50
unity 50
ginger 50
leg 50
kills 50
Cases 50
ined 50
Swami 49
PA@@ 49
sem@@ 49
slowly 49
meant 49
Joint 49
K.@@ 49
wisdom 49
Mother 49
continuing 49
fi@@ 49
height 49
port@@ 49
falling 49
ki 49
tonnes 49
ment@@ 49
Ranveer 49
ex-@@ 49
Naveen 49
wine 49
apps 49
grams 49
ected 49
Sab@@ 49
ths 49
hat 49
blue 49
rare 49
fit 49
disappointed 49
ster 49
ker 49
aging 49
Eastern 49
te 49
sweet 49
Comp@@ 49
mass 49
entirely 49
excited 49
factors 49
mixture 49
traditional 49
> 49
Joshi 49
spreading 49
race 49
hon@@ 49
star@@ 49
closely 49
panel 49
DVV 49
carefully 49
Was 49
emp@@ 49
tennis 49
can@@ 49
Som@@ 49
ous@@ 49
devices 49
aming 49
meal 49
pm 49
Give 49
Siv@@ 49
pension 49
winner 49
demise 49
park 49
animal 49
eshwar 49
11,@@ 49
Despite 49
Traffic 49
hom@@ 49
arm 49
relatives 49
authority 49
mot@@ 49
Baba 49
Lo@@ 49
Should 49
Candidates 49
scientists 49
perform 48
No@@ 48
blockbuster 48
guilty 48
previously 48
Dh@@ 48
maintained 48
Subsequently 48
198@@ 48
roll 48
initially 48
Solomon 48
streets 48
Obama 48
posed 48
Umesh 48
180 48
lawyer 48
wing 48
assets 48
oned 48
ideas 48
wall 48
pose 48
aj 48
Land 48
350 48
experts 48
smooth 48
84 48
nobody 48
cautious 48
ris@@ 48
App@@ 48
NT@@ 48
update 48
church 48
gift 48
comfort 48
IP@@ 48
complaints 48
AR@@ 48
core 48
occur 48
Verma 48
an-@@ 48
Rakesh 48
council 48
Gautam 48
52 48
2009 48
sel@@ 48
Aishwarya 48
sell 48
visible 48
Ban@@ 48
lif@@ 48
val@@ 48
upto 48
Mukherjee 48
operating 48
Nayanthara 48
improved 48
all-@@ 48
listed 48
executive 48
easier 48
ails 48
ble 48
expensive 48
fired 48
ization 48
Think 48
applications 48
ard@@ 48
alized 48
Answer 48
Manoj 48
2020-21 48
moves 48
stocks 48
Nehru 48
Metro 48
CC 48
Arunachal 48
ences 48
pollution 48
historical 48
consequences 48
Az@@ 48
ima 48
Tel@@ 48
tur@@ 48
ag 47
ze 47
hour 47
stages 47
encouraged 47
mand@@ 47
inst@@ 47
moon 47
tickets 47
Sunrisers 47
JP 47
Anantapur 47
sets 47
parking 47
thereafter 47
78 47
heads 47
post-production 47
Cont@@ 47
tremendous 47
partner 47
ank 47
Upon 47
one-@@ 47
struggle 47
controversial 47
software 47
Brazil 47
1-@@ 47
triggered 47
raise 47
HD 47
immunity 47
Would 47
akes 47
Venkat@@ 47
dollar 47
elders 47
staged 47
provision 47
Avoid 47
routes 47
bringing 47
aring 47
qualities 47
Management 47
Small 47
equ@@ 47
ie@@ 47
scenes 47
CA@@ 47
gram 47
Jadhav 47
index 47
succeed 47
comfortable 47
ily 47
speci@@ 47
2004 47
Her@@ 47
Jan@@ 47
Sim@@ 47
Srinagar 47
counting 47
trials 47
appointment 47
uck@@ 47
mus@@ 47
awaited 47
Lake 47
ock 47
adults 47
ax@@ 47
paying 47
generated 47
Kangana 47
adm@@ 47
illness 47
Del@@ 47
Death 47
transfer 47
mi 47
ears 47
Padma 47
wood 47
articles 47
ular 46
wicked 46
silent 46
Free 46
author 46
swing 46
surprising 46
anointed 46
balance 46
akk@@ 46
challenging 46
edge 46
draw 46
Wash 46
passing 46
anth@@ 46
88 46
Anirudh 46
ram 46
taste 46
hood 46
Ranbir 46
speaker 46
manager 46
Saina 46
investigate 46
udu 46
comedy 46
clashes 46
reserved 46
valid 46
AI 46
yan@@ 46
Never 46
Jacob 46
wheels 46
slogans 46
sites 46
beneficiaries 46
All@@ 46
ees 46
Jasprit 46
sit 46
reaching 46
goals 46
structure 46
righteous 46
pair 46
read@@ 46
udi 46
emotional 46
art@@ 46
delivery 46
ST@@ 46
Tripura 46
wounded 46
ham 46
bowling 46
aining 46
back@@ 46
surgery 46
connectivity 46
eted 46
accidents 46
Chandrashekhar 46
submit 46
ign@@ 46
Mantri 46
whats 46
expenditure 46
Nani 46
Royals 46
politician 46
dreams 46
catch 46
medium 46
Saaho 46
reservation 46
Murali 46
organisation 46
whatever 46
salary 46
blessings 46
sworn 46
oh@@ 46
Administration 46
bankrolled 46
Japanese 46
dance 46
conflict 46
comprising 46
Hol@@ 46
Change 46
blessed 46
Australian 45
ese 45
stones 45
eration 45
chapter 45
flesh 45
pace 45
commit 45
Chandigarh 45
Tirupati 45
despite 45
context 45
Mis@@ 45
ro 45
ped 45
Review 45
Nagaland 45
R. 45
Money 45
enn@@ 45
irrigation 45
Sunkara 45
da 45
sun@@ 45
ari@@ 45
soft 45
ext@@ 45
av 45
exp@@ 45
System 45
S-@@ 45
wal@@ 45
quarter 45
currency 45
Saudi 45
voting 45
smart 45
vitamins 45
CE@@ 45
alism 45
Jaipur 45
stand@@ 45
brain 45
militants 45
arrives 45
belong 45
ers@@ 45
volume 45
SE@@ 45
legislative 45
personality 45
2006 45
has@@ 45
relevant 45
anas 45
Rafale 45
adding 45
ded 45
Being 45
onwards 45
Mirza 45
ole 45
registration 45
commence 45
releasing 45
Celsius 45
mistakes 45
ao 45
wa 45
Class 45
pen@@ 45
Vir@@ 45
Kapil 45
Members 45
gathering 45
mutual 45
Academy 45
Mark 45
Know 45
inal 45
hu 45
moral 45
manufacturer 45
Tourism 45
pal 45
Off@@ 45
Mobile 45
igh@@ 45
Nizamabad 45
Parliamentary 45
itt@@ 45
nomination 45
purchase 45
Mayawati 45
6-@@ 45
Mak@@ 45
Bl@@ 45
ound 45
remove 45
hab@@ 45
neck 45
suspected 45
iles 45
high-@@ 45
caste 45
appa 45
fil@@ 45
5,000 45
amongst 45
Lak@@ 45
bread 44
deposit 44
hai 44
heroines 44
Captain 44
Having 44
conversation 44
Satyanarayana 44
Digital 44
monitoring 44
Marathi 44
Kadapa 44
useful 44
66 44
mel@@ 44
Without 44
count 44
run@@ 44
sex 44
spec@@ 44
criminal 44
powers 44
representatives 44
ich@@ 44
winter 44
128 44
ared 44
adv@@ 44
Sc@@ 44
cas@@ 44
decline 44
Narayan 44
eless 44
Name 44
rid 44
Revenue 44
cour@@ 44
highway 44
Mizoram 44
five-@@ 44
showing 44
heavily 44
mol@@ 44
A. 44
ately 44
enemies 44
pa 44
kinds 44
migrant 44
trip 44
eastern 44
earthquake 44
filmmaker 44
she@@ 44
ree 44
complex 44
gradually 44
jo@@ 44
History 44
task 44
True 44
tre@@ 44
Tech 44
Banks 44
Karthik 44
tragic 44
So@@ 44
2008 44
momentum 44
Story 44
branch 44
Cast 44
weapons 44
soci@@ 44
absolutely 44
Abhishek 44
judges 44
86 44
Chandr@@ 44
bought 44
Video 44
sentence 43
ayed 43
law@@ 43
Adv@@ 43
Tur@@ 43
zone 43
seemed 43
Select 43
towns 43
venue 43
eagerly 43
sheep 43
Aaron 43
Challengers 43
alternative 43
49@@ 43
Western 43
sim@@ 43
squ@@ 43
lap@@ 43
Going 43
bet@@ 43
Vijayasai 43
Uddhav 43
poverty 43
spending 43
Stylish 43
united 43
| 43
thoughts 43
Child 43
Hy@@ 43
Wal@@ 43
10.@@ 43
Case 43
scientific 43
wives 43
exchange 43
.... 43
fray 43
Pad@@ 43
Sun@@ 43
dig@@ 43
arm@@ 43
command 43
ows 43
rit@@ 43
blocked 43
HC 43
Pol@@ 43
policies 43
000 43
sion 43
avail 43
procedure 43
Citizenship 43
sentenced 43
N. 43
cle@@ 43
prison 43
GHMC 43
solve 43
camp 43
factory 43
ase 43
sir 43
situations 43
Jio 43
righteousness 43
invest 43
mothers 43
anth 43
examined 43
drawn 43
s-@@ 43
Nay@@ 43
MD 43
pick 43
priests 43
updates 43
tered 43
Def@@ 43
Mil@@ 43
ake 43
60@@ 43
weak 42
73 42
elder 42
practical 42
sixth 42
loo@@ 42
Assistant 42
faster 42
81 42
Prov@@ 42
Do@@ 42
ease 42
Singapore 42
agar 42
post@@ 42
bing 42
inda 42
extra 42
Sup@@ 42
Pictures 42
sung 42
Kha@@ 42
visitors 42
ba 42
erial 42
troops 42
Em@@ 42
Commerce 42
AP@@ 42
tourism 42
Aggarwal 42
Pulwama 42
Chaitanya 42
buying 42
mult@@ 42
flag 42
improves 42
gods 42
ailed 42
objective 42
Jitendra 42
sensor 42
Rishabh 42
Protection 42
Teja 42
Manish 42
aver@@ 42
Indi@@ 42
borders 42
alling 42
ective 42
LPG 42
charging 42
ships 42
Ko@@ 42
Microsoft 42
2nd 42
announce 42
PAN 42
treat 42
Politics 42
waste 42
slated 42
Features 42
ung 42
filing 42
medi@@ 42
Political 42
ava 42
Schools 42
atory 42
grant 42
spr@@ 42
ve@@ 42
graduate 42
2.5 42
wara 42
interests 42
Proverbs 42
turns 42
med@@ 42
ump@@ 42
BRICS 42
doors 42
ineni 42
outbreak 41
significantly 41
irs 41
Toyota 41
Ge@@ 41
suspects 41
Sea 41
engines 41
speaks 41
hosted 41
keeps 41
Haz@@ 41
farming 41
formal 41
reverse 41
Conn@@ 41
download 41
hall 41
Stadium 41
Chittoor 41
lin@@ 41
Saif 41
MC 41
Akhilesh 41
mur@@ 41
unfortunate 41
Cinema 41
settled 41
Ill 41
dish 41
Bengali 41
strange 41
Executive 41
Malik 41
Des@@ 41
Gopi 41
Head 41
Hollywood 41
ailing 41
larger 41
Sikkim 41
Navy 41
constitution 41
African 41
advanced 41
Launch 41
hear@@ 41
Awards 41
od 41
sanctioned 41
connect 41
operated 41
thir@@ 41
discount 41
instrument 41
IN 41
challenged 41
ust 41
Bureau 41
Code 41
Studios 41
analy@@ 41
Sad@@ 41
talent 41
gate 41
Tam@@ 41
stranded 41
ulate 41
identity 41
hal 41
Israelites 41
Vivek 41
saith 41
erg@@ 41
Thir@@ 41
Allahabad 41
Pap@@ 41
Meghalaya 41
ech 41
combined 41
Season 41
es. 41
limits 41
Nara 41
Lokesh 41
Iyer 41
plastic 41
Pres@@ 41
ty@@ 41
on-@@ 41
labour 41
organ@@ 41
gearing 41
Britain 41
meat 41
determined 41
reforms 41
assault 41
Vijaya 41
Ind@@ 41
Full 41
st 41
hearts 41
ech@@ 41
legend 41
Tw@@ 41
greatest 41
2,000 41
Ps 41
Pre@@ 41
NRC 41
honey 41
reporters 41
otherwise 41
den@@ 41
outstanding 41
UN 41
sport 41
hatchback 41
Olympics 41
Ud@@ 41
Azad 41
Devgn 41
herself 41
penalty 41
Ay@@ 41
ler 41
Dinesh 41
ography 41
swe@@ 41
dep@@ 41
generally 41
Vadra 41
Stat@@ 41
processing 41
square 41
Sharif 41
inaugurated 41
exact 41
forests 41
aji 41
calcium 40
IAF 40
Cam@@ 40
Italy 40
76 40
Jan 40
Steve 40
fallen 40
walked 40
hotel 40
del@@ 40
Application 40
combination 40
affair 40
returns 40
CA 40
coal 40
Church 40
guide 40
Exp@@ 40
buildings 40
understood 40
Tiwari 40
discipline 40
servant 40
-speed 40
applicable 40
novel 40
disc@@ 40
Va@@ 40
12.@@ 40
walking 40
Sil@@ 40
jawans 40
citizenship 40
independence 40
advis@@ 40
ren 40
pure 40
had@@ 40
surely 40
Consider 40
Not@@ 40
proc@@ 40
Mu@@ 40
fiscal 40
bowlers 40
Vinod 40
Satish 40
tons 40
92 40
NE@@ 40
AIIMS 40
violent 40
casualties 40
Thereafter 40
participating 40
Up 40
ades 40
Sagar 40
replaced 40
commitment 40
T20Is 40
thanks 40
Reg@@ 40
ura 40
Dubai 40
arch@@ 40
solutions 40
resign 40
Hum@@ 40
participation 40
affect 40
Sardar 40
wealth 40
ulu 40
reign 40
valley 40
figures 40
classes 40
Karimnagar 40
akar 40
speedy 40
ona 40
purposes 40
Matthew 40
locations 40
solved 40
Pak 40
ft 40
contribution 40
ingredients 40
spotted 40
appearance 40
Bhopal 40
educational 40
expression 40
Sourav 40
suggestions 40
guard 40
zz@@ 40
extension 40
trained 40
whereas 40
NR@@ 40
illegal 40
oo 40
grad@@ 40
mountain 40
Planning 40
Tej 40
az 40
Crore 40
contributed 40
ireddy 40
efficient 40
Venu 40
Ru@@ 40
AS 39
Nagpur 39
attending 39
Smart 39
owner 39
forming 39
Patna 39
ility 39
nav@@ 39
multi-@@ 39
rent 39
crowd 39
practices 39
pregnancy 39
ladies 39
figure 39
flowers 39
ine@@ 39
architecture 39
brilliant 39
Jagapathi 39
positions 39
dwell 39
succeeded 39
audio 39
voted 39
iving 39
feels 39
ert 39
beings 39
mountains 39
sexually 39
summit 39
Mus@@ 39
La@@ 39
northern 39
Varanasi 39
Right 39
extend 39
Prabhakar 39
ifies 39
Att@@ 39
variety 39
categories 39
Something 39
paired 39
native 39
tongue 39
fees 39
Pay 39
sens@@ 39
saved 39
2007 39
ually 39
restrictions 39
exports 39
q@@ 39
200@@ 39
Maha@@ 39
3,000 39
telling 39
rankings 39
materials 39
Ann@@ 39
globally 39
ough@@ 39
PS 39
instructions 39
click 39
suspicious 39
Qualification 39
retired 39
83 39
noticed 39
flat 39
Ste@@ 39
fever 39
Natural 39
papers 39
eni 39
Lalu 39
Ke@@ 39
risks 39
Summit 39
Cut 39
Ravichandran 39
Ben@@ 39
pre-production 39
concept 39
yellow 39
Symptoms 39
Ver@@ 39
Sel@@ 39
technologies 39
burden 39
output 39
block 39
SH@@ 39
Sou@@ 39
transactions 39
island 39
breaks 39
Ev@@ 39
comprises 39
elements 39
everywhere 39
ills 39
Kishan 39
Jam@@ 39
reduction 39
darkness 39
possibility 39
wage 39
za 39
encourage 39
Want 39
Bab@@ 38
acqu@@ 38
ination 38
brings 38
drop 38
aria 38
Piyush 38
Shes 38
Spanish 38
vi 38
engineering 38
calling 38
aff@@ 38
land@@ 38
ibility 38
Could 38
TVS 38
uded 38
ned 38
icky 38
aspects 38
mag@@ 38
eds 38
covering 38
Roshan 38
pu@@ 38
repeated 38
mercy 38
@ 38
completion 38
Trust 38
constant 38
Car 38
Aravind 38
extent 38
Arabia 38
Times 38
soil 38
deeply 38
register 38
Gowda 38
clarified 38
launches 38
of@@ 38
globe 38
2.0 38
post-@@ 38
approves 38
ision 38
110 38
edly 38
Start 38
highlight 38
eting 38
pre-@@ 38
Organisation 38
Bhaskar 38
Investment 38
bills 38
electr@@ 38
rounds 38
premises 38
Ham@@ 38
explain 38
Samuel 38
anga 38
Swamy 38
advantages 38
ke@@ 38
arise 38
Danayya 38
Srinivasa 38
plying 38
lights 38
Sciences 38
rier 38
Chahal 38
corona 38
syn@@ 38
class@@ 38
Marketing 38
forced 38
batt@@ 38
exit 38
Trains 38
controlled 38
agencies 38
Pass@@ 38
setting 38
thriller 38
riding 38
ges 38
Cs 38
Capital 38
thine 38
although 38
gratitude 38
aspect 38
ims 38
profile 38
pi@@ 38
Plan 38
sparked 38
tun@@ 38
fort 38
stressed 38
aches 38
ola 38
ights 38
Ranaut 38
ica 38
attempts 38
Harris 38
comprehensive 38
atha 38
uation 38
App 38
releases 38
Adam 38
harassment 38
hana 38
Airtel 38
stir 38
Types 38
connections 38
sake 38
Common 38
UPA 38
immune 38
dealing 38
praised 37
Warner 37
artist 37
overcome 37
Samithi 37
hur@@ 37
Hon@@ 37
contract 37
measure 37
Choose 37
uv@@ 37
entertainment 37
Spain 37
camps 37
th-@@ 37
IA@@ 37
termed 37
wheat 37
Thiruvananthapuram 37
fol@@ 37
Firefox 37
Voting 37
ear 37
traditions 37
alls 37
Design 37
Meeting 37
pet 37
dog 37
ene 37
T20I 37
directors 37
abb@@ 37
tsp 37
shop 37
Shastri 37
Ka@@ 37
zero 37
sou@@ 37
adu 37
chain 37
lashed 37
seventh 37
yoga 37
aked 37
sle@@ 37
critically 37
Dal 37
asc@@ 37
Boo@@ 37
Paidipally 37
exams 37
wan 37
boundaries 37
labs 37
Tit@@ 37
Cur@@ 37
oms 37
Madhav 37
ila 37
Mat@@ 37
Authorities 37
lab@@ 37
B. 37
territories 37
Friends 37
failure 37
Sand@@ 37
exists 37
ws 37
Isaiah 37
listening 37
lift 37
crude 37
cro@@ 37
Sania 37
politicians 37
journalist 37
List 37
ired 37
Bombay 37
40@@ 37
duties 37
rob@@ 37
adopted 37
beds 37
Ob@@ 37
liquor 37
bigger 37
ES 37
integrated 37
Remember 37
personally 37
Pranab 37
coast 37
Saul 37
perhaps 37
temporary 37
ication 37
antagonist 37
recommendations 37
aan 37
Nearly 37
governance 37
reveal 37
Gas 37
advocate 37
heavenly 37
southern 37
miles 37
chairperson 37
Abdullah 37
Jud@@ 37
courses 37
Bad@@ 37
museum 37
Lok@@ 37
Training 37
him@@ 37
hate 37
Ph@@ 37
Infosys 37
acks 37
introduce 37
BS 37
solar 37
coffee 37
ashing 37
Part@@ 37
Key 36
Koratala 36
Search 36
ude 36
pays 36
ples 36
oring 36
forgotten 36
relation 36
broad@@ 36
Actually 36
Nations 36
belongs 36
contribute 36
ranked 36
secondary 36
photographs 36
etic 36
protestors 36
2011 36
CS@@ 36
Revanth 36
rain@@ 36
UV 36
asting 36
pha@@ 36
ea 36
aran 36
Ur@@ 36
Data 36
strikes 36
itha 36
ip 36
calm 36
enable 36
cat@@ 36
tablespoons 36
SA 36
housing 36
jan 36
password 36
ring 36
shalt 36
Canada 36
specified 36
ID 36
Independent 36
Region 36
improving 36
ift 36
staying 36
Shah@@ 36
implement 36
87 36
Tir@@ 36
Ran@@ 36
130 36
veteran 36
Olympic 36
rig@@ 36
heated 36
MT 36
maker 36
boo@@ 36
icks 36
1500 36
Trans@@ 36
inner 36
permitted 36
imprisonment 36
divine 36
igning 36
partys 36
Courts 36
initiatives 36
aut@@ 36
midst 36
Hussain 36
Atal 36
prize 36
oes 36
Bharti 36
hiked 36
scam 36
courage 36
CPM 36
requirements 36
Rana 36
Cre@@ 36
Meh@@ 36
legs 36
89 36
Ishant 36
questioning 36
Member 36
universities 36
Kabir 36
Store 36
surprise 36
subsidy 36
panic 36
consumption 36
beaten 36
Pet@@ 36
greatly 36
Bheem 36
principles 36
watched 36
directorial 36
fake 36
ten@@ 36
Forum 36
Secunderabad 36
Hall 36
fail 36
Year 36
ums 36
duc@@ 36
tally 36
cel@@ 36
tank 36
sharp 36
Patil 36
disaster 36
Islands 36
hara 36
emerging 36
ock@@ 36
effectively 36
Vajpayee 36
93 36
ups 36
Memorial 36
* 36
New@@ 36
cu@@ 36
succumbed 35
Village 35
hel 35
Sheikh 35
remade 35
examinations 35
negligence 35
butter 35
stomach 35
Am 35
Chauhan 35
secure 35
youre 35
empty 35
ij@@ 35
Protests 35
BE@@ 35
rival 35
Mag@@ 35
hub 35
Main 35
Sundar 35
ruler 35
Society 35
Sujeeth 35
play@@ 35
ua 35
Various 35
minus 35
meters 35
applied 35
reviewed 35
Mir@@ 35
ue 35
sing@@ 35
hills 35
ves 35
rid@@ 35
zones 35
Xiaomi 35
abilities 35
Mary 35
Boney 35
ken 35
ider 35
Urdu 35
aims 35
Pacific 35
ici@@ 35
Nevertheless 35
Ganesh 35
marketing 35
Crime 35
precautions 35
recognised 35
updated 35
ony 35
Pot@@ 35
Jai 35
quake 35
cured 35
Ir@@ 35
jun@@ 35
topic 35
Sonakshi 35
ood 35
communities 35
Grand 35
caution 35
beg@@ 35
professional 35
commanded 35
Direction 35
NI@@ 35
Konidela 35
apping 35
Sen@@ 35
Mandal 35
Hundreds 35
ott@@ 35
Mayor 35
lim@@ 35
tax@@ 35
Report 35
foot 35
offerings 35
teaspoon 35
suddenly 35
patience 35
breaking 35
clinical 35
immense 35
Venkat 35
heavens 35
Help 35
Set 35
exciting 35
Trinamool 35
wheel 35
prophet 35
performing 35
arranged 35
citizen 35
ols 35
guidance 35
initial 35
medicine 35
represent 35
aint 35
Youre 35
ger@@ 35
legendary 35
collaboration 35
slow 35
equity 35
EC 35
tal@@ 35
restored 35
cells 35
norms 35
ense 35
athy 35
Ant@@ 35
chances 35
considering 35
94 35
Somesh 35
league 35
stream 35
secured 35
vice 35
den 35
Catholic 35
agenda 35
bones 35
religions 35
alists 35
Indonesia 34
arr@@ 34
entrance 34
lifestyle 34
deposits 34
ideal 34
generations 34
Exc@@ 34
enhanced 34
province 34
Megastar 34
MC@@ 34
Allari 34
applies 34
promoting 34
delay 34
reducing 34
Gh@@ 34
blamed 34
resulting 34
researchers 34
fastest 34
Axis 34
palace 34
greeted 34
suitable 34
potassium 34
AT@@ 34
Clean 34
NIA 34
tablespoon 34
ond 34
pal@@ 34
Kir@@ 34
y. 34
DC 34
convention 34
stuck 34
een 34
paste 34
Dam@@ 34
rulers 34
romantic 34
disp@@ 34
tackle 34
yl@@ 34
ff 34
closer 34
Silver 34
ells 34
pped 34
golden 34
105 34
Shruti 34
uddin 34
posit@@ 34
worker 34
hari 34
Art 34
revised 34
directions 34
chal@@ 34
May@@ 34
asi 34
pract@@ 34
ept@@ 34
any@@ 34
turning 34
ne 34
ashed 34
acceptable 34
Kur@@ 34
badminton 34
newly 34
80@@ 34
format 34
Hebrews 34
batsmen 34
Bel@@ 34
Mehta 34
recognized 34
patri@@ 34
Ex-@@ 34
icon 34
wearing 34
escape 34
Brah@@ 34
integrity 34
dom 34
Fi@@ 34
Online 34
Stop 34
grateful 34
ensuring 34
suspension 34
Vishal 34
Rav@@ 34
skill 34
mighty 34
survive 34
mer@@ 34
shape 34
possession 34
commun@@ 34
uda 34
phot@@ 34
Sk@@ 34
confirmation 34
Ambedkar 34
oy@@ 34
reaction 34
Teachers 34
KTR 34
Street 34
Bang@@ 34
causing 34
Sy@@ 34
Independence 34
Coun@@ 34
retained 34
Valley 34
rep@@ 34
BS6 34
Sr@@ 34
glad 34
raj 34
crimes 34
advance 34
washed 34
cope 34
BA@@ 34
disrupted 34
viewed 34
Vish@@ 34
Sl@@ 34
Dev 34
cotton 34
Gun@@ 34
identify 34
70@@ 34
agiri 34
otic 34
namely 34
street 34
Subhash 34
Press 34
Ramachandra 34
du@@ 34
T-@@ 34
FC 34
Jain 34
Redmi 34
predicted 34
vi@@ 34
abuse 34
OS 34
beneficial 34
thereof 34
affordable 34
Min@@ 34
ading 34
Islam 34
nearest 34
essaying 33
silence 33
Che@@ 33
delighted 33
Ocean 33
pages 33
recalled 33
usion 33
administrative 33
platforms 33
Process 33
pot@@ 33
yield 33
OR@@ 33
ey 33
ration 33
react 33
ased 33
Sav@@ 33
que 33
theatres 33
widespread 33
Swe@@ 33
Aam 33
motor 33
Haarika 33
5-speed 33
scuffle 33
anxiety 33
cuts 33
entary 33
ME@@ 33
Shooting 33
Isnt 33
Enter 33
criticized 33
IC 33
breathing 33
Indore 33
document 33
ionary 33
tro@@ 33
humanity 33
sev@@ 33
Band@@ 33
functioning 33
hard@@ 33
201@@ 33
prec@@ 33
Moh@@ 33
hast 33
circuit 33
Trade 33
Housing 33
ther 33
regul@@ 33
grains 33
functions 33
scoring 33
hs 33
Getting 33
couldn 33
lic@@ 33
Junior 33
Vs 33
CB 33
2005 33
Kat@@ 33
ce@@ 33
sixes 33
anymore 33
regime 33
metal 33
Sonam 33
capt@@ 33
burning 33
scrip@@ 33
ound@@ 33
infections 33
festivals 33
professionals 33
stick 33
analysis 33
Vaikunthapurramuloo 33
Ireland 33
Tomar 33
availability 33
Ti@@ 33
ion-@@ 33
guy 33
arrive 33
nationwide 33
hasn 33
Vol@@ 33
bid 33
AN@@ 33
condoled 33
Labour 33
football 33
bow 33
Port 33
yer 33
George 33
Left 33
si@@ 33
Mani 33
XI 33
angles 33
button 33
itting 33
managing 33
Stalin 33
Corinthians 33
worst 33
Johnson 33
Kareena 33
adjourned 33
cross 33
tomorrow 33
3rd 33
erv@@ 33
upper 33
presidential 33
poll@@ 33
zed 33
Venkaiah 33
holders 33
91 33
ounds 33
Sury@@ 33
Kia 33
Rani 33
surrounding 33
ordinary 33
agitation 33
comb@@ 33
enting 33
commissioner 33
Put 33
Tamannaah 33
bowler 33
Minimum 33
radi@@ 33
bowled 33
Dhar@@ 33
Conference 33
Pun@@ 33
imports 33
Petroleum 33
ert@@ 33
greetings 33
consists 33
Samsung 33
Industrial 33
attraction 33
Ath@@ 33
Anurag 33
thr@@ 33
sudden 33
Air@@ 33
Cal@@ 33
nuclear 33
businesses 33
Guru 33
Fo@@ 32
9-@@ 32
NG@@ 32
combat 32
shortage 32
aram@@ 32
thrown 32
por@@ 32
Akhtar 32
row@@ 32
seconds 32
communication 32
Need 32
garden 32
Step 32
Leaders 32
shed 32
eption 32
resurrection 32
Ren@@ 32
taxes 32
strengthening 32
angle 32
Saty@@ 32
conferencing 32
mir@@ 32
medals 32
collapse 32
ati@@ 32
coastal 32
culprits 32
sensitive 32
urg@@ 32
illed 32
cou@@ 32
suggest 32
iction 32
wat@@ 32
Highway 32
Ravindran 32
AL@@ 32
mak@@ 32
sometime 32
Coll@@ 32
Officers 32
Benefits 32
earn 32
sword 32
Mohanlal 32
artists 32
object 32
illa 32
Anjali 32
aug@@ 32
remand 32
largely 32
equipped 32
recruitment 32
innovation 32
wild 32
Parrikar 32
defined 32
Jewish 32
input 32
blessing 32
metro 32
mankind 32
Lucknow 32
yn@@ 32
Chand 32
ni 32
withdrawn 32
eries 32
eing 32
destroy 32
ounding 32
Ramana 32
sedan 32
commenced 32
pos@@ 32
Ah@@ 32
extr@@ 32
screens 32
valuable 32
ora 32
smile 32
ignored 32
Dav@@ 32
consideration 32
si 32
ishes 32
Eli@@ 32
ML 32
istan 32
Meteorological 32
Holy 32
raids 32
encies 32
nat@@ 32
lak@@ 32
surge 32
ju@@ 32
shopping 32
aa 32
NO@@ 32
celebration 32
merged 32
cry 32
fort@@ 32
theme 32
Chairperson 32
Support 32
ple@@ 32
ly-@@ 32
Alluri 32
chemical 32
strengthened 32
tells 32
Krishn@@ 32
low@@ 32
Crores 32
mention 32
Christs 32
Ter@@ 32
Division 32
entr@@ 32
bag 32
Perhaps 32
Rahane 32
flick 32
Card 32
origin 32
fundamental 32
translated 32
Roman 32
Credit 32
dinner 32
impressed 32
error 32
THE 32
conv@@ 32
Moon 32
Shivraj 32
79 32
mal 32
Komaram 32
supporters 32
employee 32
chicken 32
explosion 32
ecosystem 32
color 32
Remove 32
sun 32
parliament 32
adds 32
pointed 32
ause 32
pool 32
Is@@ 32
garh 32
backed 32
missile 32
Diesel 32
ulated 32
PS@@ 32
ink 32
ician 32
Str@@ 32
CB@@ 32
households 32
ep 32
harm 32
MS@@ 32
Rishi 32
Till 32
2022 32
campus 32
TTD 32
pleased 32
apati 32
eed 32
Vizianagaram 32
ects 32
altar 32
expert 32
sufficient 32
Tirumala 31
Bhar@@ 31
Nirav 31
bab@@ 31
in-charge 31
inary 31
constantly 31
rac@@ 31
Bri@@ 31
vacant 31
Ganga 31
asa 31
concluded 31
attached 31
administered 31
addresses 31
AIADMK 31
pleasure 31
160 31
Fee 31
BMW 31
Nadda 31
ands 31
Lu@@ 31
MR@@ 31
Launched 31
retirement 31
1st 31
annually 31
Bul@@ 31
No.@@ 31
ture 31
ranks 31
aren@@ 31
apped 31
targeted 31
u-@@ 31
erate 31
Fort 31
98 31
shrine 31
nath 31
womens 31
generate 31
dogs 31
selfie 31
highways 31
Picture 31
rolled 31
master 31
Nokia 31
DE@@ 31
slightly 31
Il@@ 31
Daniel 31
Joe 31
MP@@ 31
rolling 31
presently 31
Professor 31
rock 31
outcome 31
Leave 31
ose 31
notified 31
factor 31
acid 31
udd@@ 31
rip@@ 31
Jeremiah 31
itors 31
108 31
Shr@@ 31
CR@@ 31
Polling 31
Age 31
locked 31
pride 31
bat@@ 31
plate 31
occupied 31
Sang@@ 31
Kor@@ 31
depth 31
oldest 31
rom@@ 31
6-speed 31
venture 31
relationships 31
Devotees 31
programs 31
thoroughly 31
stability 31
Master 31
ouse 31
directing 31
afternoon 31
interim 31
reaches 31
judgement 31
heritage 31
precious 31
Technical 31
Series 31
Again 31
Rashid 31
pacer 31
vice-president 31
punished 31
Mufti 31
-19 31
armed 31
stores 31
finals 31
Es@@ 31
ode 31
rested 31
berg 31
Nir@@ 31
Match 31
payments 31
knowing 31
ored 31
vo@@ 31
Arora 31
ote 31
efficiency 31
Deaths 31
wind 31
enhance 31
map 31
ad-@@ 31
rpm 31
Gandhis 31
well-@@ 31
helpful 31
annum 31
minorities 31
asserted 31
undertaken 31
maintaining 31
load 31
Khammam 31
uck 31
Agreement 31
Noida 31
Andaman 31
God@@ 31
notices 31
vers@@ 31
IAS 31
Under@@ 31
Achanta 31
exha@@ 31
indicate 31
wave 31
Trophy 31
NS 31
lorry 31
Amb@@ 31
coverage 31
lit@@ 31
outrage 31
Gre@@ 31
distancing 31
Omar 31
abandoned 31
motorcycles 31
Bil@@ 31
virtual 31
Vas@@ 31
heading 31
Maj@@ 31
Whe@@ 31
8-megapixel 31
compet@@ 31
occup@@ 31
Justices 31
Pro 31
Sm@@ 31
Vehicles 31
Regional 31
My@@ 31
Gul@@ 30
Aditi 30
bone 30
shoulder 30
Bag@@ 30
Peoples 30
pa@@ 30
ifying 30
Mun@@ 30
Ang@@ 30
uted 30
establish 30
Act@@ 30
band 30
disputes 30
flo@@ 30
Jer@@ 30
oven 30
ature 30
oke 30
villain 30
Uttam 30
founded 30
NDRF 30
Always 30
engagement 30
ential 30
900 30
ming 30
everlasting 30
Hrithik 30
au 30
exception 30
Fin@@ 30
grain 30
finds 30
Greater 30
50,000 30
intense 30
inhabitants 30
ros@@ 30
Through 30
amidst 30
roped 30
Electronics 30
ES@@ 30
turmeric 30
path@@ 30
Higher 30
itis 30
fill 30
Korean 30
Patnaik 30
ots 30
Ass@@ 30
sins 30
ligh@@ 30
Kim 30
all-new 30
Tar@@ 30
cooking 30
E-@@ 30
CP 30
utt@@ 30
avar@@ 30
walls 30
announces 30
telecom 30
Mult@@ 30
glass 30
popularity 30
two-day 30
D. 30
commission 30
external 30
io 30
depression 30
chemicals 30
Sultan 30
expl@@ 30
AT 30
absconding 30
satisfaction 30
Aayog 30
invitation 30
Ashwini 30
cha 30
obtained 30
prophets 30
inspiration 30
ID@@ 30
Savitri 30
Vid@@ 30
BS@@ 30
monsoon 30
sacred 30
plic@@ 30
sil@@ 30
rat 30
cops 30
congratulate 30
Rajam@@ 30
Rag@@ 30
components 30
vol@@ 30
dev 30
Mi@@ 30
poetry 30
wrapped 30
olive 30
examine 30
muscles 30
Ja@@ 30
participants 30
California 30
membership 30
stri@@ 30
paise 30
Rashtra 30
Front 30
ops 30
instructed 30
Ask 30
Computer 30
manifesto 30
throne 30
yed 30
salaries 30
grav@@ 30
jewellery 30
pac@@ 30
mortem 30
mind@@ 30
foo@@ 30
Day@@ 30
Raashi 30
universe 30
worthy 30
MSP 30
10,@@ 30
Mahanati 30
Babylon 30
arrangement 30
foot@@ 30
Nalgonda 30
Parv@@ 30
corporate 30
ror 30
complicated 30
ury 30
estate 30
Div@@ 30
reli@@ 30
Enfield 30
Sudeep 30
Devarakonda 30
Dharmendra 30
opposing 30
chillies 30
tribal 30
viol@@ 30
Owaisi 30
shad@@ 30
di 30
lifted 30
Veteran 30
Roads 30
web 30
uting 30
slams 30
supplied 30
aded 30
shi@@ 30
interaction 30
Timothy 30
scr@@ 30
sees 30
oda 30
nation@@ 30
rush 30
handling 30
usage 30
rendered 30
supposed 30
Light 30
tri 30
Param@@ 30
Sarileru 30
winners 30
focused 30
Italian 30
Jaganmohan 30
ict@@ 30
MG 30
hydro@@ 30
experiences 30
tired 30
weep 30
inflammation 29
regulations 29
icking 29
honor 29
comeback 29
Jagannadh 29
belonging 29
earmarked 29
ionally 29
renowned 29
bel@@ 29
Dan@@ 29
TD@@ 29
cent@@ 29
significance 29
disc 29
existence 29
Devil 29
fed 29
CL@@ 29
primarily 29
Nexon 29
Stay 29
crashed 29
abs 29
8-@@ 29
diverted 29
Market 29
Agra 29
douse 29
loyal 29
steel 29
tel@@ 29
AC 29
Aj@@ 29
destination 29
lik@@ 29
counter 29
idd@@ 29
ere 29
Val@@ 29
singing 29
Cou@@ 29
Ravichander 29
Line 29
Sport 29
alisation 29
pun@@ 29
processor 29
amid 29
layer 29
dered 29
itor 29
Ber@@ 29
Highways 29
actual 29
Rights 29
witnesses 29
leg@@ 29
pass@@ 29
Back 29
depend 29
cell 29
Latin 29
U.S. 29
Hong 29
Far@@ 29
links 29
decreased 29
idols 29
Golden 29
Capitals 29
asts 29
icles 29
C.E. 29
Aviation 29
Maha 29
top@@ 29
iation 29
Vinay 29
PDP 29
Mysore 29
ix@@ 29
2-megapixel 29
entity 29
maintenance 29
Cant 29
orting 29
Rajender 29
104 29
Tha@@ 29
una 29
tomatoes 29
short@@ 29
fraud 29
component 29
Wheres 29
Sales 29
operate 29
-day 29
Ve@@ 29
tight 29
Tik@@ 29
locality 29
tomato 29
realised 29
anim@@ 29
discovered 29
honoured 29
tak@@ 29
latter 29
Sudheer 29
rinse 29
salvation 29
Celebr@@ 29
obvious 29
Nobel 29
bank@@ 29
bha@@ 29
suit 29
overseas 29
erc@@ 29
day@@ 29
Bhum@@ 29
1,3@@ 29
Subba 29
touched 29
int 29
-led 29
disclosed 29
Barack 29
sleeping 29
ections 29
joins 29
tar@@ 29
recognition 29
bit@@ 29
Center 29
On@@ 29
Girl 29
ICU 29
Ari@@ 29
Ghosh 29
stor@@ 29
fault 29
organized 29
aching 29
Bus 29
ex-showroom 29
Conc@@ 29
Tom 29
teen 29
wonder 29
icians 29
Srikakulam 29
inflation 29
fantastic 29
Creator 29
connecting 29
opted 29
claiming 29
athan 29
Mehbooba 29
intensified 29
longest 29
fac@@ 29
Northern 29
vessels 29
quarantine 29
yam 29
Mic@@ 29
Neekevvaru 29
antha 29
miss 29
iva 29
Surya 29
Punjabi 29
hav@@ 29
iss 29
scenario 29
cop@@ 29
Bose 29
versions 29
possibilities 29
metres 29
Initially 29
allowing 29
Vel@@ 29
IRCTC 29
unless 28
Gehlot 28
everyday 28
ahs 28
Mallya 28
impl@@ 28
Joshua 28
organic 28
push 28
itu@@ 28
SR@@ 28
top-@@ 28
oun@@ 28
smoking 28
Idea 28
Degree 28
stays 28
paddy 28
ministerial 28
principle 28
sick 28
Nat@@ 28
Raina 28
Hos@@ 28
separated 28
Long 28
grand@@ 28
Aadmi 28
fitness 28
IR@@ 28
conspiracy 28
Educational 28
acre 28
kilometres 28
Inf@@ 28
roc@@ 28
dict@@ 28
TS 28
Gayle 28
centers 28
black@@ 28
theory 28
Similar 28
Forces 28
Him@@ 28
concerning 28
sav@@ 28
coconut 28
Snapdragon 28
DR@@ 28
Coast 28
mechan@@ 28
Important 28
alla 28
emphasis 28
Buddhist 28
iser 28
utions 28
witnessing 28
islands 28
tied 28
kumar 28
Making 28
Krish 28
quantity 28
isolated 28
ER@@ 28
apostles 28
behaviour 28
climbed 28
magnitude 28
Centres 28
aps 28
boil 28
PCC 28
nel 28
tweets 28
asted 28
damages 28
Hope 28
ky 28
impressive 28
Muk@@ 28
capable 28
satellite 28
Scindia 28
Wat@@ 28
Equ@@ 28
bright 28
nuts 28
basically 28
Mod@@ 28
ave 28
ution 28
timely 28
JNU 28
satisfied 28
enjoying 28
puri 28
stolen 28
flu@@ 28
Superintendent 28
fluid 28
employed 28
wasn 28
sts 28
assaulted 28
vary 28
sum 28
asleep 28
Jordan 28
ella 28
J. 28
Date 28
Fil@@ 28
eer 28
Care 28
sessions 28
Rep@@ 28
ICMR 28
autopsy 28
Fe@@ 28
twenty 28
drew 28
cam@@ 28
Indeed 28
gang 28
tender 28
ply 28
Mer@@ 28
eh@@ 28
Empire 28
Sah@@ 28
bronze 28
airports 28
stepped 28
IPS 28
15th 28
ached 28
consult 28
Nicobar 28
nominations 28
ints 28
teachings 28
nutrition 28
screening 28
Download 28
Malaysia 28
ashes 28
Foundation 28
Hel@@ 28
cop 28
abrogation 28
Questions 28
How@@ 28
Veer@@ 28
marked 28
arrival 28
mer 28
spo@@ 28
CI 28
icated 28
Polavaram 28
raw 28
corner 28
500@@ 28
Nissan 28
Mayank 28
landed 28
slain 28
Taking 28
Durga 28
Bihari 28
rat@@ 28
pattern 28
ira 28
Van@@ 28
aman 28
mask 28
econom@@ 28
ried 28
Gan@@ 28
q 28
Third 28
Mexico 28
sof@@ 28
test@@ 28
meals 28
Nawaz 28
instances 28
dam 28
repeat 28
Millions 28
transportation 28
Ga@@ 28
Pratap 28
ress 28
s.@@ 28
belief 28
sustainable 28
ocks 28
violation 27
baking 27
Rom@@ 27
Pen@@ 27
iously 27
icing 27
rapid 27
channels 27
explains 27
Chandrayaan-2 27
academic 27
MA 27
akaran 27
chose 27
Swar@@ 27
Much 27
split 27
safely 27
Sara 27
Hal@@ 27
driven 27
plat@@ 27
orts 27
imagine 27
commonly 27
temperatures 27
properly 27
0th 27
119 27
Gen@@ 27
liber@@ 27
economies 27
Nic@@ 27
wid@@ 27
inners 27
ratio 27
ron 27
maj@@ 27
UR@@ 27
ensured 27
partners 27
Nan@@ 27
deep@@ 27
bars 27
dating 27
favor 27
designated 27
BJP-@@ 27
1998 27
pre-release 27
Place 27
pally 27
influ@@ 27
conver@@ 27
dil@@ 27
dynasty 27
cargo 27
second-@@ 27
izes 27
1999 27
ER 27
reward 27
Prabhu 27
profession 27
Bir@@ 27
portal 27
banners 27
NITI 27
Gilead 27
commodities 27
fur@@ 27
nabbed 27
Peace 27
anch@@ 27
chi 27
coriander 27
ials 27
devotion 27
well@@ 27
Mot@@ 27
itch 27
anthi 27
finely 27
Run 27
pri@@ 27
\ 27
Indo-@@ 27
believes 27
shouted 27
waves 27
organizations 27
lip@@ 27
conveyed 27
publications 27
PNB 27
gy@@ 27
Famous 27
Baj@@ 27
cho@@ 27
hosts 27
cinematography 27
supplies 27
issu@@ 27
AM 27
distrib@@ 27
smiling 27
aik@@ 27
Pand@@ 27
appro@@ 27
auction 27
Tripathi 27
Dha@@ 27
accessible 27
relatively 27
percentage 27
Follow 27
entertainer 27
Bhav@@ 27
voc@@ 27
Pow@@ 27
drivers 27
WHO 27
2-0 27
97 27
Sridhar 27
sor@@ 27
rers 27
erve 27
Sch@@ 27
Rate 27
branches 27
tle 27
reliable 27
elaborate 27
wages 27
messages 27
amounts 27
90@@ 27
ided 27
clause 27
citation 27
ota 27
naturally 27
elderly 27
Alto 27
Rang@@ 27
Womens 27
Pallavi 27
occurs 27
Christmas 27
fix 27
baptized 27
tragedy 27
targets 27
covenant 27
Smriti 27
ought 27
stuff 27
shan 27
loaded 27
inaugurate 27
signing 27
Sehwag 27
stra@@ 27
therapy 27
itra 27
educ@@ 27
tag 27
looted 27
rises 27
Kane 27
dia 27
Syria 27
merely 27
And@@ 27
Saini 27
aving 27
Cour@@ 27
machine 27
Vall@@ 27
1,8@@ 27
Om 27
Pink 27
supremo 27
Inc@@ 27
potatoes 27
visits 27
happ@@ 27
Against 27
SI 27
Por@@ 27
accel@@ 27
aman@@ 27
Sweden 27
ough 27
ports 27
Gram 27
Sector 27
detail 27
Er@@ 27
cook 27
Book 27
PF 27
protected 27
ule 27
Gal@@ 27
Putin 27
LD 27
Out@@ 27
JD@@ 27
Dil@@ 27
reflect 27
CH@@ 27
ef@@ 27
Pul@@ 27
eshwara 27
Biden 27
icted 27
ed-@@ 27
ries 27
pleasant 27
kal 27
coordin@@ 27
tears 27
7-@@ 27
buried 26
Pilot 26
lasted 26
tow@@ 26
dialogue 26
destruction 26
oot 26
simpl@@ 26
Romans 26
Masjid 26
Malhotra 26
facelift 26
Wr@@ 26
Save 26
paradise 26
originally 26
itch@@ 26
enquiry 26
ING 26
ignore 26
interacted 26
Sir 26
Instead 26
deteriorated 26
nominee 26
3.5 26
Building 26
cried 26
oe 26
educated 26
Agricultural 26
5000 26
fails 26
rivals 26
bomb 26
anyway 26
cap 26
modern@@ 26
Sin@@ 26
grounds 26
todays 26
Real 26
AN 26
apu 26
FI@@ 26
IV 26
Rak@@ 26
ounded 26
remote 26
brown 26
hide 26
book@@ 26
peacefully 26
customer 26
Nick 26
needy 26
ambulance 26
Strict 26
Thoughts 26
Ki@@ 26
Marriage 26
andi@@ 26
replace 26
2019-20 26
democratic 26
Q 26
ifications 26
Beg@@ 26
Body 26
inger 26
milestone 26
prestigious 26
ult 26
Whatever 26
stret@@ 26
in-laws 26
Navdeep 26
putting 26
fore@@ 26
cov@@ 26
TO 26
ar-@@ 26
Kath@@ 26
1.5 26
settings 26
Trib@@ 26
Registration 26
Kul@@ 26
Amaz@@ 26
vari@@ 26
ida 26
angels 26
bird 26
Siddaramaiah 26
tribes 26
Sidd@@ 26
portion 26
Soviet 26
ashamed 26
don@@ 26
Shreyas 26
pack 26
implementing 26
dro@@ 26
Rather 26
cleared 26
Acts 26
depending 26
searching 26
shots 26
entions 26
Employment 26
producers 26
quiet 26
atr@@ 26
ications 26
root 26
resident 26
thinks 26
III 26
email 26
serv@@ 26
PG 26
Hus@@ 26
handled 26
Sudhakar 26
Chin@@ 26
electronic 26
Cooperation 26
cy 26
activist 26
Congratulations 26
mit 26
earliest 26
actively 26
Sanskrit 26
difficulty 26
legislators 26
interior 26
roof 26
Orig@@ 26
all-rounder 26
blame 26
Kot@@ 26
reddy 26
revolution 26
Construction 26
Cher@@ 26
illustr@@ 26
show@@ 26
eded 26
spar@@ 26
sharply 26
continuously 26
boat 26
burn 26
Sabarimala 26
motive 26
Vijayan 26
Rail 26
Venky 26
7th 26
Employees 26
Lib@@ 26
Spirit 26
merger 26
Memorandum 26
funding 26
va 26
enders 26
fatalities 26
PP@@ 26
Flipkart 26
Dravid 26
activ@@ 26
hatred 26
Number 26
rad@@ 26
org@@ 26
deny 26
reflected 26
spe@@ 26
bad@@ 26
involvement 26
shoo@@ 26
involves 26
Skoda 26
monthly 26
TCS 26
Mitchell 26
CS 26
Tan@@ 26
gm 26
Jeh@@ 26
Nit@@ 26
transl@@ 26
ga@@ 26
smaller 26
ubs 26
-to-@@ 26
Gl@@ 26
fined 26
occasions 26
canc@@ 26
margin 26
kha 26
lesson 26
consisting 26
Orange 26
oom 26
shame 26
Choudhary 26
Nair 26
memorial 26
Results 26
Rinse 26
MG@@ 26
oxygen 26
feed 26
forthcoming 26
Kes@@ 26
hot@@ 26
highlights 26
Spec@@ 26
Hindustan 26
declare 26
concentr@@ 26
Naz@@ 26
Yog@@ 26
tools 26
angel 26
reference 26
ania 26
Shank@@ 26
Things 26
engineer 26
Trailer 26
Championship 26
Coal 26
Method 26
vac@@ 26
Train 26
onal 26
Jog@@ 26
Rud@@ 26
Starring 25
SO@@ 25
purchased 25
luck 25
casting 25
Amarinder 25
Bhup@@ 25
Avinash 25
ox@@ 25
mon 25
domin@@ 25
Sushil 25
Chandrashekar 25
Close 25
insp@@ 25
jurisdiction 25
where@@ 25
outs 25
Tor@@ 25
expansion 25
Din@@ 25
Swift 25
buzz 25
arrests 25
Mount 25
Pi@@ 25
450 25
Prat@@ 25
representative 25
Knight 25
exercises 25
intention 25
nutrients 25
Rain 25
pop@@ 25
overnight 25
popul@@ 25
Tiago 25
lev@@ 25
hik@@ 25
encouraging 25
Sank@@ 25
adjust@@ 25
1-0 25
owns 25
gonna 25
pronounced 25
Yuvraj 25
consumed 25
Ben 25
ZP 25
cru@@ 25
imate 25
Thailand 25
assigned 25
channel 25
Cancer 25
rock@@ 25
converted 25
Kong 25
wr@@ 25
Lif@@ 25
esp@@ 25
stly 25
pret@@ 25
Pethuraj 25
flying 25
pick@@ 25
campaigning 25
mid@@ 25
deals 25
Additionally 25
demonstr@@ 25
expenses 25
railways 25
eshwari 25
havoc 25
Peel 25
compassion 25
remembered 25
deleted 25
sh 25
Renault 25
Vin@@ 25
Srinu 25
Survey 25
dar@@ 25
Sanj@@ 25
pilot 25
NA 25
Priya 25
idity 25
Yuzvendra 25
eal@@ 25
parks 25
sanct@@ 25
dit 25
captains 25
emia 25
rang 25
petitions 25
commented 25
desired 25
ially 25
responsibilities 25
eness 25
import 25
procurement 25
5th 25
hockey 25
Gir@@ 25
deadline 25
griev@@ 25
Cost 25
hun@@ 25
Consequently 25
fasc@@ 25
Parishad 25
Netizens 25
Rac@@ 25
MBBS 25
siblings 25
Laxman 25
fly 25
eff@@ 25
Oberoi 25
af 25
subjects 25
solid 25
publ@@ 25
decade 25
draft 25
Jawaharlal 25
possess 25
impress 25
calories 25
Eden 25
comparison 25
ark 25
finalised 25
fet@@ 25
suggests 25
sending 25
gainers 25
rang@@ 25
improvement 25
mid-@@ 25
Super@@ 25
inj@@ 25
stringent 25
checked 25
une 25
Ajinkya 25
lined 25
Commiss@@ 25
circulation 25
Menon 25
uncle 25
passport 25
ll 25
igh 25
mac@@ 25
lunch 25
RI@@ 25
dist@@ 25
lamps 25
carmaker 25
Chouhan 25
140 25
switched 25
Judge 25
Communication 25
slave 25
poet 25
ison 25
eva 25
Safety 25
industri@@ 25
valu@@ 25
Badminton 25
bil@@ 25
SI@@ 25
ectors 25
Turkey 25
Final 25
ioners 25
cooked 25
treas@@ 25
Resources 25
delib@@ 25
poss@@ 25
residential 25
Rat@@ 25
evi 25
dedication 25
intervention 25
mans 25
restr@@ 25
NC@@ 25
inning 25
eve 25
heart@@ 25
introduction 25
6,000 25
Texas 25
observ@@ 25
Cap@@ 25
serves 25
jumped 25
measured 25
confusion 25
hail 25
Birthday 25
ort@@ 25
unions 25
300@@ 25
Galaxy 25
Sud@@ 25
unprecedented 25
Corporate 25
Mercedes-Benz 25
rs 25
tracks 25
fielded 25
2024 25
Bhuvneshwar 25
Alliance 25
accordingly 25
establishment 25
-in 25
sensation 25
mortality 25
infl@@ 25
Environment 25
Padm@@ 25
Kas@@ 25
Nikhil 25
ack@@ 25
ulating 25
Prakasam 25
representing 25
Milk 25
atives 25
haven 25
AB@@ 25
Inst@@ 24
Siddharth 24
Hydari 24
tem@@ 24
commerce 24
Puducherry 24
deity 24
road@@ 24
aves 24
blow 24
realise 24
personalities 24
firms 24
shift 24
Vodafone 24
journalists 24
Janhvi 24
ient 24
harmony 24
Ji 24
Managing 24
quoted 24
117 24
influenced 24
PVP 24
fold 24
chase 24
uploaded 24
spare 24
tain 24
theft 24
Shab@@ 24
agon 24
Pos@@ 24
neighbouring 24
Session 24
enters 24
cares 24
le-@@ 24
NB@@ 24
Audi 24
Secretariat 24
stalled 24
Bro@@ 24
confessed 24
Infrastructure 24
Say 24
Pras@@ 24
showcased 24
Chir@@ 24
ension 24
iated 24
05 24
badly 24
Harbhajan 24
touching 24
bor@@ 24
Dell 24
lu 24
cluster 24
volunteers 24
aling 24
Immediately 24
mystery 24
backdrop 24
NH@@ 24
Congress-@@ 24
Ju@@ 24
clos@@ 24
PC 24
dress 24
obtain 24
aud@@ 24
machines 24
Tabu 24
Dhan@@ 24
20-@@ 24
frame 24
Records 24
Unable 24
Annapurna 24
Programme 24
soldier 24
creative 24
break@@ 24
sanitation 24
facilitate 24
Personnel 24
eled 24
parameters 24
Mess@@ 24
Id@@ 24
requirement 24
Raut 24
corporation 24
Prashant 24
than@@ 24
Salary 24
Rajkumar 24
Appro@@ 24
heav@@ 24
correc@@ 24
my@@ 24
ius 24
withdrawal 24
Fl@@ 24
contin@@ 24
editing 24
amendment 24
Pharaoh 24
Hem@@ 24
specially 24
ker@@ 24
discour@@ 24
-India 24
Gambhir 24
trib@@ 24
circulated 24
Causes 24
Serv@@ 24
afford 24
ax 24
err@@ 24
ander 24
apology 24
Lab@@ 24
intervened 24
person@@ 24
state-@@ 24
dealt 24
heed 24
Federation 24
Factory 24
pushed 24
steadily 24
grace 24
par 24
discipl@@ 24
enth 24
Emmanuel 24
1,0@@ 24
club 24
alization 24
Khattar 24
Det@@ 24
wor@@ 24
doused 24
flames 24
pap@@ 24
anded 24
ure@@ 24
plain 24
heroes 24
Agency 24
Lahore 24
emotions 24
extreme 24
Murthy 24
yourselves 24
Irani 24
rop@@ 24
Inspector 24
Head@@ 24
integral 24
Bethel 24
minds 24
pursue 24
iri 24
ANI 24
Island 24
list@@ 24
competitive 24
equation 24
derived 24
Live 24
Ven@@ 24
Akash 24
Museum 24
Asaduddin 24
memories 24
Old 24
thick 24
gap 24
drawing 24
eda 24
Prab@@ 24
atively 24
atra 24
prayed 24
windows 24
usted 24
celebrating 24
eller 24
submerged 24
acquired 24
painful 24
Beh@@ 24
aks 24
lemon 24
Efforts 24
Samaj 24
thankful 24
nam 24
dish@@ 24
giant 24
halt 24
Iraq 24
Chet@@ 24
utes 24
arma 24
Find 24
Kotak 24
tensions 24
maiden 24
meditation 24
arian 24
terrible 24
Jagannath 24
appreciation 24
husbands 24
termin@@ 24
pping 24
Abhi@@ 24
Nand@@ 24
privilege 24
fibre 24
21st 24
Proc@@ 24
Goddess 24
nights 24
arh 24
ric@@ 24
enemy 24
funny 24
puts 24
invite 24
opener 24
lob@@ 24
writers 24
peri@@ 24
rot@@ 24
wad 24
electoral 24
manufactured 24
decent 24
anti-inflammatory 24
collabor@@ 24
quar@@ 24
elect@@ 24
Pakistans 24
quarters 24
booking 24
olog@@ 24
oon 24
ernity 24
coordination 24
lucky 24
attempted 24
Sre@@ 24
ez@@ 24
bothered 24
Bhag@@ 24
mere 24
mosque 24
itating 24
womans 24
eru 24
pain@@ 24
Software 23
amp@@ 23
sul@@ 23
Communist 23
Bij@@ 23
Kumari 23
singles 23
Tem@@ 23
familiar 23
genuine 23
tool 23
ipped 23
key@@ 23
Est@@ 23
orial 23
hell 23
VS 23
promotion 23
Nik@@ 23
fif@@ 23
Heritage 23
networks 23
ome 23
Law@@ 23
tribe 23
2,500 23
Yash 23
Cultural 23
potato 23
ACB 23
nu@@ 23
hani 23
Al 23
breath 23
Pers@@ 23
penned 23
Squ@@ 23
delicious 23
ames 23
GA@@ 23
emphasized 23
Inv@@ 23
MM 23
fore 23
three-match 23
Nehwal 23
Mas@@ 23
ET 23
somewhere 23
Meena 23
retire 23
string 23
Meg@@ 23
bath 23
stadium 23
pers@@ 23
exposed 23
flooded 23
proven 23
scalped 23
hes 23
Ser@@ 23
-inch 23
rated 23
rejoice 23
flows 23
probably 23
deficit 23
hast@@ 23
consuming 23
Islamic 23
RO@@ 23
processes 23
projected 23
Prev@@ 23
telec@@ 23
cultures 23
dollars 23
Goud 23
Shivaji 23
nose 23
pand@@ 23
stakeholders 23
ult@@ 23
Ts 23
Exchange 23
Neither 23
Error 23
respected 23
grade 23
OD@@ 23
Guwahati 23
withdraw 23
hab 23
30,000 23
affir@@ 23
109 23
NSE 23
expecting 23
antioxidants 23
doc@@ 23
borne 23
swelling 23
telugu 23
ilt 23
Sug@@ 23
revenues 23
oul@@ 23
sch@@ 23
shr@@ 23
bless 23
thum@@ 23
ras 23
und 23
Naik 23
e.@@ 23
surrounded 23
Suk@@ 23
screenplay 23
livelihood 23
Language 23
Leela 23
Personal 23
ishment 23
Kann@@ 23
bottom 23
corporations 23
Okay 23
Culture 23
SMS 23
landmark 23
symbol 23
Type 23
constitutional 23
posting 23
wilderness 23
P.@@ 23
Drinking 23
composer 23
distress 23
gun 23
dear 23
Cash 23
dra 23
letters 23
lakes 23
multitude 23
ya@@ 23
hopeful 23
fron@@ 23
TC 23
Hind@@ 23
firmly 23
qualified 23
blasts 23
headlamps 23
Hey 23
Anu 23
C-@@ 23
Witness 23
util@@ 23
civilian 23
etha 23
Kisan 23
Mughal 23
Ear@@ 23
burst 23
Fir@@ 23
equally 23
explanation 23
civilians 23
waiver 23
ez 23
yn 23
Shekhar 23
EV 23
PD@@ 23
trad@@ 23
lashes 23
element 23
Abdul 23
Balas@@ 23
acked 23
revoked 23
01 23
tend@@ 23
Graduate 23
remark 23
appl@@ 23
enjoys 23
hanging 23
Border 23
highlighted 23
Neg@@ 23
tor 23
risen 23
Bre@@ 23
draws 23
allegation 23
tic 23
cit@@ 23
responding 23
teen@@ 23
ager 23
cow 23
stroke 23
Lal@@ 23
Christ@@ 23
avan 23
SD 23
episode 23
Call 23
Pokhriyal 23
manufacturers 23
qual@@ 23
AIMIM 23
fighters 23
gutted 23
pist@@ 23
Sikhs 23
attendance 23
T20 23
akrishnan 23
Neil 23
indicates 23
Within 23
plot 23
Payal 23
Sikh 23
mounted 23
Quality 23
Riders 23
neighbours 23
contrary 23
Luke 23
apologise 23
4,000 23
Ever 23
Water@@ 23
talented 23
monitored 23
headlines 23
Prithvi 23
pled 23
scal@@ 23
Bahujan 23
Nature 23
unta 23
conscience 23
Mr@@ 23
Prize 23
CE 23
Republican 23
multi@@ 23
unusual 23
Shyam 23
wala 23
sen@@ 23
twist 23
Kanpur 23
ud 23
Bay 23
Shakti 23
osp@@ 23
SS@@ 23
Richter 23
age@@ 23
manage 23
MotoCorp 23
onto 23
retail 23
leaked 23
Virender 23
attract 23
inated 23
Revelation 23
compete 23
protested 23
Gok@@ 23
inga 23
8bhp 23
Eve 23
Niranjan 23
copy 23
Windows 23
guests 23
but@@ 23
Chaudhary 23
Hebrew 23
eti 23
transparent 23
parent 23
Brother 23
Bhatia 23
kmph 23
repeatedly 23
DM@@ 23
Abbas 23
fishing 23
mil@@ 23
Jet 23
sanctuary 23
mess@@ 23
avati 23
magn@@ 23
Rashtriya 23
Ramya 23
gang@@ 23
ood@@ 23
eighth 23
restricted 23
hospitalised 23
Akbar 23
hectares 23
ident 23
consent 23
ND@@ 23
inar 23
fare 23
earing 23
Operation 23
intr@@ 23
sy 23
15,000 23
alerted 23
uro@@ 23
assistant 23
compact 23
explos@@ 23
Rules 23
alled 22
Resp@@ 22
trophy 22
hence 22
convicted 22
compromise 22
combine 22
icked 22
Mid@@ 22
uz@@ 22
rows 22
automobile 22
broad 22
fond 22
stops 22
burned 22
2010 22
landing 22
sand 22
sorry 22
Victory 22
Trisha 22
Play@@ 22
enormous 22
earthly 22
Pulsar 22
TH@@ 22
GS 22
Y.@@ 22
ost 22
copies 22
Lt 22
sar@@ 22
specifications 22
bell 22
Bench 22
militant 22
Directorate 22
bom@@ 22
itable 22
Dharm@@ 22
lyrics 22
Autom@@ 22
tech 22
empire 22
Unfortunately 22
lowest 22
keen 22
Add@@ 22
traders 22
Ready 22
much-awaited 22
carries 22
strategic 22
universal 22
Colour 22
preach 22
La 22
defin@@ 22
diam@@ 22
ache 22
backing 22
lah 22
aths 22
Chinas 22
harm@@ 22
breakfast 22
cameo 22
ensive 22
IL 22
Gop@@ 22
MO@@ 22
Ach@@ 22
planet 22
spir@@ 22
gross 22
clim@@ 22
emerge 22
Ger@@ 22
revol@@ 22
short-@@ 22
indigenous 22
anpur 22
Engineer 22
violated 22
gates 22
nor@@ 22
199@@ 22
Lankan 22
destinations 22
nurses 22
prisoners 22
institutes 22
eding 22
bus@@ 22
fours 22
mood 22
uli 22
conclusion 22
roughly 22
Pon@@ 22
Rajas@@ 22
low-@@ 22
Venugopal 22
notable 22
declining 22
shal@@ 22
photograph 22
export 22
Intelligence 22
Ku@@ 22
lash 22
text@@ 22
tery 22
fact@@ 22
SIT 22
Rajeev 22
achievements 22
arch 22
micro@@ 22
Excell@@ 22
Calc@@ 22
12,@@ 22
uch@@ 22
rallies 22
Shashi 22
Someone 22
clar@@ 22
laughing 22
ransom 22
Legislature 22
TP 22
Chemicals 22
gen 22
ively 22
probed 22
crazy 22
The@@ 22
Gad@@ 22
grille 22
amendments 22
magazine 22
urs 22
Narayan@@ 22
typically 22
Genesis 22
professor 22
Tribal 22
excl@@ 22
operational 22
prot@@ 22
beta 22
Sitarama 22
onda 22
kid 22
Vamshi 22
Turmeric 22
03 22
Ms 22
Overall 22
Mahar@@ 22
verse 22
Controversial 22
Mithun 22
achievement 22
aker 22
Raa 22
visa 22
Workers 22
Expres@@ 22
disputed 22
Pinarayi 22
forgive 22
i20 22
Maldives 22
hailed 22
ammunition 22
Manjrekar 22
Experts 22
erated 22
logging 22
Triv@@ 22
CSK 22
Rap@@ 22
gov.in 22
Understanding 22
Secretaries 22
inter-@@ 22
dest@@ 22
delight 22
hib@@ 22
backs 22
Maoists 22
IBM 22
believers 22
iOS 22
Early 22
oods 22
single-@@ 22
26@@ 22
unemployment 22
finding 22
suspicion 22
covers 22
1.5-litre 22
cheated 22
Dec 22
Exercise 22
50-@@ 22
paint 22
finish 22
segments 22
Treatment 22
involving 22
legislation 22
Isaac 22
stre@@ 22
habits 22
Williamson 22
Status 22
erupted 22
Kharif 22
ordin@@ 22
gest@@ 22
ome@@ 22
Presidents 22
Vivekananda 22
tab 22
forwarded 22
nephew 22
corrupt 22
haran 22
ictions 22
som@@ 22
Popular 22
aimed 22
Rit@@ 22
interfere 22
Jun@@ 22
men@@ 22
theyre 22
cricketers 22
preparations 22
Spe@@ 22
Beach 22
Country 22
param@@ 22
,0@@ 22
Ray@@ 22
Blood 22
eta 22
stopping 22
long-@@ 22
Kashmiri 22
idence 22
ival 22
op 22
i.e. 22
ican 22
Hanum@@ 22
jeet 22
half-@@ 22
isolation 22
newspapers 22
Thane 22
Dharma 22
Cinematography 22
install 22
Using 22
GP 22
uts 22
Account 22
exhib@@ 22
23@@ 22
Mach@@ 22
eswara 22
non@@ 22
balanced 22
obey 22
divorce 22
eep 22
oud 22
illi 22
periods 22
prevention 22
VI 22
nowhere 22
crushed 22
amy 22
flash 22
businessman 22
collections 22
LL@@ 22
sheet 22
assist 22
associate 22
ethnic 22
Rapid 22
floors 22
Dalits 22
osis 22
Onion 22
aha 22
journal 22
Trumps 22
migrants 22
Cent@@ 22
ued 22
Mickey 22
Z 22
bir 22
olf 22
Vikas 22
lens 22
litres 22
2003 22
country@@ 22
Phil@@ 22
pulled 22
Reddys 22
Nabi 22
indicated 21
thereby 21
spiritually 21
sy@@ 21
sum@@ 21
owers 21
keys 21
with@@ 21
dad 21
bodys 21
calc@@ 21
realize 21
rarely 21
Category 21
administr@@ 21
expelled 21
Cars 21
Kakinada 21
Rajahmundry 21
iki 21
MBA 21
pul@@ 21
eful 21
resh@@ 21
Network 21
Airways 21
conservation 21
divide 21
Night 21
susp@@ 21
amma 21
View 21
eaten 21
197@@ 21
diverse 21
dated 21
Mandir 21
Badal 21
dying 21
Myanmar 21
disposal 21
Festival 21
1990 21
touchscreen 21
infotainment 21
junior 21
Keeravani 21
magnesium 21
downloaded 21
printed 21
oop 21
cycl@@ 21
wars 21
Si@@ 21
counted 21
cooperate 21
Jonas 21
set@@ 21
Armed 21
750 21
manufacture 21
Dal@@ 21
Shivakumar 21
Arch@@ 21
stream@@ 21
boundary 21
eshwar@@ 21
minim@@ 21
vast 21
Sahib 21
Prince 21
separ@@ 21
congregations 21
ever@@ 21
nomin@@ 21
ug 21
hya 21
payable 21
sizes 21
vig@@ 21
chased 21
hitting 21
rebel 21
threw 21
Vietnam 21
omi 21
poo@@ 21
usts 21
SD@@ 21
Anyone 21
likewise 21
Thou 21
COVID19 21
brave 21
prise 21
Tun@@ 21
dried 21
heartfelt 21
Aw@@ 21
ested 21
abha 21
ensions 21
Mut@@ 21
gifts 21
demonetisation 21
Leg@@ 21
recover 21
liver 21
stronger 21
inking 21
flagship 21
halted 21
CR 21
innovative 21
IM@@ 21
kits 21
crow@@ 21
prof@@ 21
printing 21
Prot@@ 21
Akhil 21
dairy 21
bal@@ 21
ference 21
uprooted 21
Lover 21
bon@@ 21
gle 21
Create 21
Bobde 21
arayana 21
riya 21
Ret@@ 21
Ratna 21
Block 21
folk 21
remanded 21
missions 21
gunfight 21
Tru@@ 21
Moun@@ 21
kilometers 21
utta 21
vegetable 21
eb@@ 21
Gaj@@ 21
Judges 21
FY 21
resume 21
Karunanidhi 21
clock 21
ch-@@ 21
Talks 21
convicts 21
north@@ 21
extensive 21
endure 21
Better 21
tall 21
pel 21
topped 21
TA 21
offence 21
planes 21
trace 21
aints 21
license 21
pinned 21
Tim@@ 21
Ghaziabad 21
Eight 21
Gov@@ 21
ney 21
Ten 21
Wing 21
reas 21
Violence 21
ulla 21
let@@ 21
YV 21
Shak@@ 21
Sye 21
achieving 21
Jaishankar 21
Cop@@ 21
Nathan 21
Disaster 21
ade@@ 21
fal@@ 21
centr@@ 21
Houses 21
asw@@ 21
Benjamin 21
check@@ 21
Ratan 21
HO@@ 21
VA@@ 21
kid@@ 21
preparing 21
MSME 21
oli 21
Reduce 21
Nanda 21
estimate 21
a.@@ 21
Dwar@@ 21
Physical 21
consumers 21
Web 21
Queen 21
opinions 21
iating 21
devastated 21
respect@@ 21
mad 21
Irrigation 21
Ranj@@ 21
inding 21
uch 21
Yatra 21
Path@@ 21
removal 21
tenure 21
tense 21
featuring 21
guys 21
controls 21
ograph@@ 21
Kumble 21
entertaining 21
paintings 21
Ds 21
suicides 21
sacrifices 21
rely 21
Deep@@ 21
Max 21
array 21
ordinance 21
default 21
.S. 21
Ped@@ 21
ern 21
returning 21
fifty 21
Drugs 21
holiday 21
Anj@@ 21
kar@@ 21
Set@@ 21
escal@@ 21
Risk 21
deeper 21
imag@@ 21
Sik@@ 21
Bud@@ 21
prizes 21
responds 21
believing 21
Yuvan 21
rav@@ 21
Vict@@ 21
feat 21
institute 21
lover 21
Communications 21
aspir@@ 21
controversies 21
Janardhan 21
Testing 21
delegation 21
Christianity 21
certificates 21
earning 21
floral 21
Nep@@ 21
promising 21
ateral 21
van@@ 21
Cro@@ 21
esha 21
accounted 21
ldn 21
mAh 21
dust 21
Massive 21
RC 21
alias 21
1,500 21
rakes 21
Pradeep 21
Eff@@ 21
eri 21
stern 21
idated 21
eri@@ 21
Pu@@ 21
obe@@ 21
Drug 21
itudes 21
atch 21
Michael 21
richest 21
Prem 21
lessons 21
Kranthi 21
tune 21
portr@@ 21
fu@@ 21
Net@@ 21
cups 21
writes 21
NS@@ 21
Ramoji 21
onian 21
Cannot 21
ede 20
circ@@ 20
reflects 20
sovereignty 20
Malaika 20
soc@@ 20
relax 20
4th 20
aspirations 20
neg@@ 20
awa 20
eter 20
Southern 20
Domestic 20
sentiments 20
sincere 20
menu 20
moistur@@ 20
Brezza 20
Little 20
interrogation 20
theatre 20
Gandhi@@ 20
Usually 20
Share 20
Electric 20
BSNL 20
Highlights 20
adventure 20
ran@@ 20
inheritance 20
Hemant 20
losers 20
techn@@ 20
lightning 20
idi 20
brigade 20
hus@@ 20
Teaser 20
cycle 20
Pauls 20
Unity 20
giv@@ 20
rank 20
Misra 20
disturbed 20
expanding 20
shi 20
acute 20
rif@@ 20
usive 20
Bhagwat 20
eswaram 20
abundance 20
convinced 20
Um@@ 20
joy@@ 20
Reports 20
Secondary 20
lord 20
transmitted 20
Ecclesiastes 20
spec 20
backward 20
er. 20
breast 20
detected 20
Whose 20
Range 20
employ@@ 20
pertaining 20
proposals 20
ign 20
India-China 20
Enjoy 20
ef 20
winds 20
requ@@ 20
Written 20
2018-19 20
spect@@ 20
champion 20
odi@@ 20
abor@@ 20
stretch 20
arming 20
acle 20
mate 20
2002 20
aken 20
acking 20
Web@@ 20
Coconut 20
akh@@ 20
productive 20
Taliban 20
ino 20
possibly 20
appreciate 20
belonged 20
airline 20
stylish 20
sanctions 20
objected 20
CD 20
ji@@ 20
igr@@ 20
Kapur 20
functional 20
cloud 20
Amethi 20
expresses 20
ept 20
ainer 20
oting 20
farm@@ 20
voter 20
avi 20
avas 20
Husband 20
cumin 20
exclusive 20
raises 20
erts 20
POCSO 20
passion 20
Gujarati 20
Boyapati 20
long@@ 20
fairly 20
i.@@ 20
nan@@ 20
wherever 20
eptive 20
Rajasekhara 20
conven@@ 20
ump 20
luxury 20
threatening 20
intelligence 20
habit 20
ana@@ 20
Lyca 20
spokesman 20
Wedding 20
itary 20
positively 20
Relief 20
structures 20
dip 20
Hari 20
posters 20
Yash@@ 20
appointments 20
refer 20
haz@@ 20
RR 20
09 20
observe 20
akumar 20
utter 20
10-@@ 20
objection 20
Midcap 20
aren 20
Expectations 20
ivate 20
Tihar 20
reiterated 20
hat@@ 20
egg 20
yours 20
Presently 20
headache 20
Acc@@ 20
Nad@@ 20
bond 20
surroundings 20
Pension 20
prosperity 20
Rajamoulis 20
Interest 20
VP 20
Shares 20
Works 20
Problems 20
alg@@ 20
oning 20
represents 20
titular 20
onn@@ 20
superb 20
hadnt 20
Qureshi 20
One@@ 20
Acting 20
iest 20
umped 20
Dark 20
colon@@ 20
full@@ 20
spots 20
compulsory 20
Bagh 20
Property 20
Producers 20
sting 20
allocation 20
erations 20
avathi 20
festive 20
Shops 20
MI@@ 20
Trees 20
resigns 20
uction 20
scre@@ 20
Response 20
BJP-led 20
Vanga 20
Bol@@ 20
sam@@ 20
throw 20
oth 20
hang@@ 20
pull 20
iter 20
beautifully 20
Men@@ 20
EA@@ 20
Resource 20
anning 20
attracted 20
Kish@@ 20
Dam 20
Fac@@ 20
Especially 20
Boris 20
recognize 20
sustain 20
Adilabad 20
enhancing 20
KTM 20
afts 20
absence 20
400@@ 20
Ray 20
Cyber 20
Visit 20
facil@@ 20
testimony 20
Gopal@@ 20
Healthy 20
Sai@@ 20
Ca@@ 20
unemployed 20
Hyderab@@ 20
nationals 20
Tri@@ 20
flock 20
proceedings 20
apparently 20
quir@@ 20
Settings 20
Kedar 20
assessment 20
Likewise 20
hale 20
Champions 20
brief 20
Corruption 20
ital 20
tra@@ 20
Martin 20
P-@@ 20
unclean 20
Says 20
continuous 20
essed 20
Zone 20
Syed 20
Tul@@ 20
Non-@@ 20
Nageswara 20
Creative 20
Medak 20
acquitted 20
Emergency 20
Raman 20
determine 20
humble 20
lips 20
worshi@@ 20
Sen 20
08 20
counts 20
fulfil 20
Bahadur 20
MSMEs 20
strictly 20
harmful 20
celebrates 20
kins 20
Must 20
regist@@ 20
Register 20
respects 20
appe@@ 20
perspective 20
Kr@@ 20
Oper@@ 20
oral 20
desktop 20
speakers 20
Main@@ 20
Chh@@ 20
sat@@ 20
ver 20
unnecessary 20
20,000 20
tu@@ 20
G. 20
pillars 20
by@@ 20
fires 20
accorded 20
0,000 20
threats 20
resumed 20
Vem@@ 20
meter 20
Ahmad 20
tap 20
27@@ 20
vice-captain 20
ali@@ 20
Nagar@@ 20
Large 20
Citizens 20
Hows 20
dam@@ 20
traveling 20
inches 20
Boy 20
trillion 20
sensational 20
gather 20
Wi@@ 20
Gopichand 20
Paris 20
eem 20
Jaya 20
Gor@@ 20
Rammohan 20
kitchen 20
yielded 20
Mahmood 20
committing 20
deduc@@ 20
Hills 20
complex@@ 20
Suicide 20
negl@@ 20
decides 20
Vehicle 20
devoted 20
Persian 20
ority 20
whatsoever 20
relaxed 20
ported 20
godly 20
carbon 20
quarrel 20
1200 20
rol@@ 20
eline 20
Meyer 20
V.@@ 20
Rul@@ 20
happily 20
Nil@@ 20
overwhelming 20
dia@@ 20
aun@@ 20
chest 20
Roh@@ 20
tastes 20
alam 20
propaganda 20
travellers 20
Philistines 20
mark@@ 19
Unlike 19
02 19
scrapped 19
vomiting 19
Thr@@ 19
Atlantic 19
exempted 19
folder 19
Chemical 19
containing 19
360 19
fate 19
Every@@ 19
saving 19
frequent 19
earth@@ 19
inconvenience 19
mentally 19
buyers 19
oming 19
resist@@ 19
Lakhs 19
prevailed 19
Han@@ 19
enses 19
chat 19
urgent 19
film@@ 19
observation 19
lab 19
Vitara 19
smoke 19
lawyers 19
Shalini 19
pioneer 19
coins 19
Srinath 19
Priced 19
fortunate 19
Learn 19
ibly 19
cane 19
third-@@ 19
comprised 19
thunder@@ 19
AK 19
sounds 19
graph 19
ensued 19
Location 19
graduated 19
mass@@ 19
environmental 19
ulted 19
wani 19
Rest@@ 19
idi@@ 19
Bhawan 19
firstborn 19
fi 19
14.@@ 19
performances 19
bikes 19
ME 19
anticipated 19
edy 19
ball@@ 19
undertake 19
FDI 19
ration@@ 19
spectacular 19
Ta@@ 19
prevented 19
meg@@ 19
Ahead 19
Relations 19
entation 19
mega 19
Qualcomm 19
Sudhir 19
firefighters 19
ership 19
sign@@ 19
cave 19
Const@@ 19
containment 19
mature 19
Smt 19
Kos@@ 19
Met@@ 19
IF@@ 19
desc@@ 19
Arun@@ 19
itive 19
harvest 19
UT 19
furn@@ 19
Aut@@ 19
Argentina 19
Manchu 19
sang 19
Cho@@ 19
Can@@ 19
12th 19
teeth 19
MB 19
Art@@ 19
alike 19
Available 19
Rob@@ 19
Direc@@ 19
Princ@@ 19
andi 19
Khar@@ 19
wk 19
nervous 19
.com 19
Nine 19
Charge 19
need@@ 19
Tum@@ 19
pel@@ 19
Botsa 19
digestive 19
bridges 19
Scre@@ 19
GOD 19
compare 19
107 19
pipeline 19
inundated 19
grandson 19
BSF 19
illion 19
Official 19
Arjuna 19
southwest 19
Chahar 19
Samson 19
Shardul 19
recoveries 19
scope 19
ware 19
13,@@ 19
shoc@@ 19
found@@ 19
dig 19
commemor@@ 19
opens 19
equality 19
protecting 19
solidarity 19
5-megapixel 19
Dalit 19
heres 19
disabled 19
consumer 19
U.@@ 19
moments 19
extraordinary 19
progressing 19
coun@@ 19
inations 19
ived 19
adjoining 19
Tharoor 19
confused 19
raid 19
princes 19
ee@@ 19
alty 19
amp 19
Smallcap 19
collective 19
behavior 19
explore 19
experiment 19
regulatory 19
consume 19
slipped 19
fashion 19
iced 19
Om@@ 19
Bhagat 19
ounce 19
ston 19
lovers 19
Cross 19
Iranian 19
choices 19
persecution 19
Liv@@ 19
anned 19
cheating 19
prophecy 19
Minor 19
ipur 19
Af@@ 19
Contin@@ 19
iti 19
Firefighters 19
Organ@@ 19
acharya 19
iel@@ 19
Nandyal 19
Afridi 19
Kak@@ 19
anagar 19
ool 19
objectives 19
instant 19
yog@@ 19
highest-@@ 19
developments 19
Vladimir 19
scar@@ 19
first-@@ 19
ool@@ 19
high@@ 19
north-@@ 19
funeral 19
wicketkeeper 19
graph@@ 19
censor 19
mines 19
Jahan 19
Standard 19
Crit@@ 19
reform 19
acknowledged 19
edged 19
Edition 19
Vik@@ 19
unite 19
substantial 19
ight-@@ 19
bag@@ 19
contained 19
rh@@ 19
parable 19
son-in-law 19
weapon 19
honest 19
main@@ 19
ashi 19
uno@@ 19
lay@@ 19
Rupani 19
cod@@ 19
Emp@@ 19
erable 19
Soci@@ 19
and-@@ 19
1,5@@ 19
dha 19
St. 19
trapped 19
Talk 19
Inte@@ 19
Hav@@ 19
Nis@@ 19
bottles 19
ganj 19
rant 19
stim@@ 19
Adi@@ 19
construct 19
wa@@ 19
wouldnt 19
premier 19
Deshmukh 19
Journ@@ 19
Accident 19
IJ 19
traded 19
four@@ 19
Nag 19
regarded 19
riches 19
long-term 19
igg@@ 19
flopped 19
omin@@ 19
mustard 19
front@@ 19
shepherd 19
inform@@ 19
Franc@@ 19
Jal@@ 19
Gavaskar 19
scholars 19
Shaw 19
surveillance 19
1.2-litre 19
Farmer 19
Techn@@ 19
disturbing 19
AB 19
tou@@ 19
pat 19
bel 19
Malkajgiri 19
cease 19
18th 19
Goswami 19
contributing 19
franchise 19
two-wheeler 19
tam@@ 19
oppres@@ 19
spl@@ 19
dialogues 19
pe 19
vacation 19
breathe 19
executed 19
agg@@ 19
Cyberabad 19
150th 19
Schedule 19
ascertained 19
Robert 19
knife 19
isha 19
IndusInd 19
equivalent 19
10th 19
Au@@ 19
Sag@@ 19
isers 19
2017-18 19
mits 19
neutr@@ 19
displayed 19
Sana 19
tear 19
dependent 19
chequ@@ 19
cli@@ 19
queries 19
Nov 19
curry 19
100@@ 19
utmost 19
essence 19
Sivan 19
Student 19
vir@@ 19
aju 19
cm 19
Netherlands 19
Honey 19
Bills 19
exceptional 19
ub 19
regret 19
raining 19
bleeding 19
shar@@ 19
rog@@ 19
knock 19
Gom@@ 19
Jh@@ 19
blog 19
contributions 19
lessly 19
enabled 19
watch@@ 19
sq 19
Abu 19
Kad@@ 19
receives 19
tasks 19
ande 19
MLCs 19
pink 19
loses 19
loud 19
MH@@ 19
Shob@@ 19
ioner 19
Lat@@ 19
Net 19
vel@@ 19
partition 19
Mohan@@ 19
lag@@ 19
sen 19
pilgrims 19
Khadi 19
celebrity 19
mos@@ 19
onia 19
Miss 19
Penal 19
stal@@ 19
Sawhney 19
ugg@@ 19
unlimited 19
openers 19
RO 19
Vishw@@ 19
Electoral 19
Collectors 19
batch 19
affects 19
Prevention 19
Oct 19
2,7@@ 19
Desai 19
pack@@ 19
privacy 18
terrif@@ 18
Khur@@ 18
exped@@ 18
jets 18
megapixel 18
canal 18
illing 18
21-@@ 18
ys@@ 18
editor 18
Mos@@ 18
Sham@@ 18
policeman 18
Really 18
orable 18
swept 18
suppl@@ 18
note@@ 18
speeding 18
mond 18
tabled 18
Jobs 18
upheld 18
appearing 18
MI 18
yag@@ 18
F-@@ 18
Actors 18
sowing 18
Lady 18
noise 18
stit@@ 18
Vide@@ 18
Gon@@ 18
Narmada 18
eling 18
partially 18
holidays 18
circles 18
avoided 18
bol@@ 18
asha 18
Except 18
styles 18
Rangareddy 18
Vikarabad 18
statistics 18
Melbourne 18
hurts 18
surfaced 18
grows 18
missionary 18
arama 18
capture 18
Chal@@ 18
screened 18
admit 18
seeks 18
Aat@@ 18
Speci@@ 18
glor@@ 18
monitor 18
Minist@@ 18
DCP 18
delivering 18
romance 18
deal@@ 18
icals 18
craft 18
Stephen 18
Product 18
autonomous 18
ject 18
reserves 18
Consult@@ 18
eeding 18
iate 18
icity 18
conflicts 18
fulness 18
Nation 18
elephants 18
refers 18
indic@@ 18
ranking 18
strong@@ 18
dom@@ 18
fraud@@ 18
grass 18
eager 18
Jayaram 18
humility 18
ousness 18
prior 18
Mahender 18
illi@@ 18
van 18
render 18
Plan@@ 18
violating 18
Digvijaya 18
Raghavendra 18
keeper 18
debit 18
fulfillment 18
mitting 18
bacteria 18
Nin@@ 18
hind@@ 18
Passengers 18
akrishna 18
rejo@@ 18
freely 18
empow@@ 18
weakness 18
promptly 18
Me 18
dual-@@ 18
tone 18
absor@@ 18
kes 18
Kanch@@ 18
13.@@ 18
Maximum 18
colour@@ 18
Sanju 18
diversity 18
39@@ 18
Prof@@ 18
urge 18
DRDO 18
mates 18
deliveries 18
athletes 18
reasonable 18
Ref@@ 18
Ministries 18
sters 18
Order 18
persist@@ 18
vaccines 18
alise 18
openly 18
manhunt 18
dering 18
Applic@@ 18
Companies 18
ilee 18
Swam@@ 18
utor 18
Mi 18
bedroom 18
FA@@ 18
Karn@@ 18
Birth 18
T. 18
1,4@@ 18
zabad 18
ressing 18
achi 18
stunned 18
physically 18
colleagues 18
Javadekar 18
intake 18
Zo@@ 18
erving 18
cultiv@@ 18
raising 18
sted 18
consist 18
aus@@ 18
Convention 18
Madhu 18
mens 18
desp@@ 18
departed 18
hotels 18
Kris@@ 18
thetic 18
preparation 18
CBSE 18
-spinner 18
cot@@ 18
122 18
safe@@ 18
relating 18
adh 18
ced 18
royal 18
antly 18
Gate 18
Gates 18
adri 18
anap@@ 18
Mul@@ 18
Rio 18
Products 18
clashed 18
sand@@ 18
titude 18
viewers 18
temp@@ 18
22@@ 18
Improves 18
savings 18
Wa@@ 18
argued 18
Looks 18
item 18
Baroda 18
websites 18
beach 18
Criminal 18
Appeal 18
poems 18
edi@@ 18
orbit 18
guarantee 18
hunger 18
Below 18
Skin 18
avaram 18
Rajagopal 18
microSD 18
belt 18
accurate 18
Pujara 18
Jackson 18
considerable 18
laugh 18
Invest@@ 18
eved 18
Dry 18
UN@@ 18
extends 18
Starting 18
moderate 18
ride 18
1993 18
Babri 18
deadly 18
counter@@ 18
gy 18
Coimbatore 18
mas@@ 18
criminals 18
thy@@ 18
Interview 18
Ashw@@ 18
inauguration 18
predominantly 18
175 18
profitable 18
ultimately 18
divisions 18
dly 18
Filmfare 18
formally 18
Muhammad 18
counterpart 18
cyber 18
Veget@@ 18
Command 18
Jayaraj 18
tail 18
casualty 18
Tribunal 18
106 18
murders 18
UNESCO 18
teaches 18
HD@@ 18
Samiti 18
Surat 18
cough 18
supreme 18
pow@@ 18
Chit@@ 18
conferred 18
Mulayam 18
E. 18
Pour 18
orange 18
Leone 18
Pran@@ 18
wherein 18
1,7@@ 18
Compl@@ 18
Nabha 18
Natesh 18
acket 18
mut@@ 18
Watchtower 18
resist 18
Dad@@ 18
Bor@@ 18
telephone 18
remarkable 18
refl@@ 18
JDS 18
mounting 18
eternal 18
panchayat 18
iring 18
eliminate 18
Hom@@ 18
Haw@@ 18
motivated 18
promoted 18
agreements 18
plac@@ 18
bother 18
Cook 18
iss@@ 18
erous 18
aku 18
Looking 18
Jayanti 18
offline 18
Shroff 18
wrath 18
porters 18
Sunny 18
atile 18
Fed@@ 18
fog 18
blown 18
tiny 18
assess 18
municipality 18
Certificate 18
twelve 18
oor 18
hay@@ 18
lov@@ 18
smiled 18
presided 18
ga 18
Ott@@ 18
ater 18
chop 18
Lower 18
Khans 18
Stock 18
innamon 18
reject 18
Nawab 18
Shil@@ 18
Apollo 18
Paswan 18
borrow@@ 18
protects 18
jet 18
operates 18
Lag@@ 18
wicket-keeper 18
Univers@@ 18
AICC 18
bath@@ 18
warrant 18
translation 18
Almost 18
Srisailam 18
Cham@@ 18
elli 18
seater 18
ving 18
rejects 18
mp@@ 18
Photos 18
yp@@ 18
proactive 18
Contr@@ 18
Fre@@ 18
Bon@@ 18
mutually 18
copper 18
aces 18
eties 18
Hinduism 18
650 18
ON 18
Ghulam 18
Wayanad 18
amounting 18
dignitaries 18
youngsters 18
aluru 18
blogs 18
cy@@ 18
og 18
prevailing 18
Jal 18
Jeevan 18
TI 18
Luc@@ 18
agrees 18
Town 18
bonds 18
Ow@@ 18
definition 18
EU 18
Focus 18
holder 18
separately 18
princ@@ 18
mit@@ 18
magnificent 18
shel@@ 18
SR 18
disorders 18
Kumar@@ 18
rampant 18
Narsing 18
Moves 18
server 18
Mall@@ 18
ders 18
flex@@ 18
Ranga 18
1,9@@ 18
humb@@ 18
abh@@ 18
resil@@ 18
dot 18
Pak@@ 18
Aar@@ 18
Henry 18
proteins 18
limitations 18
Movement 18
ioning 18
Kartik 18
olic 18
grandfather 18
Too 18
ention 18
Raghava 18
MW 18
bereaved 18
ecture 17
Madh@@ 17
summoned 17
notch 17
Gand@@ 17
lin 17
ano 17
contrast 17
Bedi 17
Scriptural 17
speculation 17
bore 17
Lim@@ 17
nic@@ 17
rolls 17
scholar 17
ventil@@ 17
Ragh@@ 17
ivity 17
appeals 17
defe@@ 17
Exam@@ 17
Baleno 17
145 17
author@@ 17
counc@@ 17
brake 17
confined 17
ved 17
Int@@ 17
Face 17
ionate 17
ze@@ 17
acknowled@@ 17
acles 17
14th 17
ogue 17
Cy@@ 17
committees 17
governors 17
vow 17
muscle 17
Realme 17
arpur 17
Mund@@ 17
frag@@ 17
dram@@ 17
Oc@@ 17
inity 17
anam 17
consid@@ 17
amended 17
clouds 17
porter 17
greatness 17
Saf@@ 17
institution 17
materi@@ 17
rug@@ 17
respiratory 17
championship 17
Vib@@ 17
Between 17
Climate 17
Addressing 17
Nayak 17
Lam@@ 17
7.5 17
eman 17
dial@@ 17
3-0 17
tower 17
instalment 17
NCR 17
Lucky 17
Lemon 17
Bank@@ 17
co 17
varies 17
admission 17
setup 17
objectionable 17
listened 17
treasure 17
satisfying 17
Sund@@ 17
Had@@ 17
Electrical 17
Rice 17
pioneers 17
Ramachandran 17
destroying 17
cure 17
poured 17
fishermen 17
eps 17
box-office 17
library 17
Staff 17
mill@@ 17
Ananya 17
Ling@@ 17
recording 17
minority 17
alloy 17
k-@@ 17
unexpected 17
Philippines 17
substantially 17
imported 17
martyred 17
Sita 17
missed 17
HP 17
iP@@ 17
avo@@ 17
alore 17
sect@@ 17
NT 17
chand@@ 17
Jail 17
ayan 17
thrilled 17
20th 17
lining 17
considerably 17
smartphones 17
disperse 17
Raje 17
raju 17
apr@@ 17
Democracy 17
Congress-JD 17
Primary 17
Text 17
Gill 17
Sasikala 17
Srihari 17
Ple@@ 17
Coming 17
striking 17
Anupama 17
Sipligunj 17
PPE 17
Masks 17
radio 17
envis@@ 17
wildlife 17
Prav@@ 17
evident 17
non 17
print 17
Bhansali 17
circular 17
Buddha 17
vector 17
Sugar 17
gender 17
schol@@ 17
flee 17
pharmaceut@@ 17
politically 17
0s 17
deposited 17
Cle@@ 17
stating 17
dancing 17
rown 17
pond 17
Days 17
Preparation 17
Sekhar 17
yard 17
Female 17
regulation 17
115 17
Has@@ 17
tains 17
Publ@@ 17
utch 17
Common@@ 17
fath@@ 17
Jyotiraditya 17
rider 17
pris@@ 17
yo 17
Reforms 17
refugees 17
Kaz@@ 17
Sanjeev 17
revision 17
actresses 17
Legal 17
stepping 17
Heart 17
interrogated 17
oma 17
Turn 17
astes 17
pro-@@ 17
startup 17
boy@@ 17
cr 17
lat@@ 17
artist@@ 17
impacted 17
Youll 17
Satya 17
Spr@@ 17
cattle 17
Bhadr@@ 17
Murugadoss 17
pets 17
anya 17
commuters 17
Deb@@ 17
eas@@ 17
Nidhi 17
Dem@@ 17
ique 17
Cert@@ 17
Kon@@ 17
demonstrated 17
logy 17
actor-@@ 17
Shim@@ 17
ei 17
instruction 17
Conf@@ 17
Karti 17
tal 17
wooden 17
Investig@@ 17
hunt 17
Aff@@ 17
economically 17
Parasuram 17
depressed 17
Axar 17
uba 17
Model 17
Auth@@ 17
procured 17
exceptions 17
fatty 17
enger 17
igned 17
wast@@ 17
grave 17
19.@@ 17
disciple 17
Circ@@ 17
Residents 17
Red@@ 17
Harikrishna 17
maritime 17
ergy 17
homage 17
involve 17
Hill 17
anag@@ 17
praises 17
slew 17
iny 17
Ric@@ 17
assumed 17
Recovery 17
Vennela 17
indication 17
esome 17
divers@@ 17
sick@@ 17
astery 17
kers 17
lighting 17
overseers 17
Ranchi 17
rituals 17
Cr 17
Tre@@ 17
Islamabad 17
verification 17
resses 17
intended 17
receipt 17
kies 17
Fortunately 17
Dilip 17
Georgia 17
Panch@@ 17
unfortunately 17
Hir@@ 17
authent@@ 17
Khan@@ 17
mint 17
Bipin 17
realized 17
asth@@ 17
Modern 17
Shir@@ 17
Groups 17
B.C.E. 17
Suman 17
ior 17
Bodies 17
dir@@ 17
Sons 17
ribes 17
recommendation 17
cyclone 17
ric 17
arship 17
Loan 17
Ducati 17
appalling 17
demonstrate 17
etting 17
queue 17
Vice-President 17
esty 17
Scoo@@ 17
Hooda 17
Catherine 17
diplomatic 17
Saint 17
Package 17
qualify 17
semi-finals 17
drowned 17
cond@@ 17
quota 17
Reserv@@ 17
6th 17
Shoaib 17
presenting 17
tops 17
otted 17
anding 17
Bob@@ 17
Clinton 17
cream 17
Elijah 17
prosp@@ 17
phys@@ 17
Writ@@ 17
dece@@ 17
enty-@@ 17
Mandya 17
varied 17
indulging 17
estimates 17
mourned 17
Markets 17
hill@@ 17
ben@@ 17
LIC 17
hungry 17
sel 17
refuses 17
M. 17
lal 17
Laxmi 17
purcha@@ 17
lot@@ 17
Vo@@ 17
IP 17
Liter@@ 17
competitions 17
Cap 17
Madurai 17
fry 17
liquid 17
cher@@ 17
booth 17
there@@ 17
lim 17
Prior 17
Nov@@ 17
hilarious 17
Supporting 17
ambitious 17
instruc@@ 17
Complete 17
favorable 17
PCL 17
Kashyap 17
Ul@@ 17
suggestion 17
Attorney 17
chur@@ 17
initi@@ 17
Azam 17
PO@@ 17
cogn@@ 17
aste 17
companys 17
AD@@ 17
upgrad@@ 17
brid 17
ict 17
iveness 17
salute 17
uram 17
Du@@ 17
I-@@ 17
TE 17
justified 17
spike 17
movements 17
plied 17
ich 17
youngest 17
Dhan 17
Greece 17
Hasan 17
Mithali 17
rating 17
opting 17
consultation 17
clin@@ 17
distinct 17
merge 17
oram 17
Port@@ 17
Anti-@@ 17
Late 17
fatality 17
capability 17
astic 17
Mallikarjun 17
forty 17
Accused 17
dra@@ 17
precautionary 17
success@@ 17
semifinals 17
Reh@@ 17
essing 17
stored 17
118 17
AYUSH 17
Delhi-@@ 17
Das@@ 17
imitate 17
Animal 17
awar@@ 17
Kochi 17
Return 17
1972 17
Kab@@ 17
Coo@@ 17
gaining 17
Rome 17
Seemandhra 17
ipuram 17
chair 17
Gow@@ 17
Listen 17
instruments 17
iver 17
ankar 17
tropical 17
-e-@@ 17
Ved@@ 17
CV@@ 17
L. 17
enna 17
Pri@@ 17
hypertension 17
uous 17
Kum@@ 17
riots 17
Koll@@ 17
zy 17
oh 17
harsh 17
modes 17
tomb 17
engaging 17
grapes 17
shine 17
investing 17
Eligibility 17
haul 17
Sak@@ 17
relates 17
vent@@ 17
Passenger 17
utility 17
Spend 17
Multiple 17
umes 17
collision 17
ane@@ 17
itionally 17
Summer 17
ais 17
twe@@ 17
ounced 17
Kol@@ 17
portions 17
condemns 17
mechanism 17
IDBI 17
closing 17
Mir 17
Sep 17
kingdoms 17
wan@@ 17
boards 17
Continue 17
commandment 17
Zero 17
reads 17
Rashtrapati 17
graded 17
Wait 17
rapati 17
coaches 17
bps 17
pleas@@ 17
direct@@ 17
viewpoint 16
Brahm@@ 16
weekly 16
och@@ 16
answ@@ 16
ias 16
at-@@ 16
Hasina 16
unning 16
Tax@@ 16
selfies 16
faculty 16
SSP 16
mad@@ 16
tured 16
3000 16
ninth 16
Reasons 16
rocks 16
shaped 16
RCB 16
obstruc@@ 16
Entry 16
accum@@ 16
PL@@ 16
ette 16
weighs 16
Modi@@ 16
Praise 16
docum@@ 16
prince 16
afterwards 16
baptism 16
pulses 16
oil@@ 16
Men 16
Users 16
DS 16
ainted 16
ouring 16
offences 16
erns 16
energ@@ 16
lovely 16
Weve 16
flavour 16
AMT 16
Dipak 16
Innovation 16
Broad@@ 16
roots 16
exposure 16
Ravinder 16
configuration 16
pour 16
Sev@@ 16
ara@@ 16
Levites 16
Co 16
Phot@@ 16
dim@@ 16
Domin@@ 16
Role 16
reb@@ 16
ces 16
Post@@ 16
insult 16
OF 16
vict@@ 16
Lockdown 16
productivity 16
Changes 16
attractive 16
presentation 16
aced 16
Guest 16
laundering 16
cuis@@ 16
Stokes 16
Jos 16
Lavanya 16
pouring 16
Organization 16
breath@@ 16
Harry 16
fear@@ 16
world@@ 16
recre@@ 16
condemn 16
furious 16
Strong 16
Mel@@ 16
Community 16
Wikipedia 16
iev@@ 16
commandments 16
cleaning 16
vinegar 16
pura 16
ranges 16
cutting 16
ellers 16
170 16
arts 16
brands 16
india 16
Sult@@ 16
teaspoons 16
nod@@ 16
osing 16
Federal 16
Raman@@ 16
contestants 16
India-Pakistan 16
bypolls 16
fulfill 16
hem 16
beating 16
jump 16
Memory 16
usting 16
recip@@ 16
Warriors 16
ayal@@ 16
MoS 16
PMO 16
sham@@ 16
Khand@@ 16
bandh 16
them@@ 16
Analy@@ 16
Huge 16
1992 16
unal 16
scooters 16
fla@@ 16
bacterial 16
It@@ 16
undergo 16
Amar@@ 16
Uyyalawada 16
Sorry 16
opt 16
errors 16
Gwalior 16
Sibal 16
YSR@@ 16
single-cylinder 16
fab@@ 16
ulous 16
plan@@ 16
Rythu 16
Grey 16
it-@@ 16
bles 16
bitter 16
explo@@ 16
hardware 16
corridor 16
focusing 16
scare 16
underground 16
anity 16
cute 16
marine 16
aning 16
Kochhar 16
Tushar 16
swimming 16
Start@@ 16
interv@@ 16
foreigners 16
thor@@ 16
CT 16
Internal 16
Child@@ 16
itching 16
Easy 16
surv@@ 16
Zilla 16
Constitu@@ 16
pip@@ 16
criticising 16
Vidya 16
prohib@@ 16
hails 16
chargesheet 16
decrease 16
FS 16
calamity 16
tasty 16
titles 16
Fertilizers 16
Shri@@ 16
Failed 16
apet 16
Whom 16
BVSN 16
Fruits 16
wings 16
Srinivas@@ 16
Banking 16
ost@@ 16
bullet 16
nurse 16
interpre@@ 16
thro@@ 16
theastern 16
ester 16
drought 16
Ujj@@ 16
half-century 16
burg 16
publishers 16
Jeff 16
glorious 16
iconic 16
Pat 16
hole 16
ption 16
Protesters 16
complim@@ 16
minist@@ 16
dealerships 16
Muzaff@@ 16
communal 16
describes 16
atories 16
Kanak@@ 16
guru 16
unhappy 16
ackers 16
GS@@ 16
sympathy 16
incredible 16
ruined 16
Kona 16
elle 16
ultimate 16
expand 16
detention 16
awaiting 16
DST 16
mentions 16
elop@@ 16
Poor@@ 16
span 16
collector 16
pity 16
hoping 16
astr@@ 16
polit@@ 16
Hanuman 16
thermal 16
ommun@@ 16
Dehradun 16
announcing 16
perception 16
escalated 16
dens 16
divid@@ 16
Songs 16
navigation 16
allerg@@ 16
abrogated 16
Raipur 16
ipp@@ 16
bottle 16
residing 16
advers@@ 16
Vallabhbhai 16
Kaushal 16
UAE 16
mist@@ 16
Indr@@ 16
rect@@ 16
onds 16
bal 16
honours 16
IS 16
Library 16
arily 16
ghee 16
therein 16
victorious 16
govern@@ 16
rian 16
Bis@@ 16
Naren@@ 16
Class@@ 16
2001 16
Course 16
abol@@ 16
Television 16
m. 16
resting 16
GO@@ 16
Tom@@ 16
earnings 16
anxious 16
ITC 16
unchanged 16
Innov@@ 16
Male 16
Syn@@ 16
beer 16
halls 16
Morris 16
sorrow 16
architectural 16
throat 16
Altern@@ 16
hostel 16
vigilant 16
retre@@ 16
reservoirs 16
credited 16
framework 16
RIL 16
acquire 16
Reels 16
decisive 16
calendar 16
sanitiz@@ 16
nest 16
edi 16
evacuated 16
oured 16
registering 16
mess 16
overseer 16
inds 16
iance 16
syl@@ 16
comprise 16
minted 16
Sources 16
constable 16
rub@@ 16
ersons 16
Bluetooth 16
newspaper 16
Bareilly 16
prev@@ 16
Aadhar 16
pline 16
utr@@ 16
Govindam 16
Sexual 16
Lev@@ 16
grac@@ 16
intensity 16
bri@@ 16
Praveen 16
bog@@ 16
Kalyani 16
offspring 16
brah@@ 16
Crops 16
ipe 16
inputs 16
led@@ 16
Ri@@ 16
SP@@ 16
Oxford 16
lists 16
panchayats 16
iram 16
anagara 16
Rebel 16
hil@@ 16
Bhubaneswar 16
Manager 16
anted 16
lion 16
palm 16
Pre-@@ 16
cub@@ 16
apt@@ 16
Current 16
Almighty 16
ore@@ 16
Sub-@@ 16
commiss@@ 16
Maria 16
adverse 16
leaf 16
engineers 16
dium 16
aved 16
Harmanpreet 16
accompl@@ 16
Administr@@ 16
pursued 16
dre@@ 16
BE 16
cited 16
anu 16
conviction 16
urement 16
TPCC 16
them. 16
dense 16
childs 16
Os 16
8,000 16
Over@@ 16
Maybe 16
steering 16
origin@@ 16
spon@@ 16
8th 16
incl@@ 16
riv@@ 16
laughed 16
uja 16
entrepreneurs 16
Mom@@ 16
recogn@@ 16
Subramanian 16
introducing 16
waja 16
Zam@@ 16
parked 16
alle 16
Kids 16
rel 16
accusations 16
Previously 16
turnover 16
cleaner 16
isk 16
iders 16
Hear@@ 16
thrashed 16
Kond@@ 16
Hassan 16
EVMs 16
customs 16
iates 16
erating 16
restoration 16
ems 16
Chint@@ 16
Amar 16
campaigned 16
extensively 16
vend@@ 16
Nationalist 16
ix 16
exhibition 16
Care@@ 16
adult 16
plunged 16
unch 16
emed 16
Representatives 16
ocean 16
dar 16
forecast 16
Freedom 16
assurance 16
40,000 16
thu 16
weakened 16
mantra 16
Hospitals 16
priorities 16
Sri@@ 16
25,000 16
ascertain 16
beloved 16
pursuing 16
Diploma 16
Documents 16
profits 16
drastically 16
concl@@ 16
apologised 16
eral 16
polled 16
tham 16
institutional 16
tolerate 16
anka 16
Examination 16
T.@@ 16
15,@@ 16
diff@@ 16
emen 16
ighting 16
ae 16
mani 16
iz 16
sinned 16
Den@@ 16
ate@@ 16
= 16
mayor 16
Teh@@ 16
bers 16
normally 16
Arabic 16
itted 16
Ukraine 16
everyones 16
owners 16
etary 16
Disha 16
tra-@@ 16
Study 16
Magn@@ 16
feared 16
Distribution 16
ox 16
Cru@@ 16
determination 16
Tou@@ 16
transition 16
Solar 16
Us 16
Had 16
Districts 16
Governing 16
Winter 16
caretaker 16
nar@@ 16
rets 16
Irrfan 16
UD@@ 16
DC@@ 16
Together 16
resorted 16
hag@@ 16
cancel 16
Bra@@ 16
areddy 16
mourning 16
1986 16
necessarily 16
evolution 16
Bhutan 16
protoc@@ 16
discovery 16
rage 16
gressive 16
rum@@ 16
adap@@ 16
proph@@ 16
inged 16
Ivanka 16
Teacher 16
journ@@ 16
loyalty 16
Jyoti 16
fro@@ 16
N.@@ 16
Deve 16
AMARAVATI 16
subsequent 16
alities 16
Dhanush 16
Bibles 15
betr@@ 15
isition 15
sacrificed 15
-megapixel 15
sensors 15
uding 15
objects 15
over-@@ 15
pora 15
prolif@@ 15
originated 15
Ansari 15
Nas@@ 15
Neh@@ 15
Fresh 15
olly 15
Vaish@@ 15
enterprises 15
loy@@ 15
conventional 15
disappointing 15
RT@@ 15
Record 15
MK 15
oboam 15
Motor@@ 15
ser 15
kidney 15
lag 15
Dim@@ 15
EcoSport 15
forc@@ 15
wickedness 15
Kedarnath 15
gir@@ 15
hoped 15
aar 15
Afghan 15
Anna 15
abundant 15
pon@@ 15
ppers 15
vaccination 15
rib@@ 15
revive 15
rance 15
uncertainty 15
Furthermore 15
Breast 15
Implementation 15
Wear 15
contest@@ 15
scientist 15
evis 15
technique 15
Saur@@ 15
accomplish 15
pie 15
wari 15
Fund@@ 15
Nana 15
applicants 15
experiencing 15
Image 15
amped 15
uj@@ 15
racing 15
autom@@ 15
Down 15
Sitaram 15
exhorted 15
six@@ 15
Player 15
Rover 15
gressively 15
waived 15
1.0-litre 15
abdominal 15
const@@ 15
ull 15
pha 15
spinner 15
Nath@@ 15
ishments 15
DK 15
Lawrence 15
ope 15
1994 15
subscribers 15
inquired 15
ownership 15
lessness 15
Guard 15
Mc@@ 15
desires 15
costly 15
outfit 15
dow@@ 15
vacancies 15
soared 15
Recogn@@ 15
distant 15
eb 15
Southeast 15
sin@@ 15
Log@@ 15
Championships 15
sinc@@ 15
NF@@ 15
Different 15
cheap 15
water@@ 15
quits 15
flour@@ 15
Emperor 15
spared 15
arose 15
onal@@ 15
Bandaru 15
RE@@ 15
proceed 15
BY 15
BR@@ 15
PhD 15
SU@@ 15
labourer 15
eter@@ 15
Area 15
delegates 15
hia 15
gi@@ 15
discounts 15
amenities 15
Shramik 15
sat 15
twin 15
ohan 15
speeches 15
dign@@ 15
ouble 15
pixels 15
adopt 15
chan@@ 15
larg@@ 15
Lack 15
Clearly 15
EA 15
Yediyurappa 15
Discussions 15
ancement 15
Display 15
satellites 15
Value 15
alleging 15
IMD 15
pred@@ 15
Himalayan 15
Coastal 15
ribe 15
lambasted 15
plains 15
Himalayas 15
band@@ 15
zo@@ 15
127 15
ty-@@ 15
Establ@@ 15
bookings 15
Virtual 15
prevents 15
bears 15
enables 15
Laksh@@ 15
diplom@@ 15
bid@@ 15
oever 15
RK 15
prosec@@ 15
rent@@ 15
Ut@@ 15
Fuel 15
curd 15
rod 15
praying 15
Brit@@ 15
perce@@ 15
Situation 15
neys 15
scores 15
peanuts 15
1976 15
chariots 15
Xi 15
prop@@ 15
tent 15
boyfriend 15
103 15
Hydro@@ 15
usters 15
constitute 15
Kriti 15
cake 15
Didnt 15
assist@@ 15
missionaries 15
beside 15
utilised 15
furniture 15
linking 15
trusted 15
ume 15
strain 15
ugs 15
successive 15
horse 15
shouldnt 15
bu 15
Sengar 15
attractions 15
adda 15
Pedd@@ 15
Cummins 15
reactions 15
passage 15
gi 15
restaurants 15
Mukul 15
PM-@@ 15
tyres 15
GT 15
resource 15
Amrita 15
Protest 15
Kaleshwaram 15
Mekapati 15
INX 15
Indian-American 15
federal 15
ycl@@ 15
G-@@ 15
eswar 15
Kov@@ 15
entially 15
retain 15
Growth 15
100-@@ 15
psych@@ 15
tabernacle 15
Anant@@ 15
week@@ 15
Cheteshwar 15
fingerprint 15
aswamy 15
reases 15
Poly@@ 15
nima 15
Level 15
Poonam 15
elev@@ 15
asaheb 15
baseless 15
enthusiasm 15
Chancellor 15
fig@@ 15
ods 15
Americans 15
07 15
direc@@ 15
Military 15
slept 15
ige 15
ori 15
slide 15
inee 15
may@@ 15
past@@ 15
DI 15
continu@@ 15
oppose 15
bifurcation 15
Background 15
isc@@ 15
affecting 15
consistent 15
Egyptians 15
governing 15
Dus@@ 15
kidn@@ 15
Sidharth 15
Tennis 15
ld@@ 15
warm@@ 15
www.@@ 15
lunar 15
anti@@ 15
Payment 15
Institutions 15
ners 15
Colin 15
discus@@ 15
estyle 15
routine 15
allies 15
Koneru 15
e-commerce 15
Well@@ 15
omed 15
Manasseh 15
essentially 15
duration 15
Scientists 15
inath 15
donate 15
Pv@@ 15
Lieutenant 15
guards 15
landscape 15
clothing 15
aide 15
symb@@ 15
bold 15
lact@@ 15
know@@ 15
uters 15
2.0-litre 15
four-cylinder 15
laying 15
Ibrahim 15
rive 15
Nithiin 15
ukh 15
LS 15
findings 15
FIFA 15
spouse 15
helicopter 15
Narasimhan 15
Doing 15
smoothly 15
refuge 15
vag@@ 15
donated 15
yas 15
thorough 15
share@@ 15
Birla 15
Schol@@ 15
elevated 15
patt@@ 15
bed@@ 15
Imag@@ 15
Petition 15
ato 15
Events 15
logged 15
abi 15
flower 15
Gurugram 15
anand 15
1991 15
lasting 15
ambassador 15
p-@@ 15
weekend 15
statues 15
compar@@ 15
Wuhan 15
toxic 15
aft 15
Operations 15
alu 15
Condolences 15
cultivated 15
igation 15
invites 15
ungal 15
atest 15
9th 15
CarPlay 15
Girls 15
osh 15
Tarun 15
Paradise 15
grievous 15
ova 15
philosop@@ 15
jar 15
Mud@@ 15
blaze 15
eases 15
bo 15
exercising 15
municipalities 15
pilots 15
ide-@@ 15
arding 15
yl 15
readily 15
washing 15
Bring 15
idol 15
Medicines 15
first-ever 15
sport@@ 15
Umar 15
Sitara 15
merch@@ 15
debated 15
scenic 15
dominated 15
disk 15
hosting 15
lungs 15
osity 15
erved 15
suff@@ 15
Rains 15
appoint 15
secretaries 15
Self 15
manirbhar 15
Gorakhpur 15
levelled 15
mild 15
Patiala 15
Senate 15
heights 15
06 15
surged 15
hes@@ 15
hav 15
uter@@ 15
IR 15
Bah@@ 15
transparency 15
Parth@@ 15
self-reliant 15
Kamala 15
mang@@ 15
Dance 15
preliminary 15
disbursed 15
unclear 15
7,000 15
enly 15
ONGC 15
staggering 15
treaty 15
Panchayati 15
preferences 15
Sampath 15
removing 15
wel@@ 15
Hand@@ 15
Jason 15
innov@@ 15
Link 15
Mom 15
Push@@ 15
Partnership 15
fats 15
regulated 15
Subbar@@ 15
35@@ 15
Russell 15
Metropolitan 15
Nishank 15
well-known 15
hra 15
strive 15
Bad 15
pilgrimage 15
incense 15
Starc 15
Sind@@ 15
Alban@@ 15
Lic@@ 15
teenth 15
Suj@@ 15
ul-@@ 15
asafoetida 15
eval@@ 15
execute 15
transformation 15
curren@@ 15
worrying 15
46,@@ 15
acad@@ 15
varieties 15
116 15
1996 15
Disp@@ 15
Buddh@@ 15
Chola 15
amps 15
Venkateshwara 15
escap@@ 15
drun@@ 15
impounded 15
auspicious 15
Sydney 15
Guidelines 15
understands 15
surplus 15
8GB 15
Kharge 15
disorder 15
Gay@@ 15
chron@@ 15
akash 15
connects 15
G.@@ 15
D.@@ 15
0Nm 15
Pradeshs 15
census 15
fos@@ 15
Ashram 15
inspector 15
kin 15
Keshav 15
kn@@ 15
recognise 15
Corpor@@ 15
Rathore 15
offensive 15
cut@@ 15
cav@@ 15
De 15
bandry 15
shapes 15
iling 15
anam@@ 15
UP@@ 15
injustice 15
poses 15
compliant 15
jam 15
concentration 15
Dist@@ 15
infant 15
Vij@@ 15
prescribed 15
High@@ 15
icious 15
Sound 15
Satans 15
uct@@ 15
Priy@@ 15
hak@@ 15
ulations 15
Deva 15
consist@@ 15
Mike 15
Ni@@ 15
lit 15
itioners 15
multi-starrer 15
Must@@ 15
adha@@ 15
convey 15
robbery 15
dominant 15
intriguing 15
Tour 15
Denmark 15
epidemic 15
Mozambique 15
humour 15
Kota 15
isite 15
Living 15
legally 15
killer 15
Koth@@ 15
prohibited 15
spirituality 15
Fab@@ 15
inating 15
weaknesses 15
Mode 15
Nass@@ 15
Consumer 15
amazed 15
Fernand@@ 15
techniques 15
cadre 15
differen@@ 15
marg@@ 15
spectrum 15
menace 15
Territories 15
wed 15
poly@@ 15
kout 15
Counc@@ 15
FIRs 15
Broadcasting 15
life-@@ 15
Contrib@@ 15
ikeya 15
bearing 15
CID 15
financing 15
tack@@ 15
Md 15
eswar@@ 15
Statue 15
Jamia 15
disobe@@ 15
classical 15
altercation 15
odes 15
Tour@@ 15
ugh@@ 15
mesmer@@ 15
Krishnamurthy 15
lad@@ 15
approaching 15
constr@@ 15
warriors 15
asses 15
apalem 15
reporting 15
exemption 15
instantly 15
hung 15
Nanak 15
Advocate 15
ullah 15
II@@ 15
robust 15
ema 15
99.@@ 15
harb@@ 15
insisted 15
1956 15
cash@@ 15
oce@@ 15
sphere 15
mount 15
310 15
L-@@ 14
hyper@@ 14
raping 14
antioxidant 14
Belgium 14
omatic 14
forefront 14
Chowdhury 14
pronounce 14
cast@@ 14
insula 14
ques 14
Aug 14
Dabangg 14
couples 14
erred 14
traced 14
enquired 14
authors 14
tran@@ 14
R.@@ 14
enabling 14
lenders 14
leather 14
idar 14
kit 14
airs 14
Sleep 14
Williams 14
kick@@ 14
insulin 14
excellence 14
sole 14
aer@@ 14
slashed 14
blood@@ 14
ests 14
restore 14
incumbent 14
denies 14
num@@ 14
imated 14
Travel 14
gros@@ 14
optional 14
literally 14
OR 14
Mallu 14
rensic 14
William 14
Brown 14
prox@@ 14
amama 14
Tight 14
mic@@ 14
16th 14
Kev@@ 14
Triumph 14
motiv@@ 14
anguish 14
,990 14
araj 14
wada 14
vine 14
clip 14
raging 14
guided 14
Ug@@ 14
curb 14
mam 14
tar 14
Hassine 14
treatments 14
cos@@ 14
Page 14
spreads 14
awn 14
barr@@ 14
saints 14
abolished 14
literacy 14
Fas@@ 14
zinc 14
Fear 14
horses 14
Scientific 14
lo 14
isions 14
intend 14
wheel@@ 14
Yechury 14
Poland 14
Goods 14
representation 14
convinc@@ 14
ven@@ 14
Sonowal 14
TVs 14
sequ@@ 14
Rus@@ 14
lately 14
Terror@@ 14
shu 14
Shukla 14
eswari 14
Buttler 14
Anderson 14
outer 14
esha@@ 14
Counting 14
ooth@@ 14
carved 14
Venue 14
ck@@ 14
WA@@ 14
sweets 14
switch 14
Annual 14
ross 14
attain 14
Soundararajan 14
beliefs 14
Task 14
5G 14
undergone 14
domain 14
respond@@ 14
analysts 14
bull@@ 14
ont 14
netizens 14
habitat 14
alloc@@ 14
drain 14
Address 14
d. 14
skyrock@@ 14
prosperous 14
Charles 14
thieves 14
Kaus@@ 14
Paw@@ 14
accessed 14
Fight 14
praising 14
wells 14
Dattatreya 14
ION 14
assure 14
Bharath 14
ignment 14
B-@@ 14
garu 14
BI 14
urship 14
captive 14
consultations 14
cla@@ 14
Kavitha 14
Fer@@ 14
din@@ 14
Harichandan 14
Bharat@@ 14
Vasundhara 14
ayan@@ 14
Atomic 14
Jagadish 14
Gaz@@ 14
Less@@ 14
Thousand 14
manifest 14
Mehreen 14
meas@@ 14
Club 14
Success 14
you. 14
urges 14
mation 14
stitution 14
stup@@ 14
tom@@ 14
uttered 14
brow@@ 14
installation 14
ogy 14
vulnerable 14
das 14
agent 14
Radhakrishna 14
quick@@ 14
tot@@ 14
shif@@ 14
DE 14
Bod@@ 14
poultry 14
PA 14
Release 14
transf@@ 14
erring 14
mati 14
treating 14
quest@@ 14
approve 14
Gener@@ 14
Karth@@ 14
to-@@ 14
Pal 14
ayya 14
Ox@@ 14
mart@@ 14
Daily 14
ensuing 14
festivities 14
infuriated 14
5-year-old 14
PI 14
Solicitor 14
six-@@ 14
Sonali 14
Learning 14
Jub@@ 14
smashed 14
curfew 14
Marg@@ 14
crown 14
Hamid 14
Jai@@ 14
Shail@@ 14
unanimously 14
obviously 14
versus 14
expandable 14
odaya 14
nationalism 14
writings 14
Ly@@ 14
Fai@@ 14
ynamics 14
Any@@ 14
Josh 14
rein@@ 14
spring 14
Indrani 14
Muker@@ 14
Jinping 14
manifest@@ 14
Point 14
kh@@ 14
istics 14
eliminated 14
arances 14
11@@ 14
rough 14
entitled 14
Azhar 14
Pathan 14
Irfan 14
arising 14
column 14
rup@@ 14
Territory 14
realistic 14
proj@@ 14
deteriorating 14
Mini 14
host@@ 14
benchmark 14
tracking 14
pump 14
Uma 14
medallist 14
Alex@@ 14
Hungary 14
fury 14
pressures 14
NTPC 14
araju 14
Hello 14
adays 14
Javed 14
musical 14
dang@@ 14
store@@ 14
Komatireddy 14
Sant@@ 14
bir@@ 14
K.T. 14
Sharwanand 14
tale 14
perf@@ 14
hala 14
comfor@@ 14
sunlight 14
upathi 14
reservations 14
mango 14
anic 14
ba@@ 14
Loans 14
reveals 14
-brand-@@ 14
ushes 14
Storage 14
Travellers 14
Cov@@ 14
stu@@ 14
Flood 14
oid 14
transported 14
ares 14
Atul 14
perfectly 14
Knowledge 14
los@@ 14
Pir@@ 14
no-@@ 14
seasons 14
olving 14
gras@@ 14
Changing 14
acceptance 14
Classic 14
Vice-@@ 14
nut 14
Canadian 14
350@@ 14
hibition 14
mild@@ 14
sore 14
Arya 14
mid 14
Advisory 14
04.@@ 14
ITBP 14
swung 14
ero 14
implic@@ 14
ASEAN 14
advoc@@ 14
accordance 14
babies 14
disappointment 14
ishi 14
accidental 14
liqu@@ 14
Phase 14
Kund@@ 14
lifetime 14
Azharuddin 14
uk 14
assignment 14
legislature 14
elly 14
undertaking 14
Figo 14
Direct 14
less@@ 14
icts 14
restaurant 14
estine 14
enty 14
Enforcement 14
utionary 14
associations 14
Butter 14
martyrs 14
Jama@@ 14
assemblies 14
cell@@ 14
alakshmi 14
welcomes 14
Chol@@ 14
automatically 14
agents 14
Youtube 14
benefited 14
discontinued 14
symbol@@ 14
Gardens 14
ice@@ 14
Mam@@ 14
resol@@ 14
1989 14
Bot@@ 14
17.@@ 14
apolog@@ 14
blo@@ 14
Happ@@ 14
Acharya 14
LDL 14
dur@@ 14
archae@@ 14
ologist 14
KT 14
rot 14
repro@@ 14
negot@@ 14
Farooq 14
applying 14
Ali@@ 14
bi 14
Mann 14
abh 14
procedures 14
dead@@ 14
occurring 14
akshmi 14
smell 14
ou 14
Jackie 14
scriptures 14
dragged 14
ator@@ 14
inscrip@@ 14
evac@@ 14
low-lying 14
Philippians 14
yiel@@ 14
imes 14
DI@@ 14
bling 14
Jeep 14
jawan 14
sions 14
Jul@@ 14
spices 14
gentle 14
Bunny 14
Scheduled 14
dispersed 14
absolute 14
bands 14
lok 14
glimpse 14
house@@ 14
adesh 14
Imm@@ 14
yr@@ 14
wrec@@ 14
Pil@@ 14
cometh 14
CJI 14
Deep 14
story@@ 14
big-@@ 14
Develop@@ 14
by-@@ 14
searched 14
ing. 14
enthr@@ 14
wanath 14
ili 14
conceived 14
1997 14
stitute 14
encoun@@ 14
womb 14
filming 14
perfection 14
uthi 14
Nandi 14
anticipation 14
engage 14
Ruth 14
stance 14
chair@@ 14
KK 14
Youve 14
sive 14
bh@@ 14
DSP 14
Cons@@ 14
helicopters 14
Eventually 14
apura 14
Disc@@ 14
uma 14
Asked 14
triple 14
resemb@@ 14
nish 14
imin@@ 14
insight 14
Sovereign 14
exed 14
soap 14
Ravikumar 14
Kus@@ 14
idel@@ 14
DRLs 14
laughter 14
anno@@ 14
chlor@@ 14
attributed 14
torture 14
captivity 14
consequence 14
Nab@@ 14
disrup@@ 14
Kav@@ 14
nap@@ 14
commissioned 14
fertil@@ 14
esses 14
withdrew 14
Materials 14
LV 14
choosing 14
aggressive 14
tie 14
iv 14
perc@@ 14
Into 14
hidden 14
ive-@@ 14
,4@@ 14
Constitutional 14
cooperative 14
oll 14
succ@@ 14
Bridge 14
flowing 14
sanit@@ 14
Hit@@ 14
Rampur 14
conductor 14
Chawla 14
Ros@@ 14
nt 14
Lexus 14
Four@@ 14
debris 14
operation@@ 14
turnout 14
Peddireddy 14
Batt@@ 14
aled 14
dues 14
Rekha 14
Chron@@ 14
Hub 14
Branch 14
prepaid 14
airlines 14
Commander 14
gical 14
visas 14
freight 14
preventive 14
ling@@ 14
attacking 14
Positive 14
loading 14
pock@@ 14
Triple 14
lender 14
laboratory 14
Sithara 14
Krishnan 14
Electr@@ 14
psalmist 14
ealing 14
Chenn@@ 14
LMT 14
stupid 14
Lakshm@@ 14
Cell 14
uals 14
Gift 14
hardships 14
develop@@ 14
phenomenon 14
petit@@ 14
temporarily 14
diameter 14
tact@@ 14
Bish@@ 14
advertis@@ 14
throng@@ 14
crowds 14
60,000 14
cow@@ 14
Canaan 14
reservoir 14
embro@@ 14
Stand 14
preserve 14
discrimination 14
Telang@@ 14
ananda 14
screen@@ 14
sculp@@ 14
DB@@ 14
housewife 14
Bec@@ 14
dependents 14
Haj@@ 14
density 14
worsened 14
hushan 14
Saxena 14
Jaiswal 14
oka 14
block@@ 14
Allow 14
anytime 14
submission 14
Raghu 14
itated 14
Iron 14
nant 14
Incl@@ 14
Feb 14
Raksha 14
HCL 14
R-@@ 14
istical 14
differently 14
186 14
Tro@@ 14
tractor 14
congratulations 14
amboo 14
Mind 14
shou@@ 14
adh@@ 14
hormon@@ 14
grabbed 14
Anganwadi 14
Indraganti 14
Dr.Harsh 14
Matt 14
araj@@ 14
Loc@@ 14
expres@@ 14
mining 14
Fish 14
lung 14
hamp@@ 14
worth@@ 14
Mac@@ 14
Transmission 14
oy 14
Scrip@@ 14
Sudan 14
ingu@@ 14
developmental 14
alleg@@ 14
Gannavaram 14
recovering 14
oing 14
illicit 14
conqu@@ 14
Wishing 14
Customers 14
lowers 14
Pramod 14
Hor@@ 14
accelerate 14
pois@@ 14
plague 14
ghat 14
Post-@@ 14
Math@@ 14
magazines 14
checking 14
Hur@@ 14
ores 14
visual 14
medicinal 14
invas@@ 14
Kand@@ 14
Harsha@@ 14
abe@@ 14
turbocharged 14
sty@@ 14
remar@@ 14
puram 14
parted 14
Setu 14
WH@@ 14
unhurt 14
colony 14
paths 14
dience 14
Villiers 14
vain 14
rus 14
Bharadwaj 14
insects 14
accomplished 14
endar 14
UNIX 14
creates 14
RT 14
49.@@ 14
start@@ 14
reacts 14
um-@@ 14
Integrated 14
foretold 14
alli@@ 14
propos@@ 14
sent@@ 14
struggling 14
Governance 14
federation 14
eldest 14
Shipping 14
Jha 14
Incre@@ 14
funct@@ 14
fix@@ 14
fulfil@@ 14
bundled 14
bride 14
webinar 14
15.@@ 14
Gurdaspur 14
characteristics 14
Gi@@ 14
rich@@ 14
whenever 14
Prag@@ 14
Dat@@ 14
inching 14
convenient 14
ala@@ 14
corresponding 14
Jersey 14
tan@@ 14
replacement 14
preventing 13
Yeddyurappa 13
Sit@@ 13
anki 13
upwards 13
fast@@ 13
strugg@@ 13
dism@@ 13
Biotech 13
House@@ 13
ones@@ 13
inter 13
Sath@@ 13
Id 13
intelligent 13
yar 13
erry 13
Dial@@ 13
oug@@ 13
iers 13
custom@@ 13
tyre 13
referring 13
esity 13
nur@@ 13
Mass@@ 13
typical 13
Exodus 13
somebody 13
whopping 13
Finch 13
fared 13
chronic 13
rata 13
three-member 13
Vikramarka 13
Welcome 13
substance 13
dharna 13
Send 13
topics 13
diya 13
premiere 13
elect 13
Pilate 13
carrot 13
locate 13
maize 13
Kaul 13
brutally 13
rah@@ 13
settlement 13
delays 13
foun@@ 13
double-@@ 13
settle 13
mysterious 13
asu@@ 13
Vaikunthapurramloo 13
en-@@ 13
Us@@ 13
gery 13
Rachakonda 13
hop@@ 13
livestock 13
rah 13
Giving 13
goodness 13
-ons 13
Anniversary 13
brutal 13
suspecting 13
scary 13
igent 13
Traders 13
ayam 13
Centers 13
knees 13
tes 13
Sushanth 13
avatar 13
coo@@ 13
Rijiju 13
EPFO 13
emperor 13
Chikk@@ 13
affidavit 13
creatures 13
deeds 13
indul@@ 13
excessive 13
elsewhere 13
Mothers 13
accepts 13
iff 13
1988 13
Sec@@ 13
fire@@ 13
ovo 13
agitated 13
apple 13
define 13
logo 13
attracts 13
bon 13
obl@@ 13
Anim@@ 13
landslide 13
Maxwell 13
improvements 13
erance 13
Koh@@ 13
sacked 13
iji 13
magic 13
Len@@ 13
convenience 13
hardship 13
brethren 13
tonight 13
technological 13
favour@@ 13
Magistrate 13
Renuka 13
candidature 13
igate 13
Ane 13
Nenu 13
cloves 13
Murli 13
entreprene@@ 13
AY 13
Surendra 13
cruise 13
self@@ 13
viruses 13
114 13
cinematographer 13
persu@@ 13
downpour 13
rence 13
Travancore 13
rapes 13
briefing 13
description 13
sings 13
Lalit 13
roll@@ 13
petroleum 13
overturned 13
understand@@ 13
formula 13
calculated 13
--@@ 13
yala 13
innocent 13
Hot@@ 13
lon@@ 13
VR 13
Konk@@ 13
conducts 13
gol@@ 13
advisor 13
Sree 13
develops 13
delivers 13
GVL 13
glac@@ 13
Grad@@ 13
Dube 13
3,9@@ 13
incorrect 13
Speed 13
mom 13
Accordingly 13
Taiwan 13
alas 13
iciency 13
Anup 13
bond@@ 13
Medicine 13
finest 13
Anything 13
aided 13
incorporated 13
masses 13
ulty 13
cleanliness 13
school@@ 13
Gauri 13
Ambati 13
Enable 13
syst@@ 13
Lee 13
ui 13
touted 13
MU@@ 13
ounc@@ 13
smiles 13
adjustable 13
way@@ 13
Matinee 13
spake 13
hip 13
pt 13
Tears 13
Mar 13
suffers 13
Manch@@ 13
Just@@ 13
retaliated 13
rics 13
arises 13
junction 13
NP@@ 13
wisely 13
opping 13
install@@ 13
Tok@@ 13
afflicted 13
kha@@ 13
FCs 13
HRD 13
Impact 13
adamant 13
privat@@ 13
allow@@ 13
nutritious 13
Etela 13
Vidyasagar 13
affection 13
hvi 13
condit@@ 13
ocation 13
Agn@@ 13
ustr@@ 13
Alok 13
ocratic 13
Wil@@ 13
inate 13
attackers 13
apudi 13
narrow 13
alpur 13
after@@ 13
-related 13
arded 13
Priv@@ 13
Flight 13
arbit@@ 13
Eating 13
recommend 13
poles 13
arriving 13
Low 13
Bezos 13
interrupted 13
motor@@ 13
Hun@@ 13
Sid@@ 13
Ker@@ 13
intervene 13
ferences 13
fellow@@ 13
lear@@ 13
closure 13
recall 13
refrigerator 13
divis@@ 13
now@@ 13
ex 13
irrit@@ 13
repo 13
isms 13
ket 13
wet 13
Malavika 13
box@@ 13
adha 13
Screen@@ 13
Preparations 13
south@@ 13
Cong 13
judgments 13
Nall@@ 13
Cond@@ 13
dimensions 13
say@@ 13
Audiences 13
admon@@ 13
basketball 13
contacted 13
Til@@ 13
6GB 13
ordination 13
drops 13
Shaheen 13
ABS 13
Coordin@@ 13
feasible 13
neighbor 13
Commercial 13
Rahim 13
Kulkarni 13
Write 13
atters 13
Gram@@ 13
34@@ 13
Weather 13
loads 13
fruitful 13
Bachel@@ 13
verge 13
Buggana 13
Rajendranath 13
feeding 13
Jayas@@ 13
felicitated 13
power@@ 13
violations 13
JMM 13
rams 13
FP 13
algorithm 13
thrust 13
Eatala 13
Tirunelveli 13
trending 13
oration 13
osa 13
blocks 13
numb@@ 13
ominations 13
ower 13
Fall 13
declares 13
controlling 13
Letter 13
astro@@ 13
attempting 13
transform 13
imprisoned 13
gorgeous 13
Rest 13
Nithya 13
donations 13
quire 13
Tibet 13
Janm@@ 13
Sus@@ 13
ilitation 13
yst@@ 13
asy 13
distressed 13
151 13
avat@@ 13
chi@@ 13
Radio 13
iations 13
grey 13
courageous 13
tablets 13
character@@ 13
missiles 13
ete 13
Duke 13
BR 13
Untold 13
gushing 13
rubb@@ 13
Kailash 13
strang@@ 13
lamp 13
endor@@ 13
eased 13
repe@@ 13
Ravishankar 13
erup@@ 13
bomb@@ 13
Madhukar 13
Madhavan 13
oody 13
tt@@ 13
parall@@ 13
Ze@@ 13
Signs 13
ekar 13
lending 13
Activ@@ 13
Recovered 13
550 13
US-@@ 13
Kap@@ 13
pper 13
collecting 13
Rajasekhar 13
Las@@ 13
yana 13
diagnosed 13
Orders 13
traits 13
Vedic 13
allege 13
Football 13
revie@@ 13
strategies 13
ancest@@ 13
Anupam 13
Kher 13
seal 13
Custom@@ 13
mo 13
spin 13
locally 13
anticipatory 13
illustrations 13
Challenge 13
de-@@ 13
incurred 13
ing-@@ 13
pitch 13
ed. 13
Bhim@@ 13
cheaper 13
arity 13
shit 13
coin 13
offs 13
maybe 13
pers 13
Junction 13
Tresa 13
auts 13
Viv@@ 13
airbags 13
sequel 13
Chapter 13
miss@@ 13
tesy 13
inviting 13
reck@@ 13
Bangl@@ 13
Adhir 13
interviews 13
pillar 13
Camer@@ 13
rels 13
oa 13
blend 13
distinc@@ 13
optim@@ 13
concrete 13
evolved 13
Revealed 13
steady 13
Aligarh 13
Saraswati 13
doubled 13
1971 13
manship 13
Vijayashanti 13
Pollution 13
joke 13
gam 13
walks 13
Premium 13
Manj@@ 13
unbeaten 13
resort 13
iful 13
igration 13
inguished 13
Narsim@@ 13
AG@@ 13
belly 13
Switzerland 13
characteristic 13
consol@@ 13
Kajol 13
travels 13
850 13
BB@@ 13
Maharaj 13
CMs 13
Mahajan 13
Regular 13
agitating 13
enthusiastic 13
home@@ 13
environ@@ 13
scrap 13
Radhika 13
Sarathkumar 13
onomy 13
accepting 13
Increase 13
forgiveness 13
iam 13
pics 13
indi@@ 13
gar 13
failing 13
Associ@@ 13
barric@@ 13
Nirmal 13
Scale 13
silk 13
Madhusud@@ 13
gs 13
lac@@ 13
y.@@ 13
uality 13
damaging 13
care@@ 13
flav@@ 13
eight@@ 13
Pregnant 13
deficiency 13
saves 13
minute 13
attr@@ 13
cows 13
Pocharam 13
of-the-@@ 13
harder 13
fears 13
berries 13
Pam@@ 13
pas@@ 13
ifier 13
Journal 13
11.@@ 13
Sajj@@ 13
tox@@ 13
Maulana 13
reception 13
vice-@@ 13
Balaji 13
Bhat@@ 13
aon 13
Krishnam@@ 13
Injured 13
Scr@@ 13
Tham@@ 13
aq 13
southeast 13
potable 13
foul 13
Saw@@ 13
Ish@@ 13
Pankaj 13
selfish 13
ambition 13
Rupee 13
Sahu 13
Rab@@ 13
loom 13
Shakib 13
Sarkar 13
GN@@ 13
Chandras@@ 13
Gandhinagar 13
ISIS 13
portfolio 13
Cine 13
ic-@@ 13
ulus 13
eums 13
Ec@@ 13
apprehended 13
Serb@@ 13
Larg@@ 13
com 13
Move 13
pursu@@ 13
preet 13
pit 13
113 13
sticks 13
rever@@ 13
Pic@@ 13
NPR 13
Sonal 13
Dhabi 13
ession 13
reside 13
Speak 13
Zafar 13
Radhakrishnan 13
USB 13
vows 13
meanwhile 13
inging 13
swearing-in 13
Ext@@ 13
filling 13
Tejas 13
Batting 13
boosts 13
saffron 13
pro 13
tures 13
Hector 13
validity 13
Konda 13
Cinemas 13
que@@ 13
Sange@@ 13
fierce 13
foc@@ 13
brakes 13
Richard 13
Boil 13
astly 13
juven@@ 13
icular 13
nov@@ 13
Ce@@ 13
ieve 13
Dhananj@@ 13
enced 13
believable 13
Fishermen 13
increasingly 13
iel 13
Amy 13
Economics 13
goddess 13
Honble 13
perpetrators 13
remainder 13
shattered 13
acids 13
133 13
athers 13
adultery 13
publication 13
chamber 13
affil@@ 13
dismisses 13
health@@ 13
Naval 13
DP 13
Until 13
texts 13
deserted 13
inform 13
adoption 13
Tourists 13
frontline 13
six-speed 13
oni 13
Cold 13
myth@@ 13
structural 13
unciation 13
Andrew 13
Hay@@ 13
inflows 13
grossed 13
Unit 13
trekking 13
expressing 13
expedited 13
Grand@@ 13
bypoll 13
Expl@@ 13
Brothers 13
ripe 13
Rajeshwar 13
aggression 13
ardi@@ 13
Hell 13
Beth@@ 13
fervour 13
ria 13
responsive 13
enary 13
onward 13
Radhe 13
tren@@ 13
Mahbubnagar 13
Vilas 13
gall@@ 13
Procedure 13
fatal 13
A.@@ 13
Truth 13
minent 13
must@@ 13
companion 13
Pandit 13
porting 13
Portugal 13
Wis@@ 13
Ponnala 13
lu@@ 13
fractured 13
artificial 13
NASA 13
persecuted 13
Da@@ 13
Systems 13
ib 13
eria 13
tag@@ 13
asset 13
smallest 13
plug@@ 13
18,000 13
GNOME 13
modified 13
Austri@@ 13
Karun@@ 13
Nal@@ 13
outskirts 13
3D 13
waterlogged 13
consensus 13
ires 13
anthem 13
cryp@@ 13
categor@@ 13
waited 13
mobil@@ 13
textile 13
Retur@@ 13
stunning 13
hous@@ 13
ald 13
1960 13
bio@@ 13
andal 13
adev 13
Jyo@@ 13
ument 13
aped 13
EMI 13
TSRTC 13
ord 13
lauded 13
Ok@@ 13
kal@@ 13
Reduces 13
ancing 13
sympath@@ 13
disappeared 13
Short 13
HA@@ 13
Access 13
sli@@ 13
11-@@ 13
gri@@ 13
Srik@@ 13
Bagh@@ 13
seas@@ 13
illai 13
aston@@ 13
osh@@ 13
youll 13
outr@@ 13
pic@@ 13
bearers 13
landslides 13
Helmed 13
Jong 13
Telecom 13
ceremon@@ 13
networking 13
prone 13
chang@@ 13
hid 13
Mumb@@ 13
node 13
icial 13
crossing 13
virtually 13
Amr@@ 13
uta 13
recipient 13
124 13
Gent@@ 13
awl 13
Jos@@ 13
neighbour 13
warns 13
Skill 13
Fa@@ 13
trap 13
bleak 13
Parcel 13
old@@ 13
sians 12
Bow@@ 12
worshipped 12
demol@@ 12
Ayushmann 12
taxpayers 12
Fortuner 12
Gha@@ 12
frustrated 12
Funds 12
Prasanna 12
demons 12
help@@ 12
info 12
crackdown 12
Gabbar 12
Dz@@ 12
trav@@ 12
repairs 12
eminent 12
Kazhagam 12
shoes 12
zens 12
werent 12
Know@@ 12
translate 12
Guarantee 12
atter 12
Apache 12
Religion 12
AM@@ 12
e-up 12
ushrooms 12
stun@@ 12
ural 12
PD 12
Bhatti 12
PE@@ 12
yearly 12
subsidiary 12
perform@@ 12
Paytm 12
orticulture 12
Charmme 12
ifted 12
airing 12
Present 12
churches 12
voluntary 12
Rajan 12
Bai@@ 12
jal 12
Families 12
Bhand@@ 12
slaves 12
Aurangabad 12
apur@@ 12
sugar@@ 12
blos@@ 12
blind 12
SK 12
Plant 12
examining 12
Bomb 12
stint 12
Mahal 12
Celerio 12
ific@@ 12
oti 12
autobiography 12
midcap 12
reign@@ 12
absent 12
legisl@@ 12
Manufacturing 12
emic 12
contentious 12
criticise 12
Israel@@ 12
inting 12
ressal 12
gaz@@ 12
elevation 12
avir@@ 12
oted 12
'd 12
entities 12
snapped 12
Dig@@ 12
crashes 12
masters 12
-on 12
quarterfinals 12
existed 12
Goel 12
eup 12
snatched 12
nonsense 12
famine 12
standstill 12
hin@@ 12
petitioner 12
dib@@ 12
itate 12
endeav@@ 12
guess 12
acclaimed 12
descended 12
eping 12
oppos@@ 12
declaration 12
Competition 12
troubled 12
Asif 12
Ancient 12
athlete 12
Regarding 12
Shivam 12
get@@ 12
Nigeria 12
ort 12
11th 12
Greeks 12
rammed 12
puja 12
KE 12
cad@@ 12
metre 12
Plans 12
rememb@@ 12
BJP-ruled 12
Hans@@ 12
Wrest@@ 12
PPEs 12
inclusive 12
Voters 12
rests 12
Nehem@@ 12
iahs 12
imperfect 12
planted 12
separation 12
Fast 12
Pushpa 12
reconsider 12
armies 12
Pall@@ 12
Surgery 12
4.5 12
fried 12
descendants 12
Kali 12
warnings 12
ilities 12
responses 12
carrots 12
successes 12
adman 12
Cyclone 12
Karachi 12
UL@@ 12
Tagore 12
199 12
hist@@ 12
Race 12
fer 12
Neeraj 12
aughter 12
Retail 12
magnetic 12
Jak@@ 12
Sharing 12
mud 12
Pregnancy 12
refuse 12
lef@@ 12
rumoured 12
link@@ 12
ull@@ 12
urers 12
April-@@ 12
0.3 12
Rajat 12
entment 12
chand 12
repay 12
oblig@@ 12
Sood 12
master@@ 12
neighbors 12
classic 12
feud 12
Py@@ 12
Bandi 12
odd 12
hurry 12
subsidi@@ 12
slaughter 12
ionable 12
Entire 12
Rambabu 12
1.7 12
sig@@ 12
ki@@ 12
satis@@ 12
technolog@@ 12
impression 12
gang-@@ 12
uel 12
pools 12
Controller 12
run-@@ 12
sealed 12
Discus@@ 12
sauce 12
repair 12
contem@@ 12
unconstitutional 12
asha@@ 12
plum@@ 12
sends 12
eyed 12
certified 12
Prof 12
LK 12
NTRs 12
1,2@@ 12
Agerwal 12
Nirvana 12
transfers 12
emot@@ 12
Gulf 12
They@@ 12
Rub@@ 12
etc@@ 12
uminium 12
refr@@ 12
correctly 12
ammed 12
chocolate 12
isted 12
avan@@ 12
Ambassador 12
21@@ 12
genetic 12
stra 12
Chemistry 12
entive 12
quarter@@ 12
umb 12
Taj@@ 12
123 12
Oscar 12
2,3@@ 12
1978 12
Shor@@ 12
profess@@ 12
nerv@@ 12
Garden 12
packages 12
spite 12
Slov@@ 12
unfair 12
sentiment 12
ault 12
Nagarkurnool 12
Siddipet 12
bun@@ 12
Sawant 12
Produc@@ 12
fodder 12
pressed 12
Machilipatnam 12
PPF 12
northeast 12
abil@@ 12
agon@@ 12
megastar 12
criteria 12
financially 12
cred@@ 12
Ank@@ 12
Daggubati 12
mu 12
edical 12
Chavan 12
grants 12
rulership 12
elephant 12
RX@@ 12
Plat@@ 12
65@@ 12
congratul@@ 12
elight 12
rings 12
present@@ 12
frustr@@ 12
wider 12
semi-@@ 12
P-BJP 12
all-time 12
env@@ 12
ri-@@ 12
enture 12
sporty 12
Meenakshi 12
Secret 12
TR@@ 12
rect 12
Naw@@ 12
financed 12
Srivastava 12
Source 12
somewhat 12
25.@@ 12
tracked 12
Rad@@ 12
Devgan 12
jack@@ 12
Buy 12
surveys 12
icism 12
champions 12
Rabada 12
halla 12
tric 12
reminded 12
ographer 12
stipulated 12
Mama 12
demolition 12
ukuri 12
state-run 12
SUs 12
otism 12
Ris@@ 12
Cooperative 12
operative 12
X-@@ 12
30-@@ 12
repentance 12
Kulbhushan 12
worn 12
Nadus 12
strengthens 12
roller 12
painting 12
Kamareddy 12
palli 12
inval@@ 12
fail@@ 12
pricing 12
Arrangements 12
bureauc@@ 12
Micro 12
commercially 12
ycle 12
immigr@@ 12
Amid 12
legacy 12
April@@ 12
OBC 12
irregularities 12
adas 12
4GB 12
uniform 12
Disease 12
Liqu@@ 12
schooling 12
Boy@@ 12
Ciaz 12
moisture 12
oj@@ 12
crack 12
casts 12
Atl@@ 12
him. 12
knee 12
epic 12
boiled 12
execut@@ 12
MCG 12
vib@@ 12
alarming 12
24.@@ 12
Chicago 12
Ayushman 12
co-produced 12
Oliv@@ 12
Rising 12
Theatre 12
Naravane 12
establishing 12
Frank@@ 12
igns 12
intellect@@ 12
akond@@ 12
Amma 12
fights 12
orary 12
Quit 12
astron@@ 12
101 12
RD 12
Keeping 12
Now@@ 12
Shaikh 12
zi 12
Gum@@ 12
strengths 12
ful@@ 12
tail@@ 12
HU@@ 12
one-day 12
distingu@@ 12
arance 12
untimely 12
semi-final 12
akers 12
Patt@@ 12
flooding 12
assuming 12
devastating 12
Separ@@ 12
Histor@@ 12
clarification 12
females 12
novels 12
Religious 12
HPV 12
CNG 12
restrict 12
numbered 12
Kuk@@ 12
Tim 12
Infl@@ 12
threaten 12
ruins 12
Scott 12
essions 12
oriented 12
bases 12
IO@@ 12
Schemes 12
waterfall 12
isco 12
Inside 12
accommodate 12
permissions 12
hil 12
Sisodia 12
honesty 12
chaos 12
strangers 12
opponents 12
lever@@ 12
Options 12
N-@@ 12
antibacterial 12
Micro@@ 12
slot 12
extending 12
Faith 12
Flights 12
hect@@ 12
hacked 12
KA 12
Venkata 12
disqualified 12
rede@@ 12
Sens@@ 12
Sarja 12
Brow@@ 12
kill@@ 12
atar 12
zar 12
Tea 12
resistance 12
certification 12
decorated 12
itter@@ 12
toilets 12
LO@@ 12
profound 12
ATM 12
lou@@ 12
EV@@ 12
se-@@ 12
-time 12
nursing 12
lacking 12
Stand@@ 12
tenders 12
Ghee 12
fitting 12
tum@@ 12
142 12
kick 12
quakes 12
heal@@ 12
swallow 12
athon 12
eu 12
JAC 12
ister 12
fleet 12
lers 12
Congress@@ 12
oper@@ 12
udh@@ 12
arius 12
traff@@ 12
C.@@ 12
sour@@ 12
Bharati 12
Rohini 12
End 12
Huawei 12
saute 12
tariffs 12
Lords 12
uter 12
04 12
Feature 12
atop 12
beans 12
leth 12
Cass@@ 12
Jayant 12
plo@@ 12
Crick@@ 12
Karun 12
medication 12
Fact@@ 12
Charg@@ 12
Wales 12
Regulations 12
much-@@ 12
vid@@ 12
Kend@@ 12
cement 12
gov@@ 12
inis 12
traveled 12
chart 12
Jaff@@ 12
inclusion 12
turbine 12
Congresss 12
Surjewala 12
arus 12
Phone 12
Hardeep 12
Presidential 12
indefinite 12
distinguish 12
umps 12
arc@@ 12
Mank@@ 12
budge 12
225 12
hary 12
SE 12
medications 12
Window 12
ime 12
User 12
74@@ 12
Consum@@ 12
Jonathan 12
Required 12
pling 12
outlets 12
ahl@@ 12
Satellite 12
Mittal 12
Bahrain 12
Pages 12
NRE@@ 12
137 12
iable 12
Tandon 12
Projects 12
bet 12
Long@@ 12
Falls 12
aksh@@ 12
midd@@ 12
thi@@ 12
Sto@@ 12
conscious 12
amar@@ 12
Mong@@ 12
2,4@@ 12
uels 12
Abhinandan 12
cheese 12
wounds 12
1966 12
Non@@ 12
Prashanth 12
tical 12
Sut@@ 12
polic@@ 12
Prithviraj 12
exalted 12
hygi@@ 12
Engine 12
Specifications 12
aned 12
Fruit 12
widow 12
TCs 12
Rajkot 12
assoc@@ 12
merg@@ 12
mortuary 12
Nur@@ 12
grievances 12
TV@@ 12
GH@@ 12
Bhoj@@ 12
Dubey 12
motions 12
14,@@ 12
kms 12
miserably 12
hospit@@ 12
packed 12
Congress-NCP 12
North-@@ 12
Afric@@ 12
Tamil@@ 12
conditional 12
you@@ 12
Maintain 12
compens@@ 12
Huzurnagar 12
Arms 12
turbo 12
qui 12
Monsoon 12
presidents 12
chil@@ 12
will@@ 12
Camera 12
progressed 12
cumulative 12
synag@@ 12
awada 12
bifurc@@ 12
jap@@ 12
Expected 12
expectation 12
disclose 12
atically 12
ener 12
Altogether 12
Stri@@ 12
Kargil 12
ener@@ 12
comment@@ 12
Version 12
suits 12
eel 12
Pere@@ 12
cardiac 12
engers 12
Susp@@ 12
entertain 12
Sreed@@ 12
narrated 12
sey 12
ray 12
beneficiary 12
adhi 12
Ken@@ 12
Prob@@ 12
rebu@@ 12
tanked 12
harassing 12
conferences 12
clinched 12
athemat@@ 12
academy 12
Wife 12
corrup@@ 12
nearing 12
commendable 12
marital 12
contribut@@ 12
Sathya 12
mour@@ 12
umping 12
Garg 12
ploy 12
fielding 12
gro@@ 12
movable 12
dings 12
BS-@@ 12
congress 12
asters 12
cinem@@ 12
indicators 12
goo@@ 12
designs 12
legit@@ 12
artisans 12
obstacles 12
gotten 12
laimed 12
mented 12
conquered 12
rible 12
aly@@ 12
Revolution 12
KR 12
Friend@@ 12
signature 12
tog@@ 12
ype 12
quiring 12
opp@@ 12
Cape 12
angal 12
commencement 12
legends 12
PP 12
Chowdary 12
Experi@@ 12
Madhav@@ 12
Yuv@@ 12
brid@@ 12
quantities 12
add-on 12
Researchers 12
vin@@ 12
interrogating 12
survival 12
gear 12
abha@@ 12
Kart@@ 12
CH 12
Above 12
congest@@ 12
UV@@ 12
Patekar 12
Tickets 12
shepherds 12
Shinde 12
instrumental 12
contemporary 12
fores@@ 12
Robin 12
tariff 12
design@@ 12
tries 12
zo 12
business@@ 12
digest@@ 12
cloth 12
Darbar 12
awa@@ 12
shipping 12
fearing 12
weren 12
Jap@@ 12
aqu@@ 12
sadness 12
Audio 12
Ml@@ 12
Jon@@ 12
readers 12
Yamuna 12
Bandla 12
Lifeline 12
Udan 12
Unemployment 12
oked 12
135 12
Palace 12
Gos@@ 12
directives 12
Pakistan-@@ 12
accommodation 12
inger@@ 12
inher@@ 12
Precaut@@ 12
Cool 12
revenge 12
Mechan@@ 12
Nirbhar 12
idabad 12
custom 12
Coffee 12
aditya 12
informing 12
Fathers 12
confirm 12
Got 12
entrepreneur 12
expense 12
kidnapped 12
travelled 12
RX 12
Doval 12
refuted 12
diver@@ 12
aki 12
behave 12
-old 12
aprasad 12
Jair@@ 12
ucose 12
setback 12
advisory 12
Nashik 12
Joh@@ 12
processed 12
hugely 12
1977 12
depend@@ 12
Customs 12
turmoil 12
Carlos 12
Shel@@ 12
volcan@@ 12
enmity 12
Manju 12
2-1 12
Tah@@ 12
Dear 12
-long 12
evolving 12
ped@@ 12
ellow 12
Deposit 12
best-selling 12
groundwater 12
uka 12
operator 12
signal 12
discre@@ 12
east@@ 12
Hab@@ 12
culprit 12
aris@@ 12
confl@@ 12
Linux 12
Break@@ 12
05.@@ 12
141 12
exempt 12
t. 12
prompt 12
alon@@ 12
condem@@ 12
Udaipur 12
withdraw@@ 12
plates 12
WC 12
Jup@@ 12
Tigor 12
Dos@@ 12
Colomb@@ 12
circum@@ 12
lifting 12
Gari@@ 12
PN@@ 12
CO 12
offic@@ 12
rao 12
hire 12
denomination 12
cubits 12
slight 12
immensely 12
Install 12
coinc@@ 12
narrative 12
dioxide 12
Self-@@ 12
fertilizers 12
repeal 12
alties 12
captaincy 12
Puvvada 12
uss@@ 12
Born 12
Labor@@ 12
BJD 12
finalized 12
unconscious 12
Shall 12
Dulquer 12
expired 12
rag@@ 12
wrestler 12
side-@@ 12
oor@@ 12
fabric 12
Rating 12
ite@@ 12
ko 12
adjac@@ 12
cylinders 12
tresp@@ 12
nu 12
Ertiga 12
Yas@@ 12
securing 12
Metallic 12
Sections 11
376 11
Exams 11
ats@@ 11
Generation 11
Archit@@ 11
Murugan 11
ographical 11
climb 11
Towards 11
ayam@@ 11
cue 11
Hold 11
Mit@@ 11
event@@ 11
Transp@@ 11
spaces 11
breach 11
Israeli 11
bags 11
Serena 11
Panj@@ 11
usual 11
promotes 11
Tamilisai 11
TTV 11
apparent 11
Episode 11
eric 11
enlight@@ 11
.The 11
Ephraim 11
13th 11
flu 11
TT@@ 11
programming 11
label 11
best@@ 11
contents 11
17th 11
ults 11
advertising 11
desirable 11
Motorcycles 11
Rajend@@ 11
disastrous 11
arkar 11
Images 11
budgeted 11
Vyjayanthi 11
SG 11
account@@ 11
Veda 11
48@@ 11
dub@@ 11
Pathankot 11
trucks 11
pumps 11
Restr@@ 11
Lebanon 11
Shocking 11
Index 11
vic@@ 11
earths 11
Practice 11
Hair 11
lodge 11
asty 11
Jamm@@ 11
dealings 11
tro 11
Chev@@ 11
IB 11
cooper@@ 11
cult@@ 11
revered 11
healing 11
doubles 11
physi@@ 11
jag@@ 11
132 11
Eph@@ 11
esus 11
childrens 11
maternal 11
migrated 11
procession 11
omm@@ 11
mediate 11
unrest 11
Didn 11
1975 11
Shimla 11
sear@@ 11
tolerance 11
Motion 11
government-run 11
shelter 11
Chec@@ 11
Differen@@ 11
oad 11
Sarbananda 11
Ease 11
Metal 11
reigned 11
cared 11
Reading 11
awat@@ 11
snowfall 11
last@@ 11
Nile 11
Keemo 11
Ol@@ 11
pest@@ 11
electronics 11
Physics 11
Whoever 11
vert@@ 11
pushing 11
Khal@@ 11
ballot 11
Brahman@@ 11
ularly 11
jib@@ 11
ensation 11
Everyones 11
prefer 11
upgraded 11
blu@@ 11
vij@@ 11
Samaria 11
trait 11
arams 11
preferred 11
observes 11
Dead 11
Deccan 11
paras@@ 11
imedia 11
erity 11
Dol@@ 11
stumps 11
winters 11
Beijing 11
drunk 11
importantly 11
omination 11
hik 11
discover 11
experim@@ 11
tribut@@ 11
overflowing 11
fewer 11
references 11
umari 11
focus@@ 11
philosophy 11
meantime 11
Divisional 11
imperative 11
Harass@@ 11
eka 11
disg@@ 11
IndiGo 11
Vidhan 11
under-@@ 11
wheelers 11
Kong@@ 11
ingham 11
devot@@ 11
tics 11
Karim@@ 11
19th 11
Enter@@ 11
Targ@@ 11
12,000 11
Middle 11
Sod@@ 11
Grievances 11
deployment 11
wrongdoing 11
18.@@ 11
consisted 11
cros@@ 11
ony@@ 11
phan 11
pot 11
fle@@ 11
Vijayas@@ 11
Garlic 11
sliced 11
pi 11
rave 11
critic 11
Wherever 11
resid@@ 11
Chitra 11
136 11
centered 11
Begum 11
etu 11
flew 11
slog@@ 11
Khaleel 11
rand@@ 11
Rajinikanths 11
Maurit@@ 11
fool 11
7,500 11
counsel@@ 11
tissue 11
havan 11
Actor-@@ 11
Prote@@ 11
classified 11
excess 11
ographic 11
transform@@ 11
Nandini 11
axis 11
Event 11
crush 11
Diffic@@ 11
awi 11
blem@@ 11
adoles@@ 11
yant 11
Lankesh 11
Elisha 11
FAT@@ 11
1969 11
Babus 11
transp@@ 11
rey 11
Ki 11
Tai@@ 11
log 11
trim@@ 11
agers 11
Tok 11
Phogat 11
zing 11
Tendulkars 11
declaring 11
follow@@ 11
tie@@ 11
measuring 11
icides 11
Translation 11
refreshing 11
krishna 11
kilo@@ 11
85@@ 11
renew@@ 11
particle 11
Indra 11
Nars@@ 11
Raghur@@ 11
Krishnam 11
simultaneous 11
assass@@ 11
misleading 11
Bhan@@ 11
localities 11
tightened 11
lectures 11
killings 11
Helps 11
oul 11
constitutes 11
Roht@@ 11
Pass 11
fruitage 11
Digvijay 11
ral 11
Nidhhi 11
compat@@ 11
Sheena 11
Demand 11
wat 11
HF@@ 11
dries 11
Verna 11
shirt 11
Pandemic 11
abhadra 11
Bellamkonda 11
Colonel 11
Euro@@ 11
predict 11
dozen 11
ponder 11
catches 11
188 11
Stress 11
13-megapixel 11
Sanjiv 11
amurthy 11
Benef@@ 11
urer 11
Masood 11
merc@@ 11
interact 11
Abe 11
execution 11
ayatra 11
GO 11
121 11
supervision 11
hypoc@@ 11
wasted 11
subcontinent 11
Prepare 11
etr@@ 11
booths 11
Parade 11
picnic 11
Yadadri 11
ugu 11
Zechar@@ 11
creants 11
pitted 11
Surely 11
mud@@ 11
saddened 11
diagnose 11
voiced 11
just@@ 11
Bhattacharya 11
angi 11
shield 11
Reas@@ 11
Textiles 11
BL 11
dimensional 11
adan 11
permanently 11
neighbour@@ 11
V-@@ 11
Blessed 11
Vadod@@ 11
Bhimavaram 11
placing 11
Suryadevara 11
Yam@@ 11
trem@@ 11
Dutta 11
juvenile 11
solvency 11
ity-@@ 11
BD 11
Build@@ 11
Streng@@ 11
wireless 11
cubes 11
enings 11
Siraj 11
dismiss@@ 11
ado 11
Ross 11
narr@@ 11
appropri@@ 11
meaningful 11
hugged 11
condolence 11
facto 11
carvings 11
lipse 11
Corps 11
doctr@@ 11
JE@@ 11
spy 11
evaluate 11
vandalised 11
horse@@ 11
uggling 11
Kagiso 11
requesting 11
approv@@ 11
Pharma 11
Netanyahu 11
Recent 11
adversely 11
conspir@@ 11
Protestant 11
should@@ 11
ridiculous 11
asan 11
normal@@ 11
Reacting 11
inducted 11
Chanda 11
IMS 11
Dhadak 11
Finland 11
inaugur@@ 11
Enterprises 11
inspection 11
urred 11
acknowledge 11
therap@@ 11
Manu 11
Spir@@ 11
itual 11
skilled 11
IFS 11
thirty 11
atia 11
shameful 11
fant@@ 11
Dwivedi 11
knowled@@ 11
rations 11
licence 11
icken 11
All-@@ 11
Sport@@ 11
smen 11
far@@ 11
sement 11
caring 11
Subr@@ 11
borrow 11
Pressure 11
Rah@@ 11
summers 11
assembled 11
horrif@@ 11
ustri@@ 11
ND 11
apprec@@ 11
handicr@@ 11
hated 11
cats 11
rats 11
adjudged 11
dicate 11
assures 11
spat 11
endangered 11
superior 11
ords 11
sty 11
fiel@@ 11
virtue 11
endless 11
backbone 11
avel 11
scattered 11
Studies 11
Hedge 11
pomegran@@ 11
tors 11
24,@@ 11
establishments 11
repaired 11
Gurgaon 11
absorb 11
Simon 11
modest 11
differ 11
wire 11
ainers 11
assail@@ 11
ca 11
lap 11
restart 11
Form 11
Powerful 11
realty 11
ogues 11
Gem@@ 11
Chaturvedi 11
RR@@ 11
Hopefully 11
wishing 11
Pray@@ 11
woes 11
aster 11
tos 11
poison 11
avia 11
ellow@@ 11
sodium 11
Priyadar@@ 11
RTI 11
izz@@ 11
ac 11
lineup 11
16.@@ 11
attends 11
authored 11
leakage 11
Upp@@ 11
desper@@ 11
arak@@ 11
pacified 11
foolish 11
neglected 11
Safari 11
atrocities 11
practiced 11
spacecr@@ 11
speculations 11
eme 11
intimate 11
Vihari 11
Box 11
cing 11
variation 11
faithfulness 11
sorts 11
odar 11
Studio 11
Question 11
wind@@ 11
mob 11
Kumars 11
Santh@@ 11
Regulatory 11
Manmadhudu 11
Syndrome 11
Taluk 11
prospect 11
adeshi 11
NGOs 11
illary 11
itched 11
Maharash@@ 11
unabated 11
enacted 11
Harvard 11
Salt 11
Campaign 11
esar 11
Alex 11
zes 11
nadu 11
joints 11
Pay@@ 11
wil@@ 11
FM 11
erstwhile 11
irc@@ 11
enter@@ 11
boats 11
Ball@@ 11
Sindh 11
favorite 11
Healthcare 11
archit@@ 11
broader 11
1974 11
harassed 11
boasts 11
lid 11
San 11
7.4 11
fatigue 11
Sarabhai 11
idation 11
depl@@ 11
literary 11
ny 11
ster@@ 11
exploration 11
integr@@ 11
Dream 11
imposing 11
S-Cross 11
mix@@ 11
wors@@ 11
announc@@ 11
urious 11
Firo@@ 11
oria 11
dwel@@ 11
Mozilla 11
teamm@@ 11
girl@@ 11
ranath 11
ablaze 11
ratt@@ 11
atnam 11
thrice 11
Vijayamma 11
vedic 11
publicly 11
unlock 11
Austral@@ 11
feedback 11
by-polls 11
Rubens 11
Whats@@ 11
outlook 11
organisms 11
grow@@ 11
Galwan 11
Wish 11
Veera 11
Dixit 11
bud@@ 11
Traditional 11
unlike 11
ixed 11
icemen 11
convict 11
mislead 11
54@@ 11
Mohali 11
Sheila 11
Dikshit 11
Don@@ 11
alc@@ 11
lax@@ 11
anes 11
KING 11
audi@@ 11
considers 11
Voter 11
uing 11
reopened 11
Kid@@ 11
statutes 11
encouragement 11
Marcus 11
Lyon 11
communicate 11
i10 11
Kalam 11
dose 11
quant@@ 11
etheless 11
Ghat 11
relative 11
Beth 11
resurrected 11
Rangan@@ 11
Term 11
eren@@ 11
1,200 11
arrange 11
LE 11
1.3 11
Shashank 11
Lewis 11
2,6@@ 11
apart@@ 11
Tejashwi 11
Tall@@ 11
campa@@ 11
Co-@@ 11
AY@@ 11
chipped 11
Beautiful 11
Apparently 11
miracle 11
fish@@ 11
aiming 11
ideology 11
Vil@@ 11
entally 11
Sn@@ 11
sounded 11
Seems 11
CII 11
males 11
draw@@ 11
Turkish 11
Vizag 11
Files 11
geared 11
entry-level 11
olve 11
raided 11
guda 11
south-@@ 11
jud@@ 11
descent 11
seam@@ 11
Sunanda 11
ateway 11
weird 11
ertain 11
tabs 11
PR@@ 11
apathy 11
lor@@ 11
jah 11
oub@@ 11
seven-@@ 11
Geneva 11
flood-@@ 11
Pharisees 11
talents 11
arrog@@ 11
hable 11
agan 11
el-@@ 11
achalam 11
psychological 11
Patients 11
civil@@ 11
coloured 11
peas 11
Vegesna 11
turned-@@ 11
Key@@ 11
ules 11
Aeronaut@@ 11
Profess@@ 11
assume 11
paragraph 11
exceeding 11
Muralidhar 11
Tahir 11
enh@@ 11
aredness 11
Sign@@ 11
indig@@ 11
2,0@@ 11
Sith@@ 11
apiece 11
hearted 11
Rajyavardhan 11
Kashmiris 11
57@@ 11
smote 11
temper 11
Bopanna 11
repealed 11
Interested 11
reprim@@ 11
consp@@ 11
111 11
edit@@ 11
Baby 11
Perfect 11
Ghat@@ 11
upati 11
concerted 11
invisible 11
proportion 11
hie 11
Technologies 11
Buses 11
melon 11
cross-@@ 11
intensify 11
grid 11
ben 11
Kanna 11
sar 11
126 11
ATMs 11
contam@@ 11
Sathyaraj 11
ger 11
kel 11
Peddi 11
partnerships 11
availed 11
exterior 11
corn@@ 11
ye@@ 11
Few 11
Venkataram@@ 11
Temperatures 11
aith@@ 11
INS 11
phrase 11
Rock@@ 11
BH@@ 11
Valentines 11
five-speed 11
Kang@@ 11
awake 11
relent@@ 11
Referring 11
climax 11
Delhis 11
predict@@ 11
Armies 11
Fs 11
Ernakulam 11
sweeping 11
Hon 11
boxer 11
Nilam 11
targeting 11
aras 11
incomplete 11
chment 11
drow@@ 11
nod 11
Somalia 11
bow@@ 11
peace@@ 11
retali@@ 11
Satt@@ 11
behaving 11
Fif@@ 11
R-V 11
1947 11
Short@@ 11
Angel@@ 11
folded 11
experiments 11
thritis 11
cues 11
endr@@ 11
urt 11
machinery 11
Khus@@ 11
authorised 11
asar@@ 11
Awareness 11
etted 11
wondered 11
Lamb 11
craf@@ 11
dyn@@ 11
obiles 11
waterlogging 11
civilization 11
phar@@ 11
bhai 11
hr 11
Sundeep 11
Raghub@@ 11
basking 11
indefinitely 11
ammon@@ 11
Catering 11
Sex 11
Responding 11
Behav@@ 11
India@@ 11
occurren@@ 11
digit 11
Gall@@ 11
Request 11
UPI 11
fib@@ 11
commander 11
spree 11
snow@@ 11
futures 11
Subbaraj 11
IOC 11
Song 11
expects 11
materialise 11
Noah 11
impacts 11
monetary 11
Kadiyam 11
Plast@@ 11
tablet 11
Yar@@ 11
flatt@@ 11
opponent 11
ild@@ 11
DP@@ 11
onment 11
Leh 11
knoc@@ 11
neighboring 11
scathing 11
4G 11
integration 11
natures 11
esta 11
IU@@ 11
Kabaddi 11
vardhan 11
jer@@ 11
cies 11
tribals 11
Holder 11
Allen 11
Suniel 11
Eyes 11
insist@@ 11
formidable 11
boss 11
Curfew 11
real-time 11
Subramanyam 11
Hot 11
briefly 11
Jazz 11
command@@ 11
trigg@@ 11
Sudha 11
TG 11
Vishwa 11
god@@ 11
epts 11
bold@@ 11
Babyl@@ 11
146 11
protagonist 11
sust@@ 11
Gaur@@ 11
oking 11
matt@@ 11
singers 11
uster 11
Sikri 11
Bs 11
Doesnt 11
orly 11
inspiring 11
episodes 11
motorists 11
ford 11
impe@@ 11
Compass 11
H.@@ 11
five-judge 11
dressed 11
fisheries 11
Srir@@ 11
110@@ 11
mobility 11
Indra@@ 11
1,6@@ 11
Performance 11
dipped 11
Internation@@ 11
drinks 11
agudem 11
warrior 11
necessity 11
aga 11
Jah@@ 11
assy 11
Tower 11
32GB 11
plantation 11
Accountants 11
ros 11
mineral 11
yester@@ 11
Abhiyan 11
years-old 11
4.2 11
1980 11
accessories 11
lime 11
verses 11
90,000 11
apo@@ 11
Un 11
Matt@@ 11
Vote 11
Hands 11
Pas@@ 11
pron@@ 11
Nalini 11
Tomato 11
bes@@ 11
showcasing 11
Israelite 11
ooth 11
zen 11
objections 11
Geeta 11
chemistry 11
meth@@ 11
Cyprus 11
legislator 11
respons@@ 11
Netflix 11
5,7@@ 11
weal@@ 11
Vidyal@@ 11
Thunderbird 11
gloves 11
chap@@ 11
obedience 11
clo@@ 11
insu@@ 11
Gol@@ 11
Him 11
chrom@@ 11
Build 11
butter@@ 11
three-day 11
Chatt@@ 11
ience 11
cardiovascular 11
azar 11
conversion 11
Madan 11
embarrassed 11
ashtra 11
Bapt@@ 11
launching 11
Nursing 11
workforce 11
4000 11
provinces 11
itional 11
jay@@ 11
apa 11
troubles 11
Villagers 11
Film@@ 11
woo@@ 11
ither 11
Combine 11
Doc@@ 11
Suddenly 11
Bharg@@ 11
Masters 11
merit 11
torched 11
proverb 11
Pearl 11
exploring 11
Nebuchadne@@ 11
zzar 11
Gund@@ 11
Pent@@ 11
adjust 11
Shree 11
Colos@@ 10
Navratri 10
hea 10
indications 10
achers 10
iterranean 10
TJS 10
Asha 10
Farhan 10
stead@@ 10
sized 10
marv@@ 10
impending 10
Naq@@ 10
stabil@@ 10
consult@@ 10
iality 10
upur 10
research@@ 10
stery 10
Dravida 10
Munnetra 10
warranty 10
topple 10
FI 10
disposed 10
atonement 10
echn@@ 10
Hear 10
Kumb@@ 10
Kud@@ 10
las 10
streak 10
harvesting 10
civic 10
istr@@ 10
Rhea 10
Dasari 10
Payments 10
computers 10
bey 10
geon 10
ucks 10
fret 10
Ashraf 10
desol@@ 10
gently 10
4,4@@ 10
Soren 10
4,500 10
Soor@@ 10
emotion 10
brandShort@@ 10
IM 10
som 10
Dasara 10
constructing 10
tanks 10
pornography 10
andan 10
hu@@ 10
khi 10
Portuguese 10
feast 10
rejection 10
managers 10
convert 10
Protoc@@ 10
secret@@ 10
Beat 10
sensitivity 10
Chakraborty 10
sible 10
Richardson 10
creativity 10
saint 10
reeling 10
Moving 10
alize 10
celebs 10
Bashan 10
syndrome 10
Wasim 10
Shin@@ 10
Spokes@@ 10
ernal 10
orm@@ 10
Countries 10
JEE 10
thrilling 10
YOU 10
slip 10
shook 10
deceive 10
hang 10
Pop@@ 10
intercourse 10
equals 10
2016-17 10
Mosque 10
legium 10
cruel 10
deprivation 10
igar@@ 10
batter 10
pray@@ 10
tolerated 10
mas 10
invested 10
overs@@ 10
relieve 10
iter@@ 10
replac@@ 10
guaranteed 10
sias 10
omb@@ 10
Ilaiy@@ 10
Kalyans 10
Champ@@ 10
2500 10
departure 10
Micah 10
ashboard 10
arable 10
Cottrell 10
Balakot 10
Sib@@ 10
abducted 10
weighed 10
build@@ 10
Jain@@ 10
DO 10
Madhavi 10
nail 10
postal 10
kilometre 10
Mark@@ 10
blew 10
Jar@@ 10
31st 10
andam 10
Chicken 10
vis 10
Yadav@@ 10
shooter 10
Greetings 10
prob@@ 10
ally-@@ 10
Yamaha 10
320 10
Directors 10
Panc@@ 10
Gen 10
6.5 10
runn@@ 10
ness@@ 10
west@@ 10
Yel@@ 10
unwell 10
Glenn 10
udge 10
Panaji 10
Increasing 10
intol@@ 10
lis 10
undoubtedly 10
sits 10
uproar 10
skir@@ 10
Dynasty 10
allied 10
angu@@ 10
troubling 10
garment 10
2030 10
ricul@@ 10
vanilla 10
exh@@ 10
emphas@@ 10
Sangareddy 10
Maoist 10
Raghuram 10
Jephthah 10
accur@@ 10
Securities 10
jur@@ 10
Legendary 10
ipping 10
atable 10
chit 10
borrowers 10
ild 10
Ayy@@ 10
invest@@ 10
bored 10
specifically 10
intermediate 10
Biswab@@ 10
Flor@@ 10
replies 10
Loss 10
partial 10
Columbia 10
oi 10
devils 10
Parameshwara 10
raj@@ 10
capacities 10
ington 10
Shet@@ 10
Baram@@ 10
ocking 10
step@@ 10
LI@@ 10
IB@@ 10
slice 10
araman 10
caves 10
abandon 10
Niz@@ 10
MGM 10
Sarfaraz 10
THE@@ 10
Sharmila 10
wart 10
transaction 10
revolves 10
drastic 10
bru@@ 10
avenues 10
nia 10
Vinayak 10
Jaguar 10
tica 10
laughs 10
147 10
counter-@@ 10
Vijayendra 10
rea 10
utory 10
Mains 10
arta 10
Bhak@@ 10
childbirth 10
33,@@ 10
Budd@@ 10
sciences 10
twitter 10
Miz@@ 10
rickshaw 10
Morgan 10
pig@@ 10
illion@@ 10
dial 10
insul@@ 10
boxing 10
Sabar@@ 10
Swach@@ 10
Inter-@@ 10
000rpm 10
beasts 10
remost 10
acne 10
Dush@@ 10
VV 10
Gilg@@ 10
Rath@@ 10
barrier 10
cousin 10
Kohli-led 10
pujas 10
by-election 10
UI 10
Creta 10
Diabetes 10
pad@@ 10
contaminated 10
undeserved 10
sco@@ 10
BTech 10
torn 10
3.3 10
depart@@ 10
robbers 10
Modi-@@ 10
donation 10
Upper 10
utilized 10
metals 10
e-mail 10
UPSC 10
negotiations 10
encing 10
credentials 10
Shatr@@ 10
warding 10
Examples 10
7-speed 10
invent@@ 10
Melania 10
ZPTC 10
worshipers 10
jour@@ 10
Colours 10
ranging 10
gin@@ 10
retaliation 10
Shang@@ 10
tallest 10
Megh@@ 10
stan 10
Shia 10
affliction 10
destiny 10
Laun@@ 10
deserve 10
speciality 10
eyard 10
sie@@ 10
of-@@ 10
Chop 10
Kamal@@ 10
apally 10
0.4 10
bod@@ 10
Often 10
bells 10
Sanon 10
oily 10
spicy 10
illustrate 10
leop@@ 10
triangular 10
record@@ 10
Nor 10
faithfully 10
260 10
mandis 10
NAM 10
dient 10
malls 10
anchor 10
Strategic 10
gorge 10
Sankranthi 10
izer 10
Koshyari 10
tremors 10
Poor 10
usu@@ 10
Mathematics 10
ensed 10
math 10
Anti@@ 10
did@@ 10
Cities 10
taxi 10
fus@@ 10
Notably 10
Forbes 10
Bern@@ 10
Smo@@ 10
Mahabubabad 10
Person@@ 10
Rivers 10
duct 10
nesses 10
ike 10
Sravanthi 10
Shivaratri 10
inks 10
commands 10
recipe 10
Vedanta 10
ricist 10
misled 10
bestowed 10
Chil@@ 10
Pick 10
labor@@ 10
otype 10
sample 10
Manchester 10
Mahas@@ 10
anced 10
provoked 10
prem@@ 10
riages 10
bind 10
phenomen@@ 10
2,9@@ 10
deprived 10
Vara 10
umper 10
inevitable 10
haun@@ 10
kindled 10
smail 10
Ephes@@ 10
Ekta 10
tankers 10
1973 10
3-litre 10
commotion 10
Volkswagen 10
Khajur@@ 10
Peri@@ 10
KC@@ 10
bathing 10
Six@@ 10
NPS 10
panoramic 10
roof@@ 10
shor@@ 10
Shub@@ 10
Johns 10
Diw@@ 10
ait 10
corn 10
Mysuru 10
amiss 10
net@@ 10
Srimanthudu 10
ikrishna 10
Naidus 10
Tensions 10
territorial 10
Amos 10
8,7@@ 10
Agencies 10
benefitting 10
pointing 10
Bikaner 10
relax@@ 10
Hasin 10
3,4@@ 10
wer 10
collect 10
heric 10
Dhon@@ 10
boosting 10
liquid@@ 10
-cooled 10
twin-@@ 10
Arabian 10
weaker 10
220 10
adhe@@ 10
lawful 10
Dhruv 10
Tej@@ 10
promin@@ 10
Jodhpur 10
FED 10
habit@@ 10
piped 10
Kawasaki 10
Polls 10
count@@ 10
flags 10
eck 10
irre@@ 10
Cards 10
20.@@ 10
Rajkummar 10
Caribbean 10
Effects 10
fash@@ 10
discharge 10
https 10
terrain 10
CBDT 10
Taxes 10
Medium 10
serial 10
contrad@@ 10
Arm@@ 10
charg@@ 10
olution 10
throwing 10
stabbed 10
laugh@@ 10
complaining 10
relaxation 10
proceeds 10
album 10
assassination 10
promp@@ 10
Sajid 10
Jav@@ 10
Promis@@ 10
IIS@@ 10
snow 10
aggreg@@ 10
slowed 10
slowing 10
CAR@@ 10
memb@@ 10
lane 10
tool@@ 10
damom 10
subjected 10
In-@@ 10
swords 10
splendid 10
ower@@ 10
eval 10
Treaty 10
Vers@@ 10
shrines 10
convoy 10
inous 10
frequency 10
itations 10
turbo@@ 10
Canara 10
gan@@ 10
Mechanical 10
rol 10
Wildlife 10
Megha 10
resp@@ 10
showers 10
enson 10
Vignesh 10
picturesque 10
domen 10
positioned 10
Nizam 10
5bhp 10
deterior@@ 10
mortal 10
mans@@ 10
chal 10
tiger 10
forgot 10
exceedingly 10
oled 10
ador 10
Daw@@ 10
charity 10
completing 10
pains 10
internationally 10
4,7@@ 10
abhor@@ 10
Away 10
XUV@@ 10
chrome 10
automaker 10
Advanced 10
kindly 10
UT@@ 10
idge 10
flaws 10
Eid 10
Vasu 10
empowerment 10
Chaluk@@ 10
antara 10
Overseas 10
shini 10
organis@@ 10
Pedapalli 10
Amala 10
ESL 10
Iqbal 10
Sierra 10
deceived 10
enti@@ 10
Elderly 10
enforced 10
Balan 10
Gs 10
biographical 10
Guptill 10
Taylor 10
Jimmy 10
esham 10
evidences 10
friction 10
hailing 10
Penn@@ 10
vania 10
counselling 10
heer 10
Barr@@ 10
Izab@@ 10
AD 10
copy@@ 10
entries 10
pay@@ 10
destro@@ 10
ceiling 10
plex 10
Hanuma 10
apples 10
annes 10
survivors 10
picking 10
Cas@@ 10
Onions 10
sever@@ 10
hydr@@ 10
ther-in-law 10
KGF 10
symp@@ 10
tom 10
-wise 10
Priyadarshan 10
Treas@@ 10
Electricity 10
sop@@ 10
Chakr@@ 10
rallied 10
frightened 10
aviation 10
tig@@ 10
Fox 10
diarrhoea 10
phosphorus 10
MUMBAI 10
yal 10
idency 10
Dominar 10
cabin 10
grim 10
compose 10
hapat@@ 10
doubtful 10
DCGI 10
thief 10
Puja 10
timing 10
government-@@ 10
rope 10
wept 10
eswaran 10
ectious 10
Panchayats 10
Mira 10
Mosaic 10
take@@ 10
rival@@ 10
hospitality 10
emerg@@ 10
ket@@ 10
maturity 10
almonds 10
149 10
Thalai@@ 10
Valent@@ 10
hardly 10
Log 10
Uday 10
adem@@ 10
umin@@ 10
unaware 10
Jawa 10
showcase 10
hesitate 10
Economy 10
colum@@ 10
Bak@@ 10
defam@@ 10
cosmetic 10
26.@@ 10
crosses 10
semis 10
Lots 10
glo@@ 10
problem@@ 10
stro@@ 10
Valm@@ 10
hapur 10
ceasefire 10
fon@@ 10
Believe 10
employer 10
prophesy 10
interactions 10
Business@@ 10
yaan 10
formalities 10
asp@@ 10
Vu@@ 10
discrimin@@ 10
delicate 10
distinction 10
Gab@@ 10
levied 10
Ratn@@ 10
Blair 10
Tut@@ 10
mentioning 10
IL@@ 10
itude 10
yam@@ 10
accol@@ 10
occupies 10
Indian-origin 10
ectively 10
Assistance 10
Fatima 10
66@@ 10
Chaud@@ 10
lukewarm 10
Randeep 10
Natarajan 10
orate 10
inaugural 10
Colony 10
itals 10
mul@@ 10
210 10
Historical 10
ulting 10
conclude 10
Bansal 10
san@@ 10
Muscle 10
Neelam 10
alternatives 10
hir 10
mammoth 10
Chait@@ 10
Skills 10
alam@@ 10
16,000 10
Jim 10
Jas@@ 10
1934 10
bankrup@@ 10
orous 10
browser 10
tehsil 10
Meets 10
EP@@ 10
Cros@@ 10
Raveena 10
calamities 10
presumptu@@ 10
Eggs 10
Godse 10
230 10
cleanness 10
istry 10
Zim@@ 10
spoon 10
Carey 10
am-@@ 10
iration 10
Bala 10
cleaned 10
covid@@ 10
misinformation 10
Spo@@ 10
Andre 10
H-@@ 10
1B 10
Improv@@ 10
fast-@@ 10
modify 10
proceeded 10
disqualification 10
tsunami 10
Baal 10
benefitted 10
2bhp 10
Bib@@ 10
midnight 10
imagined 10
remind 10
wholesome 10
slowdown 10
Andhadhun 10
catching 10
upright 10
incess@@ 10
Dep@@ 10
Ankit 10
mini 10
bis@@ 10
cordoned 10
Program 10
ml 10
Waqf 10
erected 10
Abd@@ 10
Governors 10
uated 10
embarrass@@ 10
Switch 10
ffs 10
monuments 10
occupation 10
datab@@ 10
human@@ 10
Sakshi 10
Ideas 10
by-elections 10
Reub@@ 10
ask@@ 10
Rajini 10
acing 10
kur 10
waterfalls 10
Siddi@@ 10
appreh@@ 10
Isn 10
Joab 10
oxid@@ 10
hadi 10
tobacco 10
Instruc@@ 10
planets 10
Standing 10
High-@@ 10
ministries 10
practicing 10
circle 10
Serious 10
brigh@@ 10
ribing 10
Prasada 10
Amritsar 10
debutant 10
memor@@ 10
Motorcycle 10
mother-in-law 10
Depart@@ 10
TO@@ 10
exclusively 10
brilliantly 10
Kenya 10
1920 10
-free 10
suscept@@ 10
preceding 10
busted 10
ababu 10
drag 10
Rose 10
truth@@ 10
cost@@ 10
offended 10
ache@@ 10
diagnosis 10
Maurya 10
outing 10
sway 10
upta 10
reason@@ 10
Madhura 10
ocked 10
implications 10
describe 10
prep@@ 10
Corp 10
1914 10
substances 10
Perman@@ 10
Raig@@ 10
cauliflower 10
2025 10
Sh 10
del 10
Talasani 10
consolation 10
occasionally 10
waist 10
North@@ 10
WK 10
anche 10
tirelessly 10
Posani 10
or-@@ 10
Louis 10
Battle 10
Ashish 10
altars 10
parameter 10
rebellious 10
CMO 10
iant 10
p.@@ 10
Bhai 10
Brahma 10
tab@@ 10
pil@@ 10
requests 10
paved 10
Places 10
Environ@@ 10
Eh@@ 10
edible 10
Shre@@ 10
dos@@ 10
Malaysian 10
Singer 10
Located 10
Banj@@ 10
Choksi 10
erely 10
Tanz@@ 10
es- 10
sesame 10
grip 10
icate 10
yre 10
swor@@ 10
time-@@ 10
Ingredients 10
enka 10
Comprehensive 10
Corridor 10
Sem@@ 10
inte@@ 10
ehood 10
udha 10
selector 10
wou@@ 10
abl@@ 10
Message 10
1961 10
Harivansh 10
thin 10
trolled 10
perial 10
attacker 10
Suff@@ 10
sils 10
atted 10
ropol@@ 10
constipation 10
refresh 10
dearth 10
unveiling 10
RC@@ 10
ROM 10
Mental 10
grandmother 10
affl@@ 10
figur@@ 10
endeavour 10
trick@@ 10
129 10
surrendered 10
immorality 10
enjoyable 10
dissolved 10
Oshane 10
doll@@ 10
uplo@@ 10
reputation 10
wipe 10
'ble 10
Artists 10
Shakt@@ 10
Andrea 10
carbohydrates 10
Egyptian 10
demonstration 10
scient@@ 10
comply 10
galore 10
Nec@@ 10
MIM 10
essive 10
rebellion 10
iews 10
Jaanu 10
uates 10
Seth@@ 10
Simran 10
Alc@@ 10
installment 10
ski 10
Sush@@ 10
Palla 10
ifer 10
lasts 10
rej@@ 10
Profit 10
TT 10
deprec@@ 10
convince 10
Doctor 10
377 10
pensioners 10
gran@@ 10
Ashutosh 10
Cow 10
interiors 10
243 10
Gangwar 10
ainly 10
Challenges 10
fir@@ 10
Mumbai-@@ 10
stellar 10
iga@@ 10
ET@@ 10
Chakra 10
extinc@@ 10
sanctified 10
Sonet 10
Driver 10
elty 10
pneum@@ 10
Agr@@ 10
foodgrains 10
promot@@ 10
Yeah 10
15-@@ 10
Amarnath 10
kis@@ 10
sub 10
rika 10
pless 10
3,7@@ 10
bulls 10
Wid@@ 10
pered 10
Rangasthalam 10
Lakshmaiah 10
cracked 10
behavi@@ 10
Mahabhar@@ 10
historian 10
well-being 10
ampalli 10
Jac@@ 10
unidentified 10
Jeth@@ 10
truths 10
1984 10
jealous 10
22-year-old 10
Fal@@ 10
AND 10
oling 10
stag@@ 10
SAD 10
assurances 10
164 10
communications 10
aph@@ 10
Meerut 10
Maps 10
incorpor@@ 10
mountainous 10
edul@@ 10
MCLR 10
cucumber 10
automotive 10
kh 10
forcing 10
Rathod 10
collectors 10
Sidhu 10
justices 10
Chandrachud 10
Skipper 10
prevail 10
Y. 10
competing 10
21-day 10
Issues 10
iniquity 10
Hetmyer 10
thwaite 10
cham@@ 10
ission 10
Viral 10
hava 10
Armenian 10
Jaw@@ 10
Patani 10
telescopic 10
Os@@ 10
Ksh@@ 10
formerly 10
transpired 10
unks 10
BBC 10
Dharam 10
denying 10
Islamia 10
estly 10
CISF 10
Assam@@ 10
LE@@ 10
urance 10
tem 10
Shat@@ 10
SW@@ 10
enthusi@@ 10
Lakshman 10
upa 10
Delete 10
inea 10
Dw@@ 10
Mahila 10
umbers 10
tussle 10
Jawa@@ 10
hy 10
Thess@@ 10
i-Fi 10
necessitated 10
Hotel 10
Diam@@ 10
defense 10
Guinness 10
batteries 10
video-@@ 10
felic@@ 10
Dutch 10
pp. 10
GD@@ 10
longed 10
letin 10
150@@ 10
isri 10
Sreemukhi 10
Ginger 10
Emb@@ 10
Future 10
Fi 10
Supplies 10
Shamshabad 10
tour@@ 10
hers 10
engue 10
usions 10
NSG 10
year-@@ 10
onically 10
entert@@ 10
dramatically 10
Ramakrishn@@ 10
Airports 10
Exper@@ 10
sacrif@@ 10
hurd@@ 10
Hezekiah 10
Usha 10
acker 10
terribly 10
thick@@ 10
telephon@@ 10
Hindupur 10
weak@@ 10
remedies 10
Prayer 10
seated 10
spirits 10
PIB 10
165 10
Miller 10
garments 10
Rou@@ 10
retri@@ 10
Shahjah@@ 10
obedient 10
secretariat 10
safer 10
incent@@ 10
consciousness 10
rene 10
gment 10
Mines 10
gratia 10
Dur@@ 10
Lou@@ 10
memorandum 10
token 10
emissions 10
cord 10
Sukh@@ 10
Lin@@ 10
historians 10
apprised 10
sequences 10
Sankranti 10
Ignis 10
migration 10
afterward 10
GV@@ 10
air-cooled 10
Sap@@ 10
ample 10
je 10
Made 10
promotions 10
prejudice 10
busiest 10
unveil 10
corners 10
Renewable 10
ulam 10
proverbs 10
aseema 10
Measures 10
disbur@@ 10
ightful 10
fing@@ 10
MR 10
ikota 10
Conven@@ 10
Assy@@ 10
Mukt@@ 10
pedestrians 10
diagnost@@ 10
designer 10
sis 10
infin@@ 10
allotment 10
shifting 10
fert@@ 10
sored 10
M.@@ 10
gin 10
hostile 10
organizing 10
190 10
Banumathi 10
saut 10
SpiceJet 10
scarcity 10
s' 10
underwent 10
eage 10
manganese 10
azine 10
bedded 10
Chartered 10
abst@@ 10
english 10
baz 10
privileges 10
SUMO 10
spects 10
SARS-CoV-2 10
upgrade 10
Mustaf@@ 10
evidently 10
Delta 10
excitement 10
Tamannah 10
olate 10
Parvati 10
Siddhar@@ 10
9,000 10
Potl@@ 10
intercepted 10
ca@@ 10
barriers 10
alatha 10
hilly 10
adaptation 10
erjee 10
Jaish-e-Mohammad 10
Vig@@ 10
bron@@ 10
LAC 10
Dad 10
achar@@ 9
yr-old 9
Shoo@@ 9
mpt@@ 9
offee 9
access@@ 9
ahubali 9
sured 9
reas@@ 9
Vit@@ 9
Lax@@ 9
Srid@@ 9
willingly 9
small@@ 9
urally 9
wrestling 9
Nig@@ 9
erly 9
riers 9
kno@@ 9
est-@@ 9
Stu@@ 9
utterly 9
commod@@ 9
cooled 9
quired 9
settl@@ 9
ape 9
armer 9
ende@@ 9
paragrap@@ 9
istrate 9
Congratul@@ 9
resh 9
clean@@ 9
ange 9
mail 9
individ@@ 9
ximately 9
Karnat@@ 9
Manufact@@ 9
idst 9
Lt@@ 9
iousness 9
righ@@ 9
waive 9
airy 9
crick@@ 9
uce 9
rens 9
mov@@ 9
kil@@ 9
ress@@ 9
Viol@@ 9
life@@ 9
ipal 9
Prad@@ 9
grat@@ 9
Ras@@ 9
accident@@ 9
Prem@@ 9
Jaish-e-@@ 9
gent@@ 9
Tu@@ 9
divor@@ 9
ient@@ 9
ribed 9
brief@@ 9
Text@@ 9
ur-@@ 9
evertheless 9
convers@@ 9
vill@@ 9
rols 9
olv@@ 9
Fat@@ 9
ropolitan 9
bean 9
gif@@ 9
hpur 9
wild@@ 9
Telec@@ 9
sett@@ 9
uki 9
Bare@@ 9
shir@@ 9
Answ@@ 9
weaken 9
otten 9
Seh@@ 9
idhi 9
milit@@ 9
compan@@ 9
owerment 9
surance 9
Isra@@ 9
odays 9
kara 9
iqu@@ 9
wore 9
abled 9
ologies 9
anagaram 9
unction 9
urv@@ 9
ince 9
wary 9
Dever@@ 9
Rup@@ 9
vessel 9
oss 9
migr@@ 9
eli@@ 9
fundam@@ 9
bec@@ 9
kind@@ 9
pus 9
ailable 9
Osc@@ 9
ittees 9
in-law 9
Issu@@ 9
Commerc@@ 9
child@@ 9
theast 9
Chiranje@@ 9
sid@@ 9
wound 9
ankings 9
Trad@@ 9
Naras@@ 9
occ@@ 9
itment 9
encour@@ 9
Iv@@ 9
Pok@@ 9
Qual@@ 9
zekiel 9
stud@@ 9
fair@@ 9
ingent 9
Init@@ 9
ved@@ 9
Armen@@ 9
caut@@ 9
Rand@@ 9
Nation@@ 9
teas@@ 9
struc@@ 9
verbal 9
advant@@ 9
ageous 9
web@@ 9
opt@@ 9
Muslim@@ 9
yav@@ 9
snat@@ 9
mem@@ 9
esis 9
wrap 9
SCO 9
ekhara 9
beaut@@ 9
Chidamb@@ 9
propag@@ 9
agu@@ 9
agre@@ 9
upward 9
postp@@ 9
open@@ 9
olk@@ 9
utors 9
iefs 9
leges 9
dhar@@ 9
Vaik@@ 9
sil 9
orious 9
altern@@ 9
SRTC 9
priv@@ 9
Goo@@ 9
auth@@ 9
sadd@@ 9
thered 9
lem 9
anner 9
icip@@ 9
tremend@@ 9
smoo@@ 9
Cum@@ 9
Fest@@ 9
anks 9
veh@@ 9
modif@@ 9
volumes 9
wag@@ 9
doubl@@ 9
repent@@ 9
Srin@@ 9
plun@@ 9
Vikram@@ 9
init@@ 9
angular 9
Sach@@ 9
cheap@@ 9
subj@@ 9
LD@@ 9
es-@@ 9
ione@@ 9
worst-@@ 9
ushed 9
thre@@ 9
zealous 9
Yad@@ 9
viewing 9
pref@@ 9
onavir@@ 9
ases 9
lier 9
Chandray@@ 9
Poon@@ 9
st-@@ 9
tit@@ 9
Fur@@ 9
nin@@ 9
ook 9
Jit@@ 9
w.e.f. 9
ortation 9
Govind@@ 9
dispos@@ 9
Saj@@ 9
Americ@@ 9
uvall@@ 9
morality 9
Ye@@ 9
accompan@@ 9
enditure 9
collap@@ 9
wif@@ 9
marty@@ 9
democr@@ 9
Abh@@ 9
wreaked 9
viya 9
Sas@@ 9
presc@@ 9
workout 9
distr@@ 9
veget@@ 9
harmaceut@@ 9
ynam@@ 9
compass@@ 9
hali 9
vents 9
ambul@@ 9
prison@@ 9
ayi 9
xer 9
Cel@@ 9
sac@@ 9
Bhask@@ 9
erful 9
ather 9
distur@@ 9
fool@@ 9
ean 9
Arav@@ 9
untary 9
Drav@@ 8
investig@@ 8
attend@@ 8
enge 8
ulture 8
Represent@@ 8
Islam@@ 8
myst@@ 8
Hop@@ 8
Pract@@ 8
ldnt 8
Kham@@ 8
Rave@@ 8
diarr@@ 8
aur@@ 8
tournam@@ 8
liv@@ 8
histor@@ 8
embers 8
roduc@@ 8
avail@@ 8
elabor@@ 8
disap@@ 8
acher 8
Chak@@ 8
peac@@ 8
gn@@ 8
jee 8
highligh@@ 8
uclear 8
exper@@ 8
erings 8
Eg@@ 8
indigen@@ 8
Kare@@ 8
reasing 8
Agre@@ 8
pill@@ 8
yas@@ 8
diac 8
privileg@@ 8
eld 8
Bhe@@ 8
edness 8
intendent 8
volunte@@ 8
ector 8
injur@@ 8
mers 8
gling 8
nings 8
oves 8
neighbor@@ 8
Ghaz@@ 8
Venug@@ 8
aheb 8
usc@@ 8
liness 8
Bom@@ 8
aho 8
Yah@@ 8
Ah 8
Sriniv@@ 8
decor@@ 8
opal 8
Chow@@ 8
Lah@@ 8
Bhuv@@ 8
Trav@@ 8
accommod@@ 8
emon 8
sex@@ 8
Tig@@ 8
yal@@ 8
corpor@@ 8
w.@@ 8
fs 8
Institut@@ 8
prene@@ 8
view@@ 8
max@@ 8
crit@@ 8
agues 8
Dab@@ 8
f-@@ 8
ace@@ 8
Choud@@ 8
unve@@ 8
bless@@ 8
hew 8
thers 8
sligh@@ 8
exerc@@ 8
Visak@@ 8
rench 8
Repe@@ 8
year@@ 8
Braz@@ 8
trag@@ 8
aired 8
pione@@ 8
Tog@@ 8
Lead@@ 8
Abra@@ 8
ayana 8
Insp@@ 8
Curren@@ 8
illions 8
Pram@@ 8
cris@@ 8
Ponn@@ 8
tre 8
strateg@@ 8
remind@@ 8
Succ@@ 8
Kashmir@@ 8
Secret@@ 8
vacc@@ 8
utting 8
wi@@ 8
aru 8
Blu@@ 8
000@@ 8
product@@ 8
ockey 8
sustain@@ 8
22-@@ 8
champ@@ 8
antib@@ 8
ux 8
overwhel@@ 8
ritu@@ 8
tees 8
ennis 8
eorological 8
Ek@@ 8
contrib@@ 8
decis@@ 8
Cat@@ 8
rendra 8
athe 8
adhar 8
produc@@ 8
fli@@ 8
deleg@@ 8
ishers 8
compre@@ 8
Durg@@ 8
Engl@@ 8
Advis@@ 8
Trin@@ 8
Rupe@@ 8
cul@@ 8
auc@@ 8
ia@@ 8
ancellor 8
skirts 8
maint@@ 8
athlet@@ 8
ety 8
orities 8
ephone 8
ohol 8
subsc@@ 8
Shal@@ 8
dic 8
meaning@@ 8
intens@@ 8
expect@@ 8
good@@ 8
wrong@@ 8
avy 8
Tay@@ 8
depres@@ 8
2-litre 8
compos@@ 8
ori@@ 8
Stre@@ 8
utter@@ 8
JN@@ 8
chol@@ 8
first@@ 8
Some@@ 8
Kis@@ 8
lect@@ 8
Devar@@ 8
conduc@@ 8
jah@@ 8
Covid@@ 8
Gav@@ 8
light@@ 8
servation 8
constitu@@ 8
gear@@ 8
Paidi@@ 8
aspur 8
Delhi@@ 8
.in 8
arious 8
Kom@@ 8
ady 8
grap@@ 8
Youn@@ 8
Sain@@ 8
satisf@@ 8
ertiliz@@ 8
langu@@ 8
Mahan@@ 8
Star@@ 8
ancer 8
medic@@ 8
ittal 8
Roy@@ 8
dat@@ 8
Mahab@@ 8
ilarly 8
uttler 8
Vam@@ 8
director@@ 8
Ep@@ 8
lett@@ 8
mach@@ 8
Loo@@ 8
mast@@ 8
wheeler 8
Poll@@ 8
erals 8
was@@ 8
lux@@ 8
Republ@@ 8
misha@@ 7
uni@@ 7
inno@@ 7
forcement 7
-in-law 7
cle 7
confir@@ 7
asam 7
interrup@@ 7
fam@@ 7
ording 7
Fri@@ 7
Merced@@ 7
essly 7
ograp@@ 7
vide@@ 7
oved 7
dependence 7
bund@@ 7
Arab@@ 7
Nith@@ 7
throw@@ 7
stems 7
urities 7
juna 7
idable 7
ivastava 7
babu 7
mala 7
kur@@ 7
andhra 7
bot@@ 7
threat@@ 7
accoun@@ 7
yers 7
ipment 7
arly 7
stem 7
anese 7
CL 7
noon 7
Guj@@ 7
icide 7
Candid@@ 7
deliv@@ 7
Certific@@ 7
critic@@ 7
dut@@ 7
edia 7
near@@ 7
Mahabub@@ 7
recru@@ 7
stances 7
seas 7
determin@@ 7
fed@@ 7
ext 7
Engine@@ 7
ashm@@ 7
abrog@@ 7
temper@@ 7
summon@@ 7
destr@@ 7
Veg@@ 7
decl@@ 7
compul@@ 7
equival@@ 7
khar 7
judged 7
overty 7
construc@@ 7
ayas 7
mally 7
ollywood 7
Small@@ 7
veloc@@ 7
Beng@@ 7
Medic@@ 7
touch@@ 7
etry 7
icit 7
Ravichand@@ 7
fund@@ 7
tire 7
asing 7
Pakist@@ 7
okes 7
lds 7
resign@@ 7
parliam@@ 7
fut@@ 7
definite 7
Ravind@@ 7
thus@@ 7
ales 7
exec@@ 7
itamins 7
prim@@ 7
agement 7
avour 7
hund@@ 7
unities 7
urai 7
chari@@ 7
viously 7
reliminary 7
enjoy@@ 7
agram 7
wadi 7
asad 7
itness 7
Gil@@ 7
dible 7
tong@@ 7
atri 7
ativity 7
disclos@@ 7
wrap@@ 7
tol@@ 7
Jayalalith@@ 7
Pac@@ 7
efully 7
NL 7
Jerus@@ 7
Wel@@ 7
eed@@ 7
prote@@ 7
Chat@@ 7
Strateg@@ 7
king@@ 7
sych@@ 7
judg@@ 7
Sof@@ 7
umble 7
arajan 7
spap@@ 7
ocr@@ 7
phil@@ 7
yle 7
ongside 7
Raf@@ 7
adul@@ 7
hapatnam 7
achiev@@ 7
giri 7
akonda 7
cum@@ 7
sad@@ 7
overing 7
Thar@@ 7
Mug@@ 7
erably 7
frequ@@ 7
manif@@ 7
idelines 7
behav@@ 7
ushing 7
Shash@@ 7
arika 7
Eng@@ 7
plem@@ 7
iratory 7
vation 7
Rash@@ 7
ressed 7
Situ@@ 7
Suz@@ 7
toil@@ 7
ersed 7
recomm@@ 7
sib@@ 7
osop@@ 7
onom@@ 7
hensive 7
monds 7
remely 7
Ahmed@@ 7
obj@@ 7
ainment 7
Georg@@ 7
Poo@@ 7
Consid@@ 7
ifically 7
doub@@ 7
ird 7
ointed 7
ble@@ 7
Tag@@ 7
Indones@@ 7
Was@@ 7
eag@@ 7
greg@@ 7
unanim@@ 7
void 7
fem@@ 7
ove@@ 7
wre@@ 7
Kore@@ 7
angered 7
lobally 7
udes 7
cloth@@ 7
ief 7
attle 7
igible 7
chec@@ 7
nutr@@ 7
famil@@ 7
isi 7
ully 7
regular@@ 7
engine@@ 7
uit 7
kes@@ 7
ded@@ 7
eeds 7
ectoral 7
consec@@ 7
Democr@@ 7
Cath@@ 7
Dre@@ 7
hid@@ 7
Vot@@ 7
Mex@@ 7
Desh@@ 7
Kashm@@ 6
writ@@ 6
Phys@@ 6
vendra 6
Biot@@ 6
arest 6
daugh@@ 6
some@@ 6
Rich@@ 6
inspir@@ 6
ensus 6
Dip@@ 6
Vivek@@ 6
Intell@@ 6
Respon@@ 6
Beaut@@ 6
ivers 6
Mart@@ 6
raf 6
itled 6
Ign@@ 6
pict@@ 6
occas@@ 6
deter@@ 6
claim@@ 6
Soundar@@ 6
agno@@ 6
ratri 6
ensor 6
laun@@ 6
Parliam@@ 6
progr@@ 6
bub@@ 6
tful 6
Vy@@ 6
htt@@ 6
alith@@ 6
Vill@@ 6
Pud@@ 6
rocities 6
flag@@ 6
intern@@ 6
utation 6
Citiz@@ 6
ruption 6
Tus@@ 6
isl@@ 6
scen@@ 6
ancially 6
Mek@@ 6
ancies 6
ysis 6
enue 6
ectivity 6
Europe@@ 6
Registr@@ 6
Afghan@@ 6
tings 6
atmosp@@ 6
Econom@@ 6
Srav@@ 6
lead@@ 6
Abhin@@ 6
indra 6
unar 6
Back@@ 6
achel@@ 6
fat@@ 6
ru 6
chae@@ 6
qualification 6
pedest@@ 6
wonder@@ 6
Mukher@@ 6
aut 6
uate 6
nered 6
Jais@@ 6
tain@@ 6
condol@@ 6
Hen@@ 6
icient 6
Pati@@ 6
mob@@ 6
Moz@@ 6
great@@ 6
Pha@@ 6
Philist@@ 6
itya 6
dict 6
VS@@ 6
alter@@ 6
rior 6
yyal@@ 6
warded 6
omic 6
ucle@@ 6
stitut@@ 6
sari 6
isol@@ 6
idents 6
Aer@@ 6
centur@@ 6
Nob@@ 6
rying 6
public@@ 6
fox 6
psal@@ 6
Treat@@ 6
Appe@@ 6
lave 6
wicket-@@ 6
taker 6
amoun@@ 6
ionships 6
Langu@@ 6
Bet@@ 6
guaran@@ 6
liter@@ 6
persec@@ 6
Merc@@ 6
iece 6
chr@@ 6
Distr@@ 6
sus 6
torate 6
Wind@@ 6
Malay@@ 6
brut@@ 6
camer@@ 6
self-reli@@ 6
akshi 6
urthy 6
prest@@ 6
Bhus@@ 6
adar@@ 6
forec@@ 6
Maur@@ 6
Keer@@ 6
thank@@ 6
fav@@ 6
iller 6
semif@@ 6
oles@@ 6
izations 6
astar 6
particip@@ 6
amework 6
imination 6
ileg@@ 6
unth@@ 6
Utt@@ 6
ice-@@ 6
achi@@ 6
antine 6
foreign@@ 6
Rashtr@@ 6
beh@@ 6
arring 6
sanc@@ 6
Chik@@ 6
Mith@@ 6
uments 6
eshs 6
Xia@@ 6
anx@@ 6
conce@@ 6
Theat@@ 6
Chowd@@ 6
Cust@@ 6
htar 6
Ls 6
hatch@@ 6
dest 6
Jait@@ 6
Commun@@ 6
wis 6
Trinam@@ 6
Dut@@ 6
uff@@ 6
ridic@@ 6
suppor@@ 6
appre@@ 6
Aur@@ 6
reta 6
dens@@ 6
Employ@@ 6
cert@@ 6
uncertain@@ 6
vigil@@ 6
obt@@ 6
atiya 6
You@@ 6
foll@@ 6
ucumber 6
ester@@ 6
rome 6
represent@@ 6
bik@@ 6
atoes 6
ellore 6
Fish@@ 6
Temper@@ 6
oxide 6
elation 6
ieves 6
kars 6
fall@@ 6
emer@@ 6
grated 6
rail@@ 6
enever 6
erness 6
consequ@@ 6
omet@@ 6
Controvers@@ 6
ocolate 6
Soc@@ 6
Ukrain@@ 6
fun@@ 6
orted 6
oot@@ 6
gress@@ 6
univers@@ 6
wis@@ 6
ario 6
Hass@@ 6
theat@@ 6
jaw@@ 6
ificent 6
turn@@ 6
lod@@ 6
apathi 6
kitch@@ 6
otive 6
unicip@@ 6
ongs 6
wi 6
etings 6
stead 6
Thom@@ 6
Protest@@ 6
igibility 6
harmon@@ 6
cles 6
internation@@ 6
consc@@ 5
anyam 5
atala 5
attrib@@ 5
handic@@ 5
bench@@ 5
atures 5
estic 5
Diplom@@ 5
Nex@@ 5
tru@@ 5
ixel 5
Anir@@ 5
predomin@@ 5
ember 5
every@@ 5
adapt@@ 5
inters 5
mund@@ 5
rish@@ 5
assium 5
wicket@@ 5
Pra@@ 5
onald 5
terror@@ 5
programm@@ 5
Ira@@ 5
feas@@ 5
benef@@ 5
Import@@ 5
obile 5
athematics 5
assess@@ 5
Chou@@ 5
vuln@@ 5
Meas@@ 5
refrig@@ 5
hero@@ 5
believ@@ 5
Rail@@ 5
Assist@@ 5
bla@@ 5
arth 5
jects 5
Put@@ 5
adev@@ 5
dark@@ 5
anal@@ 5
alem 5
hark@@ 5
Anur@@ 5
Gujar@@ 5
surviv@@ 5
remov@@ 5
Seas@@ 5
Puj@@ 5
Lav@@ 5
wami 5
Cinem@@ 5
abin@@ 5
typ@@ 5
umed 5
suspic@@ 5
icially 5
tuary 5
attered 5
solid@@ 5
posing 5
Philipp@@ 5
Depos@@ 5
esterol 5
fortunately 5
mart 5
Civ@@ 5
emor@@ 5
ecos@@ 5
YS@@ 5
liest 5
impres@@ 5
Down@@ 5
introduc@@ 5
beare@@ 5
best-@@ 5
adak@@ 5
substant@@ 5
industr@@ 5
metic 5
logs 5
reds 5
Does@@ 5
partic@@ 5
grou@@ 5
Sarasw@@ 5
feren@@ 5
ledge 5
ame@@ 5
itely 5
esting 5
iander 5
plant@@ 5
relig@@ 5
rete 5
estim@@ 5
ionaries 5
ew@@ 5
Thacker@@ 5
ment-@@ 5
provinc@@ 5
orig@@ 5
Hoo@@ 5
Stor@@ 5
belong@@ 5
virt@@ 5
genu@@ 5
antic 5
wellery 5
kne@@ 5
Satur@@ 5
succumb@@ 5
Prak@@ 5
bott@@ 5
ancell@@ 5
dios 5
kr@@ 5
hury 5
Chandrayaan-@@ 5
athering 5
utenant 5
NG 5
Paris@@ 5
ello 5
eft 5
sewhere 5
aught 5
itam@@ 5
dhan 5
Let@@ 5
complet@@ 5
ount 5
umental 5
Dub@@ 5
Jagann@@ 5
eum 5
Fem@@ 5
hika 5
icket 5
uty 5
Real@@ 5
idhar 5
emes 5
Typ@@ 5
jas 5
entials 5
idh@@ 5
suggest@@ 5
uvan@@ 5
sove@@ 5
Raghav@@ 5
cover@@ 5
lor 5
epid@@ 5
applic@@ 5
commerc@@ 5
There@@ 5
smart@@ 5
dismis@@ 5
assemb@@ 5
pra@@ 5
showroom 5
rians 5
drag@@ 5
Mural@@ 5
Heal@@ 5
itious 5
Pin@@ 5
tern@@ 5
erce 5
sed@@ 5
ground@@ 5
mohan 5
Nithi@@ 5
oubl@@ 5
ahe@@ 5
quest 5
DT 5
chann@@ 5
Vaj@@ 5
Lond@@ 5
ayak 5
utive 5
chem@@ 5
find@@ 5
favor@@ 5
uits 5
Srim@@ 5
Hu@@ 5
rishn@@ 5
mountain@@ 5
abated 5
Charm@@ 5
itiz@@ 5
ussions 5
Progr@@ 5
32@@ 5
Narasim@@ 5
Proper@@ 5
mar 5
uls 5
oused 5
umph 5
eeded 5
ygen 5
Datt@@ 5
saf@@ 5
isai 5
Paras@@ 5
Balak@@ 5
fract@@ 5
Bell@@ 5
konda 5
line@@ 5
eper 5
ightened 5
vot@@ 5
Construc@@ 5
idential 5
Bans@@ 5
icle 5
Polit@@ 5
oward 5
Prepar@@ 5
Chr@@ 5
dio 5
rishna 5
Tra@@ 5
enu 5
mins 5
Thal@@ 5
abu 5
With@@ 5
cir@@ 5
Venk@@ 5
Scot@@ 5
Kadi@@ 5
ertil@@ 5
Chandi@@ 5
facel@@ 5
dem 5
vention 5
Scient@@ 5
Uj@@ 5
Imp@@ 5
exam@@ 5
mosp@@ 5
Dom@@ 5
ansion 5
Grow@@ 5
attis@@ 5
stom@@ 5
phosphor@@ 5
mph 5
ensu@@ 5
olly@@ 5
Venn@@ 5
Reduc@@ 5
Steph@@ 5
resa 5
wom@@ 5
LOR@@ 5
FO 5
anjan 5
Vern@@ 5
BP 5
ayer 5
phy@@ 5
mist 5
uration 5
pati@@ 5
ivers@@ 5
roid 5
lings 5
pread 5
repor@@ 5
commend@@ 5
estone 5
ambi@@ 5
ipatnam 5
content@@ 5
fra@@ 5
Madhur@@ 5
speech@@ 5
iors 5
phy 5
Olymp@@ 5
tural 5
Hindust@@ 5
ove 5
blockb@@ 5
Bhut@@ 4
giveness 4
Niv@@ 4
ansh 4
bum 4
shoul@@ 4
iversity 4
DRF 4
irbhar 4
Tirum@@ 4
ultural 4
parag@@ 4
Mallikar@@ 4
pert@@ 4
eks 4
vey 4
angana 4
scoo@@ 4
hael 4
etime 4
reme 4
Nif@@ 4
ikipedia 4
Alli@@ 4
wai@@ 4
exus 4
accus@@ 4
itime 4
Renew@@ 4
alth 4
Territ@@ 4
Akk@@ 4
ighty 4
edding 4
Vad@@ 4
preced@@ 4
mean@@ 4
dif@@ 4
Sasik@@ 4
orney 4
du 4
driv@@ 4
Mov@@ 4
sunami 4
refresh@@ 4
List@@ 4
Bhuban@@ 4
mom@@ 4
iscal 4
oviet 4
Aug@@ 4
orrow 4
young@@ 4
MB@@ 4
essel 4
liveli@@ 4
schedul@@ 4
Foot@@ 4
Max@@ 4
iar 4
Rashm@@ 4
Wash@@ 4
Bik@@ 4
uti 4
moment@@ 4
extra@@ 4
Toy@@ 4
Kejri@@ 4
ystem 4
John@@ 4
assa@@ 4
fel@@ 4
Egypt@@ 4
Krish@@ 4
Cyber@@ 4
iso@@ 4
iples 4
icop@@ 4
cust@@ 4
Legisl@@ 4
ermen 4
Mehboo@@ 4
ramp@@ 4
Mano@@ 4
olves 4
Campa@@ 4
Aurang@@ 4
eor@@ 4
autonom@@ 4
uraj 4
libr@@ 4
advert@@ 4
feed@@ 4
testim@@ 4
continent 4
uge 4
own@@ 4
crack@@ 4
lment 4
avani 4
nutri@@ 4
righte@@ 4
netic 4
rebel@@ 4
bigg@@ 4
retur@@ 4
vand@@ 4
yur@@ 4
Ramachand@@ 4
AIA@@ 4
avari 4
Muham@@ 4
oval 4
Aay@@ 4
countr@@ 4
Matthe@@ 4
yanarayana 4
interrog@@ 4
solutely 4
BJ@@ 4
hun 4
leng@@ 4
rounder 4
arrang@@ 4
reserv@@ 4
aratri 4
Gri@@ 4
gan 4
ealed 4
Columb@@ 4
deploy@@ 4
ausp@@ 4
ille 4
irable 4
oto 4
Iz@@ 4
Govern@@ 4
achand@@ 4
imately 4
Ax@@ 4
Radha@@ 4
Seem@@ 4
iture 4
Chop@@ 4
kking 4
ody 4
Centr@@ 4
Tend@@ 4
ferencing 4
ordable 4
mam@@ 4
gry 4
weigh@@ 4
prised 4
atma 4
urch 4
nec@@ 4
Sans@@ 4
point@@ 4
friend@@ 4
Second@@ 4
quiry 4
Trip@@ 4
arge 4
alia 4
soever 4
ekhar 4
gest 4
uary 4
uming 4
ival@@ 4
rece@@ 4
Exerc@@ 4
iso 4
aration 4
GI 4
rever 4
ipudi 4
2020-@@ 4
gress 4
Anirud@@ 4
subst@@ 4
Prim@@ 4
Lit@@ 4
ilies 4
reless 4
Fut@@ 4
opic 4
candid@@ 4
ades@@ 4
Peddi@@ 4
Abb@@ 4
lamb@@ 4
poin@@ 4
fortun@@ 4
Pack@@ 4
jid 4
scuff@@ 4
Lank@@ 4
chargeshe@@ 4
Face@@ 4
igade 4
payers 4
illance 4
sist@@ 4
dragon 4
comfort@@ 4
inton 4
tor-@@ 4
ription 4
Solom@@ 4
ico 4
anticip@@ 4
Corin@@ 4
Benz 4
endments 4
ificial 4
Snap@@ 4
undering 4
MO 4
inju@@ 4
buted 4
coal@@ 4
ketball 4
stak@@ 4
iniqu@@ 4
firm@@ 4
Fam@@ 4
Bus@@ 4
salm 4
exist@@ 4
moist@@ 4
emy 4
sequent 4
^ 4
phen@@ 4
amaz@@ 4
bact@@ 4
gon@@ 4
Dik@@ 4
Intern@@ 4
overed 4
Subram@@ 4
exual 4
Prec@@ 4
Veh@@ 4
Bahad@@ 4
exal@@ 4
subsi@@ 4
Deg@@ 4
eo 4
athem@@ 4
Neer@@ 4
ighted 4
opport@@ 4
xed 4
igence 4
enda 4
finger@@ 4
Nagal@@ 4
gor@@ 4
ahub@@ 4
Immedi@@ 4
JS 4
rout@@ 4
evant 4
bris 4
Foll@@ 4
eema 4
prising 4
waj 4
inflammatory 3
erse 3
except@@ 3
ectural 3
unger 3
Cycl@@ 3
amanian 3
SARS-Co@@ 3
ICS 3
ousin 3
prover@@ 3
Jaish@@ 3
incre@@ 3
intell@@ 3
urs@@ 3
CJ@@ 3
targ@@ 3
harv@@ 3
prophec@@ 3
petr@@ 3
Bhatt@@ 3
ril 3
through@@ 3
reti@@ 3
ascert@@ 3
asse@@ 3
forth@@ 3
sensit@@ 3
adequ@@ 3
Kail@@ 3
abund@@ 3
stitutional 3
Octo@@ 3
addi 3
ardhan 3
rul@@ 3
ipper 3
Thiruvan@@ 3
Kapo@@ 3
terior 3
civ@@ 3
habad 3
bhar 3
Stud@@ 3
ithi 3
Malk@@ 3
ounts 3
bapt@@ 3
Pear@@ 3
acular 3
leagues 3
refug@@ 3
outube 3
Ayod@@ 3
olved 3
contempor@@ 3
outu@@ 3
tonn@@ 3
Jehov@@ 3
Yor@@ 3
stagg@@ 3
BAI 3
mitted 3
arters 3
superi@@ 3
premi@@ 3
ikram 3
engar 3
illy 3
Chang@@ 3
Mandi@@ 3
icksha@@ 3
Aksha@@ 3
import@@ 3
ike@@ 3
cab@@ 3
ceas@@ 3
idance 3
impris@@ 3
abs@@ 3
erator 3
Aam@@ 3
Sound@@ 3
sym@@ 3
opped 3
Regul@@ 3
your@@ 3
pean@@ 3
Guaran@@ 3
the-@@ 3
ogn@@ 3
Sikk@@ 3
monit@@ 3
Transl@@ 3
cruc@@ 3
Samaj@@ 3
Yedi@@ 3
Punj@@ 3
Chandrashe@@ 3
Challeng@@ 3
repres@@ 3
Mish@@ 3
thly 3
iverse 3
Arrang@@ 3
rele@@ 3
apost@@ 3
imum 3
hib 3
Account@@ 3
inc 3
ZP@@ 3
Kaw@@ 3
agric@@ 3
ricksha@@ 3
jam@@ 3
promo@@ 3
iland 3
enues 3
atty 3
Ital@@ 3
Moham@@ 3
arency 3
sud@@ 3
exemp@@ 3
itz@@ 3
moth 3
gres@@ 3
moil 3
Neel@@ 3
3r@@ 3
Mao@@ 3
juris@@ 3
spac@@ 3
espread 3
experi@@ 3
Myan@@ 3
Griev@@ 3
Nish@@ 3
algorith@@ 3
Vla@@ 3
obs 3
trop@@ 3
tank@@ 3
asani 3
Vaikunthapur@@ 3
askar 3
ingre@@ 3
Jour@@ 3
inhabit@@ 3
cycles 3
suprem@@ 3
ife 3
Prep@@ 3
Aadha@@ 3
idamb@@ 3
ared@@ 3
Nalg@@ 3
ikipe@@ 3
Maul@@ 3
reiter@@ 3
won@@ 3
itance 3
eigh@@ 3
treat@@ 3
idays 3
Uk@@ 3
mann 3
addha 3
HI 3
intrig@@ 3
obst@@ 3
iming 3
Akhil@@ 3
estock 3
sects 3
ukhi 3
UNI@@ 3
Wedn@@ 3
alin 3
Tand@@ 3
Offic@@ 3
Patn@@ 3
Ander@@ 3
SAR@@ 3
Udd@@ 3
guil@@ 3
mila 3
stice 3
xit 3
troubl@@ 3
chos@@ 3
omegran@@ 3
erra 3
Wom@@ 3
Gurd@@ 3
ktop 3
sidy 3
Jeev@@ 3
Mayaw@@ 3
COVID@@ 3
Grou@@ 3
Turk@@ 3
Faroo@@ 3
eptions 3
abhai 3
w.e.f@@ 3
ww@@ 3
Jyot@@ 3
UA@@ 3
fri@@ 3
perpetr@@ 3
ror@@ 3
Piy@@ 3
Maldiv@@ 3
ahu 3
administ@@ 3
eters 3
Harm@@ 3
loo 3
judice 3
igarh 3
ickets 3
Ano@@ 3
incumb@@ 3
edd@@ 3
brilli@@ 3
Implem@@ 3
LR 3
accept@@ 3
onement 3
Suje@@ 3
ivast@@ 3
tel 3
sky@@ 3
ubl@@ 3
elimin@@ 3
Asad@@ 3
Clim@@ 3
ishe@@ 3
Pank@@ 3
anish 3
Shuk@@ 3
hua 3
Indo@@ 3
argo 3
Kag@@ 3
prises 3
demon@@ 3
owal 3
Jyotir@@ 3
agen 3
Zeal@@ 3
harass@@ 3
iday 3
rary 3
cylind@@ 3
ML@@ 3
CCI 3
Niss@@ 3
aib 3
Kolk@@ 3
inted 3
Hospit@@ 3
Spice@@ 3
usp@@ 3
ultane@@ 3
suru 3
itri 3
stip@@ 3
ague 3
entre@@ 3
bra@@ 3
aic 3
Oce@@ 3
ometime 3
Tow@@ 3
esium 3
excit@@ 3
Afg@@ 3
twel@@ 3
fruit@@ 3
afo@@ 3
awaz 3
mes@@ 3
remedi@@ 3
percent@@ 3
Redd@@ 3
franch@@ 3
wholes@@ 3
cinemat@@ 3
augh@@ 3
hash 3
nography 3
anpreet 3
necess@@ 3
eph@@ 3
Eco@@ 3
Himal@@ 3
utant 3
aband@@ 3
Ambed@@ 3
inem@@ 3
hee 3
Moto@@ 3
ret 3
disha 3
sures 3
entional 3
egar 3
dominal 3
Sor@@ 3
hug@@ 3
ece 3
ortic@@ 3
Amit@@ 3
uvv@@ 3
Bach@@ 3
instal@@ 3
Educ@@ 3
Ale@@ 3
orty 3
process@@ 3
azy 3
Isl@@ 3
ASE@@ 3
fest@@ 3
implem@@ 3
demonet@@ 3
ternal 3
aute 3
ouds 3
Karunan@@ 3
acter 3
instr@@ 3
Indian-@@ 3
afar 3
azz 3
rement 3
piv@@ 3
expos@@ 3
tter 3
urrec@@ 3
moun@@ 2
descend@@ 2
proced@@ 2
diso@@ 2
perman@@ 2
ectr@@ 2
Abo@@ 2
igo 2
iple 2
ton@@ 2
aner 2
megap@@ 2
embarr@@ 2
mity 2
rements 2
kari 2
ulative 2
remark@@ 2
incor@@ 2
nep@@ 2
amic 2
pregn@@ 2
partment 2
crimin@@ 2
Mahbub@@ 2
Dhru@@ 2
ionship 2
Viet@@ 2
Thunder@@ 2
Ever@@ 2
y-level 2
Ide@@ 2
Christi@@ 2
establ@@ 2
ammatory 2
jac@@ 2
Bisw@@ 2
odus 2
ipation 2
emiss@@ 2
rell 2
thous@@ 2
foret@@ 2
reduc@@ 2
second@@ 2
shepher@@ 2
Gaut@@ 2
Sept@@ 2
Myth@@ 2
sequently 2
0-litre 2
ipe@@ 2
andShort@@ 2
Devg@@ 2
icy 2
institut@@ 2
ignesh 2
Vijayash@@ 2
company@@ 2
floo@@ 2
Afr@@ 2
role@@ 2
ounder 2
enant 2
recover@@ 2
enem@@ 2
ific 2
machin@@ 2
Of@@ 2
Anc@@ 2
adekar 2
Bhans@@ 2
feat@@ 2
Coimbat@@ 2
Nirv@@ 2
erland 2
cep@@ 2
Indus@@ 2
evid@@ 2
constitut@@ 2
Mallik@@ 2
Ramak@@ 2
outh 2
adian 2
ulties 2
tality 2
Sour@@ 2
Bop@@ 2
cardi@@ 2
Fadnav@@ 2
thermore 2
rase 2
umar 2
budg@@ 2
inned 2
itness@@ 2
Bharad@@ 2
Meer@@ 2
sic 2
enorm@@ 2
intend@@ 2
Apr@@ 2
ifully 2
riage 2
aah 2
exclus@@ 2
ools 2
Vod@@ 2
includ@@ 2
Hyund@@ 2
benefici@@ 2
igno@@ 2
abling 2
triya 2
strength@@ 2
wick@@ 2
tall@@ 2
los 2
consum@@ 2
teh@@ 2
ensively 2
Nok@@ 2
immedi@@ 2
atedly 2
amkonda 2
zz 2
Ober@@ 2
erine 2
axy 2
iew 2
Es 2
Amer@@ 2
lic 2
Huss@@ 2
spokes@@ 2
Sathy@@ 2
gression 2
irman 2
betwe@@ 2
ensioners 2
Neekev@@ 2
faith@@ 2
icitor 2
igious 2
manu@@ 2
Bez@@ 2
slides 2
Jade@@ 2
YO@@ 2
itter 2
celebr@@ 2
whe@@ 2
rom 2
selves 2
gut@@ 2
oughly 2
swimm@@ 2
halaya 2
prepar@@ 2
pes 2
encement 2
inund@@ 2
upr@@ 2
Avi@@ 2
receip@@ 2
krit 2
reya 2
brand-@@ 2
resurrec@@ 2
slow@@ 2
2017-@@ 2
Bomb@@ 2
casu@@ 2
Mercedes-@@ 2
ibilities 2
depr@@ 2
like@@ 2
dialog@@ 2
rected 2
refigh@@ 2
ammation 2
Divis@@ 2
Fern@@ 2
appoint@@ 2
Author@@ 2
Chem@@ 2
mukh 2
toor 2
Mem@@ 2
aten 2
eshe@@ 2
Emerg@@ 2
imed 2
Fire@@ 2
esi@@ 2
Sarban@@ 2
Fortun@@ 2
geous 2
Jhark@@ 2
Angan@@ 2
Geh@@ 2
manufact@@ 2
object@@ 2
Harv@@ 2
Yoj@@ 2
Relig@@ 2
unte@@ 2
oughts 2
allic 2
big@@ 2
doms 2
Malav@@ 2
Secunder@@ 2
smo@@ 2
hoea 2
bann@@ 2
omen@@ 2
obiography 2
request@@ 2
~ 2
vul@@ 2
hac@@ 2
idly 2
yanath 2
Colon@@ 2
Phara@@ 2
Virt@@ 2
Exec@@ 2
Shram@@ 2
rikar 2
ungs 2
Jerem@@ 2
ushka 2
attisgarh 2
atio 2
conn@@ 2
ISF 2
config@@ 2
reaved 2
osphor@@ 2
Sho@@ 2
bure@@ 2
devast@@ 2
KG@@ 2
Meen@@ 2
ucc@@ 2
Quest@@ 2
aramaiah 2
challeng@@ 2
uvvada 2
bered 2
laze 2
aran@@ 2
veer 2
orded 2
iju 2
amen@@ 2
bif@@ 2
inist@@ 2
bery 2
ellar 2
excell@@ 2
eply 2
Thiruvananth@@ 2
anje@@ 2
report@@ 2
Rajag@@ 2
Waq@@ 2
ebr@@ 2
stakeh@@ 2
Jephth@@ 2
Jayal@@ 2
odder 2
uliflower 2
Murug@@ 2
itaries 2
Bip@@ 2
ecr@@ 2
occur@@ 2
2n@@ 2
Your@@ 2
SARS-@@ 2
armers 2
promis@@ 2
oji 2
Pharis@@ 2
Jack@@ 2
see@@ 2
Adit@@ 2
Memor@@ 2
Arv@@ 2
ploy@@ 2
thusi@@ 2
sug@@ 2
capac@@ 2
anch 2
diagno@@ 2
Naid@@ 2
Thurs@@ 2
Khatt@@ 2
ai-@@ 2
perfect@@ 2
aiy@@ 2
opin@@ 2
teach@@ 2
ivated 2
Big@@ 2
food@@ 2
cation 2
cel 2
anasi 2
thren 2
boo 2
Ci@@ 2
Fad@@ 2
arabad 2
Prith@@ 2
spective 2
ris 2
fatig@@ 2
iddle 2
sentim@@ 2
bour@@ 2
bol 2
subscrib@@ 2
exts 2
Traff@@ 2
DEL@@ 2
embered 1
onaut@@ 1
ateg@@ 1
bran@@ 1
rots 1
anness 1
bound@@ 1
jayanthi 1
arently 1
actly 1
compuls@@ 1
erships 1
heen 1
MEs 1
Daggub@@ 1
urgaon 1
Gamb@@ 1
ource 1
liam@@ 1
regularities 1
vom@@ 1
respon@@ 1
Kej@@ 1
Cott@@ 1
Vodaf@@ 1
amme 1
elop 1
Iran@@ 1
iences 1
obar 1
ovascular 1
Volk@@ 1
comed 1
carm@@ 1
Bure@@ 1
thrill@@ 1
Califor@@ 1
Hund@@ 1
Perf@@ 1
Perform@@ 1
espo@@ 1
varu 1
otion 1
Viz@@ 1
abscon@@ 1
passeng@@ 1
erials 1
explan@@ 1
undes@@ 1
asthalam 1
partn@@ 1
Kash@@ 1
Entert@@ 1
anths 1
tedly 1
Gup@@ 1
Rishab@@ 1
kurnool 1
Audi@@ 1
arka 1
teaspo@@ 1
enjo@@ 1
Categ@@ 1
ilar 1
ucky 1
erted 1
festiv@@ 1
ungary 1
surr@@ 1
imely 1
Bugg@@ 1
ether 1
photograp@@ 1
mai@@ 1
ainments 1
clesi@@ 1
ikumar 1
yurappa 1
telescop@@ 1
ures@@ 1
tb@@ 1
USH 1
piec@@ 1
ailer 1
improv@@ 1
Shastr@@ 1
Prash@@ 1
Deh@@ 1
AMA@@ 1
iet 1
inde@@ 1
esy 1
iban 1
fru@@ 1
Huaw@@ 1
Bun@@ 1
riyal 1
lahabad 1
Kohli@@ 1
Dia@@ 1
olen 1
Sax@@ 1
rishnan 1
Azhar@@ 1
T20@@ 1
precedented 1
ikh 1
presump@@ 1
dimens@@ 1
Manjre@@ 1
earch@@ 1
invis@@ 1
progres@@ 1
Gann@@ 1
dik 1
kilomet@@ 1
Ajink@@ 1
strict@@ 1
wla 1
dimir 1
ourt 1
amabad 1
ilabad 1
envir@@ 1
citiz@@ 1
inister 1
spectr@@ 1
streng@@ 1
odhpur 1
brahim 1
reen 1
akulam 1
ONG@@ 1
protest@@ 1
Amrit@@ 1
ammat@@ 1
upro@@ 1
precaut@@ 1
leep 1
buc@@ 1
Jy@@ 1
Isa@@ 1
portfol@@ 1
thians 1
manuel 1
bohydr@@ 1
Hous@@ 1
payee 1
uke@@ 1
reland 1
jun 1
teed 1
Rij@@ 1
dari 1
eback 1
dre 1
2019-@@ 1
ribly 1
pix@@ 1
uhan 1
olden 1
decre@@ 1
wanand 1
Manmad@@ 1
interf@@ 1
ionals 1
carbohydr@@ 1
GNO@@ 1
Ind 1
ukar 1
Agric@@ 1
athing 1
Timo@@ 1
ferv@@ 1
Kaly@@ 1
Austr@@ 1
panor@@ 1
bourne 1
Uyyal@@ 1
Kulkar@@ 1
hets 1
HY@@ 1
erious 1
iety 1
ocus 1
Nebuc@@ 1
Heg@@ 1
Muz@@ 1
Wild@@ 1
endid 1
adakh 1
does@@ 1
Ephr@@ 1
5-litre 1
Watch@@ 1
Narm@@ 1
umathi 1
Carib@@ 1
rupe@@ 1
cus 1
politici@@ 1
Jim@@ 1
shabad 1
Abhishe@@ 1
itage 1
wrest@@ 1
spok@@ 1
ajal 1
Anup@@ 1
inik@@ 1
Phar@@ 1
Wed@@ 1
ould 1
asaki 1
prit 1
Andre@@ 1
Dul@@ 1
Ecclesi@@ 1
Harr@@ 1
Vaikunthapurramul@@ 1
rap 1
ernacle 1
charya 1
ascular 1
vess@@ 1
CSO 1
rebell@@ 1
asm 1
isans 1
perative 1
obi@@ 1
Infos@@ 1
2016-@@ 1
discharg@@ 1
enance 1
remain@@ 1
Devot@@ 1
acterial 1
overn@@ 1
affidav@@ 1
ople 1
Ked@@ 1
Tendul@@ 1
viraj 1
ouse@@ 1
requi@@ 1
astrous 1
ujan 1
Industr@@ 1
Bum@@ 1
efire 1
Dhad@@ 1
medall@@ 1
COVI@@ 1
thuraj 1
emo 1
husud@@ 1
Distrib@@ 1
ileru 1
ead 1
iabad 1
halam 1
Ern@@ 1
allot@@ 1
Sipl@@ 1
calam@@ 1
imala 1
arnath 1
Portugu@@ 1
etooth 1
< 1
ulp@@ 1
FA 1
ICIC@@ 1
acco 1
affron 1
thel 1
ayalam 1
harlal 1
bedro@@ 1
Rajamou@@ 1
ahati 1
Shro@@ 1
rote 1
espec@@ 1
aik 1
surve@@ 1
unition 1
Pathank@@ 1
Aadm@@ 1
swearing@@ 1
V-2 1
Pai@@ 1
jurisd@@ 1
Kakin@@ 1
ributed 1
erior@@ 1
Expect@@ 1
rescu@@ 1
nic 1
peration 1
Vizi@@ 1
idav@@ 1
hyp@@ 1
solute 1
ld 1
shame@@ 1
Rajk@@ 1
Huzur@@ 1
becom@@ 1
feel@@ 1
neum@@ 1
Schedul@@ 1
much@@ 1
dise@@ 1
olders 1
Diff@@ 1
Chok@@ 1
obo@@ 1
poul@@ 1
Seren@@ 1
veli 1
undoub@@ 1
ses@@ 1
Cali@@ 1
fil 1
Proced@@ 1
scape 1
plies 1
sp 1
alt@@ 1
Mozambi@@ 1
cyl@@ 1
eshwaram 1
emin@@ 1
solut@@ 1
reshi 1
Lie@@ 1
panchay@@ 1
eden 1
urvedi 1
Radhak@@ 1
IRC@@ 1
telep@@ 1
atsman 1
Benjam@@ 1
Aish@@ 1
Beij@@ 1
ebs 1
Jagan@@ 1
warran@@ 1
icized 1
