. 128711
, 49793
ఈ 20330
" 12691
? 9602
' 6689
కూడా 6576
- 5831
లో 5377
ఆ 5113
) 5031
( 5011
మరియు 4999
ఇది 4281
ఒక 4173
ఉంది 4009
ఆయన 3964
ను 3779
కు 3774
రూ 3747
చేశారు 3616
గా 3503
లేదు 3362
అని 3358
కానీ 3236
అయితే 3212
చాలా 3166
పోలీసులు 3097
తో 2983
నుంచి 2846
లు 2703
సినిమా 2598
నేను 2509
ని 2497
ల 2444
కోసం 2421
! 2386
తన 2356
కి 2277
మంది 2214
వారు 2153
అది 2132
దీంతో 2097
మీరు 2091
న@@ 2012
క@@ 1994
ఉన్నాయి 1992
అ@@ 1987
కాదు 1969
తెలిపారు 1918
ఆమె 1917
పై 1907
నుండి 1906
కాంగ్రెస్ 1901
ప్రభుత్వం 1884
ము 1882
ఉన్న 1809
మంత్రి 1799
నా 1786
ఉంటుంది 1726
ల@@ 1700
లను 1696
న్ 1691
చేసిన 1687
వ@@ 1676
రెండు 1666
వి@@ 1649
మ@@ 1648
ఓ 1629
ం 1599
ద్వారా 1591
యొక్క 1580
చేసింది 1571
తర్వాత 1566
న 1545
ఆ@@ 1508
త@@ 1504
కా@@ 1503
భారత 1465
ర@@ 1457
ప్రధాన 1430
అన్నారు 1429
ఎలా 1395
నమోదు 1393
ప@@ 1393
మధ్య 1381
వరకు 1378
కేసు 1377
చెప్పారు 1360
రా@@ 1359
: 1352
ని@@ 1351
బీజేపీ 1350
లకు 1345
స@@ 1344
గ@@ 1338
క 1337
లేదా 1334
స్ 1323
పార్టీ 1312
ః 1309
గురించి 1302
నాకు 1297
పాటు 1292
ఏ 1285
వారి 1285
లోని 1283
కొత్త 1280
ము@@ 1264
ఇ@@ 1261
భారత్ 1259
కు@@ 1251
చిత్రం 1251
కో@@ 1247
ంగా 1246
ఉన్నారు 1243
కేంద్ర 1224
సి@@ 1217
ప్రధాని 1215
అన్ని 1208
తమ 1204
విషయం 1202
త 1190
నా@@ 1189
మరో 1178
కొన్ని 1173
డి@@ 1160
య@@ 1152
సింగ్ 1130
చెందిన 1126
చేసి 1123
మొత్తం 1123
మంచి 1122
కోట్లు 1119
ఎ@@ 1113
మి@@ 1110
స్@@ 1109
2 1108
ద@@ 1108
ఇక 1098
ం@@ 1096
అనే 1086
విడుదల 1085
మాత్రం 1084
శాఖ 1077
మా@@ 1068
వా@@ 1065
డ@@ 1063
జ@@ 1061
ట్ 1060
ాలను 1060
లా 1047
ఇతర 1039
శాతం 1036
ల్ 1034
ఏ@@ 1030
రాష్ట్ర 1029
ల్లో 1023
ముఖ్యమంత్రి 1022
ఇంకా 1022
మాజీ 1020
నీ 1018
కోట్ల 1014
బా@@ 1009
రి@@ 1009
1 1007
వే@@ 1006
లక్షల 979
అవసరం 979
పి@@ 961
చేయ@@ 959
మీ 956
ట@@ 956
సు@@ 950
ది 946
రెడ్డి 945
హ@@ 945
ర్ 942
ఇద్దరు 942
ప్రతి 929
సమాచారం 929
నే 928
ంతో 925
మనం 925
జరిగింది 924
బ@@ 923
లతో 917
పెద్ద 915
కాగా 913
ంలో 911
లి@@ 904
భారీ 903
పా@@ 902
తెలిసిందే 900
మాత్రమే 897
మన 892
ఎందుకు 891
తరువాత 888
లలో 884
ఈ@@ 879
కొ@@ 875
ించిన 875
మా 864
లా@@ 863
తి@@ 861
ఆర్థిక 861
ప్రభుత్వ 860
మూడు 857
ఇందులో 856
తా@@ 856
పు@@ 855
ించి 853
5 851
ఇక్కడ 848
అనేక 848
కే@@ 843
వెంటనే 842
మైన 842
పో@@ 840
క్@@ 840
అంటే 839
డి 835
యెహోవా 832
తరలించారు 831
దర్యాప్తు 830
ఇలా 828
న్@@ 827
కుమార్ 825
చ@@ 823
ర్@@ 822
వి 819
3@@ 816
చేస్తున్నారు 816
ను@@ 816
సినిమాలో 815
ఎలాంటి 810
మీద 810
డం 806
మోదీ 805
క్ 802
అలాగే 799
టి@@ 798
ఇప్పటికే 795
లే@@ 794
ఎస్ 793
చి@@ 792
వారికి 792
రు 789
ా 785
డ్ 783
ించ@@ 779
శ్రీ 779
పూర్తి 777
3 774
ఇండియా 773
గు@@ 772
సి 772
పరిస్థితి 771
కి@@ 771
వచ్చింది 767
లో@@ 762
కాబట్టి 760
సంబంధించిన 759
వు@@ 758
మృతి 757
డు 757
ే 755
ఏం 755
మొదటి 751
వద్ద 751
ాలకు 749
ించారు 749
తెలంగాణ 746
చికిత్స 743
జరిగిన 742
దాని 741
మేము 735
పని 732
మె@@ 732
రాహుల్ 731
10 726
వంటి 725
అతను 724
బి@@ 723
నే@@ 719
మే 718
వారిని 716
దా@@ 715
ఆఫ్ 715
ఏమిటి 713
కలిసి 711
వ 710
జిల్లా 710
సమయంలో 709
మేరకు 707
జి@@ 703
చర్యలు 703
ించింది 702
గాంధీ 698
అధికారులు 696
మే@@ 696
ఢిల్లీ 695
మోడీ 695
ముందు 694
ించే 693
మో@@ 693
నీ@@ 693
రోజు 692
సా@@ 691
బాగా 688
దీనికి 687
డానికి 685
సీ@@ 685
మ్ 683
మరింత 682
సందర్భంగా 679
ఉంటాయి 678
రే@@ 676
సె@@ 674
తొలి 674
ఏర్పాటు 670
ఐ@@ 663
ఉ@@ 661
అదే 658
రు@@ 657
వల్ల 653
నరేంద్ర 653
అధ్యక్షుడు 652
వీ@@ 651
పు 651
పలు 650
ల్@@ 650
ది@@ 650
కలిగి 649
ప్రత్యేక 648
అతని 648
అవకాశం 648
ఆర్@@ 648
ే@@ 644
కరోనా 643
ప్రజలు 642
దీని 641
తు@@ 639
అనంతరం 639
ా@@ 638
గల 637
సంఖ్య 636
టి 634
జాతీయ 634
కే 633
దీనిపై 632
4 631
ఎక్కువ 628
సోషల్ 623
ఎంతో 623
గా@@ 623
మని 622
జ్ 622
హైదరాబాద్ 622
ఘటన 621
యు@@ 619
ఇదే 618
సం@@ 618
తీవ్ర 616
పాల్గొన్నారు 616
2@@ 614
స్తుంది 614
జా@@ 614
తెలుగు 612
రి 609
ష@@ 609
కేవలం 609
స్తారు 606
తాను 604
ప్ర@@ 604
మీకు 602
సీఎం 602
ఓ@@ 601
వె@@ 600
కె@@ 599
లేదని 595
/ 595
అలా 594
కేసులు 592
ఎన్నికల్లో 591
సంగతి 591
సంస్థ 589
చేయడం 588
యా@@ 588
వు 588
ర 585
అమెరికా 584
గత 583
వ్యక్తం 576
విచారణ 576
6 574
లు@@ 574
విషయంలో 574
నం 574
జీ@@ 572
దు@@ 572
లోనే 571
ాల@@ 571
డు@@ 570
ట 570
20 569
బాలీవుడ్ 568
ించడం 568
% 568
పేర్కొన్నారు 567
మును 567
ాలి 564
మరి 564
చిత్రంలో 563
చే@@ 563
గో@@ 563
పే@@ 560
మీ@@ 558
స్తున్నారు 557
50 556
స్టార్ 555
దాదాపు 555
విజయం 555
రాష్ట్రంలో 554
ట్@@ 554
పోలీసులకు 553
ఉండ@@ 552
ండి 551
చిన్న 550
4@@ 548
అక్కడ 547
ాల్లో 545
ఆర్ 544
లపై 539
ఫిర్యాదు 539
వాటిని 539
చె@@ 538
చిత్రాన్ని 538
8 538
ఎన్నికల 537
యి@@ 534
న్స్ 534
ఇప్పుడు 533
దర్శకత్వం 533
విధంగా 532
పైగా 531
బో@@ 531
అభివృద్ధి 528
ఆరోగ్య 525
ె@@ 525
న్న 524
బు@@ 523
త్ 523
గి@@ 522
19 520
తను 520
ీ@@ 519
నేత 519
ి 517
దర్శకత్వంలో 516
ాలు 516
లక్షలు 515
రామ్ 514
బె@@ 514
య 512
పీ@@ 512
వివిధ 511
బీ@@ 511
6@@ 509
ధర 509
చేసే 508
లే 506
ో@@ 504
పొ@@ 503
తాజాగా 503
చిత్రానికి 503
ించడానికి 502
పె@@ 502
ు@@ 501
వచ్చిన 498
నె@@ 498
మన@@ 498
శ@@ 497
ణ@@ 497
మీడియాలో 495
పడ@@ 495
ి@@ 495
స్తూ 495
కారణంగా 493
5@@ 492
సో@@ 489
ఫ@@ 489
ఉందని 488
దర్శకుడు 488
రె@@ 488
దు 488
పేరు 487
పని@@ 487
విషయాన్ని 487
చేశాడు 486
భ@@ 485
ాయి 485
దేశంలో 485
ఏమి 483
అత్యంత 482
టీ 481
లోకి 479
కోవిడ్ 478
చేస్తుంది 477
కింద 476
రో@@ 476
ప్రకారం 476
న్న@@ 474
దానికి 473
లీ@@ 472
సంబంధించి 472
దేశ 471
ప్ 470
అవి 469
7@@ 469
ప్@@ 469
ప్రపంచ 468
కులు 468
అంద@@ 467
నిర్ణయం 466
8@@ 466
తిరిగి 465
కంటే 465
వచ్చే 463
ముగ్గురు 463
అయినా 462
హా@@ 461
పి 461
జీ 461
స్తున్న 460
కాల@@ 460
వివరాలు 460
తి 460
ప్రతి@@ 460
ంది 459
తీవ్రంగా 458
ధ@@ 458
స్తోంది 458
అను@@ 458
రా 457
దాన్ని 457
బాబు 456
7 456
చేయడానికి 456
చెప్ప@@ 454
టీ@@ 453
రీ@@ 453
కాని 453
అంటూ 451
ించాడు 451
ఉండాలి 451
19@@ 451
నని 450
త్@@ 450
ఎస్@@ 448
చు@@ 448
దీ@@ 447
భార్య 446
చూ@@ 445
కీలక 444
ఎక్కువగా 444
ంపై 444
ందని 443
ఒకటి 443
ష్ 443
కెప్టెన్ 442
సినిమాకు 441
కార్యదర్శి 440
జె@@ 438
డ్@@ 438
శర్మ 438
బ్యాంక్ 438
12 438
నాలుగు 436
ఆస్పత్రికి 436
రెండో 435
రాజకీయ 434
డీ@@ 434
అప్పుడు 434
వీడియో 433
30 433
తున్న 432
వై@@ 432
కుటుంబ 431
15 430
ప్రముఖ 429
వేల 428
దాంతో 427
వర్@@ 427
గ్@@ 426
తీ@@ 426
హి@@ 426
ఖాన్ 425
దేవుని 425
గానే 425
ఆయనకు 424
చేయాలి 424
టా@@ 423
ఇలాంటి 422
ారు 422
ీ 422
లె@@ 422
నేపథ్యంలో 421
వ్యక్తి 421
ాలలో 421
నేతలు 420
వా 420
ించాలని 419
ఐ 419
సమయం 419
రావు 418
లుగా 418
పోటీ 418
ఖ@@ 418
ట్లు 417
మై@@ 417
పాత్రలో 417
డా 417
సంగీతం 417
9 416
త్వరలోనే 416
కం 416
ంద@@ 415
లేక 415
తక్కువ 415
చైనా 415
సినిమాను 413
టీడీపీ 413
అనేది 413
నకు 412
కర@@ 410
మ 410
ులు 409
జో@@ 409
పిల్లలు 408
నట్లు 407
ంత@@ 407
డె@@ 407
చోటు 406
ాలని 406
ండ@@ 406
ఇండియన్ 404
చా@@ 403
మొ@@ 403
ఎ 402
కీ@@ 402
తో@@ 402
ప్రారంభ@@ 402
తీసుకు@@ 402
ించాలి 402
ూ 402
అందులో 401
ఎన్@@ 401
వాడు 401
ఎన్నో 401
మూ@@ 401
యం 400
కోర్టు 399
తెలిపింది 398
డిమాండ్ 397
ల్స్ 394
ఎవరు 394
తుంది 393
మార్@@ 392
షూటింగ్ 392
షా@@ 392
100 392
సీనియర్ 391
షా 391
ఎంత 391
కార్@@ 391
పూర్తిగా 390
నది 390
తల@@ 390
మ్@@ 390
వైరస్ 389
ాలతో 389
చేయాలని 389
కా 389
ఉన్న@@ 389
అండ్ 389
పోయింది 387
పాల@@ 387
పట్ల 386
వెల్లడించారు 385
బిజెపి 385
దేశం 385
ఇటీవల 385
నన్ను 384
ంటే 383
కాలం 383
సహాయం 383
త్వరలో 382
దే@@ 382
దేశ@@ 382
శా@@ 382
ఫి@@ 381
ఎం@@ 381
ఒ@@ 380
కేసులో 379
ప్రమాదం 379
సంఘటన 378
భూ@@ 378
న్నారు 378
అంతర్జాతీయ 378
అరెస్టు 376
కార్యక్రమంలో 375
కారణం 375
s 375
ఇందుకు 375
చేసుకుంది 375
అదుపులోకి 373
వర@@ 372
ఫోన్ 371
కథ 371
2020 371
పవన్ 370
అతడు 370
చంద్రబాబు 370
సే@@ 369
ఇవ్వ@@ 369
అయిన 369
యో@@ 369
తే 368
సుమారు 368
దీన్ని 367
25 367
వచ్చు 366
క్క@@ 365
రాజు 365
ు 364
ఇప్పటి 364
ప్రసాద్ 363
లేని 363
పట్ట@@ 363
లి 363
తోంది 363
అందుకు 363
ూ@@ 362
లేవు 362
ాన్ని 361
యా 360
రాజ్ 360
ఆంధ్రప్రదేశ్ 360
జిల్లాలో 360
కె 359
ఒక్క 359
తం 357
జారీ 356
అసెంబ్లీ 356
రీ 356
హీరోయిన్ 356
ంగ@@ 356
సహా 356
ించేందుకు 354
నో@@ 354
నను 354
ములు 353
టం 352
కాలేదు 352
అసలు 352
భారతీయ 351
వైద్య 351
అరెస్ట్ 351
పూర్ 351
అందుకే 350
యు 350
సిబ్బంది 350
ంత 349
విజయ్ 349
వార@@ 349
శ్రీ@@ 348
అర్థం 348
మందికి 348
కీ 348
తండ్రి 348
లై@@ 347
తగ్గ@@ 346
ఘటనపై 346
ట్రంప్ 346
మాకు 345
ో 345
రాజ@@ 344
అలాంటి 344
500 343
భాగంగా 342
ధరలు 342
డే 342
పై@@ 342
ప్రకటన 341
కేంద్రం 341
ఇవి 341
తదితరులు 340
క్రికెట్ 340
జ్@@ 339
దీనిని 339
ప్రస్తుతం 339
డాక్టర్ 339
రాలేదు 339
యె@@ 339
ఆసుపత్రికి 338
పడింది 338
ణ 338
S@@ 338
ఘటనలో 336
ప్రమాదంలో 336
కర్@@ 336
సూపర్ 334
పోలీస్ 334
రైల్వే 334
కపూర్ 334
స్థానంలో 333
ప్రకటించారు 333
పెట్ట@@ 332
బే@@ 332
తా 332
పోలీసు 332
రై@@ 331
చిత్ర 331
ైన 331
సర్@@ 330
9@@ 330
ష్@@ 330
ంలోని 330
ఎన్టీఆర్ 330
మూవీ 329
కుండా 329
వ్ 328
తారు 327
కోహ్లీ 327
బి 327
మళ్లీ 326
ఆధారంగా 325
ానికి 325
థ@@ 324
తూ 323
కంపెనీ 323
సభ్యులు 323
తులు 322
తున్నారు 322
చేయండి 322
జన@@ 321
సీ 321
ాయ@@ 321
మనకు 321
అయింది 320
తె@@ 320
నీరు 320
వరకూ 319
ముందుకు 318
షి@@ 318
సమస్య 317
ార@@ 317
ల్ని 316
డంతో 316
తిని 315
ె 315
ట్స్ 315
సమావేశంలో 315
ఊ@@ 315
హైదరాబాద్ః 315
0@@ 314
సైతం 314
జట్టు 314
చేసుకున్నారు 314
ిం@@ 314
ఎంపీ 313
ముగా 313
జు@@ 312
14 312
అన@@ 312
చీఫ్ 312
విరాట్ 312
సు 311
గు 311
అమిత్ 310
కారు 310
డా@@ 309
యేసు 309
మేం 309
1@@ 309
జే@@ 308
కల@@ 308
p@@ 308
పనులు 308
గొప్ప 308
పర్@@ 308
రూ@@ 308
అందుబాటులో 308
సమాధానం 308
టె@@ 308
జి 307
ధి@@ 307
హైకోర్టు 307
నిమిత్తం 307
ఉత్పత్తి 307
స్తే 307
స్థానిక 307
ప్రధానమంత్రి 307
తమిళ 307
లేకుండా 306
11 306
ముఖ్య 304
లోనూ 304
మీడియా 304
న్ని 304
మాట్లాడుతూ 303
డే@@ 303
క్స్ 302
ఎన్నికలు 302
ై 301
తీసుకున్నారు 301
అంత 301
నటిస్తున్నారు 300
బ్ 300
్@@ 300
హిందీ 300
40 300
వాళ్లు 299
ప్రజలకు 299
తనకు 298
నటుడు 298
చేస్తున్న 298
వారిలో 298
16 297
నికి 297
వ్యవస్థ 297
చేస్తారు 297
ద 297
ప్రాంతంలో 296
చేసుకున్న 295
పశ్చిమ 295
ఎం 295
గొ@@ 295
మైంది 294
ద్ 294
ఎవరూ 294
డైరెక్టర్ 294
తే@@ 294
సాధారణ 293
స్థాయిలో 293
బల@@ 293
అందరూ 292
పరి@@ 292
ఇచ్చిన 291
వైపు 291
మరోసారి 291
పోస్ట్ 291
కాకుండా 290
హీరో 290
ఎల్@@ 290
కాలంలో 290
మార@@ 290
భా@@ 289
కున్నారు 289
ళ్ల 288
ముంబై 288
రద్దు 287
్ 287
పాత్ర 286
అర్జున్ 286
నప్పుడు 286
గ 286
అమలు 286
ఉండదు 286
ుల 285
మహేష్ 285
కారణాలు 285
ఫ్ 285
చేపట్టారు 284
ించండి 284
ఏపీ 284
నీవు 284
డీ 284
ఉపయోగ@@ 284
వచ్చి 284
ఎంపిక 283
న్ను 283
పడు@@ 282
డ 282
మంత్రిత్వ 282
కుమారుడు 281
వేయ@@ 281
మద్దతు 281
న్లో 281
దానిని 280
o@@ 280
పెళ్లి 280
ఎన్ 279
టర్ 279
కొందరు 279
దా 279
e@@ 278
చూడ@@ 278
తలు 278
శి@@ 278
ఇచ్చారు 277
యూ@@ 277
నిర్మిస్తున్నారు 277
ఆడ@@ 277
ళ్లు 277
పెట్రోల్ 277
న్యూఢిల్లీః 277
గతంలో 277
A@@ 276
తల్లి 276
ులను 276
రిలీజ్ 276
తన@@ 274
య్య@@ 274
అతి 274
కున్న 273
వెళ్ల@@ 273
వచ్చాయి 273
స్పష్టం 273
దే 273
కొని 272
స్త@@ 272
నటించిన 272
న్నా 272
స్ట@@ 272
C@@ 272
ఉప@@ 272
వైరల్ 271
తాయి 271
ప్రాంతాల్లో 271
టు 271
కార@@ 271
ై@@ 271
పర@@ 271
శక్తి 270
ప్రేమ 270
అంచనా 270
నటి 270
24 270
స్తున్నాయి 270
గాను 269
మాట 269
స్తాయి 269
తమ@@ 269
హై@@ 268
పూ@@ 268
తోపాటు 268
అందు@@ 268
మారింది 268
P@@ 268
టీమిండియా 268
ందుకు 268
జస్టిస్ 268
ట్ట@@ 267
క్ష@@ 267
నలుగురు 267
ించాయి 267
వారి@@ 267
తాము 267
వస్తుంది 267
ఒకరు 266
M@@ 266
తెలుసు 266
ద్@@ 266
భారతదేశం 266
వులు 266
18 265
ప్రజల 265
ఐదు 265
న్నాడు 265
న్నది 265
పాక్ 265
కేసీఆర్ 265
అవుతుంది 264
వ్యాధి 264
ొ@@ 264
కోవడం 264
గే@@ 264
స్తు@@ 263
గ్ 263
వాటి 263
ాలపై 263
ఎమ్మెల్యే 263
ఉంటారు 263
తెలుస్తోంది 263
అధినేత 262
అంత@@ 262
ఆమెను 262
నిర్ణయ@@ 262
రక్షణ 262
నాలు 262
హీరోగా 262
సామాజిక 262
అందించారు 262
టు@@ 262
చేయలేదు 261
ందు@@ 261
జీవ@@ 261
200 261
ఎప్పుడూ 260
పట్టు@@ 260
ప్రా@@ 260
సినిమాలు 260
నో 260
న్నా@@ 260
ఎల్ 260
గుజరాత్ 259
తల 259
చేస్తూ 259
దేవుడు 259
కోట్లకు 259
కొంత 259
చట్టం 259
పలువురు 259
యాదవ్ 258
చేసేందుకు 258
తెలియ@@ 258
కదా 258
వ్@@ 257
13 257
ఆందోళన 257
ులకు 257
ుడు 257
నీటి 257
అవు@@ 256
విద్యార్థులు 256
సాధ@@ 256
ార్@@ 256
వలన 255
పవర్ 255
కూ@@ 255
రకాల 255
బ్యాంకు 255
ఉత్తమ 255
వేసి 255
మ్యాచ్ 255
బైబిలు 254
ముఖ్యమైన 254
టో@@ 254
ర్లు 254
ఏమీ 254
తప్ప@@ 254
ఉంటే 253
వుంది 253
10@@ 253
పరుగులు 253
అవ@@ 253
సారి 253
అధికారిక 252
అంతా 252
000 252
ఖర్చు 252
సై@@ 251
మైన@@ 251
భావ@@ 249
చేసుకుని 249
60 249
సినిమాకి 249
న్లు 249
సార్లు 248
నేషనల్ 248
ములను 248
ఎటువంటి 248
క్కు@@ 248
అన్నాడు 248
లీ 248
t@@ 248
20@@ 248
సమ@@ 248
పెద్ద@@ 247
ప్రకట@@ 247
రోహిత్ 247
సిద్ధ@@ 246
ఫ్@@ 245
హత్య 245
e 245
ప్రకటించింది 245
అధిక 245
చరణ్ 245
ందా 245
అతనికి 244
సమస్యలు 244
రైతులు 244
మహారాష్ట్ర 244
పాకిస్తాన్ 244
ంట@@ 244
ఏడాది 244
దాడి 243
హాజరయ్యారు 243
m@@ 243
మి 243
ఉండే 243
ఫై@@ 243
ట్వీట్ 242
టీఆర్ఎస్ 242
హో@@ 242
ధర@@ 242
ప్రేమ@@ 242
ప్రారంభించారు 241
రోజుల 241
ంః 241
బయటకు 241
నష్టం 241
ఒకే 241
రెండవ 240
పంజాబ్ 240
కర్ 240
నటించారు 240
భాషల్లో 240
కో 240
మో 240
చర్చ@@ 239
చేస్తోంది 239
i@@ 239
ఇం@@ 239
వ్వ@@ 239
ఫా@@ 239
ప్రభావం 239
తెలియదు 238
వైఎస్ 238
స్వాధీనం 238
కన్నా 238
సమావేశం 238
17 238
కట్ట@@ 237
నుంది 237
దని 237
దేశాల 237
ఆలోచ@@ 237
ించు 237
కళ్యాణ్ 236
ప్రస్తుత 236
పైన 236
ప్రక్రియ 236
కేసుల 236
ఉత్తర 236
ఎక్కడ 236
t 235
సంస్థలు 235
ారని 235
మార్కెట్లో 235
భారీగా 235
ప్రాణాలు 235
నాన్ని 235
గాయపడ్డారు 234
18@@ 234
పొంద@@ 234
సాంకేతిక 234
కమిటీ 234
హె@@ 234
క్యా@@ 234
అయ్యింది 234
జగన్ 233
చిత్ర@@ 233
సరైన 233
బడ్జెట్ 233
సాధించింది 232
కోవాలి 232
కూడిన 232
ణం 232
జరుపు@@ 232
లూ 232
లేరు 231
యే@@ 230
స్థలానికి 230
స్వ@@ 230
నాయకులు 230
ఇప్పటికీ 230
సర@@ 230
షన్ 230
్య@@ 230
సార@@ 229
టకు 229
జరుగుతుంది 229
పీ 229
ఒక@@ 228
ంటూ 228
లక్షణాలు 228
నిజంగా 228
గవర్నర్ 228
రాలు 227
21 227
s@@ 227
ించి@@ 227
జీవితం 227
చోటుచేసుకుంది 227
డిని 227
తున్నాయి 226
అక్కడి 226
కలు 226
పం@@ 226
కుంది 226
గుర్త@@ 225
కోరారు 225
దక్షిణ 225
డని 225
తికి 225
చూడండి 225
అందుకున్న 225
ుల@@ 225
అందిస్తున్నారు 225
a@@ 224
విలువ 224
రాజీనామా 224
పరీక్ష 224
ళ@@ 224
స్లో 224
దేశవ్యాప్తంగా 224
వివర@@ 223
నాథ్ 223
బ్@@ 223
d@@ 223
ాడు 223
సేవ@@ 223
టాటా 223
కుల 223
పడి@@ 223
ారా 222
ఎఫ్ 222
వైద్యులు 222
చివరి 222
తల్లిదండ్రులు 222
కంగా 222
సంఖ్యలో 222
చొప్పున 222
నిజం 222
మరోవైపు 222
ఆమెకు 222
కర్ణాటక 221
రోడ్డు 221
సాధారణంగా 221
భారతదేశంలో 221
వ్యవసాయ 221
పాకిస్థాన్ 221
ప్రారంభం 220
మహా@@ 220
కొనుగోలు 220
భాగం 220
రాష్ట్రం 220
ించే@@ 220
పోయాయి 220
యన్ 219
వేగంగా 219
ప్రదేశ్ 219
ించవచ్చు 219
విన@@ 219
త్త@@ 219
చిన్న@@ 218
ఎందుకంటే 218
వాడ@@ 217
స్థానికులు 217
కలి@@ 217
స్తా@@ 217
సా 217
అందరికీ 217
గల@@ 217
సుప్రీంకోర్టు 217
ఆయనను 217
చేసుకు@@ 217
వ్యాఖ్యలు 217
కూడదు 217
ాల్@@ 216
వీ 216
చే 216
పేర్కొంది 216
D@@ 216
ించలేదు 216
మార్పు 216
గాని 215
కుని 215
లును 215
ప్ప@@ 215
జయ@@ 215
మైనది 214
పన్ను 214
ంగానే 214
అత్యధిక 214
ాయి@@ 214
ాల్సిన 214
త్తు@@ 214
అల్లు 214
ంట్ 214
రాష్ట్ర@@ 214
ఇప్పటివరకు 213
కాలు 213
కొనసాగ@@ 213
N@@ 213
టే@@ 212
1,@@ 212
u@@ 212
స్తాడు 212
సరి@@ 212
త్రి@@ 212
హు@@ 212
కారణ@@ 212
ష్ట@@ 212
70 212
స్కు 212
ఆస్ట్రేలియా 211
విధానం 211
చరిత్ర 211
పెరిగింది 211
భర్త 210
ళ్ల@@ 210
వ్యా@@ 210
పథకం 210
ప 210
వ్యతిరేకంగా 210
భూమి 210
ట్లను 210
12@@ 210
ఇంజన్ 210
అయ్యారు 210
R@@ 209
దగ్గర 209
కోవ@@ 209
వే 209
ఇష్టం 209
రం 208
ంబ@@ 208
పెట్టారు 208
స్ట్ 208
మూడో 208
బడిన 207
అత@@ 207
మంత్రులు 207
I@@ 207
సంపాద@@ 207
విధ@@ 207
మిగిలిన 207
విషయ@@ 207
వినియోగ@@ 206
కష్ట@@ 206
ముఖ్యంగా 206
నేర్చు@@ 206
ళ్ళు 206
గ్రా@@ 206
చ్ 206
రాష్ట్రపతి 206
కును 206
రాత్రి 205
ించు@@ 205
వ్య@@ 205
మర@@ 205
న్ని@@ 205
బై@@ 205
నిర్మ@@ 205
నిర్@@ 204
కానుంది 204
సంబంధం 204
రికి 204
నట్టు 204
చేరింది 204
మరణ@@ 204
గి 203
c@@ 203
| 203
కన్@@ 203
తెలంగాణలో 203
కుడు 203
తాజా 203
రాజధాని 203
సినీ 203
నిర్మాణం 203
లాంటి 203
ఉన్నట్లు 203
ఢిల్లీలో 203
విషయాలు 203
గె@@ 202
స్థ@@ 202
పోయారు 202
14@@ 202
టర్@@ 202
నిర్వహ@@ 202
పద@@ 202
కావడం 202
ండ్@@ 201
నటిస్తున్న 201
మాట్లాడ@@ 201
శారు 201
తప్పు 201
హ 201
తు 201
అన్న@@ 201
80 201
కల 200
తున్న@@ 200
b@@ 200
ఆదాయం 200
చి 200
ట్టు 200
తమైన 200
రంగ@@ 200
హెచ్@@ 200
పరంగా 200
పడి 200
0 199
పోలింగ్ 199
ఉప 199
తుల 199
ంతా 199
లోక్సభ 199
వాటిలో 199
సన్ 198
కొరకు 198
నిజ@@ 198
ఇన్@@ 198
కాల 198
జనరల్ 198
తంగా 198
విద్యుత్ 198
అధికార 197
శంకర్ 197
కుమార్తె 197
న్కు 197
ఖా@@ 197
ముల@@ 196
చెప్పింది 196
వ్యాప్తంగా 196
ఆత్మహత్య 196
పార్@@ 196
మ్మ@@ 196
సరసన 196
ఫలితాలు 195
ింగ్ 195
స్తున్నాడు 195
దో@@ 195
15@@ 195
నట@@ 194
లుః 194
సహాయ@@ 194
్యం 194
మహిళలు 194
అతిపెద్ద 194
మారుతి 194
భద్రతా 194
నాల 194
బ్ర@@ 194
ల్ల@@ 194
అయి@@ 193
శ్@@ 193
చెప్పాడు 193
చేయవచ్చు 193
కృషి 193
్య 193
పోయిన 193
అంది@@ 193
ల్లా 193
వార్@@ 193
ప్రభుత్వానికి 193
అయ్యాయి 192
డికి 192
అంతే 192
చేర@@ 192
మరిన్ని 192
పెట్టు@@ 192
నమ్మ@@ 192
మహిళా 192
రాష్ట్రాల 192
ఆమోదం 192
తర@@ 192
తయారు 192
చెల్ల@@ 191
ములో 191
పోయి 191
దృష్టి 191
ఫో@@ 191
అప్పటి 191
పార్టీకి 191
టానికి 191
షేర్ 191
ంగ్ 191
ఎక్స్ 191
నగ@@ 191
సిన 190
ించిన@@ 190
స్తుందని 190
ించబడింది 189
వెనుక 189
కన@@ 189
ఎప్పుడు 189
ఉన్నది 189
ఎఫ్@@ 189
చ్@@ 189
ముల 189
చేత 189
వికెట్లు 189
గాయపడిన 189
విదేశీ 189
కలిగిన 189
స్థాయి 189
పాజిటివ్ 189
మాట్లాడారు 188
ాల్సి 188
అవసరమైన 188
నియ@@ 188
23 187
ఘ@@ 187
అవసర@@ 187
అద్భుతమైన 187
చదువు@@ 187
13@@ 187
సీబీఐ 187
నున్నారు 187
మానవ 187
రవాణా 187
బీ 187
బాధ్యత 186
a 186
స్తామని 186
లేదన్నారు 186
గాయ@@ 186
్ర@@ 186
గానీ 186
చేయు@@ 186
సూ@@ 186
కలిగి@@ 186
డై@@ 186
రూపొంద@@ 186
స్థానం 185
చర్చలు 185
చేరుకుని 185
ఆరు 185
అనిల్ 185
దర్శ@@ 185
దిశగా 185
] 185
దేవ@@ 185
ట్లో 185
మార్కెట్ 185
మరణించారు 185
నూతన 184
రామ@@ 184
ఒక్క@@ 184
రాయ@@ 184
ణి 184
గుర@@ 184
తగిన 184
రక్ష@@ 184
ప్రవేశ@@ 184
డ్స్ 184
ింప@@ 184
విశేషం 183
లోను 183
వీరి 183
వాయిదా 183
సంబంధిత 183
B@@ 183
ాల 183
దాఖలు 183
అన్న 183
కూతురు 182
నిలిచింది 182
నీకు 182
ార్ 182
రియ@@ 182
ట్ల 182
మృతదేహాన్ని 182
చేసుకో@@ 182
రేటు 182
శ్రీనివాస్ 182
ఉన్నాడు 182
వెళ్ళ@@ 182
నున్న 182
నెల 182
ఉంటుందని 182
అమ్మ@@ 182
మహిళ 181
తొలగ@@ 181
చీ@@ 181
జై@@ 181
మార్పులు 181
కం@@ 181
చేసారు 181
వేశారు 181
మాన@@ 181
జరగ@@ 181
ప్రచారం 181
సాధించిన 181
ంలోనే 181
తమిళనాడు 181
ప్రాంతం 181
చ్చి@@ 181
సింది 181
మెంట్ 181
వుల 181
చేసి@@ 181
ఇంట్లో 181
ప్రపంచవ్యాప్తంగా 181
నిర్వహించారు 180
టై@@ 180
ఆరోగ్యం 180
అభిమానులు 180
సౌ@@ 180
300 180
ముఖ@@ 180
స్థానాల్లో 180
` 180
సులు 180
భయ@@ 180
వీటిని 180
రాజస్థాన్ 179
తీ 179
ప్పుడు 179
ర్స్ 179
బాధ@@ 179
స 179
,000 179
ప్రాథమిక 179
[ 179
T@@ 179
నిర్మాత 179
ఏదైనా 179
పాత్రల్లో 178
S 178
చెయ్య@@ 178
కేంద్ర@@ 178
కాదని 178
వర్షం 178
చేపట్ట@@ 178
సుప్రీం 178
వారం 178
త్ర@@ 178
కూ 178
& 177
బెంగాల్ 177
ట్ను 177
అదనపు 177
బొ@@ 177
నడి@@ 177
17@@ 177
స్ను 177
22 177
రాష్ట్రంలోని 177
మొబైల్ 177
త్వం 176
ఏంటి 176
దేశంలోని 176
లైన 176
దాని@@ 176
చు 176
రైలు 176
మంచి@@ 176
నష్ట@@ 176
భారత్లో 176
ంలోకి 175
కోవడానికి 175
వరుసగా 175
ఎయిర్ 175
ంటి 175
విమర్శలు 175
తీసుకున్న 175
తప్పు@@ 175
టా 175
డంలో 175
వీటిలో 175
హీ@@ 175
వేలు 175
వివరించారు 174
లం 174
బ్యా@@ 174
బడి@@ 174
తుందని 174
సభ 174
వాల@@ 174
ఉదయం 174
తున్నాడు 174
న్నాను 174
n@@ 174
తూర్పు 174
డో 174
తీసుకోవాలి 174
ించుకు@@ 174
ంటారు 174
30@@ 173
మోహన్ 173
చెన్నై 173
అతి@@ 173
పడుతుంది 173
ఆహారం 173
కనిపించ@@ 173
నాటికి 173
కొత్తగా 173
వర్షాలు 173
ఇంత 173
వచ్చి@@ 173
చేశాయి 172
మ్యాచ్లో 172
కొండ@@ 172
24@@ 172
అవకాశాలు 172
డబ్బు 172
నిర్వహణ 172
ఏదో 172
న్నాయి 172
ఇ 172
్రా@@ 171
h@@ 171
బడింది 171
పరిస్థితులు 171
దూరం 171
పొందు@@ 171
ఇద్దరూ 171
టాప్ 171
ాలుగా 171
సుజుకి 171
కొన@@ 171
వేసింది 171
లభించింది 171
అభి@@ 171
ట్విట్టర్ 171
సొ@@ 171
అధికారి 171
నాయుడు 171
నూ 171
ఉదాహరణకు 171
హిట్ 170
వహ@@ 170
యుద్ధం 170
జరుగుతున్న 170
నలో 170
కల్@@ 170
తీసుకో@@ 170
ప్రశ్న 170
యువ@@ 170
మునకు 170
పరు@@ 170
రాష్ట్రాలు 170
కొను@@ 169
ందో 169
వచ్చారు 169
చైర్మన్ 169
గారు 169
రూపాయల 169
స్థాన@@ 169
ఆటో 169
కేరళ 169
నై@@ 169
పాలు 169
జరుగుతోంది 169
కాస్త 169
పే 169
అధికంగా 169
షే@@ 168
ఫె@@ 168
సంవత్సరాల 168
తుల@@ 168
న్యాయ@@ 168
ప్రైవేటు 168
జీవితంలో 168
సాక్షి 168
శ 168
ఉండగా 168
సూచ@@ 167
బోధ@@ 167
యాన్ని 167
భారత్కు 167
డిగా 167
ఉండేది 167
ఇరు 167
రికార్డు 167
చో@@ 167
వారితో 167
పోస్టుమార్టం 167
నర్@@ 167
ంటి@@ 167
నవ@@ 166
య్య 166
నిజానికి 166
సీట్లు 166
కనీసం 166
సినిమాని 166
చెప్పు@@ 166
ట్ల@@ 166
కృష్ణ 166
క్రింది 166
స్తాం 166
రైతుల 166
మంద@@ 166
నలు 165
శ్ 165
మళ్ళీ 165
య్యారు 165
ప్లా@@ 165
చాలామంది 165
ఎక్స్@@ 165
గ్రహ@@ 165
అనుమతి 165
తేదీ 165
పరీక్షలు 164
జల@@ 164
చేసుకోవాలి 164
ముఖ్య@@ 164
ాలా 164
యంగా 164
శుభాకాంక్షలు 164
ఇచ్చింది 164
నాయకుడు 164
స్తున్న@@ 164
ళ్లలో 163
పడ్డారు 163
టెస్టు 163
ేందుకు 163
సహ@@ 163
తులను 163
సిం@@ 163
గులు 163
భేటీ 163
స్పందన 163
తమకు 163
డీజిల్ 163
కథ@@ 163
వాడు@@ 163
అధి@@ 162
డ్రైవర్ 162
వెళ్@@ 162
సంతోషంగా 162
16@@ 162
తయారీ 162
ఎత్తున 162
కూడ 162
మౌ@@ 162
మెగా 161
అం@@ 161
అవును 161
కార్యక్రమం 161
బయట@@ 161
నిర్మాణ 161
మార్గం 161
చేసినట్లు 161
కుటుంబం 161
ఒక్కో 161
రంగం 161
మ్యా@@ 161
గాయాలయ్యాయి 160
భద్రత 160
తీవ్ర@@ 160
సులభం 160
ఒప్పందం 160
విషయమై 160
పెద్దగా 160
లక్ష@@ 160
వివాహం 160
ంచ@@ 160
చూసి 160
ప్రొడక్షన్ 159
పాట@@ 159
రైతులకు 159
పాల్@@ 159
మూ 159
జరుగుతున్నాయి 159
జాగ్రత్తగా 159
ంటు@@ 159
ప్రాజెక్టు 159
కరణ 159
పిల్లల 159
కార్యక్రమాలు 159
అన్నీ 159
నాటి 159
సంయుక్తంగా 159
కులను 159
ంది@@ 159
నూనె 159
ించినట్లు 159
ఎమ్మెల్యేలు 159
మధ్య@@ 158
వీరికి 158
ఆరోపించారు 158
చెందారు 158
దూ@@ 158
స్తున్నట్లు 158
టింగ్ 158
అంటున్నారు 158
తెలియజే@@ 158
మందిని 158
కరి@@ 158
వార్తలు 158
రిని 158
ముందు@@ 158
బంగారం 158
నేడు 158
కొనసాగు@@ 158
ఐదుగురు 157
నానికి 157
తీసుకుని 157
ఇంటికి 157
పరుగుల 157
కను 157
ప్రాంత@@ 157
బ్లాక్ 157
మాటలు 157
గుర్తింపు 157
అధికార@@ 157
చెబుతున్నారు 156
కెమెరా 156
బడి 156
హిందూ 156
అయినప్పటికీ 156
అర్@@ 156
ణకు 156
పెట్టి 156
తెరకెక్కుతున్న 156
వం 156
ౌ@@ 156
2019 156
కరమైన 156
న్నీ 156
ప్రదర్శ@@ 155
అంటారు 155
ఇంటి 155
చేరు@@ 155
ఆహార 155
స్పీడ్ 155
బెంగళూరు 155
సం 155
ఏర్పాట్లు 155
నగర్ 155
కునే 155
వాణిజ్య 155
వర్ 155
ఆరోపణలు 155
ఫస్ట్ 155
కార్యక్రమానికి 154
ప్రజలను 154
F@@ 154
ఆసక్తి 154
చిన 154
పల్లి 154
చర్చ 154
ంచి 154
డైన 154
అడ్డు@@ 154
1.@@ 154
పాటలు 154
పైకి 154
ప్రశ్నించారు 154
వెళ్లి 154
జు 154
రావ@@ 154
ఎమ్@@ 154
కష్టం 154
ఇటీవలే 154
మన్ 154
సల్మాన్ 153
పొందిన 153
35 153
పోలీసుల 153
తనను 153
డమే 153
మరి@@ 153
మాట్లాడు@@ 153
ఆస్పత్రిలో 153
వల@@ 153
ఉంచ@@ 153
కిలోమీటర్ల 153
జరిగాయి 153
దేవు@@ 153
g@@ 153
సిరీస్ 153
ణను 152
సృష్ట@@ 152
తేడాతో 152
కొద్ది 152
రాజమౌళి 152
తెర@@ 152
దీ 152
ణి@@ 152
50@@ 152
వ్యక్తిగత 152
మరణం 152
క్రమంలో 152
పక్ష@@ 152
దుర్@@ 152
గర్@@ 152
ఆనంద@@ 152
క్య@@ 151
ఏళ్ల 151
వం@@ 151
కావాలి 151
హెచ్ 151
రే 151
ఘటనా 151
ండ్ 151
సేవలు 151
నిర్మించారు 151
జరుగు@@ 151
టెస్ట్ 151
అల@@ 151
సత్య@@ 150
అతడి 150
తాడు 150
బ్రా@@ 150
వర్మ 150
వలెను 150
జూ@@ 150
ప్లాన్ 150
చెబు@@ 150
లైన్ 150
సంఘం 150
ఉందా 150
2,@@ 150
వివరాలను 150
వాళ్ల@@ 150
ఫలితంగా 150
విషయంపై 149
ఒత్తిడి 149
రోజుల్లో 149
ఉన్నత 149
పెంచు@@ 149
యాల 149
సర్ 149
రాష్ట్రాల్లో 149
బోర్డు 149
రావడం 149
మార్గ@@ 149
ప్రయోజనం 149
ఛ@@ 149
బలమైన 149
ణాలు 149
సొంత 149
అడుగు@@ 149
వీరిలో 149
సాయం 148
వేరే 148
దార@@ 148
3,@@ 148
వాళ్ళు 148
తకు 148
రంగంలో 148
కుల@@ 148
జా 148
చేసే@@ 148
తీసుకొ@@ 148
స్తున్నాను 148
ఇంత@@ 148
శిక్షణ 148
బస్సు 148
సంబంధ@@ 148
విద్యా@@ 148
కారం 148
సరికొత్త 147
సరఫరా 147
మై 147
సిద్ధం 147
త్వరగా 147
ఇబ్బందులు 147
యింది 147
బట్టి 147
అభ్యర్థి 147
ఏది 147
వైద్య@@ 146
ారట 146
వడం 146
మధ్యప్రదేశ్ 146
ప్రయత్నం 146
దరఖాస్తు 146
రైతు 146
వేదికగా 146
2018 146
నువ్వు 146
జర్ 146
ప్రపంచంలో 146
య్ 146
ఇన్ 146
కావ@@ 146
లీటర్ 146
ప్రధానంగా 146
దో 146
కార్య@@ 146
బీజేపీకి 146
ఐపీఎల్ 145
భాగ@@ 145
అర్థ@@ 145
పిల్ల@@ 145
యాలు 145
రోజుకు 145
నియమ@@ 145
కున్నాడు 145
తెలిసింది 145
టికి 145
నేది 145
అన్నది 145
కేటాయ@@ 145
ఇద్దరి 145
U@@ 145
సిద్ధంగా 145
చేరుకున్న 145
నాగ@@ 145
ళ్ళ@@ 145
ఎదుర్కొ@@ 145
దక్క@@ 144
సూచించారు 144
సెంట్రల్ 144
జరిగే 144
ప్రమాద@@ 144
కాద@@ 144
ాలి@@ 144
మన్నారు 144
తున్నాను 144
7.@@ 144
దురు 144
ప్రయోజనాలు 144
90 144
పాత్రలు 144
ైనా 144
తీసుకోవాలని 143
ఉంచు@@ 143
పట్టణ@@ 143
G@@ 143
చ్చ@@ 143
తెలుగులో 143
నిరసన 143
ఫీ@@ 143
ేది 143
150 143
ప్రియాంక 143
నమ్మకం 143
డును 143
ందన్నారు 143
లిమిటెడ్ 143
er@@ 143
స్టేషన్ 143
2.@@ 143
లభిస్తుంది 143
25@@ 143
నంగా 143
భిన్నంగా 143
ాయ్ 142
ధా@@ 142
రాల@@ 142
రాజీవ్ 142
ించడంతో 142
ఉన్నాయిః 142
తదితర 142
పిటిషన్ 142
ముందుగా 142
f@@ 142
పతాకంపై 142
ఆసుపత్రిలో 142
అరవింద్ 142
వద్దు 142
ారో 142
ప్రభుత్వాన్ని 142
L@@ 142
వన్ 142
చార్@@ 142
మహీంద్రా 142
తరల@@ 141
టైటిల్ 141
నర్ 141
సంగీత 141
y 141
ఉండాలని 141
రాజ్య@@ 141
ూరు 141
సహాయ 141
ాల్ 141
ఇష్ట@@ 141
పరిస్థితిని 141
ష 141
కన్నడ 141
గుర్తు 141
జీవిత 141
బాల@@ 141
ప్రేక్షకుల 141
w@@ 140
న్ల 140
విద్య 140
నాడు 140
కలిపి 140
ఏర్@@ 140
స్కూ@@ 140
సందర్శ@@ 140
కృష్ణ@@ 140
వస్తు@@ 140
పోటీ@@ 140
బం@@ 140
కని@@ 140
ar@@ 140
మిగతా 140
జీబీ 140
యానికి 140
ించనున్నారు 140
గాయాలు 140
స్టా@@ 140
రోజులు 139
సంచలన 139
బూ@@ 139
హామీ 139
కొనసాగుతోంది 139
A 139
ాలు@@ 139
C 139
హోం 139
వరల్డ్ 139
ట్రా@@ 139
న్నాం 139
అంశ@@ 139
వృ@@ 139
ప్రయత్ని@@ 139
k@@ 139
ఇరు@@ 139
పరిచయం 139
400 139
గో 138
నొ@@ 138
నియంత్రణ 138
తప్పకుండా 138
28 138
తదుపరి 138
కింగ్ 138
హే@@ 138
మోడ@@ 138
కేసును 138
వో 138
వృద్ధి 138
ట్లుగా 138
పూర్తి@@ 138
75 138
in@@ 138
ప్రైవేట్ 138
బడు@@ 138
ఆశ@@ 138
పోతుంది 138
వడ్డీ 138
నిక@@ 138
ెను 137
బృందం 137
ప్రభాస్ 137
విభాగం 137
నిందితులను 137
అధికారికంగా 137
చట్ట@@ 137
ండి@@ 137
ణా@@ 137
ఆలోచన 137
ఆర్టికల్ 137
ఎక్@@ 137
ఆసియా 137
క్రి@@ 137
కుడి 136
తీర్పు 136
v@@ 136
స్తాను 136
మహ@@ 136
న్యాయమూర్తి 136
సాధ్య@@ 136
E@@ 136
లాల్ 136
తున్నది 136
లర్ 136
సెక్షన్ 135
ింపు 135
తెరకెక్కిన 135
పడే 135
ందు 135
గుర్తు@@ 135
మహమ్మారి 135
పించ@@ 135
దర్@@ 135
చెంద@@ 135
తెలి@@ 135
రోజు@@ 135
స్తో 135
అలీ 135
స్వయంగా 135
హీరోయిన్గా 135
అధ్యయనం 135
క్రికెటర్ 135
సంవత్సరం 135
అవార్డు 135
న్యూ@@ 135
డౌన్ 134
వున్న 134
కమిషనర్ 134
ారి@@ 134
మాట@@ 134
కాం@@ 134
వికెట్ 134
అప@@ 134
బరువు 134
శిక్ష@@ 134
గ్ర@@ 134
పార్టీ@@ 134
మారు@@ 134
200@@ 134
కప్ 134
ప్రకటించిన 134
పేరుతో 134
సభలో 134
టేబుల్ 134
ప్రత్యేకంగా 133
చేస్తే 133
ద్ర@@ 133
నిద్ర@@ 133
తీయ@@ 133
వస్తే 133
నటించింది 133
బర్@@ 133
సచిన్ 133
నటిస్తోంది 133
క్ర@@ 133
201@@ 133
ాలుః 133
వాతావరణ 133
చేసుకొని 133
మ్యూజిక్ 133
ఆధార@@ 133
కారు@@ 132
తూ@@ 132
భాగంలో 132
దేశాలు 132
కులకు 132
ద్ద@@ 132
మంచిది 132
కనిపి@@ 132
నగరంలో 132
పిల్లలకు 132
లాభ@@ 132
ణాన్ని 132
జ 132
కశ్మీర్ 132
ాయని 132
పటేల్ 131
ఆలయం 131
వసూలు 131
ఉప్పు 131
నెలలో 131
ఎల్లప్పుడూ 131
విచార@@ 131
వర్గాలు 131
కాక 131
గూగుల్ 131
నగరం 131
ట్రైలర్ 131
ప్పు@@ 131
ఫర్ 131
ధ 131
మేర 131
ఏడు 131
అక్ష@@ 131
వని 131
దేవి 131
చేస్తామని 131
కన్న@@ 131
కుంటు@@ 131
గే 131
చేస్తున్నట్లు 130
య్యాయి 130
దారి 130
అవగాహన 130
సీసీ 130
వీరు 130
ించాం 130
జనాభా 130
ఆర్మీ 130
క్రింద 130
ఆయ@@ 130
మెరుగు@@ 130
రక్త@@ 130
గ్రామంలో 130
సామర్థ్యం 130
గురు@@ 130
వహిస్తున్నారు 130
గడి@@ 129
కరంగా 129
బడ@@ 129
అనుష్క 129
దశలో 129
్యాన్ని 129
మ్మ 129
గీ@@ 129
ప్రజా 129
మృతుల 129
్యా@@ 129
పాఠశాల 129
0.@@ 129
అక్కడే 129
ఖచ్చితంగా 129
మరొక 129
కౌ@@ 129
గాలి 129
పులు 129
వస్తోంది 129
తీవ్రమైన 129
చూపించ@@ 129
ించాను 129
ఉండవచ్చు 128
విటమిన్ 128
కర 128
O@@ 128
స్తున్నాం 128
ప్రయత్నాలు 128
ఇంతకీ 128
సే 128
టెక్నాలజీ 128
అక్కడికక్కడే 128
రాదు 128
స్థానాలు 128
సవరణ 128
ఆదేశించారు 128
దేశీయ 128
తున్నట్లు 128
గ్రామీణ 128
చేపట్టిన 128
వీటి 127
ప్రి@@ 127
l@@ 127
చేశాను 127
లూ@@ 127
మంజూరు 127
తొ@@ 127
యి 127
ంటుంది 127
రం@@ 127
6.@@ 127
ాలంటే 127
వ్యవహారాల 127
మెడికల్ 127
మండలం 127
సూచి@@ 127
పార్టీలు 127
తార@@ 127
మారి@@ 127
నియా 127
చేరారు 127
అతన్ని 126
శిక్ష 126
నాయ@@ 126
వేసిన 126
చింది 126
విడి@@ 126
చోట్ల 126
మరీ 126
లేద@@ 126
ట్టి 126
రణ@@ 126
నిర్మా@@ 126
కుమారు@@ 126
సంబంధాలు 126
ించగా 126
జరిగి@@ 126
ర్లో 126
వెనక్కి 126
సాధి@@ 126
పాల్ 126
జర్@@ 126
భి@@ 126
ఏర్పడింది 126
మహిళల 126
లోక్ 126
అందువల్ల 126
చివరికి 126
అప్పటికే 125
అప్పగ@@ 125
డిజైన్ 125
_ 125
దశ@@ 125
కొడుకు 125
కమ@@ 125
ందట 125
వాటి@@ 125
ట్టు@@ 125
పంప@@ 125
ప్రే@@ 125
కోట్లను 125
దిల్ 125
పరిష్కర@@ 125
మోటార్స్ 125
చెప్పి@@ 125
అంశం 125
నిర్ధార@@ 125
రష్యా 125
సంస్థల 125
లాక్ 124
అతడిని 124
రమేష్ 124
భద్ర@@ 124
క్రితం 124
ఇవాళ 124
పూజా 124
విషమంగా 124
అంచనాలు 124
ఆయా 124
వ్యక్తులు 124
షాక్ 124
నిలు@@ 124
ఎవరికీ 124
ఈసారి 124
నిన్ను 124
లుక్ 124
మార్చ@@ 124
పెంచ@@ 124
మండలి 124
నియంత్ర@@ 124
విని 124
ఆన్లైన్ 124
తోనే 124
మూల@@ 124
పరిశీల@@ 124
సీజన్ 124
సినిమాల్లో 123
స్పష్టంగా 123
ఇండియాలో 123
ఆశ్చర్య@@ 123
తగా 123
వెండి 123
ప్రజ@@ 123
నడు@@ 123
నగదు 123
వ్యాపార 123
రాజ్@@ 123
పార్టీల 123
పార్లమెంట్ 123
అక్కడికి 123
ారా@@ 123
లెక్క@@ 123
గ్రామ@@ 123
ప్రాణ@@ 123
ించుకున్నారు 123
ధన్యవాదాలు 123
చెప్@@ 123
కాపాడు@@ 123
ందర్ 123
కల్పి@@ 122
సినిమ@@ 122
వ్యాప్తి 122
కింది 122
ఉందన్నారు 122
విడుదలైన 122
ికి 122
ల్లి@@ 122
దేశాల్లో 122
ంగా@@ 122
అంతేకాదు 122
కృతజ్ఞతలు 122
కల్పించ@@ 122
చేయనున్నారు 122
రంగు 122
స్టర్ 122
re@@ 122
లిం@@ 122
నటి@@ 122
చై@@ 122
పరచ@@ 122
ర్ర@@ 122
అభ్యర్థులు 122
సంజయ్ 122
వ్యవహర@@ 122
శీ@@ 122
విజయ@@ 121
భాష 121
ఎస్పీ 121
సేవ 121
శాంతి 121
కేసు@@ 121
డిజిటల్ 121
బుక్ 121
క్రమ@@ 121
జపాన్ 121
క్ను 121
వో@@ 121
న్నట్లు 121
వహించారు 121
పంచు@@ 121
దానిపై 121
దీని@@ 121
నమోదైంది 121
ించబడుతుంది 121
అటు 121
పార్టీలో 121
పోష@@ 121
అన్@@ 121
మత@@ 121
.@@ 121
ిని 121
వాతావరణం 121
పోయి@@ 121
మం@@ 120
అదనంగా 120
దం 120
పేరు@@ 120
లేఖ@@ 120
ప్రతీ 120
పడ్డాయి 120
విడుదల@@ 120
తిలో 120
గలి@@ 120
నిర్మి@@ 120
వాద@@ 120
లింగ్ 120
త్వ@@ 120
గోదావరి 120
అనుమత@@ 120
ాను 120
నంద@@ 120
ల్లా@@ 120
కొంతమంది 120
వర్త@@ 120
క్కు 120
పారి@@ 120
బిల్లు 120
స్మార్ట్ 119
అనుగుణంగా 119
న్య@@ 119
ఆరుగురు 119
వాళ్ల 119
ఉంద@@ 119
ప్యా@@ 119
మెరుగైన 119
కోలేదు 119
కై@@ 119
ఎన్నిక@@ 119
గోపాల్ 119
లేఖ 119
ముందే 119
సినిమాపై 119
H@@ 119
చ్చి 119
సాగ@@ 119
వును 119
తున్నా@@ 119
పుట్ట@@ 119
కుటుంబ@@ 119
45 119
ఉన్నాయని 119
తరఫున 119
అరుణ్ 119
కృ@@ 119
క్రైస్తవ 119
దూరంగా 118
r@@ 118
కావడంతో 118
ఎవరైనా 118
చారు 118
ప్రోత్సహ@@ 118
క్రియేషన్స్ 118
ఎక్క@@ 118
జమ్మూ 118
26 118
స్వా@@ 118
సరిగ్గా 118
పంపిణీ 118
ఇంగ్లాండ్ 118
గుర్తించారు 118
స్పందించారు 118
ప్రపంచం 118
అమ@@ 118
డర్ 118
ఎమ్ 118
ారన్నారు 118
ఆదేశాలు 117
స్వామి 117
వాస్తవానికి 117
క్రా@@ 117
ంప@@ 117
రోజూ 117
కోండి 117
గిరి 117
విం@@ 117
పరిశోధన 117
మండిపడ్డారు 117
రీమేక్ 117
ప్లే 117
తక్కువగా 117
వెల్లడించింది 117
ఒప్పు@@ 117
కండి 117
ప్రతినిధి 117
అడ్@@ 117
నల్ 117
టిక్ 117
భాష@@ 117
దేవరకొండ 117
డ్డ@@ 117
వాటికి 117
నిందితుడిని 116
ఓటు 116
స్టు 116
సంస్థ@@ 116
బిగ్ 116
బాస్ 116
కోరు@@ 116
చ్చు@@ 116
మాన్ 116
పం 116
కనిపిస్తుంది 116
తెలుసుకున్న 116
షె@@ 116
శాసన@@ 116
ఆత్మ@@ 116
బ్యాటింగ్ 116
పోయాడు 116
చ్చింది 116
అర@@ 116
చంద్ర@@ 116
శివసేన 116
:@@ 116
జన్ 116
హెగ్డే 116
ఏకంగా 116
ఆగ@@ 116
ింగ్@@ 115
బీహార్ 115
ప్రశ్నలు 115
వేగం 115
పించింది 115
చేరుకొని 115
పూర్@@ 115
శాతానికి 115
కొట్ట@@ 115
సంఘ@@ 115
ప్రతిపక్ష 115
విద్యార్థులకు 115
మం 115
న్యాయం 115
ఇటువంటి 115
తుది 115
మొదట 115
డో@@ 115
నిర్దేశ@@ 115
షన్లు 115
ఘన 115
జాబితాలో 115
3.@@ 115
ఫల@@ 115
న్యూ 114
ించారని 114
ప్రజా@@ 114
సోనియా 114
సిటీ 114
అమెరికాలో 114
సంతోష@@ 114
వెళ్లి@@ 114
నాల@@ 114
డ్ర@@ 114
వై 114
పురం 114
197@@ 114
హరి@@ 114
దశ 114
కోవాలని 114
వ్యాపార@@ 114
క్రమంగా 114
ఆమోద@@ 114
అనుభవ@@ 114
ఆగ్రహం 114
నీళ్లు 114
చ్చారు 114
చెప్పిన 114
నంలో 114
ల్లు@@ 114
ించుకో@@ 114
వర్గాల 114
నూ@@ 113
ొ 113
గాయాల@@ 113
రచయిత 113
యెహోవాకు 113
రంగంలోకి 113
కట్ 113
రొ@@ 113
చనిపోయారు 113
క్లో 113
విని@@ 113
ప్రపంచ@@ 113
పెట్టింది 113
స్థలం 113
పాత 113
వాల్@@ 113
కడ@@ 113
భవ@@ 113
స్తున్నది 113
ల్ను 113
వారిపై 113
ించబడిన 113
చూప@@ 113
అజయ్ 113
దారులు 112
కఠిన 112
బంగ్లాదేశ్ 112
చూద్దాం 112
తరచుగా 112
చుట్టూ 112
ంద్ర@@ 112
ఉద్యోగం 112
టీవీ 112
ందే@@ 112
దె@@ 112
తెలియజేశారు 112
వివాదం 112
నిల@@ 112
4.@@ 112
చ్చే 112
నమోద@@ 112
వైసీపీ 112
కావచ్చు 112
నిగా 112
27 112
చార@@ 112
ాలే 112
అనుభవం 112
ప్రభుత్వ@@ 112
మానసిక 112
స్ట్ర@@ 112
హీరోయిన్లుగా 111
నిధులు 111
పౌలు 111
నేతృత్వంలోని 111
వులకు 111
నిర్వహించిన 111
వీడియోను 111
సంతాపం 111
నమోదయ్యాయి 111
బెస్ట్ 111
గెలు@@ 111
టివ్ 111
లేకపో@@ 111
అనుసర@@ 111
కారణాల 111
మనిషి 111
పోస్టు 111
యాక్షన్ 111
గిన 111
ట్ర@@ 111
చేరుకున్నారు 111
ప్రాంతాలు 111
మాత్ర@@ 111
2017 111
కాశ్మీర్ 111
నెలల 110
ఉండటం 110
టెక్@@ 110
అంశంపై 110
వాళ్ళ@@ 110
బహు@@ 110
ఎంచు@@ 110
ఎలక్ట్రిక్ 110
రహ@@ 110
ప్రతీ@@ 110
సాధ్యం 110
అంగీకర@@ 110
అద్భుతంగా 110
స్ప@@ 110
దిగారు 110
స్థా@@ 110
వేరు 110
జాబితా 110
దిన@@ 110
కాలే@@ 110
పడిన 110
తతో 110
టాస్ 110
నప్పటికీ 110
28@@ 110
కమైన 110
కాల్పులు 110
నెలకొంది 110
క్ల@@ 110
నవి 110
పెట్టిన 110
ఓట్లు 110
వెళ్లారు 110
బు 110
మందు 110
199@@ 110
సాయి 110
తేడా 110
డాన్ని 110
ట్లకు 110
అత్యధికంగా 110
అగర్వాల్ 109
నిందితు@@ 109
మల@@ 109
ర్ల 109
రాష్ట్రానికి 109
ప్రభుత్వాలు 109
మ్స్ 109
మౌలిక 109
దాకా 109
జరి@@ 109
రియా 109
విష@@ 109
కొనసాగి@@ 109
చూపి@@ 109
కొత్త@@ 109
పొందుతూ 109
రంగ 109
ఆధారిత 109
ఆల్@@ 109
32 109
మయ్యాయి 109
గూ@@ 109
పడుతున్నారు 109
తొలుత 109
దొ@@ 109
ఆప@@ 109
డేటా 109
అనగా 109
కొల@@ 109
అవకాశ@@ 109
మిమ్మల్ని 109
ాలను@@ 109
దీనివల్ల 109
చ్చిన 109
వేడి 109
తరచూ 109
కేజ్రీవాల్ 109
ప్రణాళిక 109
మిషన్ 109
నున్నాయి 109
తిరు@@ 108
నాని 108
స్పంద@@ 108
ధు@@ 108
వచ్చే@@ 108
చర్య 108
తెలుస్తుంది 108
ింపు@@ 108
వర్క్ 108
ఉండే@@ 108
గ్రూప్ 108
ించిందని 108
డిగ్రీ 108
య్యాడు 108
చేరుకుంది 108
షీ@@ 108
కొండ 108
ళ 108
ఆధునిక 108
భావిస్తున్నారు 108
చేసుకోవ@@ 108
య్యే 108
ఫోటో 108
చేరిన 108
తెరకెక్క@@ 108
మండ@@ 108
ఘటనకు 108
నులు 108
దాడికి 108
ఎక్కడా 108
లని 107
గ్రామం 107
కాల్@@ 107
నివా@@ 107
ఈమె 107
కీర్తన 107
కుటుంబానికి 107
ట్రాఫిక్ 107
గ్రంథ@@ 107
చేశా@@ 107
కలో 107
కుమారులు 107
ధార@@ 107
ఇదంతా 107
వలె 107
ణు@@ 107
జీవి@@ 107
డాక్టర్లు 107
బాద్ 107
రాయ్ 107
ఈయన 107
అయ్య@@ 107
6,@@ 107
వంటివి 107
బాలిక 107
మనము 107
స్థల@@ 107
కను@@ 107
గమనార్హం 107
దేశానికి 107
న్తో 107
ాల్ని 107
ధోనీ 107
విస్తర@@ 107
షెడ్యూల్ 107
యెడల 107
at@@ 107
ధం 106
అమితాబ్ 106
హ్@@ 106
మన్@@ 106
నిక్ 106
ప్రయత్నించ@@ 106
చేస్తున్నాయి 106
తులకు 106
ండు@@ 106
దిగిన 106
ముఖ్యమంత్రిగా 106
చూడాలి 106
క్షతగాత్రులను 106
పైనే 106
మర్@@ 106
చిత్రాలు 106
సీతారామన్ 106
ధర్మాసనం 106
భయపడ@@ 106
జం 106
ఆర్ధిక 106
త్య@@ 106
తూనే 106
రాజా 106
మార్కెట్లు 106
ాలోని 106
ిక 106
ముఖ్యం 106
దీనితో 106
సుశాంత్ 106
ంతం 106
ఎదురు 106
ఎవర@@ 106
సాగు@@ 106
పేర్కొ@@ 106
ాయన్నారు 106
తీసుకోవ@@ 106
ట్టి@@ 106
తీసుకుంది 106
నిరా@@ 106
ంగ్@@ 106
కోరుకు@@ 106
మోటార్ 106
తిగా 106
m 106
ప్రశ్న@@ 105
మవు@@ 105
మణి@@ 105
డిప్యూటీ 105
ఫలితం 105
స్వీ@@ 105
కమిషన్ 105
జూన్ 105
చరిత్రలో 105
చేసుకోవచ్చు 105
ఇవన్నీ 105
మించి 105
వానికి 105
చివరకు 105
రౌ@@ 105
29 105
లెట్ 105
ించాల్సిన 105
చూస్తే 105
ాయా 105
సమావేశానికి 105
ఆయన@@ 105
పాట 105
ఇవ్వాలని 105
నివేదిక 105
తప్ప 105
ంచు@@ 105
పాల్గొ@@ 105
సరే 105
వచ్చని 104
ించడంలో 104
పరీక్ష@@ 104
గెలిచిన 104
గౌరవ@@ 104
నుంచే 104
క్ట్ 104
నగర 104
ఎంపిక@@ 104
పేట 104
ల్కు 104
ల్లు 104
చేశారని 104
బాధ్యతలు 104
ఊహ@@ 104
సేపు 104
వ్యవస్థ@@ 104
ముద్ర@@ 104
సహాయపడుతుంది 104
విభజ@@ 104
న్యూఢిల్లీ 104
తీశారు 104
ఉంట@@ 104
అందమైన 104
సుకు@@ 104
సురేష్ 104
కారును 104
ణ్@@ 104
వరద 104
ంలోనూ 104
హోండా 104
కరం 104
మార్పు@@ 104
సొంతం 104
ఔ@@ 104
కడు@@ 103
,@@ 103
శక్తి@@ 103
శివ@@ 103
ష్ట 103
ప్రారంభ 103
టూ@@ 103
పోస్ట@@ 103
బెనర్జీ 103
టాలీవుడ్ 103
దాడిలో 103
మృతదేహాలను 103
ఘా@@ 103
నిర్మలా 103
అంతేకాకుండా 103
ులతో 103
రాశారు 103
చేరుకు@@ 103
చర్@@ 103
టే 103
బాధ్య@@ 103
d 103
ేలా 103
భార@@ 103
ఆకట్టు@@ 103
దేశాన్ని 103
మహారాష్ట్రలో 103
పౌ@@ 103
అవుతోంది 103
31 103
బంధ@@ 103
అగ్ర@@ 103
వస్తాయి 103
ప్రాజెక్ట్ 103
రోజులుగా 103
ించాల్సి 103
న్యాయస్థానం 103
షన్@@ 103
దెబ్బ@@ 103
ఖండ@@ 103
తాం 103
నివార@@ 102
మద్యం 102
ట్లలో 102
ఓడ@@ 102
స్పెషల్ 102
ప్రార్థ@@ 102
నాట@@ 102
పార్లమెంటు 102
పోర్@@ 102
పరచు@@ 102
రికీ 102
ళ్ళ 102
ద్య@@ 102
క్యాన్సర్ 102
మూడవ 102
మున 102
పిం@@ 102
దగ్గ@@ 102
కోర్టులో 102
ఆధ్యాత్మిక 102
పెరుగుతుంది 102
యాలో 102
సమస్య@@ 102
అనే@@ 102
హైదరాబాద్లో 102
జనసేన 102
విద్యా 102
ఉన్నాను 102
$ 102
చేస్తు@@ 102
లేను 102
చేశాం 101
వుంటుంది 101
విజయాన్ని 101
పరీక్షల 101
అడి@@ 101
ంధ@@ 101
సిస్టమ్ 101
భు@@ 101
స్పీకర్ 101
ాలే@@ 101
తెలుసా 101
బీమా 101
వులను 101
ంటా@@ 101
గట్టి 101
ప్రపంచంలోనే 101
పాత్ర@@ 101
మోడల్ 101
మిలియన్ 101
రూపాయలు 101
పాన్ 101
తెలిసి@@ 101
అటువంటి 101
బీజేపీలో 101
వచ్చును 101
హృదయ@@ 101
థ 101
స్తోందని 101
వుండ@@ 101
న్స్@@ 101
నిర్ణయాన్ని 101
బుల్ 101
తీసుకోవడం 101
విలువైన 101
యిన్ 101
ధి 101
లున్నాయి 101
ఒక్కరూ 101
కాయ@@ 101
రన్ 101
శ్రద్ధ 101
అడ@@ 101
ళ్లను 101
33 101
370 100
ప్రయాణికులు 100
2:@@ 100
గం 100
యూ 100
నిర్ణయాలు 100
ట్కు 100
క్లిక్ 100
అప్పట్లో 100
ంద్ర 100
సముద్ర@@ 100
ప్రశ్నలకు 100
తనం 100
ఉండండి 100
అంతర్@@ 100
బిహెచ్పి 100
ఎంపీలు 100
విభాగంలో 100
పెరుగు@@ 100
డితో 100
ic@@ 100
నొప్పి 100
శక్తిని 100
మంది@@ 100
తమిళంలో 100
పెరిగాయి 100
చేయడంతో 100
కార్పొరేషన్ 100
ఉపాధి 100
నెల@@ 100
కుటుంబాలకు 100
W@@ 100
ఆప్@@ 100
పర్యాటక 100
i 100
ఆధారపడి 100
జైట్లీ 100
సంవత్సరంలో 100
యిన 100
కమల్ 100
ఫ్ర@@ 99
2014 99
ఫార్@@ 99
గనుక 99
ఫోటోలు 99
మొదలైంది 99
రోల్ 99
స్త్రీ@@ 99
కావాలని 99
సహాయక 99
పెట్టుబడి 99
ంటున్నారు 99
ఉమ్మడి 99
త్రివిక్రమ్ 99
స్టె@@ 99
చేయగా 99
జంటగా 99
సంక్షేమ 99
ఏప్రిల్ 99
గమ@@ 99
స్టో@@ 99
హర్@@ 99
విషయాలను 99
విశ్వాసం 99
సునీల్ 99
జ్ఞా@@ 99
జిల్లాల్లో 99
చమురు 99
కంపెనీలు 99
జీవిత@@ 99
ార్థ@@ 99
వస్తున్న 99
సమా@@ 99
జిల్లాలోని 99
ండర్ 99
V@@ 98
సో 98
er 98
వ్యాఖ్యానించారు 98
తాలు 98
న్సి@@ 98
ఎన్ఎమ్ 98
ఉత్తరప్రదేశ్ 98
సభ్యుల 98
అగ్నిమాపక 98
శ్రీలంక 98
హత్య@@ 98
హర్యానా 98
పోయ@@ 98
కొద్దిగా 98
ఎంత@@ 98
హార్@@ 98
ట్టుగా 98
తీర్పును 98
వార్త 98
పాయింట్లు 98
ఆరంభ@@ 98
తొలిసారి 98
భావి@@ 98
స్తున్నారని 98
శివ 98
చేతిలో 98
స్టే@@ 98
చర్ 97
చిరంజీవి 97
ప్రదర్శన 97
పరిశ్రమ 97
మను@@ 97
al@@ 97
రాల 97
ఛా@@ 97
వరు 97
్రెడ్డి 97
7,@@ 97
పుస్తకం 97
స్కూల్ 97
పర్యావరణ 97
పరిధిలో 97
విదేశాంగ 97
న్నారని 97
తయారు@@ 97
తలకు 97
అందిస్తుంది 97
నిర్మిస్తున్న 97
మనుష్య@@ 97
ఇందుకోసం 97
భారతదేశ 97
గుంటూరు 97
ప్రయోజన@@ 97
బ్యాం@@ 97
వుతుంది 97
టీజర్ 97
కార్యాలయం 97
ప్రె@@ 96
ఫర్@@ 96
పార@@ 96
ప్రయత్@@ 96
జరగలేదు 96
చేస్తున్నాడు 96
ఆనందంగా 96
4,@@ 96
ఢ@@ 96
ండు 96
65 96
నందుకు 96
ల్డ్ 96
నము 96
భీ@@ 96
పనిచేశారు 96
కల్యాణ్ 96
లన్నీ 96
ముగిసింది 96
ప్రముఖులు 96
కోసమే 96
లేకపోతే 96
విధి@@ 96
వలస 96
ించబడ@@ 96
D 96
దళ@@ 96
రవి@@ 96
ఒక్కసారిగా 96
కోలు@@ 96
నేరుగా 96
బదిలీ 96
చూడవచ్చు 96
శాడు 96
ఉండి 96
పాటి 96
ప్రాంతాలకు 96
సాయంత్రం 96
లాండ్ 96
క్కి@@ 96
పదవికి 96
అప్పుడే 96
వాహనాలు 96
5,@@ 96
తలను 96
ప్రమాద 95
నితిన్ 95
l 95
దిగ@@ 95
జన్@@ 95
స్థానాలకు 95
బ్బ@@ 95
ఆడి@@ 95
ఛార్@@ 95
షన్స్ 95
పర్యటన 95
ఫేస్బుక్ 95
రాజ్యసభ 95
శం@@ 95
చేసుకున్నాడు 95
సంగ@@ 95
పరిగణ@@ 95
అల్@@ 95
ించినప్పుడు 95
స్టేట్ 95
పొడి 95
అధికారం 95
ణలు 95
ఆమె@@ 95
సముద్ర 95
కొంచెం 95
పట్టణం 95
హ్యా@@ 95
సహకారం 95
వంట@@ 95
గుండె 95
రజనీకాంత్ 95
తీసిన 95
రెస్పాన్స్ 95
పూర్త@@ 95
అభివృద్ధికి 95
పరిపాల@@ 95
తున్నారని 95
యాప్ 95
చేయబడింది 95
కాలను 95
కచ్చితంగా 95
చూసిన 95
es 95
కార్మికులు 95
సమీపంలోని 94
జనం 94
/@@ 94
చౌ@@ 94
ఆనంద్ 94
తరం 94
ప్రపంచంలోని 94
స్తానని 94
పాడు 94
ఆయనతో 94
ఎందు@@ 94
నాలను 94
భాజపా 94
రూపంలో 94
ఖరారు 94
ఆలోచి@@ 94
ఇంటర్నెట్ 94
మంత్రిగా 94
సాంస్కృతిక 94
దారు@@ 94
కార్యకర్తలు 94
అత్యాచారం 94
తిన@@ 94
నౌ@@ 94
సులభంగా 94
అందుబాటులోకి 94
సమస్యలను 94
దాస్ 94
శుభ్రం 94
బీసీసీఐ 94
పెట్టుబడులు 94
గార్@@ 94
విక్రయ@@ 94
చర్య@@ 94
ఫ్రా@@ 94
కండ@@ 94
స్తున్నామని 94
రానున్న 94
కాన్ని 94
టన్ 94
తేలింది 94
భక్తులు 94
వహి@@ 94
కేబినెట్ 94
క్ష 94
ప్రదేశం 94
సభ్యుడు 94
మున్సిపల్ 94
హర@@ 94
న్నే 94
లొ@@ 93
లక్ష్యంగా 93
బచ్చన్ 93
స్కా@@ 93
సమీక్ష@@ 93
కంట్రోల్ 93
త్మక 93
ందిః 93
నీటిని 93
బహుశా 93
రాయల్ 93
జాగ్రత్త 93
టార్క్ 93
యాక్టివ్ 93
ఠ@@ 93
ఇంటర్నేషనల్ 93
తేలి@@ 93
కలిగ@@ 93
ప్రయాణ@@ 93
గింది 93
డొనాల్డ్ 93
పోరా@@ 93
ప్లస్ 93
నింగ్ 93
ించనుంది 93
ాల్లోనూ 93
బుధవారం 93
కోహ్లి 93
కోల్@@ 93
అవినీతి 93
సంభవ@@ 93
ర్కు 92
గ్రీన్ 92
హక్కు 92
కీర్తి 92
సంచలనం 92
రును 92
కుంటే 92
198@@ 92
ఆండ్రాయిడ్ 92
ఓపెన్ 92
విచారణకు 92
కూటమి 92
బ్రి@@ 92
శ్రీదేవి 92
స్తున్నా 92
క్షేత్ర@@ 92
క్యూ@@ 92
యువ 92
ఫైల్ 92
వర్గ@@ 92
సిరి@@ 92
సమయ@@ 92
దిగా 92
ందా@@ 92
వలసిన 92
మార్చు@@ 92
సహజ 92
తున్నా 92
విమర్శించారు 92
ంటాయి 92
నిజమైన 92
మార్చి 92
అధ్యక్ష 92
విఫల@@ 92
భో@@ 92
లోపు 92
ఒకవేళ 92
బంగారు 92
గౌరవం 92
తద్వారా 91
ఆదేశ@@ 91
ఫ్రంట్ 91
మవుతుంది 91
యంలో 91
సలహా 91
తాయని 91
క్రెడిట్ 91
ఇబ్బంది 91
లోక@@ 91
చేయబడిన 91
కొంత@@ 91
మమతా 91
వరం 91
తీసుకొని 91
చేరి@@ 91
లేం 91
దయచేసి 91
దావీదు 91
అప్ 91
యూనిట్ 91
టిడిపి 91
అంశాలపై 91
నిజమే 91
అదే@@ 91
కున్నాయి 91
యెహోవాను 91
in 91
మహా 91
పించారు 91
క్షన్ 91
34 91
ద్దు 91
చ్చు 91
తరలించి 91
అంతకు 91
ల్యా@@ 91
అధ్యక్షతన 91
సమాచారాన్ని 91
షన్లో 91
సిద్ద@@ 91
ప్రకాష్ 91
మొదలు 91
పది 91
వాన్ని 91
వాస్త@@ 91
సభ్య@@ 91
29@@ 91
st@@ 90
an@@ 90
or@@ 90
ొచ్చు 90
అందజే@@ 90
లభ@@ 90
నాయకు@@ 90
కలదు 90
గాయి 90
చర్మం 90
సందర్భంలో 90
విజ@@ 90
అందరి 90
al 90
ణలో 90
చోప్రా 90
వాస్తవం 90
వెంట 90
ాలూ 90
కొడు@@ 90
వర్ణ@@ 90
కార్ల 90
తీసి 90
ఎవరి 90
పుర@@ 90
బ్యానర్ 90
స్టేషన్లో 90
సాధించ@@ 90
యోగా 90
అశ్విన్ 90
అప్ప@@ 90
కపోతే 90
బడుతుంది 90
కృష్ణా 90
ఘటనలు 90
ఢిల్లీలోని 90
గంటల్లో 90
బ్లా@@ 90
ఉద్@@ 90
హోదా 90
చూపు@@ 90
ప్రకృతి 90
ర్ను 90
ఇచ్చే 90
ల్లోకి 90
స్థాపించ@@ 89
కొద్ది@@ 89
ఫే@@ 89
ప్రొ@@ 89
అశోక్ 89
కట@@ 89
స్థిర@@ 89
వ్యక్@@ 89
వరుస 89
it@@ 89
సైన్స్ 89
సెల్@@ 89
మత 89
ఉత్తర్వులు 89
పదవి 89
యొ@@ 89
బలం 89
ఫేస్ 89
తారా 89
బార్@@ 89
ఎన్సీపీ 89
ఏమైనా 89
లక్ష్యం 89
ఆట@@ 89
భయం 89
ఆనందం 89
గానికి 89
అనుకూలంగా 89
తలో 89
ీకర@@ 89
మేలు 89
తిరుగు@@ 89
చిక్కు@@ 89
ముగ@@ 89
నిరోధ@@ 89
డైరెక్ట్ 89
సైనిక 89
పాల్గొన@@ 89
నారా 89
ఉంటు@@ 89
హాలు 89
కారులో 89
పురా@@ 89
నార్@@ 89
ప్రభావితం 89
పిండి 88
లైఫ్ 88
శు@@ 88
చాల@@ 88
సేవలను 88
ణాల 88
మరణాలు 88
మెం@@ 88
వస్తున్నాయి 88
T 88
ఆంధ్ర 88
విద్యార్థి 88
V 88
8.@@ 88
ాల్సిందే 88
నడ@@ 88
కోల్పోయారు 88
ఆడు@@ 88
మాటల 88
ఉద@@ 88
I 88
ధావన్ 88
ట్రి@@ 88
యాంటీ 88
హాన్ని 88
స్టార్@@ 88
ిగా 88
లైట్ 88
శ్ర@@ 88
మహిళ@@ 88
ఫోర్@@ 88
పోషిస్తున్నారు 88
హాసన్ 88
ఆధార్ 88
కాలి@@ 88
వచ్చ@@ 87
భక్@@ 87
గాలి@@ 87
సింధు 87
థా@@ 87
ఒకసారి 87
లేకపోయింది 87
ధ్య@@ 87
క్లి@@ 87
కలు@@ 87
ఆకాశ@@ 87
ప్రేమి@@ 87
కూతు@@ 87
ండీ 87
పర్యట@@ 87
ల్లోనూ 87
రాజకీయాలు 87
సక్సెస్ 87
ల్లి 87
ప్రవేశపెట్ట@@ 87
ఉచిత 87
ప్రాంతాల 87
వ్యవస్థను 87
చెందింది 87
తోందని 87
మహ్మద్ 87
దారులకు 87
నలను 87
పైనా 87
హాజర@@ 87
ఎంపీ@@ 87
సృష్టి@@ 87
నాలుగో 87
36 87
దేవ్ 87
అధికారంలోకి 87
అత్యుత్తమ 87
టాక్ 87
గాక 87
య్యింది 87
కోవచ్చు 87
5.@@ 87
మరణాల 87
స్తుండగా 87
తీసి@@ 87
లైంగిక 86
తెగ@@ 86
కోల్పో@@ 86
గురి@@ 86
లక్ష్య@@ 86
అరు@@ 86
హ్యుందాయ్ 86
పరిష్కారం 86
పుడు 86
వుతోంది 86
39 86
పారిశ్రామిక 86
అందించిన 86
పెరి@@ 86
రియల్ 86
చెప్పాలి 86
కలసి 86
అసెంబ్లీలో 86
వంశీ 86
వారే 86
పాలి@@ 86
ఆల@@ 86
ప్రవర్త@@ 86
ఇవ్వలేదు 86
ఆరోగ్యానికి 86
సదరు 86
కార్డు 86
డుః 86
టర్లు 86
26@@ 86
ఫిల్మ్ 86
గ్యాస్ 86
ట్రై@@ 86
రాజ్య 86
శత్రు@@ 86
ఆన్ 86
ఉండవు 86
మీటర్ల 86
సత్@@ 86
జట్లు 85
వ్రాయ@@ 85
యుద్ధ 85
సీపీఐ 85
పోరాటం 85
కింగ్స్ 85
ాలన్నారు 85
సభ@@ 85
గ్గ@@ 85
సెల@@ 85
పరిశీలి@@ 85
కొన్నిసార్లు 85
చర్చించారు 85
గై@@ 85
రాం 85
త్తు 85
ఇక్కడే 85
ప్రారంభించిన 85
పిలి@@ 85
శాఖ@@ 85
ారెడ్డి 85
వెబ్ 85
కున్న@@ 85
టంతో 85
చేస్తున్న@@ 85
ిత 85
తుందా 85
వ్యవహారం 85
నిబంధనలు 85
గురి 85
పునర్@@ 85
కోట 85
స్పూన్ 85
వ్యయం 85
కొని@@ 85
కావు 85
టో 85
కనుగొ@@ 85
మంగళవారం 84
ః@@ 84
పట్టణ 84
సినిమాతో 84
ఆటగా@@ 84
పరిశోధ@@ 84
తిరి@@ 84
ఒడిశా 84
P 84
తెలుసుకు@@ 84
పిల్లలను 84
ఉన్నారని 84
ఆదేశించింది 84
విధానాన్ని 84
ఖర్చు@@ 84
ప్రగాఢ 84
చంద్ర 84
బీజేపీ@@ 84
ిన 84
ధర్@@ 84
ఉన్నా 84
చేసిన@@ 84
పెడు@@ 84
ప్స్ 84
కల్ 84
పత్రి@@ 84
ప్రస్తావ@@ 84
కలను 84
వాల్ 84
రచ@@ 84
ును 84
కాపాడ@@ 84
కోర్@@ 84
జరిగిందని 84
రష్మిక 84
హార@@ 84
వంతమైన 84
సమావేశ@@ 84
సంఘటనా 84
ించుకోవ@@ 84
గట్టిగా 84
ద్వార@@ 84
ఉష్ణోగ్రత 84
లక్షలకు 84
బౌ@@ 83
ఫుల్ 83
ఫ్రాన్స్ 83
కనుక 83
ఆది@@ 83
వడంతో 83
హా 83
లవ్ 83
పరిమి@@ 83
యాక్@@ 83
కాల్పుల్లో 83
లేము 83
త్యా@@ 83
ట్గా 83
పంట 83
నేర@@ 83
సంఘటనలు 83
ప్రెసిడెంట్ 83
వంతు@@ 83
సాయ@@ 83
రెండూ 83
క్కి 83
ఘోర 83
అంశాలు 83
స్తున్నట్టు 83
ఆటోమేటిక్ 83
జాతి 83
నాణ్యత 83
సమీ@@ 83
్రె@@ 83
జూనియర్ 83
చేయి 83
వల్లే 83
ఇంటర్@@ 83
తగ్గు@@ 83
కనిపిస్తోంది 83
బాగు@@ 83
సాధించారు 83
అంతకుముందు 83
ండ్ల 83
పాలన 83
పోలీసు@@ 83
ఐటీ 83
అంచ@@ 83
మిటి 83
జోడించండి 83
డిన 83
రోజున 82
దిగు@@ 82
ఉన్నప్పుడు 82
కరణ్ 82
ళ్లకు 82
ఎవరి@@ 82
ణా 82
ఎదురుచూ@@ 82
ప్లే@@ 82
అన్ని@@ 82
పటి@@ 82
ఆస్పత్రి 82
నతో 82
హోంమంత్రి 82
తీర@@ 82
తమిళం 82
టప్పుడు 82
గరిష్టంగా 82
లక్షణ@@ 82
బోర్@@ 82
ాం 82
ప్రొడక్షన్స్ 82
తృ@@ 82
తెచ్చు@@ 82
ధో@@ 82
టలో 82
ఐసి@@ 82
పాత్రను 82
యువతి 82
బలోపేతం 82
సరిహద్దులో 82
సుల 82
కుండ@@ 82
పాకిస్తా@@ 82
డబ్బులు 82
నీటితో 82
పాప@@ 82
అనుసంధానం 82
స్త్రీ 82
అభినందనలు 82
బిలియన్ 82
ఎంపి@@ 82
జను@@ 82
తరగతి 82
పతి 82
వాహనాల 82
మిగిలి@@ 82
ఉండడం 82
గుర్@@ 82
ఎనిమిది 82
ఉన్నా@@ 82
చుకు@@ 82
పెంపొంద@@ 82
3:@@ 81
ఇక్కడి 81
తప్పనిసరిగా 81
ప్రమాదానికి 81
M 81
ఆర్టీసీ 81
ాల్సి@@ 81
త్య 81
ఇండి@@ 81
రంగా 81
బ్రే@@ 81
ించామని 81
అక్షయ్ 81
వేత 81
శ్రమ@@ 81
250 81
మార్కె@@ 81
బడ్జెట్లో 81
బ్రాండ్ 81
వర్ష@@ 81
ప్రాంతీయ 81
నేనే 81
పెట్టి@@ 81
ప్రీ 81
ఓటమి 81
అప్పగించారు 81
ప్రత్యక్ష 81
భ 81
ఆర్బీఐ 81
55 81
దూరంలో 81
ఇస్తుంది 81
స్థానాన్ని 81
విల@@ 81
వంద@@ 81
రానుంది 81
ాలున్నాయి 81
అను 81
వ్యవసాయం 81
ప్ప 81
ఇచ్చాడు 81
గరిష్ట 81
యో 81
పనిచేస్తుంది 81
విమాన 81
చరిత్ర@@ 81
అందువలన 81
సభ్యు@@ 81
పిన 81
పొందింది 80
వార్ 80
వ్యవహరి@@ 80
రింగ్ 80
కళ@@ 80
బాహుబలి 80
బజాజ్ 80
ఆర్ట్స్ 80
ఆసక్తికరమైన 80
సర్వ@@ 80
48 80
తర్వాతి 80
వార్షిక 80
మ్ము 80
ఎదు@@ 80
విజ్ఞప్తి 80
పండుగ 80
ఉగ్రవాద 80
అనుసంధా@@ 80
ఉద్యోగులు 80
తొలి@@ 80
షు@@ 80
సైన్యం 80
ఏడు@@ 80
రావడంతో 80
ఏమ@@ 80
సము@@ 80
1:@@ 80
ప్రశ్నకు 80
పదం 80
నిలి@@ 80
నేందుకు 80
మెట్రో 80
కుమార్@@ 80
సభ్యులకు 80
నిధి 80
తరలి@@ 80
కైవసం 80
టులో 80
ఆపరేషన్ 80
పడ్డాడు 80
నటిస్తుంది 80
విమానం 80
ప్రారంభమైంది 80
జె 80
యూని@@ 80
K@@ 80
కథా@@ 80
విశ్వ@@ 80
ఒడి@@ 80
పోర్ట్ 80
స్తూనే 79
49@@ 79
బైబి@@ 79
ప్రయోగ@@ 79
నేని 79
y@@ 79
జరిపిన 79
షో 79
టెడ్ 79
పోషి@@ 79
ంటున్న 79
రాజకీయాల్లో 79
షో@@ 79
ఇటు 79
పనిలో 79
యర్ 79
ైంది 79
లకి 79
చెప్పే@@ 79
పెరిగిన 79
హం 79
గాంధీ@@ 79
ట్టిన 79
మంటలను 79
సంవత్సరాలు 79
యోగి 79
చెప్పి 79
రాష్ట్రాలకు 79
పుస్త@@ 79
ఉత్పత్తులు 79
ఘన@@ 79
గమనించ@@ 79
సైని@@ 79
37 79
ఆరోగ్య@@ 79
ఖాళీ 79
అడిగాడు 79
రినీ 79
న్యాయవాది 79
బర్ 79
వ్యతిరేక 79
ఉన్నాం 79
ఆటో@@ 79
బెయిల్ 79
కురి@@ 79
సింగ్@@ 79
నాగార్జున 79
సంత@@ 79
మాట్లా@@ 79
కర్ణాటకలో 79
బ్యాక్ 79
ప్రో@@ 79
బాగానే 79
ఇదీ 79
ఆకర్ష@@ 79
రాం@@ 79
పాల 79
ఇంధన 79
భవిష్యత్తులో 79
ఇవ్వడం 79
లాక్డౌన్ 79
దీనిలో 79
ప్రమాణ 79
కరు@@ 79
బ్యాంకులు 79
సేకర@@ 78
ఫైర్ 78
కలుగు@@ 78
సెంటర్ 78
సన్నాహాలు 78
తెలుగుదేశం 78
నారాయణ 78
వ్రా@@ 78
42 78
ించుటకు 78
మలయాళ 78
సంరక్షణ 78
జూలై 78
మొదలైన 78
పాద@@ 78
ర్యాం@@ 78
తయార@@ 78
ారు@@ 78
అదుపు 78
జార్@@ 78
హాజరు@@ 78
కోర@@ 78
వల్@@ 78
య్యా@@ 78
టైమ్ 78
పింది 78
అందిస్తున్న 78
ur@@ 78
వ్యక్తిని 78
ట్ట 78
పద్ధతి 78
నిం@@ 78
న్యూస్ 78
సంప్రద@@ 78
పాఠ@@ 78
విధించింది 78
వైఎస్సార్ 78
ందే 78
దును 78
దేశా@@ 78
మంత్ర@@ 78
సమర్థ@@ 78
నిపుణులు 78
కానికి 78
పత్ర@@ 78
లాభం 78
క్రీ@@ 78
పుట్టిన 78
నిర్మాతగా 78
అతడికి 78
ద్దా@@ 78
ఇమ్రాన్ 78
ాల్సింది 78
నిందితుడు 78
యులు 77
మినహాయింపు 77
పడే@@ 77
జర@@ 77
పక్కన 77
కలిసి@@ 77
చెందాడు 77
అధ్యక్షులు 77
జీలు 77
ంతోపాటు 77
పోవ@@ 77
నివ్వ@@ 77
కాలు@@ 77
అధికారులను 77
ఒకేసారి 77
ించేలా 77
అస@@ 77
దాలు 77
కుమార్తెలు 77
పుష్కలంగా 77
మైనవి 77
చిత్రాల్లో 77
ప్రత్యేక@@ 77
చక్కగా 77
సగటు 77
600 77
స్క్రీన్ 77
గిపో@@ 77
గలరు 77
త్వ 77
నికే 77
గెలి@@ 77
నెను 77
వ్యాపారం 77
ముస్లిం 77
విభాగ@@ 77
స్టాక్ 77
పెరుగుతోంది 77
ధర్మ@@ 77
శాస్త్రం 77
కళా@@ 77
ఆస్తి 77
మనో@@ 77
జీవితాన్ని 77
వివరణ 77
లాలు 77
అర్ధ@@ 77
దను 77
కరణ@@ 77
పట్టి@@ 77
తెలిపిన 77
రానికి 77
జంతు@@ 77
అమర్@@ 77
ఎస్సీ 77
ఆశి@@ 77
రామ్@@ 77
తరహా 77
అంశాలను 77
గురించిన 77
శో@@ 77
ట్యా@@ 77
ఆర్టి@@ 76
ఖు@@ 76
అది@@ 76
దూర@@ 76
en@@ 76
శుక్రవారం 76
ద్దు@@ 76
నాతో 76
నిర్వహి@@ 76
అమ్ము@@ 76
ండ్లు 76
ఎయిర్@@ 76
కాల్ 76
మరికొన్ని 76
మందు@@ 76
పాయింట్ల 76
మృ@@ 76
పొందారు 76
భార్య@@ 76
ఉపయోగి@@ 76
నియామ@@ 76
కూర్చు@@ 76
ఎవరో 76
వచ్చాడు 76
వీటికి 76
డూ 76
యెహోవా@@ 76
ర్యా@@ 76
వీరిని 76
నిర్ధారణ 76
కోరి@@ 76
న్గా 76
చదవండి 76
ఫొటోలు 76
డుగా 76
నిర్మాతలు 76
లీగ్ 76
సందీప్ 76
వ్యాయామం 76
హానికి 76
పెరుగుదల 76
తం@@ 76
స్థాయికి 76
స్వల్ప 76
ించుకొ@@ 76
గృహ 76
గోవా 76
ప్రొఫెసర్ 76
సంస్కృ@@ 76
ఇంటి@@ 76
సమగ్ర 76
జాగ్రత్తలు 76
స్తోన్న 76
ట్లేదు 76
స్వతంత్ర 76
చేర్చ@@ 76
మంట@@ 76
సోదరుడు 76
మిత్ర@@ 76
తెలిపాడు 76
మంటలు 76
చేసుకోవాలని 76
నిరసనలు 76
గంటల 76
ఇరాన్ 76
వెలుగు@@ 76
రిలో 76
సంగీతాన్ని 76
సిన్హా 76
ఉద్దేశ@@ 76
రో 76
పొడిగ@@ 76
ాల్లోని 76
గానూ 76
అమెరికన్ 76
ఎన్ని 76
తగ్గి@@ 75
పోతోంది 75
అధిగమ@@ 75
క్షమ@@ 75
కేంద్రంలో 75
సంబందించిన 75
డిజై@@ 75
వ్యతిరేక@@ 75
మేకర్స్ 75
వాహనం 75
4:@@ 75
125 75
రీలు 75
వీడియో@@ 75
బాక్సాఫీస్ 75
చిత్రీకరణ 75
ాలన్నీ 75
ల్గా 75
ప్రీ@@ 75
వెల్ 75
మూవీస్ 75
పోలీసులను 75
క్రూ@@ 75
ఇతరులు 75
పూర్వకంగా 75
వైర@@ 75
వుగా 75
ఏమాత్రం 75
ఎస్బీఐ 75
చిత్త@@ 75
గత@@ 75
సమర్@@ 75
ఫోటో@@ 75
గడ@@ 75
ఫు@@ 75
విధమైన 75
బయట 75
నమ్ము@@ 75
వనరుల 75
నవా@@ 75
సరిహద్దు@@ 75
తప్పనిసరి 75
మార్కెటింగ్ 75
పండ్లు 75
తెలు@@ 75
గిరి@@ 75
నిర్వచ@@ 75
27@@ 75
ప్రముఖ@@ 75
నిర్ణయించింది 75
వ్యవసాయ@@ 75
di@@ 75
కలకలం 75
స్తో@@ 75
నార@@ 75
సలు 75
నిలిచి@@ 75
చ్చాడు 75
చెప్పవచ్చు 75
ించా@@ 75
అక్క@@ 75
కౌన్సిల్ 75
మేయర్ 75
రకాలు 75
ట్రో@@ 75
అందుకుంది 75
నిని 74
మాను@@ 74
స్తామన్నారు 74
ఉచితంగా 74
ఫీచర్లు 74
అర్హత 74
కోర్టుకు 74
కుంటున్నారు 74
లోపల 74
ందీ 74
స్వాగతం 74
కంప్యూటర్ 74
దేవునికి 74
ఆల్ 74
కునే@@ 74
హై 74
నివస@@ 74
న్యా@@ 74
ంద 74
జిల్ల@@ 74
రూపొందిన 74
నికీ 74
40@@ 74
కథలు 74
తెలుసు@@ 74
వన్డే 74
ఆట 74
పాండే 74
మోస@@ 74
సంవత్సరానికి 74
నల్ల@@ 74
కునేందుకు 74
పిలుస్తారు 74
రూప@@ 74
త్ర 74
డంపై 74
వెల్లడ@@ 74
చేయనుంది 74
ఫోర్స్ 74
అదీ 74
చంపే@@ 74
విశ్వా@@ 74
తీసుకునే 74
అల్ల@@ 74
ఆయిల్ 74
నిర@@ 74
ీలు 74
విశ్లేష@@ 74
అంటు@@ 74
వాన్ 74
సమీపంలో 74
వెను@@ 74
ప్రాంతాలలో 74
నవంబర్ 74
ప్రాధాన్యత 74
సాహ@@ 74
పడిపోయింది 74
ఆదు@@ 74
గౌ@@ 74
ట్విట్టర్లో 74
చక్కెర 74
తెలియాల్సి 74
శ్వర్ 74
బలి@@ 74
రవి 74
రాజ్యాంగ 74
ఆఫీసర్ 74
బ్యానర్పై 74
యిం@@ 74
పా 74
ప్రారంభించింది 74
చేస్తాం 74
శాసనసభ 74
లం@@ 73
కార్యక్రమాన్ని 73
నాన్న@@ 73
శాతంగా 73
ప్రత్యేకమైన 73
లోగా 73
వేది@@ 73
చూసుకు@@ 73
ముని@@ 73
కథానాయికగా 73
చేసాడు 73
పరమైన 73
అని@@ 73
జార్ఖండ్ 73
చ్చే@@ 73
జయంతి 73
సన@@ 73
స్టి@@ 73
తున్నాం 73
స్పష్టత 73
నరేంద్రమోదీ 73
వయసు 73
సౌకర్యం 73
చోటు@@ 73
వందల 73
దక్కింది 73
వెళు@@ 73
బారిన 73
సమయానికి 73
60@@ 73
ఓవర్@@ 73
8,@@ 73
వేదిక 73
అభిప్రాయం 73
తగినంత 73
బయ@@ 73
ప్రతిపాద@@ 73
వాటర్ 73
నించ@@ 73
p 73
తెలియరాలేదు 73
భే@@ 73
చేతులు 73
ించబడి@@ 73
అద్భుత 73
కనీస 73
స్పూన్లు 73
మహిళలకు 73
చెప్పండి 73
అంతర్గత 73
మైనా 73
సమానంగా 73
శ్రా@@ 73
కూలి@@ 73
విభజన 73
వీర@@ 73
మరో@@ 73
మను 73
రిలయన్స్ 73
పట్టు 73
వేగ@@ 73
రెడ్ 73
గాలింపు 73
కంపెనీ@@ 73
డాల@@ 73
జగ@@ 73
భోజనం 73
తోనూ 73
ఇబ్బందు@@ 73
ఈశాన్య 73
వున్నాయి 73
ంగి@@ 73
బడే 73
ed 73
కాంగ్రెసు 73
యాన్ 73
ఇప్పటివరకూ 73
విశ్వవిద్యాలయం 73
ప్రశంసలు 72
లాంచ్ 72
నిర్మించిన 72
సంస్కృతి 72
64 72
మంత@@ 72
టెక్ 72
గురువారం 72
వైద్యం 72
ధీ@@ 72
యూనివర్సిటీ 72
క్క 72
ండిః 72
నటిస్తున్నాడు 72
సారు 72
మంత్రి@@ 72
సాక్ష@@ 72
ణానికి 72
ఢీ@@ 72
నెలకు 72
పెరిగి 72
వాట్సాప్ 72
శరవేగంగా 72
ములలో 72
ంజ@@ 72
పెడ@@ 72
కాన్@@ 72
అంది 72
ులైన 72
పోయే 72
నున్నట్లు 72
తప్పక 72
దాల 72
వెర్@@ 72
ఇచ్చి@@ 72
ఉదాహరణ@@ 72
పడుతున్న 72
మ్లో 72
జట్టుకు 72
ఎన్నడూ 72
నామ@@ 72
మతం 72
మనోహర్ 72
జిల్లాకు 72
ఐఫోన్ 72
గ్రామ 72
ఆందోళన@@ 72
ఏడుగురు 72
తగ్గిస్తుంది 72
వీటి@@ 72
నిద్ర 72
పొందుతున్నారు 72
మధ్యలో 72
హెడ్ 72
అమ్మాయి 72
ఎన్న@@ 72
రుగ@@ 72
ముక్కలు 72
లభ్య@@ 72
ఉద్యోగ@@ 72
కమ్యూని@@ 72
పూర్వక 72
పట్టించుకో@@ 72
చేస్తాయి 72
పోతున్నారు 72
అత్యవసర 72
గెలిచి 72
కలుపు@@ 72
పురాతన 72
ఎదురు@@ 72
కీలకమైన 72
నంత 72
చెప్పడం 71
బలంగా 71
చేసుకోవడం 71
పరిష్కార@@ 71
చది@@ 71
కారణమని 71
స్నేహితులు 71
కలెక్టర్ 71
సోమవారం 71
యత్@@ 71
ప్రమాణం 71
చేయబో@@ 71
డవ@@ 71
మరె@@ 71
త్తి 71
పాఠశాలలు 71
ఫైనల్ 71
వహించిన 71
బంధు@@ 71
తయారీ@@ 71
ముంబైః 71
విధాన@@ 71
కనుగొన@@ 71
దాడులు 71
టును 71
నమోదు@@ 71
ముడి 71
కద@@ 71
అటవీ 71
ంట్లు 71
తప్పుడు 71
కట్టు@@ 71
మధు@@ 71
బ్యాంకింగ్ 71
44 71
గలదు 71
స్నేహితు@@ 71
మోసం 71
యొద్దకు 71
వైస్ 71
యే 71
తెలుపు@@ 71
సెన్సెక్స్ 71
కుమారుడైన 71
భూషణ్ 71
జింగ్ 71
నల 71
సైడ్ 71
కార్ 71
ప్రేక్షకులు 71
ించినట్టు 71
ప్రతిదీ 71
నియోజకవర్గం 71
వహిస్తున్న 71
మ్మి@@ 71
స్తున్నా@@ 71
నిషేధం 71
నిత్య@@ 71
రాజకీయ@@ 71
సమంత 71
ధోని 71
చూసు@@ 71
పల@@ 71
దీప్ 71
సర్వీస్ 71
్యాలు 71
తేదీన 71
అధ్యక్షుడిగా 71
సూచనలు 70
ఉత్త@@ 70
గర్భ@@ 70
జన 70
9,@@ 70
దై@@ 70
ఖ్@@ 70
స్థాప@@ 70
ఆత్మ 70
వివాహ 70
పరిమితి 70
బాలకృష్ణ 70
ఉదాహరణ 70
యీ 70
కళాశాల 70
సార్వత్రిక 70
సెట్ 70
పాటి@@ 70
చంద@@ 70
స్తారని 70
భవనం 70
యూనియన్ 70
వగా 70
భాషా 70
పదు@@ 70
సాలు 70
గుల 70
ఫీజు 70
బ్రహ్@@ 70
సపోర్ట్ 70
క్రియ@@ 70
ప్రతినిధులు 70
జర్మనీ 70
ఉద్యోగాలు 70
అరుదైన 70
మాస్@@ 70
ఖాత@@ 70
మొత్తాన్ని 70
కుండ 70
ధాలు 70
ఆరోపణ@@ 70
పెరుగుతున్న 70
హత@@ 70
చేశ@@ 70
పోలిస్తే 70
వంతంగా 70
లోనికి 70
యంగ్ 70
ఆసి@@ 70
నేర్@@ 70
నిలిచాడు 70
కలపాలి 70
పెరిగి@@ 70
చేస్త@@ 70
ప్రకాశ్ 70
భాగస్వామ్యం 70
భూమి@@ 70
ించుకోవాలి 70
ప్రీత్ 70
దొంగ@@ 70
మందులు 70
ఖాతాలో 70
ఇదిలా 70
అందించే 70
నోటీసులు 70
సులను 70
వేశ@@ 70
పరిమితం 70
+ 70
పదార్థాలు 70
కత 70
35@@ 70
ఆరోగ్యకరమైన 70
వెలుగులోకి 70
రెండు@@ 70
గంటలకు 70
అగ్ని 70
h 70
ర్గా 70
వివా@@ 70
చెబుతోంది 70
ించినా 69
జగన్మోహన్ 69
పొంది@@ 69
కాలంగా 69
ులుగా 69
దుర్మరణం 69
హత్యకు 69
లక్ష 69
కాదా 69
et@@ 69
కలె@@ 69
ల్లోని 69
ఉండి@@ 69
ఖాతా 69
దిగి 69
పౌర 69
పేర్లు 69
టన్నుల 69
ఉంటా@@ 69
తుండగా 69
విచారిస్తున్నారు 69
నిలిచారు 69
వేసి@@ 69
ముగిసిన 69
చని@@ 69
ఇన్నింగ్స్లో 69
షనల్ 69
ారి 69
ఎప్పటికీ 69
భట్ 69
్యంలో 69
సర్వే 69
ారీ 69
డంలేదు 69
మేన@@ 69
త్తి@@ 69
గాడు 69
అదేవిధంగా 69
ట్టే 69
సరిహద్దు 69
డం@@ 69
స్తంభ@@ 69
ఎవ@@ 69
సంబంధ 69
క్రో@@ 69
వచ్చు@@ 69
సవాల్ 69
చెప్పెను 69
ఝ@@ 69
తమిళనాడులో 69
నెట్ 69
లక్షణాలను 69
ఏర్పాటుకు 69
దోష@@ 69
వివాదాస్పద 69
క్కడ 69
వెలుగు 69
ఆహార@@ 69
మార్గంలో 69
ర్లోని 69
న్యూజిలాండ్ 69
మొత్తంలో 69
విద్యార్థుల 69
స్పష్ట@@ 69
కూరగాయలు 69
గొట్ట@@ 69
క్లు 69
ఫ్రి@@ 69
లికి 69
సామెతలు 69
వాయు@@ 69
దృ@@ 69
హాజరు 69
అవ్వ@@ 69
పో 69
వల్ 69
బీఎస్పీ 69
నిధులను 69
సంవత్సర@@ 69
రద్దు@@ 69
ప్రవేశ 68
వేర్వేరు 68
పర్యాటకులు 68
ళ్లతో 68
ఇల్లు 68
జత 68
వేలాది 68
మద్దతు@@ 68
ప్రయాణం 68
వుల@@ 68
చ్ఛ@@ 68
అనిపించ@@ 68
తోన్న 68
99@@ 68
విజయవాడ 68
ఆలస్యం 68
రూపొందుతున్న 68
X 68
రాణ@@ 68
వీరిద్దరూ 68
కొంద@@ 68
హ్ 68
ఐసీసీ 68
వేచి 68
శాస్త్ర@@ 68
ఫై 68
విద్యార్థ@@ 68
2016 68
పరిశ్రమలు 68
ించుకొని 68
రుణ 68
చేందుకు 68
పబ్లిక్ 68
ఇక్క@@ 68
ప్రభావ@@ 68
చారిత్రక 68
కగా 68
కేంద్రపాలిత 68
నిధుల 68
పెరిగే 68
దారుణ 68
మండి@@ 68
కాయ 68
జిత్ 68
సహోదరు@@ 68
ఫొటో 68
వాలా 68
ఆత్మహత్యకు 68
తేదీ@@ 68
చర@@ 68
దేశాలకు 68
చేస్తున్నారని 68
బ్రె@@ 68
బాల్ 68
జ్ఞాప@@ 68
మొదల@@ 68
పేర్కొన్నాడు 68
ఉన్నట్టు 68
బాధితురాలి 68
ఉన్నప్పటికీ 68
సార్@@ 68
భారత్@@ 68
ఆఫర్ 68
విభిన్న 68
దారుణంగా 68
జరిమానా 68
ారం 68
తక్షణమే 68
గ్రే@@ 68
రాజ్నాథ్ 68
కాజల్ 67
పర్ 67
గురయ్యారు 67
రూపం 67
బ్రిటన్ 67
జుట్టు 67
నైట్ 67
డ్యూ@@ 67
మూవీలో 67
భవిష్యత్తు 67
డ్రా@@ 67
లాగే 67
బయో@@ 67
కాన్ఫరెన్స్ 67
తామని 67
తీరు 67
వచ్@@ 67
49 67
సరిగా 67
కపోవడం 67
ింపజే@@ 67
వాళ్లకు 67
ఇంజనీరింగ్ 67
విక్ర@@ 67
కల్ప@@ 67
స్పె@@ 67
క్షీణ@@ 67
టైగర్ 67
పేలు@@ 67
ఆడియో 67
ణంగా 67
ప్రాంత 67
ద్వి@@ 67
సంఘాలు 67
అస్సలు 67
నిర్దిష్ట 67
ధరల 67
విమర్శ@@ 67
పడుతోంది 67
మొదటిసారి 67
మృతి@@ 67
థి@@ 67
తెలిసిన 67
నిర్మాణానికి 67
యునైటెడ్ 67
సంఖ్య@@ 67
కిని 67
రాజు@@ 67
ro@@ 67
ప్రవక్@@ 67
అంశాన్ని 67
పేరును 67
దృష్టికి 67
అధికారులకు 67
దేవుడైన 67
ీకరణ 67
నాల్@@ 67
> 67
శనివారం 67
తరగ@@ 67
లేదో 67
కెసిఆర్ 67
తోను 67
ఫలిత@@ 67
గమని@@ 67
దినోత్సవం 67
ట్రాన్స్@@ 67
నవ్@@ 67
రకం 67
దత్ 67
బస్సు@@ 67
డబుల్ 67
నైన 67
పథ@@ 67
నాశనం 67
అనుమానం 67
సెల్ 67
ఆయనపై 67
భర్@@ 66
సహజ@@ 66
తక@@ 66
నారాయణ@@ 66
స్థితి 66
సమాచార 66
రాబో@@ 66
o 66
రుణాలు 66
ప్రారంభి@@ 66
జ్ఞాన@@ 66
పండి@@ 66
రేట్లు 66
మనల్ని 66
సృష్టించింది 66
వ్యవహార@@ 66
వదిలే@@ 66
జీవన 66
ంటీ@@ 66
సంఘటన@@ 66
రాజకీయం 66
అభిప్రాయ@@ 66
పంచ@@ 66
మొట్టమొదటి 66
ప్రధా@@ 66
షేర్లు 66
ఏదీ 66
ముంద@@ 66
అయ్యే 66
స్టీ@@ 66
47 66
రుచి 66
గొప్ప@@ 66
అనుమతి@@ 66
పొడ@@ 66
లక్ష్మి 66
స్ట్@@ 66
రోడ్ 66
కలర్ 66
పార్క్ 66
భాషలో 66
ప్రయత్నించండి 66
ఘనంగా 66
బద్ధ@@ 66
రమ@@ 66
పండ@@ 66
టికీ 66
గుణ@@ 66
యాకు 66
విశ్రాంతి 66
గెలుచు@@ 66
కుమారస్వామి 66
హైకోర్టులో 66
అనంత@@ 66
ఇష్టపడ@@ 66
డింగ్ 66
తగ్గింది 66
నేతల 66
అందిస్తోంది 66
వర్కింగ్ 66
షిప్ 66
దక్షిణాఫ్రికా 66
ధన@@ 66
తరపున 66
జయలలిత 66
చేతు@@ 66
ఏపీలో 66
ద్ధ 66
ఇన్స్టిట్యూట్ 66
దర్శకుడిగా 66
ఉగ్రవాదులు 66
వరంగల్ 66
ించెను 66
ాలనే 66
పోయా@@ 66
శాలు 66
జట్టులో 66
వృత్తి 66
ఆధారాలు 66
ించుకున్నాడు 66
చ 66
స్టు@@ 65
ళ్@@ 65
బ్రేక్ 65
ించుకున్న 65
గఢ్ 65
జైలు 65
టకై 65
దాన@@ 65
వాహన 65
అంగ@@ 65
నరేంద్రమోడీ 65
ంగ 65
నిత్యం 65
చెప్పలేదు 65
పరిపాలన 65
సిఎం 65
వెలి@@ 65
పనిని 65
నర@@ 65
మ్యాచ్@@ 65
ఆదాయ@@ 65
సౌకర్యాలు 65
వాని 65
మార్క్ 65
బట్ట@@ 65
ఏర్పాటు@@ 65
ంటాడు 65
నిలిపి@@ 65
బైక్ 65
దిగ్గజం 65
పొందవచ్చు 65
సమస్యను 65
లాల 65
సవర@@ 65
తారని 65
డిలో 65
నందు 65
ూర్ 65
స్వీకర@@ 65
వీలు 65
తర 65
హిందీలో 65
రంగు@@ 65
రుగా 65
సినిమా@@ 65
అమ్మ 65
క్రమం 65
నీటిలో 65
సెప్టెంబర్ 65
శాల 65
38 65
శెట్టి 65
వాలు 65
లవ@@ 65
అర్ధం 65
అమ్మకాలు 65
షియా 65
కార 65
కోటి 65
ధికార@@ 65
యం@@ 65
నటిస్తుండగా 65
పాకిస్థా@@ 65
హింస@@ 65
ీలో 65
ప్రసిద్ధ 65
వైట్ 65
అవుట్ 65
ఆరాధ@@ 65
అతనిని 65
గార@@ 65
51 65
ఇంతవరకు 65
ఇచ్చ@@ 65
ఉన్నతాధికారులు 65
జన్మ@@ 65
సభకు 65
ra@@ 65
అప్రమత్తంగా 65
విగా 65
ఆటగాడు 64
కుంటారు 64
త్రా@@ 64
ించేది 64
వెలువ@@ 64
బరు@@ 64
el@@ 64
g 64
పలికారు 64
స్టోరీ 64
తీసుకుంటామని 64
న్లను 64
స్పష్టమైన 64
196@@ 64
పడ్డ 64
చెందగా 64
పోవడం 64
లిన్ 64
ఎంచుకోండి 64
వన@@ 64
కోణంలో 64
సేతుపతి 64
వేళ 64
దేశంలోనే 64
విషయానికి 64
కుమార@@ 64
ఎక్కువ@@ 64
ఆత్మహత్య@@ 64
ించబడ్డాయి 64
చెరు@@ 64
శ్రే@@ 64
రాజే@@ 64
చక్ర@@ 64
వెల్లడి@@ 64
కర్త 64
స్మ@@ 64
నట్లుగా 64
జ్ఞ@@ 64
9.@@ 64
న్ను@@ 64
బిల్లును 64
డ్ని 64
{ 64
పొత్తు 64
రాజ్యసభలో 64
క్లారిటీ 64
అవుతున్నాయి 64
00@@ 64
కొరియా 64
బడ్డాయి 64
చౌదరి 64
ల్లీ 64
తెలియని 64
ప్రశ్నించ@@ 64
85 64
చేయాల్సి 64
శిష్య@@ 64
జరుగ@@ 64
బాగుంది 64
46 64
తోడు 64
వారంద@@ 64
శిఖర్ 64
పరిమాణం 64
వెల్లుల్లి 64
ప్రధాన@@ 64
రంగాల్లో 64
ించనున్న 64
బిజినెస్ 64
అజిత్ 64
డియా 64
అబ్@@ 64
2015 64
అంట@@ 64
ప్రతికూల 64
దర్శకు@@ 64
అభ్యర్థిగా 64
వేత్త 64
స్ః 64
గురైన 64
వలసి 64
టెస్టులో 64
శాసన 64
ఎవరికి 64
రాన్ని 64
క్రొత్త 64
ించబడు@@ 64
చర్చి@@ 64
త్వాన్ని 64
కార్యకలాపాలు 64
అధికారుల 64
అయన 64
బౌలింగ్ 64
ఆలయ 64
ముంబయి 64
టుకు 63
సర్కార్ 63
మయ్యే 63
స్థిరంగా 63
జల 63
నగా 63
దేవాల@@ 63
హరీష్ 63
కిరణ్ 63
మొత్తంగా 63
పశు@@ 63
రుణ@@ 63
జంట 63
ఫోర్డ్ 63
సమీప 63
ండా 63
గ్రీ@@ 63
సురక్షితంగా 63
దాఖ@@ 63
టీమ్ 63
ఆసక్తిగా 63
జనవరి 63
100@@ 63
అమరావతిః 63
కోట్@@ 63
నెలకొల్@@ 63
L 63
ఇదే@@ 63
సీపీ 63
పూర్వ@@ 63
వద్దని 63
ఎగ@@ 63
} 63
ాల్సిందిగా 63
హౌ@@ 63
ఎరుపు 63
నలు@@ 63
ఎత్తు@@ 63
విక్రమ్ 63
రుకు 63
కర్నూలు 63
అడగ@@ 63
పత్రిక 63
టం@@ 63
ముంది 63
స్తు 63
అనిపించింది 63
తిరస్కర@@ 63
మొదలు@@ 63
అధ్యక్షు@@ 63
హాస్పిటల్ 63
కోచ్ 63
తీసుకు 63
అనుకుంటున్నారా 63
పత్@@ 63
మన్మోహన్ 63
్యు@@ 63
చోట 63
దారుణం 63
నాలు@@ 63
క్టర్ 63
ప్రభుత్వంలో 63
పరస్పర 63
సురేందర్ 63
కావాల@@ 63
వాదనలు 63
నిరాశ@@ 63
డిపై 63
అహ్మద్ 63
యూపీ 63
సంస్థలకు 63
ించబో@@ 63
హీరో@@ 63
సూత్ర@@ 63
సెంచరీ 63
డేట్ 63
ఆర్థికంగా 63
ఎన్ఆర్@@ 63
వెంకట@@ 63
కనిపించనున్నారు 63
ఆపరే@@ 63
ఉంటాడు 63
చిదంబరం 63
న్లలో 63
ండింగ్ 63
తమిళ్ 63
శ్రీరామ్ 63
ఔష@@ 62
ఎన్నికలకు 62
పూరి 62
పాయిం@@ 62
co@@ 62
వేరియంట్ 62
శాస్త్ర 62
క్రైస్త@@ 62
దయ@@ 62
F 62
వైపున 62
కురు@@ 62
విస్తృత 62
ఎర్ర@@ 62
పడతాయి 62
ప్పటి 62
ప్రమో@@ 62
నిర్లక్ష్యం 62
నిషేధ@@ 62
ప్రభు@@ 62
ర్లను 62
రంజన్ 62
కేంద్రంగా 62
అవకాశాన్ని 62
శై@@ 62
ఏమిటో 62
సిక్@@ 62
ఘో@@ 62
రవీంద్ర 62
ఉపాధ్యక్షుడు 62
పెం@@ 62
ద్వైపాక్షిక 62
ఎదుర@@ 62
ch@@ 62
యుద్ధ@@ 62
మేనని 62
అమెజాన్ 62
కోవింద్ 62
రకమైన 62
ారె@@ 62
శిల్@@ 62
ప్రీమియం 62
చేస్తున్నా@@ 62
పరిహారం 62
తీవ్రత 62
59 62
కలిశారు 62
పరారీలో 62
800 62
ప్రవాహం 62
సంతానం 62
చట్టము 62
2021 62
తెలీదు 62
లుకు 62
నిరంతరం 62
లోప@@ 62
దగ్గర@@ 62
అందంగా 62
గ్లోబల్ 62
ద్దాం 62
ఫాస్ట్ 62
ఇంద్ర@@ 62
తుంటారు 62
దాయ@@ 62
బెట్ట@@ 62
విడుదలకు 62
మగ@@ 62
యాను 62
పాడు@@ 62
సలహాదారు 62
పూర్తయింది 62
మవుతోంది 62
సియా 62
ఆదిత్యనాథ్ 62
అక్@@ 62
న్నారా 61
గణనీయంగా 61
జీఎస్టీ 61
టికె@@ 61
ించుము 61
చూసింది 61
ళు@@ 61
చాడు 61
తుందో 61
కూడ@@ 61
ద్రో@@ 61
చేసినట్టు 61
కోల్కతా 61
తాన్ని 61
అవాంఛనీయ 61
న్నాము 61
వివాద@@ 61
రైతు@@ 61
ష్య@@ 61
ఇన్నింగ్స్ 61
యాత్ర@@ 61
నచ్చింది 61
యందు 61
సూర్య@@ 61
చేశామని 61
నచ్చ@@ 61
రాబోయే 61
తున్నారా 61
ించుకుని 61
భ్ర@@ 61
ఎందుక@@ 61
పిక్సెల్ 61
పవార్ 61
పను@@ 61
కము 61
అవన్నీ 61
ఇంగ్లండ్ 61
B 61
బుద్ధి@@ 61
U 61
పోషించారు 61
ఆఫ్రికా 61
ప్రాతినిధ్యం 61
దేవాలయం 61
చేస్తున్నాం 61
లై 61
నివారణ 61
గలుగు@@ 61
63 61
ఉపయోగించ@@ 61
పది@@ 61
డిగ్రీల 61
అభ్యర్థ@@ 61
నిఫ్టీ 61
జోక్యం 61
ఫ్యా@@ 61
పక్ష 61
సెన్సార్ 61
మారాయి 61
ఓటమి@@ 61
నగర@@ 61
న్సీ 61
తీసుకెళ్ల@@ 61
టువంటి 61
తల్లి@@ 61
పురుషుల 61
తాత్కాలిక 61
చక్కని 61
ఇదొక 61
గాన్ని 61
శాయి 61
కట్టుబడి 61
స్థితిలో 61
విమానాశ్ర@@ 61
రెడీ 61
రెండిం@@ 61
వాక్య@@ 61
షీ 61
బృంద@@ 61
ప్రారంభంలో 61
వద్దకు 61
ప్రభా@@ 61
అతని@@ 61
ఓడి@@ 61
సంతోష్ 61
వన్@@ 61
బాధ 61
చర్యలను 61
దృష్టిలో 61
తమన్నా 61
డేవిడ్ 60
విధా@@ 60
నుంచీ 60
నయనతార 60
నున్న@@ 60
చెల్లింపు@@ 60
దీర్ఘ@@ 60
కేంద్రమంత్రి 60
అంతేకాక 60
సాగుతోంది 60
టిని 60
భారతీయు@@ 60
పేద 60
సాగర్ 60
అతనితో 60
వీక్ష@@ 60
సిస్ట@@ 60
ఎంట్రీ 60
ప్రోత్సాహ@@ 60
స్టార్ట్ 60
కృషి@@ 60
రికార్@@ 60
వస్త@@ 60
గుండె@@ 60
వీడియోలు 60
కర్నాటక 60
కోప@@ 60
గుడ్ 60
చేస్తున్నామని 60
మహర్షి 60
ఫైనాన్స్ 60
శ్వర@@ 60
శాశ్వత 60
నన్నారు 60
ఆవేదన 60
ప్రాంతాన్ని 60
ఆపిల్ 60
శుభ@@ 60
మెన్ 60
ఉద్యో@@ 60
థియే@@ 60
ఇంగ్లీష్ 60
ఫ్రెంచ్ 60
రుగు@@ 60
ఒక్కటే 60
భారం 60
టలు 60
ందును 60
మార్గాలు 60
ఒప్ప@@ 60
ణీ@@ 60
కున్నా 60
ఉండకూడదు 60
పాలిత 60
స్వరాజ్ 60
నడుపు@@ 60
రూపొందించిన 60
టాలు 60
కుంటుంది 60
డాలర్లు 60
2000 60
ఆస్ట్రేలి@@ 60
చూచి 60
చనిపో@@ 60
విడ@@ 60
ొద్దు 60
బా 60
అంతరిక్ష 60
ల్లోనే 60
చెందు@@ 60
ప్రాధాన్య@@ 60
స్యం 60
ఎస్ఐ 60
వల 60
చదవ@@ 60
1000 60
నాయకత్వం 60
చంప@@ 60
బరిలో 60
ందున 60
లేడు 60
ప్రజల@@ 60
ఆయనే 60
గర్వ@@ 60
of 60
సెమీ@@ 60
సందేహం 60
కోల్పోయింది 60
ప్రచార@@ 60
విద్యార్@@ 60
స్వీకారం 60
మలు 60
డట 60
బాక్@@ 60
మార్కెట్లోకి 60
సెట్స్ 60
టీలు 60
ఫలితాలను 60
ఏర్పా@@ 60
చేస్తాడు 60
చిం@@ 60
ప్రదేశ@@ 60
R 60
ాలో@@ 60
సీఎం@@ 60
పెళ్లి@@ 60
శాఖల 60
ంటున్నాయి 60
అక్రమ 59
సముద్రం 59
మరికొందరు 59
స్తా 59
సెక్రటరీ 59
అంతగా 59
రఘు@@ 59
చేతి@@ 59
టరీ 59
పార్టీని 59
తల్లిదండ్ర@@ 59
00 59
సమావేశమయ్యారు 59
కొనసా@@ 59
వెనుక@@ 59
అండగా 59
ఎంతగానో 59
సర్కారు 59
స్పోర్ట్ 59
సైనికులు 59
క్రైస్తవులు 59
సాగింది 59
ంశ@@ 59
సానుభూతి 59
బ్రిటిష్ 59
ఏటా 59
ప్రేక్షకులను 59
డిసెంబర్ 59
పారు 59
ఎంటర్టైన్మెంట్స్ 59
ంటో 59
యోహాను 59
పదార్థ@@ 59
ళి@@ 59
బయలుదే@@ 59
జవాన్లు 59
చం@@ 59
ంను 59
స్తాయని 59
మంటూ 59
చేయడంలో 59
రిక@@ 59
ణ్ 59
దారుల 59
మర్ 59
నాన్ 59
అందించాడు 59
r 59
వయ@@ 59
కుటుంబంలో 59
ఇప్పటిదాకా 59
క్లో@@ 59
చేయగల@@ 59
రైల్వే@@ 59
56 59
త్రు@@ 59
విపరీతంగా 59
ముక్కలుగా 59
స్తున్నారా 59
సమయాన్ని 59
న్నామని 59
దాదాపుగా 59
మినహా 59
కపో@@ 59
ముంబైలో 59
సహకార 59
స్థాయి@@ 59
సర్వీ@@ 59
రూపాయి 59
మున@@ 59
బహిరంగ 59
మోడీకి 59
ఖ్ 59
సంబ@@ 59
ఉపాధ్యాయ@@ 59
రోడ్@@ 59
జరిపారు 59
పెరగ@@ 59
ప్పటికీ 59
సేవల 59
దోహద@@ 59
మారు 59
రామకృష్ణ 59
ఆదిత్య 59
త్మకంగా 59
తరు@@ 59
పంచాయతీ 59
ఆశా@@ 59
తండ్ర@@ 59
సమూ@@ 59
సాధించి 59
రికార్డ్ 58
పేరిట 58
మిన@@ 58
అపొస్తలుడైన 58
స్మిత్ 58
ప్రకటి@@ 58
బాధిత 58
ప్రాంతానికి 58
పీవీ 58
స్తుల 58
పెంపు 58
మనే 58
డౌన్లోడ్ 58
నందమూరి 58
సిబిఐ 58
యండి 58
దానితో 58
ప్లో 58
లేదంటే 58
చేపట్టింది 58
అదృష్ట@@ 58
దీపికా 58
ఆలస్యంగా 58
టింగ్@@ 58
ప్రశాంతంగా 58
నిపుణ@@ 58
మేఘ@@ 58
ించును 58
మిశ్రా 58
ఫిబ్రవరి 58
నాయక్ 58
ట్వీ@@ 58
సిలిండర్ 58
ర్లకు 58
ింత 58
మయ్య@@ 58
పర్యటనలో 58
దృష్టి@@ 58
రిం@@ 58
వ్యక్తి@@ 58
న్లోని 58
వద్ద@@ 58
హారం 58
ాలె@@ 58
కోట్లుగా 58
బయటికి 58
వైరల్గా 58
వాహ@@ 58
పించిన 58
ప్రయాణి@@ 58
పాలయ్యారు 58
మొత్తానికి 58
అందరి@@ 58
చెడు 58
జేడీఎస్ 58
చ్చాయి 58
గడిచిన 58
గృహ@@ 58
టెన్నిస్ 58
అసోసియేషన్ 58
డబ్బు@@ 58
పాల్గొన్న 58
ప్ల@@ 58
ంటాను 58
ఇదో 58
దుఃఖ@@ 58
అవి@@ 58
మీతో 58
ళి 58
అలా@@ 58
ఫుడ్ 58
మాయ@@ 58
చంద్రశేఖర్ 58
వయస్సు 58
పరిస్థితుల్లో 58
చేస్తా@@ 58
జిం@@ 58
వారంతా 58
తుండ@@ 58
సూర్య 57
బాధపడు@@ 57
నిరాశ 57
సత్యనారాయణ 57
కేరళలో 57
జనతా 57
త్మ@@ 57
విచారణలో 57
మంగా 57
పూ 57
ష్ఠ@@ 57
నరేంద్ర@@ 57
నిర్వహిస్తారు 57
శైలి 57
ంటీ 57
ఈరోజు 57
డీఎంకే 57
నటించాడు 57
సమాచార@@ 57
పన్న@@ 57
వరి 57
రకుల్ 57
కార్యక్రమ@@ 57
వాటా 57
ంటోంది 57
ఆర్థిక@@ 57
ట్విటర్ 57
లున్నారు 57
ఇదిగో 57
యన్స్ 57
విజయవంతంగా 57
లోనుండి 57
టిక్స్ 57
జాన్ 57
సబ్ 57
ించేవారు 57
తోటి 57
సానుకూల 57
విశ్వస@@ 57
ఉద్యోగ 57
పత్రం 57
సంస్థకు 57
వారంలో 57
58 57
కాపా@@ 57
రారు 57
వ్యక్తికి 57
అకౌ@@ 57
వచ@@ 57
అద్వానీ 57
ఛైర్మన్ 57
ఓట్ల 57
ఆసుపత్రి 57
పోలి@@ 57
బ్యాక్@@ 57
నగరంలోని 57
ర్యామ్ 57
ంటా 57
చిహ్@@ 57
ల్య@@ 57
వారీగా 57
మంత్రివర్గం 57
పేర్కొన్న 57
అలానే 57
ద్ధ@@ 57
పుచ్చు@@ 57
డిస్@@ 57
ఆశ్ర@@ 57
జోడ@@ 57
హాని 57
చిరు@@ 57
ఆప్ 57
విలీనం 57
సమితి 57
కోరిక 57
ధిప@@ 57
వేర్ 57
ఇచ్చి 57
కనిపించింది 57
పాయింట్ 57
95 57
and 57
ఓకే 57
పీఠ@@ 57
సభ్యులతో 57
వంశ@@ 57
కోరుకుంటు@@ 57
మీరే 57
ఉపయోగించి 57
ఫండ్ 57
లేని@@ 57
ఆధ్వర్యంలో 57
చున్నది 57
పరిశ్రమ@@ 57
న్నావు 57
స్తాము 57
బరిలోకి 56
థామస్ 56
స్థానానికి 56
వాహనాలను 56
సగ@@ 56
నోట్ 56
తీసుకుంటు@@ 56
గంగూలీ 56
రికార్డు@@ 56
నరేష్ 56
లకే 56
శ్వాస 56
నేరం 56
తర్@@ 56
దివంగత 56
భావం 56
గేమ్ 56
గృ@@ 56
టెలి@@ 56
ఈడీ 56
మాధ్యమాల్లో 56
నిష్@@ 56
హిమాచల్ 56
స్టైలిష్ 56
ంతోనే 56
ప్పి@@ 56
ించగల@@ 56
కొట్టింది 56
లక్ష్యాన్ని 56
రెగ్యులర్ 56
బదులుగా 56
గ్లా@@ 56
ఫా 56
పడటం 56
అక్టోబర్ 56
ఱ్ఱ@@ 56
ఘటనాస్థలికి 56
దండ@@ 56
సాహి@@ 56
పిటి@@ 56
న్నో 56
గిన@@ 56
ఎండ@@ 56
సమాజం 56
నోటిఫికేషన్ 56
ల్ల 56
సందేశం 56
జగన్మోహన్రెడ్డి 56
సూచిస్తుంది 56
క్స్@@ 56
మంచు 56
సాధించాడు 56
పూజ@@ 56
సుప్రీంకోర్టులో 56
బాటు 56
ముందస్తు 56
ద్వీ@@ 56
ఉదాహరణలు 56
అయిన@@ 56
రహదారి 56
కులతో 56
మమ్మల్ని 56
జమ్ము 56
టర్స్ 56
ప్రస్తుతానికి 56
ులపై 56
వద@@ 56
చేయాల్సిన 56
ఔషధ 56
వర్గం 56
పూజలు 56
ఎంఎస్ 56
తిపై 56
తీసుకోండి 56
ఇంతకు 56
ారనే 56
వ్యాఖ్య@@ 56
బెర్@@ 56
నేనె@@ 56
గును 56
జత@@ 56
సీన్ 56
ఆయు@@ 56
మహేశ్ 56
మంటే 56
అవార్డులు 56
సంయుక్త 56
బడ్డారు 56
కూడదని 56
ండ్ర@@ 56
ఎమ్మెల్సీ 56
వస్తుందని 56
రావిపూడి 56
బడిన@@ 56
అబ@@ 56
కిషోర్ 56
పిస్తుంది 56
శారీరక 56
టమే 56
ాయం 56
ఆమెపై 56
గూర్చి 56
క్య 56
గాలు 55
వాడి@@ 55
జరగడం 55
చిన్నారి 55
తెలుసుకోవ@@ 55
కోర్సు 55
కార్మికుల 55
తుడు 55
ఇస్రో 55
న్ః 55
కీర్@@ 55
ీని 55
తమిళ@@ 55
సంఖ్యను 55
5:@@ 55
E 55
రీతిలో 55
గౌతమ్ 55
లారా 55
వర్తిస్తుంది 55
ట్లే 55
శిబి@@ 55
చేసుకొ@@ 55
స్తుంటారు 55
తెలుగు@@ 55
వేయడం 55
నిర్మాణ@@ 55
యస్ 55
రైళ్లు 55
ముగింపు 55
ించడ@@ 55
క్రీడా@@ 55
దీపక్ 55
బెదిర@@ 55
అభిమా@@ 55
హింస 55
పనిచేసే 55
పరిశుద్ధ@@ 55
జరగనుంది 55
వ్యవస్థలో 55
ఇచ్చే@@ 55
un@@ 55
నున్నది 55
తల్లిదండ్రులకు 55
షి 55
కాను@@ 55
ఆర్డి@@ 55
భౌతిక 55
చేయు 55
అటు@@ 55
పనులను 55
శరీరంలో 55
పరిస్థితులను 55
చెలరే@@ 55
రాజైన 55
99 55
వాడిని 55
సరిపో@@ 55
సమస్యల 55
మూసి@@ 55
విరుచుకుపడ్డారు 55
తిరిగి@@ 55
పరా@@ 55
కేటీఆర్ 55
తనయుడు 55
లోక్సభలో 55
గుడ్@@ 55
ండగా 55
రామ 55
మ్ర@@ 55
వాల 55
O 55
రెడ్@@ 55
స్థి@@ 55
వంత@@ 55
ఉగ్ర@@ 55
శక్తివంతమైన 55
తీర్పు@@ 55
బిడ్డ@@ 55
కారి@@ 55
పునరావృతం 55
రుణం 55
గ్రా 55
వల్ల@@ 55
ఆరోపణలను 55
మీలో 55
మ్యాన్ 55
120 55
రీసెర్చ్ 55
విమానాలు 55
ప్రసంగం 55
పంట@@ 55
తనపై 55
తరి@@ 55
ఆశలు 55
మెగాస్టార్ 55
క్రీస్తు 55
లభిస్తాయి 55
లేకపోయారు 55
వేటు 55
మేమిటి 55
దర్ 55
మండల 55
70@@ 55
సమీకర@@ 55
ించుకునే 55
కేఎల్ 55
చాలా@@ 55
గెలుపు 55
దీపావళి 55
వరుణ్ 55
ంటె@@ 55
బాబు@@ 55
సెలవి@@ 55
లాభాలు 55
ాయిః 55
టూ 55
తేల్@@ 55
సాతాను 55
తుంద@@ 54
దూసుకు@@ 54
కియా 54
వీలు@@ 54
భారతదేశానికి 54
చెల్లి@@ 54
సరళ@@ 54
చెప్పాను 54
ఒక్కొక్క@@ 54
ఉపయోగం 54
విన్న@@ 54
నది@@ 54
ూరు@@ 54
సాగి@@ 54
నటులు 54
నువ్@@ 54
గంటకు 54
రోజువారీ 54
చేత@@ 54
జరగకుండా 54
ఏకైక 54
వైపు@@ 54
కొన్ని@@ 54
వేసుకు@@ 54
ద్ధా@@ 54
న్యాయ 54
వెల్లడించలేదు 54
నెం 54
ఉల్లంఘ@@ 54
ఆశ్రయ@@ 54
పిలుపునిచ్చారు 54
మిక్స్ 54
నేపాల్ 54
శిఖ@@ 54
నేనూ 54
ఇశ్రాయేలీయు@@ 54
కార్డు@@ 54
నెంబర్ 54
వలెనని 54
ఏమిటంటే 54
ఫీచర్ 54
క్రీడా 54
ీగా 54
కాలానికి 54
వారు@@ 54
కొట్టి 54
ములోని 54
ించటానికి 54
నిశ్చయ@@ 54
ఆదివారం 54
త్తులు 54
టిలో 54
క్టర్@@ 54
కలగ@@ 54
ఆమ్@@ 54
ఉపయోగిస్తారు 54
ాయో 54
డొ@@ 54
ఏజె@@ 54
ఉద్య@@ 54
రులో 54
ముతో 54
కనిపించడం 54
లక్ష్మీ@@ 54
వివరి@@ 54
ఫైనల్లో 54
వదిలి@@ 54
పిటిషన్ను 54
చల్ల@@ 54
అభివృద్ధి@@ 54
అధినేత్రి 54
గ్రామానికి 54
చూస్తున్నారు 54
హౌస్ 54
బార్ 54
పంత్ 54
యోజన 54
కార్డ్ 54
జడేజా 54
కార్యక్రమాలను 54
స్నేహ@@ 54
పవిత్ర@@ 54
తిం@@ 54
41 54
బ్లూ 54
సైట్ 54
నాలో 54
ఫోన్లు 54
ప్రియు@@ 54
భవిష్యత్ 54
స్తారా 54
సిసి 54
పొల@@ 54
ఒప్పంద@@ 54
రోజురోజుకు 54
డ్లో 54
ద్రా@@ 54
పత్రాలు 54
క్యాప్ 54
కుటుంబాలు 54
కంలో 54
వాలో 54
వ్యతిరేకి@@ 54
వాటా@@ 54
నిర్ణయించారు 54
చేసుకునే 54
కపోవచ్చు 54
హెల్త్ 54
జియో 54
పేలుడు 54
కుల్దీప్ 54
పోయాను 54
చేసుకోవడానికి 54
హెచ్చరించారు 54
విద్యు@@ 54
ప్రస్తావించారు 54
అర్హ@@ 54
ఆలోచనలు 54
ించుకోవడానికి 54
ప్రేరే@@ 54
డాలర్ల 54
దరి@@ 54
టర్ల 54
దారు 54
వతి 54
హైద@@ 53
ఫోన్లో 53
దల 53
ఎన్ను@@ 53
k 53
వెల్లడి 53
కొనసాగుతున్న 53
అతిథిగా 53
వ్యాఖ్యా@@ 53
కాఫీ 53
ష్టమైన 53
వాహన@@ 53
వాడ 53
ట్వి@@ 53
ఆయన్ను 53
వస@@ 53
ద్ద 53
లాగా 53
బదులు 53
సైకిల్ 53
కూల@@ 53
టెండూల్కర్ 53
గణ@@ 53
ఫ్యూ@@ 53
ద్రాక్ష@@ 53
భర@@ 53
కుంట@@ 53
అమ్మాయి@@ 53
చేసుకున్నాయి 53
టుగా 53
నున్నట్టు 53
తల్లిదండ్రుల 53
విడుదలైంది 53
ఖర్చ@@ 53
క్రీస్తు@@ 53
స్మార్ట్ఫోన్ 53
గలను 53
కరించారు 53
సిరీస్లో 53
చేస్తుందని 53
ధ్వంసం 53
నటు@@ 53
అగ్ని@@ 53
కుంటున్న 53
ఐఐ@@ 53
వాళ్ళ 53
చెప్పుకొచ్చారు 53
కై 53
హక్కుల 53
ందన్న 53
దగిన 53
భూమిని 53
సాగు 53
రాధాకృష్ణ 53
యువకు@@ 53
మరణించిన 53
పునః@@ 53
వైమానిక 53
ఇంజిన్ 53
అనుకున్న@@ 53
రాష్ట్రాన్ని 53
సమాజ@@ 53
యాత్ర 53
పంపి@@ 53
వ్యాధి@@ 53
ననే 53
కింగ్@@ 53
సాల 53
వేసవి 53
చెక్ 53
బలహీన@@ 53
ఠాకూర్ 53
ూరి 53
ఎర్@@ 53
స్వర@@ 53
సల్@@ 53
వేయు@@ 53
మెరి@@ 53
ఆరోగ్యంగా 53
టిఆర్ఎస్ 53
ఖండించారు 53
రక్షణ@@ 53
తొందర@@ 53
భవిష్య@@ 53
పచ్చ@@ 53
జెండా 53
షెడ్యూ@@ 53
విజయాలు 53
పరిస్థి@@ 53
పరిశోధనలు 53
షన్ను 53
ప్రతిష్టాత్మకంగా 53
వాస్తవ 53
నటుడిగా 53
ఇతరులకు 53
ఘనత 53
సరి 53
6:@@ 53
మరింతగా 53
ప్రేమలో 53
పడుతున్నాయి 53
ఆలయ@@ 53
53 53
నుండ@@ 53
షన్కు 53
త్రి 53
నెల్లూరు 53
రాజకీయాల్లోకి 52
చేయాల@@ 52
భరత్ 52
కార్తీక్ 52
w 52
చాల 52
నలకు 52
ఈస్ట్ 52
విరి@@ 52
చౌహాన్ 52
000@@ 52
కోరుతూ 52
వాగ్@@ 52
భూ 52
జనా@@ 52
సమూహ@@ 52
ఎంపికలు 52
కోట్లతో 52
ఒకరి 52
43 52
గోల్డ్ 52
లభి@@ 52
ిక@@ 52
ఆందోళనలు 52
నిందితుల 52
అడుగుల 52
రాసిన 52
నైనా 52
అద@@ 52
అందరికి 52
రేపింది 52
మొదట్లో 52
అభినంద@@ 52
అందించాలని 52
తరవాత 52
యువత 52
పెరుగుతున్నాయి 52
బాలీవుడ్లో 52
హైదరాబాద్లోని 52
71 52
బలగాలు 52
బౌలర్లలో 52
ట్రె@@ 52
జో 52
జడ్@@ 52
స్పీ@@ 52
ఎదుట 52
పరిగణనలోకి 52
ఛాంపి@@ 52
ప్రసం@@ 52
ందనే 52
టులు 52
డ్రైవింగ్ 52
ప్రై@@ 52
శాఖకు 52
చేయటం 52
పౌరు@@ 52
లేకపోవడం 52
బద్ద@@ 52
నీతి 52
రెట్లు 52
సల@@ 52
రాకపో@@ 52
చిత్రీకర@@ 52
పసుపు 52
డింది 52
వారె@@ 52
జార@@ 52
కప్పు 52
కేసులుః 52
స్తూ@@ 52
వేల@@ 52
లోన@@ 52
శరీర@@ 52
ఏమి@@ 52
చిత్రంగా 52
వాయి@@ 52
ప్య@@ 52
మిం@@ 52
కృతజ్ఞ@@ 52
పౌరసత్వ 52
స్కో@@ 52
రాగా 52
దయ 52
పించాడు 52
అభ్యంతరం 52
ఎట్టకేలకు 52
ప్రకాశ@@ 52
అంబానీ 52
నిజ 52
ైన@@ 52
ఓవర్ 52
కొర@@ 52
దేవుని@@ 52
తీరు@@ 52
ప్రవచ@@ 52
అలె@@ 52
అరి@@ 52
కృత 52
మీడియాతో 52
as@@ 52
పలుకు@@ 52
అందిస్తున్నాడు 52
ఇత@@ 52
ప్రకటనలో 52
6లో 52
తనిఖీ 52
తెరి@@ 52
కీలకం 52
వేగంతో 52
సబ్@@ 52
రోడ్లు 52
దుర@@ 52
పీసీసీ 51
పాన్ని 51
తుందన్నారు 51
వెచ్చ@@ 51
ంకు 51
పూర్లో 51
హాన్ 51
మయ్యారు 51
దానిలో 51
చేస్తున్నట్టు 51
es@@ 51
ing 51
దర్శక 51
మ్ను 51
దన్నారు 51
ఏక@@ 51
తీవ్రస్థాయిలో 51
వ్యవ@@ 51
ఎలా@@ 51
పుస్తకాలు 51
ఫైన@@ 51
విజయవంతం 51
భారతదేశంలోని 51
మిరియాలు 51
ప్రజల్లో 51
పొందడానికి 51
స్తున్నాము 51
వెస్ట్ 51
వెళ్ళి@@ 51
ప్రక్రియను 51
లైతే 51
తెర 51
వ్యాఖ్యలపై 51
ఫ్రె@@ 51
ించటం 51
కావాల్సిన 51
బాల్@@ 51
80@@ 51
మాన్ని 51
కీలక@@ 51
రస@@ 51
అయ్యాడు 51
దులు 51
పద్ధతిలో 51
వుకు 51
మాన్@@ 51
వహిస్తున్నాడు 51
సేన 51
సమావేశాలు 51
కత్రినా 51
పతకం 51
వినియోగం 51
ఎప్పటికప్పుడు 51
మాండ@@ 51
వాదం 51
మాట్లాడే 51
జరిగిందో 51
లండన్ 51
ద్రవ్య@@ 51
దార్ 51
తప్పి@@ 51
స్తుండ@@ 51
ండే@@ 51
ఎంజాయ్ 51
కుంటూ 51
నమ్@@ 51
చ్చె@@ 51
తీసుకోలేదు 51
రియా@@ 51
రెండ@@ 51
విమానంలో 51
గాయపడి@@ 51
క్లా@@ 51
కైఫ్ 51
త్యం 51
తాగు@@ 51
ఘర్షణ 51
అధ్యక్షురాలు 51
ప్రేమను 51
కార్మికులకు 51
మోషే 51
ంద్ 51
ప్రచారంలో 51
వడ్డీ@@ 51
ఇప్పు@@ 51
బిడ్డ 51
7:@@ 51
రాయి@@ 51
నేటి 51
లేషన్ 51
అవార్డు@@ 51
ఎస్టీ 51
లేన@@ 51
ంతి 51
విధించిన 51
హుటాహుటిన 51
పతి@@ 51
బోయే 51
వినియోగదారులకు 51
ఆపై 51
బ్యాటరీ 51
పత@@ 51
నాను 51
సార్ 51
ఐసీ@@ 51
సత్యం 51
ఎదుర్@@ 51
మర్చిపో@@ 51
శ్రీకాంత్ 51
పాస్ 51
ఫ్యాన్స్ 51
గారి 51
బడును 51
సైబర్ 51
పొందుతారు 51
స్పేస్ 51
రావడానికి 51
కమి@@ 51
కోల్క@@ 51
కలిగించే 51
సౌత్ 51
కాంగ్రెస్కు 51
వేయాలని 51
ఒకడు 50
అందజేశారు 50
ప్రభుత్వంపై 50
వస్తువులు 50
సంచ@@ 50
యంత్ర@@ 50
దేవి@@ 50
గలం 50
ట్మెంట్ 50
జరుపుతున్నారు 50
రాజ్యం 50
ఆజ్ఞ@@ 50
జర్నలి@@ 50
రేషన్ 50
ఉత్@@ 50
మీర@@ 50
నెరవే@@ 50
బొగ్గు 50
గీతా 50
లోటు 50
ప్రాజెక్టులు 50
మద్దతుగా 50
బడ్జెట్తో 50
వుతున్న 50
పంపు@@ 50
ించుకోవచ్చు 50
గర్ 50
డ్లు 50
రని 50
హస్త@@ 50
నవీన్ 50
హాలీవుడ్ 50
యల్ 50
హోంశాఖ 50
విడత 50
అభిమానులకు 50
పుంజు@@ 50
వడ@@ 50
Co@@ 50
మ్ము@@ 50
చేయాలో 50
చూడలేదు 50
యైన 50
పోరు 50
దుల 50
సరికి 50
పరిశ్రమల 50
ఫొటోలను 50
నిరూప@@ 50
ించుకోవడం 50
ఐతే 50
పరిణామ@@ 50
పనిచేసిన 50
రాశి 50
ండ్లో 50
పోటీలో 50
స్టోరేజ్ 50
ప్పుడూ 50
రాను 50
జం@@ 50
కోపం 50
రివ్యూ 50
పురుష@@ 50
సిద్ధాంత@@ 50
ట్లయితే 50
రోడ్డు@@ 50
సెక్యూరిటీ 50
కెరీర్ 50
దాసు@@ 50
ట్టింది 50
ఎక్కు@@ 50
సుకుమార్ 50
నంద 50
త్త 50
గంట@@ 50
కొనుగో@@ 50
సమాన@@ 50
జై 50
చేస్తున్నాను 50
మీదికి 50
దయా@@ 50
తులతో 50
ించె@@ 50
దరు 50
స్టేషన్కు 50
ధరలను 50
am@@ 50
మొదలుపెట్ట@@ 50
సన్నిహి@@ 50
కేర్ 50
మిలి@@ 50
త్తా@@ 50
సులో 50
దేవిశ్రీ 50
ఎప్పుడైనా 50
నిల్వ 50
యమైన 50
చట్టాన్ని 50
నును 50
తేజ్ 50
శరీరం 50
లంద@@ 50
ష్టంగా 50
చేసిందని 50
ఇళ్లు 50
లోతట్టు 50
కవి@@ 50
ించకుండా 50
రియర్ 50
బాధితురాలు 50
పాయ@@ 50
పాత@@ 50
స్థానాలను 50
మృతిచెందారు 50
శాంత@@ 50
లభ్యం 50
అడుగు 50
వేగవంతం 50
బిఎస్@@ 50
పలు@@ 50
పాటుగా 50
బిహార్ 50
మలే@@ 50
కూడు@@ 50
ధ్యా@@ 50
నియమాలు 50
నిర్మాణంలో 50
తగ్గింపు 50
తీసుకున్న@@ 50
డబ్ల్యూ@@ 50
పరస్పరం 50
హిందూ@@ 50
li@@ 50
రానా 49
కాశ్మీ@@ 49
ఎడమ 49
శుద్ధి 49
గోయల్ 49
ఉపా@@ 49
ప్యాసింజర్ 49
పంపించారు 49
ముస్లింలు 49
కప్ప@@ 49
కాంట్రా@@ 49
గుర్తుంచు@@ 49
శుభ్రంగా 49
రుకు@@ 49
సదుపాయ@@ 49
ఎప్పటి@@ 49
కార్యాచరణ 49
ధూ@@ 49
హోమ్ 49
జేపీ 49
బాక్స్ 49
అనుసరి@@ 49
ఏమిట@@ 49
అత్యున్నత 49
కొట్టు@@ 49
పరిశీలించారు 49
పంపారు 49
స్త్రీలు 49
ించనున్నట్లు 49
హర్ 49
అప్పటి@@ 49
టార్గెట్ 49
ఎక్స్ప్రెస్ 49
77 49
శక్@@ 49
విశ్వాస@@ 49
ళ్లి@@ 49
చిక్క@@ 49
స్పి@@ 49
అల 49
కార్యాలయంలో 49
నిందితులు 49
చంద్రబాబు@@ 49
బిజెపికి 49
యెషయా 49
రమైన 49
చేసినా 49
ప్రార్థన 49
కిం@@ 49
పోరాడు@@ 49
ఉత్తర@@ 49
దుస్తులు 49
బోర్డ్ 49
పెంచుతుంది 49
ాల్లోకి 49
ఘటన@@ 49
ఎల్ల@@ 49
ట్లతో 49
మాల 49
దళం 49
స్టులు 49
ఇది@@ 49
పోరాడ@@ 49
ంట్స్ 49
వెర్షన్ 49
చివరి@@ 49
తెలుసుకోండి 49
బాలికను 49
ప్రతిరోజూ 49
ఠా@@ 49
బుమ్రా 49
ంక 49
అనంతపురం 49
ప్రణాళిక@@ 49
ప్రసారం 49
11@@ 49
వలస@@ 49
బిల్లు@@ 49
సురే@@ 49
ఇండియాకు 49
దిగి@@ 49
లేచి 49
రంగానికి 49
భార్యను 49
టంలో 49
భాగాలు 49
మెయిల్ 49
స్పంది@@ 49
ముఖర్జీ 49
తెలియలేదు 49
1లో 49
భాషలలో 49
ఐఐటీ 49
ట్యూ@@ 49
బ్యాడ్మింటన్ 49
వస్తున్నారు 49
వృక్ష@@ 49
కతో 49
కంటి@@ 49
రగ@@ 49
సీపీఎం 49
ఉండేవి 49
నయ@@ 49
999@@ 49
ించుచు@@ 49
షాహిద్ 49
నెహ్రూ 49
డెన్ 49
పుష్@@ 49
గెలుచుకుంది 49
ఒ 49
మాధవ్ 49
డాన్ 49
దిశ 49
రాజ్యా@@ 49
ల్ట్ 49
ణ్ణి 49
బెంగళూరుః 49
ఆలోచించ@@ 49
వివాహ@@ 49
రవిచంద్రన్ 49
ఇవ్వడానికి 49
త్స@@ 49
మైతే 49
అదె@@ 49
అనుచరు@@ 49
జే 49
విధించారు 49
నియమి@@ 49
ముప్పు 49
సిస్ 49
కోరింది 49
నిపుణుల 49
ప్రశ్@@ 49
న్నిటి@@ 49
బాబా 49
పుల్ 49
61 49
ఆరా 49
అబద్ధ@@ 48
షియ@@ 48
వాం@@ 48
బహ@@ 48
వేయాలి 48
గడ్కరీ 48
షేక్ 48
నెమ్మదిగా 48
రుజు@@ 48
మాల@@ 48
స్పోర్ట్స్ 48
జోహార్ 48
అయిపోయింది 48
వస్తాయని 48
గెలవ@@ 48
నాలకు 48
నివేదికను 48
నిక 48
180 48
ఫీ 48
ింది 48
రెవెన్యూ 48
బృందాలు 48
అధికారంలో 48
గాంధీని 48
సినిమాలకు 48
లేవని 48
బాంబు 48
రుచి@@ 48
350 48
సంస్@@ 48
► 48
మ్యాన్యువల్ 48
వసూ@@ 48
పర్వత@@ 48
టికెట్ 48
పాడ@@ 48
అబ్బ@@ 48
హార 48
తలెత్త@@ 48
పేర్లను 48
ించుకోండి 48
కామెడీ 48
చేర్@@ 48
కాంబినేషన్లో 48
స్వంత 48
తొమ్మిది 48
ఇంటర్ 48
సోదరి 48
నపై 48
తమన్ 48
ఏర్పడిన 48
il@@ 48
కాబో@@ 48
విధానంః 48
82 48
అప్@@ 48
యున్న@@ 48
స్టింగ్ 48
విషాదం 48
ారావు 48
గరి@@ 48
ట్లు@@ 48
స్థానికంగా 48
ఎవరిని 48
రాధ@@ 48
సదుపాయాలు 48
ఐటి 48
సైన్య@@ 48
మారుతుంది 48
నిబంధ@@ 48
ఓటర్లు 48
అభ్యర్థుల 48
ప్రవా@@ 48
ఖర్చులు 48
మిక్ 48
వహించాడు 48
మె 48
విజయ 48
సైన్@@ 48
నీటి@@ 48
ప్రవేశం 48
పెట్టడం 48
ఆగస్టు 48
తొలిసారిగా 48
పడిపో@@ 48
ఉత్తరాఖండ్ 48
నాయి@@ 48
ప్రచార 48
ఉంటాయని 48
ారో@@ 48
పెట్టుకుంది 48
ఎస్యూవీ 48
అలవా@@ 48
అహ్మదాబాద్ 48
90@@ 48
ఎంటర్టైన్మెంట్ 48
గడువు 48
పాల్పడిన 48
ములకు 48
పెంచింది 48
కరీంనగర్ 48
చర్యల 48
ri@@ 48
ఉండేలా 48
శాను 48
దేశాలతో 48
మోట@@ 48
ప్రత్యేకత 48
వదిలి 48
పార్లమెంటరీ 48
వాగ్వాదం 48
భారత@@ 48
నీయు@@ 48
పెట్టే@@ 48
ఫిక్స్ 48
సంగీ@@ 48
తెరకెక్కించిన 48
జనులు 48
మానవ@@ 48
రాష్ట్రవ్యాప్తంగా 48
బీసీ 48
బార@@ 48
దళాలు 48
ప్రసిద్ధి 48
కటి 48
జంతువులు 48
ాలోనే 48
మనసు 48
ఇలాగే 48
లేక@@ 48
నితో 47
మనీ 47
ఆక్సి@@ 47
మీదుగా 47
సీజన్లో 47
మాలు 47
n 47
కార్లు 47
దర@@ 47
క్వార్@@ 47
నెరవేర్చ@@ 47
భవన్ 47
స్థానికుల 47
పుణ@@ 47
లింక్ 47
జ్య@@ 47
వచ్చినప్పుడు 47
దిల్లీ 47
లెక్@@ 47
నగరాల్లో 47
కాంగ్రెస్@@ 47
ఉద్దేశించి 47
ఎమ్మెల్యే@@ 47
రేట్ 47
పేజీ@@ 47
రెండుసార్లు 47
ధ్వ@@ 47
74 47
పవిత్ర 47
రోజ@@ 47
రంగారెడ్డి 47
ాల్లోనే 47
బ్యానర్@@ 47
72 47
88 47
రేవంత్ 47
విగ్రహం 47
స్థిరమైన 47
తానని 47
ప్రీమియర్ 47
క్రికె@@ 47
ప్రచుర@@ 47
కేం 47
చేసుకోండి 47
చర్చి 47
టిస్ 47
చనిపోయిన 47
ఆడిన 47
57 47
ట్రేడ@@ 47
రావాల్సి 47
సైనా 47
కథనం 47
నమోదైన 47
సదుపాయాల 47
రామ్చరణ్ 47
పేందుకు 47
అసిస్టెంట్ 47
ఒక్కరికీ 47
కరె@@ 47
జిల్లాలు 47
పర్యవేక్ష@@ 47
మైందని 47
విసు@@ 47
ప్రాధాన్యం 47
శుభ్ర@@ 47
హాజరైన 47
ాయిలు 47
ించ 47
కొనసాగుతుంది 47
ంగం 47
ఇంటర్వ్యూ 47
ాయు@@ 47
కుప్పకూలి@@ 47
వుల్లో 47
ఇకపై 47
ఆంక్షలు 47
విమానయాన 47
కలిగే 47
కరించింది 47
ప్రాణ 47
ఎక్కడికి 47
మనిషి@@ 47
వస్తువుల 47
సమాధానాలు 47
రోగ@@ 47
బీఎస్ 47
వేద@@ 47
బయోపిక్ 47
సగటున 47
స్పందించలేదు 47
కుంటోంది 47
నేల@@ 47
యాజ@@ 47
మును@@ 47
ఒకటిగా 47
రంగులు 47
అద్ద@@ 47
పురోగతి 47
దార్@@ 47
గీత 47
భావించారు 47
మాస్ 47
యుక్@@ 47
రక్త 47
సురేశ్ 47
మాం@@ 47
సంభాష@@ 47
గడ్@@ 47
ధైర్యం 47
బంధం 47
నిరోధక 47
బాధితు@@ 47
మని@@ 47
పరిస్థితు@@ 47
గమనించిన 47
విష్ణు 47
ఆఫ్@@ 47
ఖన్నా 47
స్పా@@ 47
జైలుకు 47
షు 47
పురస్కారం 47
10,@@ 47
జర్మన్ 47
లాడు@@ 47
సృష్టించిన 47
ఫేమ్ 47
అల్లం 47
సెన్@@ 47
మహేంద్ర 47
షమీ 47
మణి 47
వేరు@@ 47
యాప్@@ 47
నిమ్మ@@ 47
తెగ 47
సరదాగా 47
మనలో 47
పక్క@@ 47
చెందిన@@ 47
త్తం 47
డ్రగ్స్ 47
హాట్ 47
పిలువ@@ 47
నామినేషన్ 47
గాయం 47
రల్ 47
మారిపోయింది 47
సామ@@ 47
ప్రభావాన్ని 47
ఊరట 47
స్కూటర్ 47
సమాధాన@@ 47
ఆదరణ 47
దేశంగా 47
జిఎస్టి 47
స్వామి@@ 47
వేడుక 47
సుబ్బ@@ 47
టను 47
సీటు 47
జాల@@ 47
యెహోవాసాక్షులు 47
వలసి@@ 46
యిల్ 46
దూసుకె@@ 46
ఇవే 46
కానున్నారు 46
అందించింది 46
దెబ్బ 46
టీం 46
లాడు 46
సందర్భాల్లో 46
బిలి@@ 46
అన్నా@@ 46
ంటు 46
ించుకుంది 46
ఐదో 46
స్వరూ@@ 46
లర్@@ 46
నిలిచిన 46
నంది@@ 46
ఇస్తారు 46
కోల్పోయిన 46
రూపకల్పన 46
అనుకున్న 46
ముఖం 46
దిగ్భ్రాంతి 46
వలె@@ 46
ముఖ్యమంత్రులు 46
మరణించాడు 46
జరగనున్నాయి 46
చేయి@@ 46
పట్@@ 46
144 46
చక్రవర్తి 46
భిన్న@@ 46
నిఘా 46
కోవడంతో 46
సంప్రదాయ@@ 46
ఉత్స@@ 46
కలవ@@ 46
మరణ 46
అవకాశాలను 46
ృ@@ 46
రచన 46
సమీక్ష 46
ఉంచారు 46
నావి@@ 46
లందరికీ 46
ణీ 46
దొరుకు@@ 46
జరగనున్న 46
పరాజయం 46
ాలో 46
ణంలో 46
రాజ్పుత్ 46
పిల్ల 46
ారుః 46
పంచుకున్నారు 46
అద్@@ 46
రంగుల్లో 46
అంతరాయం 46
పద్ధ@@ 46
ధులు 46
ఉంటూ 46
చేయటానికి 46
నినాదాలు 46
కుదుర్చు@@ 46
ప్రమాణ@@ 46
సందేహ@@ 46
ల్స్లో 46
గుజరాత్లో 46
మిస్ 46
వాళ్లను 46
భాస్కర్ 46
ించుకోవాలని 46
అంతే@@ 46
పథకాన్ని 46
ప్రకటించలేదు 46
తీసుకుంటారు 46
సమాధా@@ 46
నియమించారు 46
ప్రారంభమైన 46
బస్సులో 46
కేంద్రానికి 46
వివేక్ 46
షూ@@ 46
కొద్దీ 46
ఆమెతో 46
సారథి 46
చికిత్స@@ 46
దిగ్@@ 46
ఎవ్వరూ 46
చేయును 46
పరికర@@ 46
700 46
దాం 46
షర@@ 46
అధిప@@ 46
నీలం 46
నిరాకర@@ 46
బ్యూ@@ 46
కున్నది 46
దాటి@@ 46
వేడు@@ 46
రిజర్వ్ 46
జీకి 46
కార్పొరేట్ 46
విసి@@ 46
ట్స్@@ 46
ఆక్రమ@@ 46
సింగిల్ 46
కొట్టే@@ 46
సాహో 46
భూకంపం 46
కష్టాలు 46
యథార్థ@@ 46
లేవ@@ 46
పోస్టర్ 46
కుడి@@ 46
డీజల్ 46
కనబడ@@ 46
దక్షిణ@@ 46
నమైన 46
నై 46
పరిణామాలు 46
జోరు 46
54 46
కిలో 46
రాష్ట్రాలలో 46
కారణంగానే 46
వివరాల 46
చెందినట్లు 45
సంతోషం 45
ఐదు@@ 45
is@@ 45
నిమిష@@ 45
ంలో@@ 45
దుష్ట@@ 45
j@@ 45
J@@ 45
వాళ్@@ 45
కొట్టిన 45
ఉండేందుకు 45
ముట్ట@@ 45
ఫలి@@ 45
ించని 45
మెంట్స్ 45
మాట్లాడిన 45
నెట్వర్@@ 45
పును 45
కాసే@@ 45
వెంకటేశ్వర 45
ఉల్లిపాయ 45
దుకాణాలు 45
పాఠశాల@@ 45
మలయాళం 45
యువకుడు 45
ంట 45
చున్నాను 45
ఎడ@@ 45
అనుమానాస్పద 45
క్షి@@ 45
కౌంటర్ 45
చెంది@@ 45
ఎన్నికలలో 45
అరికట్ట@@ 45
ట్లా 45
లాండ్@@ 45
ూరులో 45
తీసింది 45
గెలిచింది 45
సంతృప్తి@@ 45
లిస్ట్ 45
సంబంధాలను 45
స్నా@@ 45
బాలా@@ 45
పడలేదు 45
నిర్మూల@@ 45
ప్రసంగ@@ 45
వది@@ 45
సత్తా 45
ఆక్@@ 45
తిరస్కరించింది 45
ఓవర్లలో 45
ంతర 45
దిక్కు@@ 45
బ్యూటీ 45
అమలు@@ 45
అడ్డుకున్నారు 45
కెట్ 45
ప్రాంతంలోని 45
లబ్ధి@@ 45
దారులను 45
కలుగుతుంది 45
డ్యా@@ 45
వరద@@ 45
పూజ 45
నోరు 45
చాంపి@@ 45
ఆన్లైన్లో 45
సరిలేరు 45
» 45
2లో 45
రిలీ@@ 45
కార్మిక 45
అవే@@ 45
కరోనావైరస్ 45
గుప్తా 45
సహకర@@ 45
పర్చ@@ 45
పడం 45
గల్ 45
దిన 45
ల్పై 45
అవసరమైతే 45
ఎకరాల 45
కొంతకాలం 45
హిందు@@ 45
x@@ 45
నెలా 45
ఉపయోగపడుతుంది 45
కనె@@ 45
సలహా@@ 45
1వ 45
మూర్@@ 45
వెన@@ 45
చూసి@@ 45
సమ్మె 45
హాల 45
ఉంచండి 45
lo@@ 45
కారుడు 45
ఒంటరిగా 45
పోలేదు 45
వంటి@@ 45
ద్దీన్ 45
తీరుపై 45
చొర@@ 45
మరల 45
తెల్ల@@ 45
పురుషులు 45
ఉండడానికి 45
క్రాస్ 45
జవాబు 45
డ్రైవర్@@ 45
చంద్రబాబునాయుడు 45
భారతదేశపు 45
సకాలంలో 45
స్థాని@@ 45
వైఎస్సార్సీపీ 45
సందడి 45
తాళ@@ 45
నిర్వహిస్తున్నారు 45
రాజ్యాంగం 45
బిఎస్ 45
62 45
52 45
చెట్లు 45
ఉపాధ్యాయులు 45
ఒక్కసారి 45
కోణ@@ 45
జేషన్ 45
రత్@@ 45
కకు 45
బంగార@@ 45
వీరిద్దరి 45
పరిచ@@ 45
జొ@@ 45
తంలో 45
సినిమాటోగ్రఫీ 45
లసిన 45
తమను 45
స్క్@@ 45
టీడీపీకి 45
కొనసాగుతున్నాయి 45
అధ్యయ@@ 45
కోణం 44
సీసీటీవీ 44
డిపాజిట్ 44
కోవాల్సిన 44
అందుకోసం 44
మిడ్ 44
దిద్ద@@ 44
యెరూషలే@@ 44
రెండోసారి 44
కోడ్ 44
వత్@@ 44
అడిగి@@ 44
వ్యవహారంపై 44
కొవ్వు 44
ఫొటో@@ 44
త్తా 44
ఫ్ట్ 44
ఒబామా 44
ఇలా@@ 44
వరు@@ 44
ల్యాండ్ 44
W 44
న్నాయని 44
ఎత్తు 44
కమిష@@ 44
వెంట@@ 44
అభ్యర్@@ 44
ించినందుకు 44
త్వానికి 44
పరిశీలించి 44
లక్@@ 44
ప్రజాదరణ 44
అప్లికేషన్ 44
ఫీచర్@@ 44
నరే@@ 44
పెద్దలు 44
సివిల్ 44
తలె@@ 44
త్తిన 44
సేకరణ 44
త్రో@@ 44
ఫ్యామిలీ 44
8లో 44
సామర్థ్య@@ 44
ఉస్మానియా 44
ంచ్ 44
పోయే@@ 44
ఎగ్జిక్యూటివ్ 44
యాల@@ 44
ంగానూ 44
గ్య@@ 44
ించడమే 44
వికెట్ల 44
ఇరా@@ 44
an 44
కున్నా@@ 44
వసతి 44
చర్యలకు 44
ర్లలో 44
స్సు@@ 44
నట్లే 44
జరుగుతుందో 44
పైడిపల్లి 44
బాధితులు 44
అందుకున్నారు 44
కొంతకాలంగా 44
సంచల@@ 44
అనుమానిస్తున్నారు 44
ప్రెస్ 44
లభించ@@ 44
దారి@@ 44
సంక్లి@@ 44
బోతోంది 44
11,@@ 44
ఉద్దేశం 44
తెరకెక్కిస్తున్న 44
మిస్@@ 44
లందరూ 44
ఆదర్శ@@ 44
జాబితాను 44
పార్టీలకు 44
వీలుగా 44
సూచించింది 44
సినిమాల 44
శే@@ 44
కంట@@ 44
భాగాన్ని 44
కౌర్ 44
x 44
ప్రాచీన 44
గుమ్మ@@ 44
నీయ 44
ళ్లుగా 44
మెజారిటీ 44
భరి@@ 44
రిపబ్లిక్ 44
అర్జు@@ 44
వాషింగ్టన్ 44
రెండే@@ 44
సీఎంగా 44
వాడి 44
నైపుణ@@ 44
పద్ధతులు 44
నీతి@@ 44
పెను 44
వాట@@ 44
విధానంలో 44
అధికం 44
శ్రమ 44
ఉపసంహర@@ 44
ముంచె@@ 44
999 44
సమర్పించ@@ 44
ఆసక్తి@@ 44
రాయి 44
చేయుటకు 44
వాయువు 44
రాజేష్ 44
మారిన 44
స్థాన్ 44
క్రొ@@ 44
సైకి@@ 44
షూటింగ్@@ 44
ఉత్పత్తుల 44
సూర్@@ 44
ఆర్ఆర్ఆర్ 44
చెల్లించ@@ 44
లిక 44
విక 44
నాల్లో 44
పసి@@ 44
వృద్ధ@@ 44
అమరావతి 44
కమ్యూనికేషన్ 44
వూ@@ 44
సాంగ్ 44
డ్రైవ్ 44
స్టేషన్@@ 44
సందే@@ 44
రిపోర్@@ 44
కంప్యూ@@ 44
పార్లమెంటులో 44
ుడి 44
మాయావతి 44
నవ్వు@@ 44
జనాభాలో 44
తితో 44
ప్రాణం 44
గొడవ 44
ప్రతిస్పంద@@ 44
సీఎస్ 44
విశాఖ 44
డులు 44
ఎయి@@ 44
ించడాన్ని 44
డను 44
అభిషేక్ 44
పద్మ@@ 44
మిమ్మును 44
కానున్నాయి 44
కొబ్బరి 44
చేయకుండా 44
తేల@@ 44
నిన్న 44
వయసు@@ 43
ఆలయంలో 43
తెలిసి 43
ప్రాతిపదికన 43
అతిథ@@ 43
మాధ@@ 43
ంటాం 43
స్థలంలో 43
ించాలన్నారు 43
కొట్టి@@ 43
సెల్ఫీ 43
తీసుకున్నాడు 43
నరు@@ 43
హోటల్ 43
ంట్లో 43
ఇన్సూరెన్స్ 43
మంత్రిత్వశాఖ 43
అల్లరి 43
మృతికి 43
ండ్స్ 43
విడుద@@ 43
టిల్ 43
పార్కింగ్ 43
నిలబడ@@ 43
ఆచూకీ 43
సహకార@@ 43
పంటలు 43
ఖాయ@@ 43
ఉష్ణోగ్రతలు 43
Name 43
ప్రయాణిస్తున్న 43
వర్తి@@ 43
పరిచయ@@ 43
సుందర్ 43
పునరుద్ధర@@ 43
పాలనలో 43
దేశాలలో 43
పిక్ 43
సుంకర 43
్యాల 43
పూరి@@ 43
ఒకరి@@ 43
తెలిపాయి 43
నివేది@@ 43
చర్చకు 43
విధానాలు 43
ఆడి 43
విశ్@@ 43
యుల 43
అభిమానులతో 43
నివేద@@ 43
దృక్పథ@@ 43
500@@ 43
నవీ@@ 43
అమెరికాకు 43
పొరుగు@@ 43
సానికి 43
వెళ్లిన 43
స్తాన్ 43
పించి 43
మూవీని 43
్రావు 43
కేరళ@@ 43
స్వి@@ 43
ప్రతిపక్షాలు 43
సీఐ@@ 43
ుని 43
ాలిః 43
తిరగ@@ 43
వేడుకకు 43
పూడి 43
ఎదుర్కొంటున్న 43
అవకాశముంది 43
వైపులా 43
ఇవ్వాలి 43
సిసి@@ 43
యితే 43
ఏసీ 43
ంగు@@ 43
1.5 43
సెస్ 43
పోల్@@ 43
సంఘటనపై 43
తున్నట్టు 43
ఆశ్రయించారు 43
గౌడ 43
డల 43
ఉల్లిపాయలు 43
రప్ప@@ 43
ఉద్యమం 43
ంబరు 43
ఆగి@@ 43
ంతిని 43
రాణి@@ 43
హార్దిక్ 43
నుడు 43
పాఠశాలలో 43
సానియా 43
మాంసం 43
మతి 43
వెళ్లే 43
తగ్గుతుంది 43
ఆధిక్యంలో 43
గ్యా@@ 43
శేఖర్ 43
చదువు 43
ation 43
అక్కడ@@ 43
నమ@@ 43
* 43
అనేకమంది 43
ప్రశంస@@ 43
నిర్వాహ@@ 43
సవాలు 43
గం@@ 43
వారిద్ద@@ 43
కైన 43
తాల 43
గిరిజన 43
ఒత్తి@@ 43
అంకి@@ 43
సెంటర్@@ 43
ఆటగాళ్లు 43
ఇద్ద@@ 43
నేషన్ 43
కారులు 43
వేరియంట్లలో 43
నైతిక 43
యేషన్ 43
మసీదు 43
ధ్@@ 43
పెంచారు 43
యింగ్ 43
ప్రతిపక్ష@@ 43
సిగ్గు@@ 43
చెబుతారు 43
చూశారు 43
కమా@@ 43
మోహ@@ 43
మ్యూజియం 43
కార్యాల@@ 43
ఈమేరకు 43
వ్యవహరిస్తున్నారు 43
మానే@@ 43
విశాఖపట్నం 43
సంతా@@ 43
2012 43
నియు 43
ఉద్రిక్త 43
మొత్త@@ 43
మల్@@ 43
లైన@@ 43
ఆశ్చర్యం 43
భర్తీ 43
వర్ధన్ 43
గది 43
టకును 43
వ్యాధులు 43
రిస్క్ 43
స్టూ@@ 43
కఠినంగా 43
X@@ 43
జెట్ 43
76 42
దృశ్యాలు 42
పనిచేయ@@ 42
గులా@@ 42
యాంటీ@@ 42
73 42
పెట్టాడు 42
ట్విటర్లో 42
దశల్లో 42
యున్న 42
కపోవడంతో 42
7లో 42
ంట్ర@@ 42
నిర్ధారించారు 42
విస్త@@ 42
బంధువులు 42
పించే 42
సగం 42
కెప్టెన్గా 42
ఓపెనర్ 42
చన 42
మేనా 42
టెలివిజన్ 42
చాయి 42
సారా 42
వీర్ 42
బతు@@ 42
అడ్డ@@ 42
కాక@@ 42
ాయ్@@ 42
మిలియన్ల 42
ఆమో@@ 42
త్యాలు 42
బుల్స్ 42
విస్తృతంగా 42
గోధుమ 42
ఫోటోలను 42
చైనాలో 42
చల్ 42
నంతో 42
రితో 42
సెలె@@ 42
బిజీగా 42
పాల్పడి@@ 42
విదేశ@@ 42
రూపొందించారు 42
వివరంగా 42
దేశీ 42
అడుగులు 42
అందరు 42
మెగాపిక్సెల్ 42
లాడ@@ 42
శరద్ 42
నివాసం 42
అస్సాం 42
స్వాతంత్ర్య 42
బ్రెజిల్ 42
వంతు 42
న్నార@@ 42
మూర్తి 42
క్షే@@ 42
పర్యాట@@ 42
కుటుంబసభ్యులు 42
కిడ్నాప్ 42
బై 42
ఫిర్యాదు@@ 42
ఉత్పత్తులను 42
యాకోబు 42
సీసీ@@ 42
గుర్తించి 42
జారీ@@ 42
ంచి@@ 42
కుర@@ 42
నియోజకవర్గ@@ 42
కెరీర్లో 42
ఇంకే@@ 42
ధర్ 42
సంకేత@@ 42
సుం@@ 42
ఐసీఐసీఐ 42
తుపా@@ 42
గుర్తించ@@ 42
ప్రయా@@ 42
అదంతా 42
సుష్మా 42
గౌరవ 42
స్తోందన్నారు 42
చేస్తోందని 42
గొడవలు 42
ర్డ్ 42
వుతాయి 42
అప్పు@@ 42
చూచు@@ 42
చెప్పా@@ 42
డిశ్చార్జ్ 42
ప్లాస్టిక్ 42
పేద@@ 42
కొలెస్ట్రాల్ 42
ఎగుమతి 42
300@@ 42
రూపా@@ 42
ప్రగతి 42
వార్తల్లో 42
ముఖ 42
పెట్టుకోవాలి 42
విశాల్ 42
విడాకులు 42
ఎఫ్ఐఆర్ 42
ింపును 42
దానం 42
కిషన్ 42
ఉరి@@ 42
లిని 42
సీలు 42
నీయ@@ 42
ముఖ్యమంత్రి@@ 42
ండ 42
సంక్రాంతి 42
అనుకుంటు@@ 42
చెల్లింపు 42
న్పై 42
తరలించగా 42
మార్గాల్లో 42
అభినందించారు 42
టీవీ@@ 42
ష్టి@@ 42
ప్రక్రియ@@ 42
ముగియ@@ 42
సోదరు@@ 42
విన్న 42
0తో 42
వర్ధ@@ 42
ఉందో 42
పొడి@@ 42
సరస్సు 42
నాథ@@ 42
రాజేంద్ర 42
నాగ్ 42
మంచ@@ 42
డూ@@ 42
పరిశ్రమలో 42
యన@@ 42
బడ్డాడు 42
లతోపాటు 42
నామినే@@ 42
పుట్ 42
గదా 42
జరుగుతాయి 42
సోమ@@ 42
తానికి 42
వసూళ్లు 42
నిలబెట్టు@@ 42
గడు@@ 42
గ్రాముల 42
కొన్నారు 42
సంపూర్ణ 42
అనారోగ్యంతో 42
చేయనున్నట్లు 42
సక్@@ 42
కంగ@@ 42
కష్టపడి 42
స్గా 42
నిర్భ@@ 42
బడెను 42
కశ్మీ@@ 42
తీర్చ@@ 42
గుప్పించారు 42
వేణు 42
చదరపు 42
కొవిడ్ 42
అధికారాన్ని 42
మొక్క@@ 42
చెక్క@@ 42
మోదీకి 42
మార్గదర్శ@@ 42
తెలియజేయ@@ 41
ింప 41
ఎత్తి@@ 41
పడుతుందని 41
ఇటలీ 41
అందరినీ 41
వాస్తవ@@ 41
ne@@ 41
మృత్యువాత 41
మారి 41
వరో 41
వీడియోలో 41
పిక్@@ 41
విరా@@ 41
ఆహ్వానించారు 41
నడవ@@ 41
మిని@@ 41
చంద్రయాన్ 41
ఓపె@@ 41
అతనిపై 41
హాని@@ 41
లెస్ 41
వెం@@ 41
కిలోమీటర్లు 41
కమిటీని 41
గ్గు@@ 41
అట్టి 41
దిగుమతి 41
సైఫ్ 41
ప్రదర్శి@@ 41
వరూ 41
కానున్న 41
మొదటి@@ 41
జీని 41
నిర్మించ@@ 41
కేషన్ 41
ప్రక్క@@ 41
ంత్ర@@ 41
వున్నారు 41
ఆందోళనకు 41
కూటమి@@ 41
స్క్రిప్ట్ 41
అనిపిస్తుంది 41
మ్మా 41
సాధన 41
తనే 41
నిషే@@ 41
మాదిరిగానే 41
విజే@@ 41
84 41
కుట్ర 41
దిగ్గజ 41
పక్షులు 41
క్తో 41
పనితీరు 41
ట్రంప్@@ 41
పెట్టే 41
బంతుల్లో 41
లేనని 41
యజమాని 41
ష్టం 41
సును 41
గ్రౌండ్ 41
పురోగ@@ 41
ల్తో 41
అత్యాచారానికి 41
కాశ@@ 41
అందించడానికి 41
బస్టర్ 41
బండ@@ 41
భావన 41
న్య 41
ఎలి@@ 41
దినము 41
లక్షణం 41
2.0 41
నాయకత్వంలో 41
వినియోగదారుల 41
బహుళ 41
హెచ్చరికలు 41
తానే 41
డై 41
గూర్చియు 41
పేతురు 41
కార్మి@@ 41
బాణ@@ 41
ఉన్నారా 41
ఇంటర్వ్యూలో 41
పడ్డా@@ 41
అంగుళాల 41
వేగాన్ని 41
మూలం 41
శ్వర 41
తెలుగుతో 41
ఆదాయ 41
టీస్ 41
గందరగోళం 41
ఏముంది 41
ఛార్జ్ 41
వేడుకలు 41
ప్రయో@@ 41
Home 41
పొంది 41
నీకెవ్వరు 41
శతాబ్@@ 41
శానికి 41
గిలి@@ 41
దంపతులు 41
కూలీ@@ 41
డనే 41
రావత్ 41
క్ట@@ 41
అన్నింటి@@ 41
ాలన్న 41
చూపు 41
నోట్ల 41
విచారం 41
వ్యాసం 41
ఇంట@@ 41
దీక్ష 41
సవ@@ 41
కొట్టిపారే@@ 41
ul@@ 41
ఉగ్రవా@@ 41
సౌకర్@@ 41
విటమిన్లు 41
మధ్యాహ్నం 41
నిలిచాయి 41
ఇందులోని 41
రికి@@ 41
యోబు 41
ఖే@@ 41
అవార్డును 41
నిర్ణయి@@ 41
పనికి 41
నిర్వహించే 41
మృతు@@ 41
తమిళనాడులోని 41
కపిల్ 41
ప్రభుత్వాసుపత్రికి 41
నగరాలు 41
లక్షల@@ 41
హాఫ్ 41
సాయి@@ 41
ఆహ్వానించ@@ 41
వారిద్దరూ 41
బడ్డ@@ 41
కుంభ@@ 41
స్పై 41
ంశం 41
వచ్చుః 41
యున్నాడు 41
ెడ్డి 41
కుగాను 41
పెట్టుబడి@@ 41
హామీ@@ 41
ఉండటానికి 41
గాంధీకి 41
కీపర్ 41
కొరటాల 41
ఎడి@@ 41
యుద్ధంలో 41
మాను 41
పాపులర్ 41
సభ్యులను 41
ంతగా 41
క్లాస్ 41
రాజీనా@@ 41
శ్రీనివా@@ 41
సింగ@@ 41
సామర్థ్యాన్ని 41
ఘటనాస్థలానికి 41
మరొకరు 41
శాస్త్రవేత్తలు 41
వైఎస్ఆర్ 41
కంగనా 41
మంతా 41
చూడాలని 41
ద్వేష@@ 41
వెళ్ళి 41
గదిలో 41
పువ్@@ 41
చున్నాడు 41
విచారి@@ 41
సంప్రదాయ 41
నీల్ 41
భాన్ని 41
సంక్షోభం 41
వేసే 41
ప్రాముఖ్యమైన 41
విమానాశ్రయం 41
కళ్ళు 41
వేడి@@ 41
తీర్మా@@ 41
మొహ@@ 41
లక్ష్మీ 41
c 41
పరిస్థితుల 41
కొనసాగింది 41
నిజా@@ 41
సమర్ప@@ 41
ఆర్ట్ 41
మహే@@ 41
ఆదాయాన్ని 41
స్ట్రి@@ 41
సతీమణి 41
కార్డులు 41
సాఫ్ట్వేర్ 40
ఫుటే@@ 40
విషాద@@ 40
టీలో 40
ఎన్నికయ్యారు 40
దురదృష్ట@@ 40
రీలో 40
ఐదే@@ 40
పెద@@ 40
నటన 40
కలిసిన 40
శరీర 40
చక్కటి 40
ప్రతిష్ఠ@@ 40
వెంకటేష్ 40
తిప్ప@@ 40
హాల్ 40
ఆర్టీ@@ 40
గిపోయింది 40
చుట్టు@@ 40
ప్రయోజనాల 40
జిల్లాల 40
అత్త@@ 40
కొరత 40
విన్ 40
తిప్పి@@ 40
అధిక@@ 40
పక్షం 40
వేయండి 40
రాకుండా 40
పరిశోధకులు 40
తెరకెక్కుతోంది 40
మాస్కులు 40
మీద@@ 40
లోపే 40
వెళ్లిపో@@ 40
వైకుంఠపురములో 40
నిబంధన 40
చేస్తాను 40
యేసు@@ 40
పలి@@ 40
ధైర్య@@ 40
సౌదీ 40
ఇంకో 40
డేందుకు 40
బెంగళూరు@@ 40
ఉదయ@@ 40
విలువలు 40
అంచనాలను 40
ent 40
విఫలమైంది 40
కున్నాను 40
షన్లను 40
తీశాడు 40
తర్వాతే 40
ందాం 40
వ్యర్థ@@ 40
కిలో@@ 40
2020@@ 40
వంట 40
విష్ణు@@ 40
గాయపడ్డ@@ 40
కఠినమైన 40
సుమారుగా 40
అమి@@ 40
స్కోరు 40
వైద్యుల 40
తెరకెక్కి@@ 40
ాలంటూ 40
ఫ్లా@@ 40
కోల్ 40
G 40
ప్రవర్తన 40
సెయింట్ 40
రోగి 40
ప్రభువు 40
ైనను 40
చెబుతుంది 40
చేతికి 40
విగ్రహ@@ 40
పర్యవేక్షి@@ 40
నేతలతో 40
ప్రాయ@@ 40
సమావేశమైన 40
నిర్ణయించుకు@@ 40
ాలనుకుంటు@@ 40
చేసా@@ 40
కది@@ 40
మనసు@@ 40
ఆవిష్@@ 40
యుండు@@ 40
ఖాతా@@ 40
భామ 40
3వ 40
నించిన 40
బెంగ@@ 40
దానయ్య 40
గుల@@ 40
రమణ 40
ఏడా@@ 40
లకు@@ 40
పురు@@ 40
మీడి@@ 40
గద్ద@@ 40
లంగా 40
వ్యూహం 40
బే 40
భారతీయులు 40
దారితీస్తుంది 40
మద్దతి@@ 40
రిజిస్ట్రేషన్ 40
దర్యాప్తు@@ 40
కొణిదెల 40
తాగ@@ 40
గ్గా 40
ర్థ@@ 40
సంకేతాలు 40
2004 40
సమ్మ@@ 40
క్యారె@@ 40
క్షణ@@ 40
జమ్మూ@@ 40
మాల్@@ 40
న్నింటి@@ 40
సీపీ@@ 40
తున్నాయని 40
సామూహిక 40
పాలైంది 40
రాశ@@ 40
వాద 40
కున్నాం 40
లోపం 40
ఖండి@@ 40
మూలంగా 40
లువ@@ 40
గొంతు 40
డులో 40
యోగ@@ 40
ప్రజాస్వా@@ 40
ింగ్స్ 40
పెట్టుకుని 40
రక్తం 40
కేటాయించారు 40
కమీ@@ 40
౦@@ 40
తెరవ@@ 40
నార్త్ 40
చేయగలి@@ 40
వచ్చిన@@ 40
పోతున్న 40
అభ్యర్థులను 40
96 40
విడిచి 40
యూరోపియన్ 40
చింత@@ 40
నల్లో 40
అనుభవి@@ 40
దర్శకత్వంః 40
67 40
ఎయిర్పోర్@@ 40
చిత్రంతో 40
69 40
డీజీపీ 40
ఇందు@@ 40
ముందుగానే 40
ఒత్తిడిని 40
నంబర్ 40
పురి 40
ఉందిః 40
దొరక@@ 40
చెల్లించాల్సి 40
స్కి@@ 40
యిర్ 40
థం 40
క్యూ 40
సూచన 40
మైక్రో@@ 40
గురు 40
పడతారు 40
అంకితం 40
ఏడాదికి 40
లిలో 40
ఏకా@@ 40
స్కే@@ 40
విద్యార్థులను 40
షోరూమ్ 40
ప్రశంసించారు 40
ళం 40
సంగ్ 40
భగ@@ 40
చేరి 40
జమ్ము@@ 40
మనంద@@ 40
ప్రోత్సహి@@ 40
వ్యక్తిగతంగా 40
మార్కులు 40
కోర్టు@@ 39
బలి 39
66 39
ప్రభుత్వమే 39
ఆర్జేడీ 39
ట్తో 39
జాయింట్ 39
ప్రాజెక్టు@@ 39
న్నే@@ 39
ఆమోదించింది 39
ఆద@@ 39
ప్రాముఖ్యత 39
మృతుల్లో 39
తిరస్@@ 39
సమకూర్చ@@ 39
దృశ్యం 39
అవుతాయి 39
జరిగి 39
తోడ్@@ 39
సమి@@ 39
సందర్బంగా 39
రాని 39
లభించలేదు 39
క్షు@@ 39
స్టే 39
2013 39
రియన్ 39
78 39
జ్ఞానం 39
కమ్ 39
ఎండీ 39
బస్సులు 39
రండి 39
ఆమ్ 39
స్వతంత్ర@@ 39
కరా@@ 39
సద్వినియోగం 39
ప్రజాస్వామ్య 39
ఘటనే 39
క్రైమ్ 39
లభించే 39
మొదలయ్యాయి 39
సౌరవ్ 39
నడుమ 39
న్నె@@ 39
కాలకు 39
య్యా 39
ఖచ్చితమైన 39
శాం@@ 39
మున్న 39
దేవా 39
మేనేజర్ 39
క్రిస్ 39
కేసుల్లో 39
ప్పటి@@ 39
సులభ@@ 39
మాట్లాడలేదు 39
ీయ 39
నులో 39
రోగనిరోధక 39
తెలియడం 39
ఎలక్ట్రానిక్ 39
ల్కర్ 39
హ్య@@ 39
le 39
మృత 39
ఆప్షన్@@ 39
భారతదేశ@@ 39
మేజర్ 39
చాటు@@ 39
హృద@@ 39
డ్డి 39
ప్రవహి@@ 39
విజ్ఞా@@ 39
స్య@@ 39
మైదానంలో 39
వార్త@@ 39
చెన్నైలో 39
హారిక 39
నట్@@ 39
కుల్@@ 39
ఖై@@ 39
అక్కినేని 39
సర్వీసెస్ 39
ఆహ్వానం 39
సేవా 39
బల్ 39
దిద్దు@@ 39
బీర్ 39
ఎక్కడి@@ 39
చూస్తూ 39
తీయు@@ 39
దిం@@ 39
జాన@@ 39
నిలవ@@ 39
మవుతాయి 39
సన్నివేశ@@ 39
వేతనం 39
వేతనాలు 39
ప్రణబ్ 39
నుబట్టి 39
130 39
వర్గాలకు 39
కడప 39
ంటారా 39
ప్రత్యేకించి 39
తేనె 39
శాస్త్రీయ 39
ప్పుడే 39
యన్లు 39
నుకు 39
నివాస 39
గ్రాండ్ 39
డాక్యు@@ 39
పులో 39
నమి@@ 39
అమలులో 39
కంపెనీల 39
సుదీప్ 39
గల్@@ 39
అంత్యక్రియ@@ 39
కొలు@@ 39
ఎన్నిక 39
వచ్చాను 39
ళ్ళను 39
చిత్తూరు 39
నుగా 39
అక్కడి@@ 39
బియ్యం 39
మత్తయి 39
నిజంగానే 39
5లో 39
ప్రఖ్యాత 39
పొర@@ 39
మహమ్మద్ 39
ప్రశాంత్ 39
వెల@@ 39
బాప్తిస్మం 39
మంత్రిమండలి 39
మీరే@@ 39
నిజామాబాద్ 39
మహారా@@ 39
పెళ్ళి 39
సైరా 39
వాయు 39
ఇప్పటికి 39
మెట్రిక్ 39
పీడ@@ 39
పరిధిలోని 39
కల్స్ 39
నివాళులు 39
ఇళ్ల 39
మరణానికి 39
రాలే@@ 39
రిజి@@ 39
పాండ@@ 39
ol@@ 39
ఎవ్వ@@ 39
సీట్ల 39
లండ@@ 39
రక్షి@@ 39
వెంకటే@@ 39
ౌ 39
సమస్త 39
తలుగా 39
పాఠం 39
అవ్@@ 39
ఉండటంతో 39
నకిలీ 39
యూట్యూబ్ 39
అలం@@ 39
వస్తువులను 39
ab@@ 39
సభ్యులుగా 39
ూనే 39
విలన్ 39
ఏమిటీ 39
లగ@@ 39
తారా@@ 39
వుతున్నాయి 39
చేయాలనుకుంటు@@ 39
విగ్ర@@ 39
అవుతున్నారు 39
నిలుపు@@ 39
గుడ్లు 39
హిత 39
యువకులు 39
వీటితో 39
వస్తారు 39
చేతన@@ 39
వెల్లడించిన 39
పండు 39
రమేశ్ 39
చూశాను 39
హెడ్@@ 39
యున్నది 39
కొడుకులు 39
పౌరులు 39
ఒక్కరు 39
ఆండ్ర@@ 39
ారంటూ 39
మంత్రివర్గ 39
పట్టుకుని 39
మల్ 39
న్నప్పుడు 39
జట్ల 39
ఆరో@@ 39
ఋ@@ 39
తీర్@@ 39
అంతటా 38
వార్నర్ 38
పరిజ్ఞానం 38
గడచిన 38
సమాఖ్య 38
సన్న@@ 38
టిగా 38
ఆగిపోయింది 38
కనెక్@@ 38
టెక్నాల@@ 38
స్వల్పంగా 38
దాట@@ 38
ct@@ 38
చీ 38
సంతకం 38
రోజే 38
స్థలాన్ని 38
బ్స్ 38
తనతో 38
# 38
దస్త్ర@@ 38
ింపులు 38
లలోని 38
శ్రీలం@@ 38
ఐడియా 38
ఎంఎల్@@ 38
వాది 38
జోరుగా 38
ఛేద@@ 38
నేతృత్వంలో 38
సభ్య 38
గాలిస్తున్నారు 38
గ్రూ@@ 38
బ్రౌ@@ 38
ణ్యం 38
ఉద్ధవ్ 38
నుండే 38
రాకు 38
నింద@@ 38
తని 38
పోలీసులపై 38
చట్టాలు 38
బియా 38
కొట్టారు 38
అనుభూతి 38
సులువుగా 38
ద్ది@@ 38
చెందుతున్న 38
ధన 38
నాణ్య@@ 38
లున్న 38
చేయకూడదు 38
ప్రవేశపెట్టారు 38
కార్యాలయ@@ 38
అవతర@@ 38
వేత@@ 38
విద్యాశాఖ 38
మీరూ 38
భారీ@@ 38
పొడవైన 38
ధృవీ@@ 38
మరొకటి 38
చిన@@ 38
మ్యాచ్లు 38
విద్యను 38
వరి@@ 38
ఒకట@@ 38
ప్రసంగించారు 38
దానివల్ల 38
వెలుపల 38
ఏను@@ 38
మోహన్@@ 38
లెక్కింపు 38
ముద్ర 38
శ్రేణి 38
ందరూ 38
కన్నీ@@ 38
శిశువు 38
వచ్చేసింది 38
శాం 38
సంకీర్ణ 38
ఇశ్రాయేలు 38
స్వచ్ఛ@@ 38
బాధితుల 38
పాలు@@ 38
పాల్గొని 38
వెబ్సై@@ 38
పెట్టాలి 38
బ్యాంకు@@ 38
వికె@@ 38
కురిసే 38
హాసిని 38
వేష@@ 38
క్రిష్ 38
చేసుకొంది 38
అడిగిన 38
కేటాయి@@ 38
తీర్మానం 38
తలుపులు 38
దీర్ఘకాలిక 38
ప్రతిభ@@ 38
షార్ట్ 38
నటించబో@@ 38
మొక్కలు 38
ణ్ని 38
పరిస్థితిలో 38
రామారావు 38
గోపాల@@ 38
నేలా 38
ఇస్తామని 38
ఫ్రీ@@ 38
రంగాలలో 38
దిగింది 38
నేత@@ 38
ధిని 38
ప్రేక్షకులకు 38
ప్లి@@ 38
సంరక్ష@@ 38
నాయు@@ 38
పోసి 38
దాల్@@ 38
జరప@@ 38
ఆంధ్ర@@ 38
క్రికెట్లో 38
బొమ్మ@@ 38
చెపు@@ 38
ర్లతో 38
స్వయం 38
దేవేంద్ర 38
మిస్టర్ 38
నికర 38
దిగువ 38
కుమార్తె@@ 38
వెల్@@ 38
ంటో@@ 38
కపై 38
అరె@@ 38
శబ్@@ 38
అభిప్రాయపడ్డారు 38
స్ధా@@ 38
తము 38
చేపలు 38
వ్య 38
కుక్క@@ 38
వుంటే 38
భరోసా 38
హను@@ 38
మహి@@ 38
తీసికొని 38
మనమె@@ 38
గుర్తించిన 38
అనుమతించ@@ 38
భక్తి@@ 38
ఇబ్బంది@@ 38
వైన్ 38
త్తును 38
సాన్ని 38
చనిపోయి@@ 38
అంగీకరించలేదు 38
ప్రారంభోత్స@@ 38
స్కీ@@ 38
హెచ్చరిక 38
కరీ@@ 38
కుదిరింది 38
నమ్మక@@ 38
సంక్షేమం 38
శ్వరరావు 38
ట్రేడ్ 38
సంధ@@ 38
చేతి 38
మనుషులు 38
ఆకా@@ 38
the 38
టర్లో 38
అబ్దుల్లా 38
మొదలవుతుంది 38
యాక్ట్ 38
ప్రకారమే 38
రాణి 38
తెలంగాణ@@ 38
యును 38
కాదన్నారు 38
నిరంతర 38
ప్రతిష్టాత్మక 38
ఇళ్ల@@ 38
యినా 38
పొందాడు 38
విశ్వవిద్యాల@@ 38
వాడే 38
ఎగుమ@@ 38
టొ@@ 38
వేసు@@ 38
పాటిల్ 38
వర్షాల 38
దిగుమ@@ 38
షియల్ 38
రాలేదని 38
టీఆర్ఎస్@@ 38
లులో 38
జరిగితే 38
నిలకడగా 38
ఘటనతో 38
మద@@ 38
టచ్ 38
డెవలప్మెంట్ 38
ఎము@@ 38
జ్లో 37
ఉరి 37
వీరంతా 37
వనరు@@ 37
స్టీవ్ 37
వుంటాయి 37
అంగీకరి@@ 37
జరు 37
వెళ్లింది 37
జర్స్ 37
పనిచేయడం 37
చాలని 37
ల్డ@@ 37
చేయుము 37
ఇండియన్స్ 37
ఏళ్లు 37
నటీనటులు 37
మోడీని 37
చేయబడ@@ 37
ఎస్పీ@@ 37
లాయ@@ 37
బందోబస్తు 37
మేమి 37
నెట్వర్క్ 37
బీఎస్@@ 37
కుప్ప@@ 37
నెలకొన్నాయి 37
900 37
సన్నద్ధ@@ 37
మహారాష్ట్రలోని 37
అన్నిటి@@ 37
చవి@@ 37
తేల్చి 37
సూపర్@@ 37
మైత్రీ 37
చట్ట 37
ఉభయ 37
ఢిల్లీకి 37
స్టీల్ 37
సాంకేతికంగా 37
ఆరుగు@@ 37
అల్ 37
ఎస్పి 37
నిర్వహించడానికి 37
శ్రద్ధా 37
ఎప్పుడో 37
వివే@@ 37
కాడు 37
ఇశ్రాయేలీయుల 37
లోడ్ 37
గిం@@ 37
మద్య 37
శయ@@ 37
ంతి@@ 37
us 37
పంపించ@@ 37
హీరోలుగా 37
మైత్రి 37
రావాలి 37
కలిగింది 37
రజ@@ 37
రెట్టింపు 37
కేంద్రాలు 37
మార్గాన్ని 37
నంటూ 37
సదుపాయం 37
డీస్ 37
పుల్వామా 37
మొదలుపెట్టారు 37
పడ్డాను 37
మల 37
దారితీ@@ 37
్రి@@ 37
పోస్టుల 37
విడిచి@@ 37
శ్రీమతి 37
ఎవరినీ 37
గ్రహం 37
వారును 37
గ్రీకు 37
కనెక్ట్ 37
నిస్@@ 37
చేసినప్పుడు 37
అయోధ్య 37
రకంగా 37
రంగాల 37
మానం 37
విధి 37
కార్లను 37
చిన్నారులు 37
ఆదేశాల 37
పొట్ట@@ 37
అశ్@@ 37
శ్వరి 37
పడుతూ 37
కడి@@ 37
సమాజంలో 37
చూసే@@ 37
వ్యవహారాలు 37
జరు@@ 37
గెలుచుకు@@ 37
అనుమానాలు 37
ఇతని 37
దక్కాయి 37
పురస్కార@@ 37
ఎగ్@@ 37
చిత్రాల 37
విజ్ఞాన 37
మెయి@@ 37
సారీ 37
ర్తో 37
చల్లని 37
ఆంగ్ల@@ 37
సంపద 37
జగన్నాథ్ 37
ధాన్యాలు 37
యజమా@@ 37
ఏటీ@@ 37
పోతున్నాయి 37
మందిర@@ 37
టాన్ని 37
ప్రోగ్రా@@ 37
మామ 37
తెలుపు 37
అత్యధి@@ 37
బ 37
నిపై 37
హైదరాబాదు 37
ఉత్పాద@@ 37
రంలో 37
యావత్ 37
ప్రత్యామ్నాయ 37
సీట్లను 37
విరుచుకు@@ 37
వాక్కు 37
వాతావరణంలో 37
ఆసక్తికరంగా 37
స్పందిస్తూ 37
ఒక్కొక్క 37
మీదను 37
దొరకలేదు 37
బలహీ@@ 37
ఘటనను 37
అజ@@ 37
తున్నామని 37
కార్యకలాపాల 37
ఆఖరి 37
ఫ్లో@@ 37
ఉజ్@@ 37
రకు 37
హెచ్చరి@@ 37
అఫ్ 37
భావిస్తారు 37
హర్షవర్ధన్ 37
తీసుకోవడానికి 37
స్లా@@ 37
సహోద@@ 37
జరుపుకుంటారు 37
వంగా 37
ముంబైలోని 37
కేరళలోని 37
పర్వ@@ 37
చేయడ@@ 37
ఎడిషన్ 37
కబీర్ 37
చొరవ 37
ఊర@@ 37
మాతో 37
్యూ@@ 37
చనిపోయాడు 37
ఆయుధాలు 37
బ్రిక్స్ 37
దినోత్సవ 37
కథానాయకుడిగా 37
సంతకాలు 37
తుంటాయి 37
కామర్స్ 37
తీర్చు@@ 37
ల్లె@@ 37
యుడు 37
విమాన@@ 37
రవిశంకర్ 37
భవన 37
న్నింటినీ 37
యూదా 37
నైనను 37
సాల్@@ 37
ద్విచక్ర 37
రవికుమార్ 37
గట్ట@@ 37
ఎక్కడి 37
ఎన్నికలను 37
తీసుకెళ్లారు 37
కాలి 37
న్నారో 37
కోర్ట్ 37
గొప్పగా 37
డెంట్ 37
కంటె 37
డిగ్రీ@@ 37
కోహ్లీ@@ 37
వినియోగదారులు 37
కలుసుకు@@ 37
రాబట్టింది 37
మరియ@@ 37
ఉపరాష్ట్రపతి 37
సిబ్బందికి 37
లోతైన 37
ారన్న 37
ఆస్ప@@ 37
వేధ@@ 37
నెటిజన్లు 37
రజినీకాంత్ 37
తుల్లో 37
on@@ 37
దవ 37
అప్పటికి 37
కుల్లో 37
హిం@@ 37
అడిగారు 37
టిక్కె@@ 37
హాలను 37
తని@@ 37
అమెరి@@ 37
కింద@@ 37
ఉపయోగించే 37
నిందితులపై 36
విరుద్ధంగా 36
భయాందోళ@@ 36
విమానాలను 36
పుదు@@ 36
నిస్తుంది 36
టౌన్ 36
తున్నప్పుడు 36
ప్లాట్ఫా@@ 36
విప్ప@@ 36
ఇంజినీరింగ్ 36
పెళ్లికి 36
తగ్గాయి 36
ాయిల్ 36
ష్ణ@@ 36
మెచ్చు@@ 36
మన్న 36
ారీ@@ 36
చేయించారు 36
ఉత్తర్@@ 36
యన్@@ 36
అంతేగాక 36
ుల్లో 36
ళ్ళలో 36
గాల@@ 36
ణులు 36
అవసరమని 36
చేయబడుతుంది 36
సింగపూర్ 36
చెప్పు 36
ఏయే 36
ముద్దు@@ 36
ఉద్యోగుల 36
రాజన్ 36
ఉండేవారు 36
సెర్@@ 36
ార్థం 36
రోషన్ 36
హోట@@ 36
చెన్నైః 36
ఐపి@@ 36
ఆద్మీ 36
సన్రైజర్స్ 36
ఫలితాల 36
అంశాల 36
ఏర్పాట@@ 36
ఉద్యోగులకు 36
కొనుము 36
బెంచ్ 36
దారితీసింది 36
కనిపిస్తున్నాయి 36
నెలల్లో 36
సంచి@@ 36
యెదుట 36
ఐక్య@@ 36
పప్పు 36
కరెన్సీ 36
బహు 36
12.@@ 36
వృత్తి@@ 36
ఎంటర్ 36
ప్రమాదంపై 36
జర్మనీ@@ 36
సమాన 36
ఓటే@@ 36
వ్యాఖ్యలను 36
పట్టుకొని 36
క్షణం 36
పింక్ 36
టీ20@@ 36
కల్పించే 36
దక్కించుకుంది 36
ఇంజన్@@ 36
సంఖ్యా@@ 36
భివృద్ధి 36
క్రేజ్ 36
అండ@@ 36
పర్సన్ 36
వానిని 36
షనర్ 36
ప్రభాకర్ 36
ప్రాంతాలను 36
పెట్టుబడుల 36
ఉంచాలి 36
నిబంధనల 36
ఫిల్@@ 36
లైంది 36
లేకపోవడంతో 36
అడిగి 36
రైళ్ల 36
ఒకర@@ 36
టెస్@@ 36
దగ్గరగా 36
జపా@@ 36
సతీష్ 36
దల@@ 36
ఉంటుందా 36
ఉన్నతాధికార@@ 36
బ్యూరో 36
మురళీ 36
పడడం 36
ంభ@@ 36
గంజ్ 36
సీజ్ 36
ఇంకె@@ 36
రక@@ 36
జలా@@ 36
అనుభ@@ 36
ఫొటోను 36
అండర్ 36
అనవసర@@ 36
పుట్టి@@ 36
శత@@ 36
ించుడి 36
వీరి@@ 36
రాజేందర్ 36
కోలుకోవాలని 36
అలహాబాద్ 36
తయ@@ 36
హిమాల@@ 36
15,@@ 36
డాక్@@ 36
పోలీస్@@ 36
ఎనర్జీ 36
అయ్యర్ 36
సాం@@ 36
స్టేషను 36
సంభ@@ 36
అక్కడకు 36
ప్రణాళికలు 36
విపరీతమైన 36
110 36
కెటి@@ 36
తీర్చి@@ 36
పాల్గొంటారు 36
న్యాయవా@@ 36
ియ@@ 36
పనుల 36
మునుండి 36
లోంచి 36
పాప 36
నిరు@@ 36
క్రీ 36
అంతకంటే 36
విద్య@@ 36
ఉంచి 36
కాన్ 36
విద్యుత్తు 36
విడ్ 36
పెరుగు 36
మెంట@@ 36
పరుగులకే 36
పోయిన@@ 36
వస్త్ర@@ 36
పరలో@@ 36
భేటీలో 36
సారథ@@ 36
సమక్షంలో 36
బయలుదేరి 36
ఎంబీ@@ 36
నంబ@@ 36
మలుపు 36
నటిగా 36
టర్న్ 36
మహిళలపై 36
ట్రే@@ 36
ప్రాజెక్టుకు 36
మానికి 36
మైక్రోసాఫ్ట్ 36
టీఎంసీ 36
ఒలింపిక్ 36
పాలసీ 36
పెన్@@ 36
నెరవేర్@@ 36
చార్య 36
చట్టాలను 36
పెట్రోలియం 36
రూపాయ@@ 36
వందలాది 36
ెంట్ 36
టీ20 36
తండ్రి@@ 36
పైసలు 36
న్నర 36
ex@@ 36
క్షమాపణ 36
తద@@ 36
22@@ 36
ఆర@@ 36
స్మారక 36
అనువద@@ 36
చూస్తారు 36
కాలుష్యం 36
పిలు@@ 36
మారెడ్డి 36
తెల@@ 36
చేపట్టాలని 36
రనౌత్ 36
బహుమతి 36
చేస్తుండగా 36
లాస్ 36
కాలేజీ 36
అడిగింది 36
బ్లో 36
మంగళ@@ 36
వ్యాప్@@ 36
ఏద@@ 36
కార్యకలాపాలను 36
పర్యటనకు 36
జులు 36
సంగీత@@ 36
ఇన్స్టాగ్రామ్లో 36
డానికే 36
వుడ్ 36
జాతీయ@@ 36
వారందరికీ 36
రాంచ@@ 36
ag@@ 36
మ్య@@ 36
ఒకప్పుడు 36
న్లకు 36
త్వర@@ 36
వెళ@@ 36
రెన్స్ 36
కుటుంబంతో 36
ముంబయిః 36
థాంక్స్ 36
ప్రత్యర్థ@@ 36
సమాజ్ 36
కోట్ల@@ 36
సమస్యలకు 36
పిల్లలతో 36
రించారు 36
వేత్త@@ 36
తీర 36
యీ@@ 36
విత్త@@ 36
ట్టా@@ 36
వీల్ 36
ఉండరు 36
మీడియాకు 36
స్పందించిన 36
రాజులు 36
హిట్ట@@ 36
మ్కు 36
ంపి@@ 36
తరువాతి 36
ండిన 36
దళి@@ 36
నెట్@@ 36
em@@ 36
పేసర్ 36
సుధీర్ 35
రాత్రి@@ 35
వాణిజ్యం 35
మ్యూజి@@ 35
ఆచర@@ 35
శోధ@@ 35
శాల@@ 35
మానవు@@ 35
పెరిగిపో@@ 35
ఆవిడ 35
ఆధిక్య@@ 35
ట్పై 35
ఉప్ప@@ 35
ఫీజు@@ 35
చక్కర్లు 35
నిర్వర్త@@ 35
డిస్క్ 35
పెళ్ల@@ 35
పథకాలు 35
విధానాలను 35
ఎదురుచూస్తున్నారు 35
ర్యాలీ 35
పర్యావర@@ 35
విరమణ 35
రేట్లను 35
ాని 35
చారం 35
గెల@@ 35
క్పై 35
పచ్చిమిర్చి 35
బీజేపీతో 35
కోట్ 35
ఒక్కటి 35
ఆంగ్ల 35
లులు 35
ైనట్లు 35
అంగీకారం 35
ప్రొడ్యూస్ 35
విభేదాలు 35
ప్రమాణాలు 35
వొ@@ 35
జ్యోతి 35
ర్యం 35
ఎమ్మెల్యేల 35
బీఎస్ఈలో 35
ర్య@@ 35
ప్రపంచకప్ 35
నమ్మకంగా 35
భవన్లో 35
నిమిత్తము 35
అలర@@ 35
జాగ్రత్త@@ 35
రిజర్వు 35
ప్రపంచాన్ని 35
నియామకం 35
చేస్తామన్నారు 35
అనుమాన@@ 35
డ్జ్ 35
రంగులో 35
ఇతరు@@ 35
పెట్టుకున్నారు 35
డివిజ@@ 35
ఉత్పత్తు@@ 35
ఇష్టమైన 35
జ్ను 35
వేసవిలో 35
పుట్టి 35
ఆఫీస్ 35
పట్టించుకోలేదు 35
కళ్లు 35
జైపూర్ 35
కొనసాగుతూనే 35
విపక్షాలు 35
పొందే 35
అమెరికాలోని 35
జరిపి 35
ce 35
విషయాల్లో 35
పెరుగుతూనే 35
ఉండబో@@ 35
నిరస@@ 35
దళ్ 35
స్ర@@ 35
మీదే 35
ఆదికాండము 35
ధ్య 35
శర్@@ 35
పెట్టుబడులను 35
చేయమని 35
అలవాటు 35
10.@@ 35
తీయ 35
నుకుంటు@@ 35
దాటింది 35
అణు@@ 35
ించుట 35
మెయిన్ 35
కణ@@ 35
ఇంట్లోనే 35
ఒకటే 35
మధ్యే 35
పరిచారు 35
దేశీయంగా 35
రెహమాన్ 35
పిలుపు 35
్ర 35
చదు@@ 35
నిరాకరించారు 35
దృశ్య@@ 35
కలిగిస్తుంది 35
శ్వాస@@ 35
ముఖేష్ 35
పరికరాలు 35
వేస్తున్నారు 35
ఎకర@@ 35
టీడీపీ@@ 35
బక@@ 35
రామకృష్ణ@@ 35
ఏడ్@@ 35
మెరుగుపరచ@@ 35
ఇస్తున్నారు 35
రచనలు 35
కార్యకర్తల 35
సౌంద@@ 35
గ్రామ్ 35
పెరిగిపోతున్నాయి 35
విలువ@@ 35
87 35
అనుకూల@@ 35
త్రిపుర 35
గడుపు@@ 35
సైన్సెస్ 35
కేశ్ 35
చంద్ 35
కోవడంలో 35
చెట్టు 35
వెనక 35
దంత@@ 35
స్పందించింది 35
డగు 35
ాలైన 35
ప్యాకేజీ 35
సానుకూలంగా 35
మాటలను 35
రగా 35
స్లు 35
కరణం 35
కనిపించే 35
విప్ల@@ 35
సాహిత్యం 35
మురళీ@@ 35
దిల్లీః 35
కోలుకున్నారు 35
మనోజ్ 35
ఎలక్ట్రానిక్స్ 35
ఒక్కరికి 35
అకౌంట్ 35
శ్రీనివాస@@ 35
రిన 35
ఎంపి 35
క్కా 35
ప్రాణాలను 35
సర్వోన్నత 35
ఆయన్ని 35
ఈటల 35
బాల 35
వ్యక్తులను 35
ట్ః 35
షోలో 35
మత్స్య@@ 35
న్నట్టు 35
అవగాహ@@ 35
శాస్త్రంలో 35
అలి@@ 35
భావాన్ని 35
ట్లోని 35
అగ్నిప్రమాదం 35
ప్రపంచానికి 35
రూరల్ 35
స్వేచ్ఛ@@ 35
అభిమానుల 35
ంగి 35
మార్గదర్శకాలను 35
టివి 35
ప్రేక్ష@@ 35
మూవీకి 35
మెన్స్ 35
జరిగే@@ 35
మనస్సు 35
పండు@@ 35
మాలో 35
భువనేశ్వర్ 35
పయ@@ 35
అందించడం 35
పెంచడానికి 35
పడగా 35
సస్ 35
తగ్@@ 35
బిన్ 35
వ్యాక్సిన్ 35
ఎంఐఎం 35
ందంటే 35
టిం@@ 35
కోర్టును 35
కాంపాక్ట్ 35
కోట@@ 35
భాగాలుగా 35
నేల 35
ఎదుర్కోవ@@ 35
సత్యాన్ని 35
రసం 35
డలో 35
ఉపయోగించారు 35
జిల్లా@@ 35
తీసుకె@@ 35
శ్రద్ధ@@ 35
ించాడని 35
అభిప్రాయాలు 35
గొడవ@@ 35
చిత్రాలను 35
చెప్పగా 35
N 35
టీరియల్ 35
దారుణ@@ 35
నృ@@ 35
తగిలింది 35
తత్@@ 35
స్పై@@ 35
చురుకుగా 35
విడు@@ 35
పడ్డ@@ 35
సాస్ 35
తగ్గి 35
రెండో@@ 35
జోడీగా 35
ఉత్తమ్ 35
బ్రో@@ 35
విజేతగా 35
ఏర్పడ్డాయి 35
రేటును 35
ఎన్ఎస్@@ 35
చేయలేదని 35
కలుగజే@@ 35
విద్యార్థిని 35
మించిన 35
బలిపీఠ@@ 35
స్నేహం 35
నర్సింగ్ 35
షియన్ 35
ప్రభువైన 34
జీవితాలను 34
ఎమ్మెల్యేగా 34
రసాయన 34
న్యూయార్క్ 34
చిన్నార@@ 34
సియా@@ 34
ea@@ 34
లాలూ 34
నిప్పులు 34
తెలుసుకున్నారు 34
ఇదె@@ 34
చుట్ట@@ 34
రివర్స్ 34
జోన్ 34
అధీ@@ 34
విలియ@@ 34
చేయని 34
ప్రతిభ 34
రాజధానిగా 34
చేసుకుంటు@@ 34
దినం 34
స్టోర్ 34
కాంబినేషన్ 34
కూర@@ 34
చల@@ 34
డ్ను 34
మెరు@@ 34
శతాబ్ద@@ 34
మీటర్లు 34
వేయడానికి 34
పరిశ్రమకు 34
శతాబ్దంలో 34
వ్యక్తమ@@ 34
రూపాయలకు 34
ఆర్ఎస్ 34
మేనేజింగ్ 34
నాథ్@@ 34
పాండ్యా 34
రైనా 34
ద్వీప@@ 34
ఇండియా@@ 34
and@@ 34
జగపతి 34
వినిపిస్తున్నాయి 34
సిరీ@@ 34
సమర్పణలో 34
పరిణా@@ 34
టైం 34
నీళ్ళు 34
మినహాయ@@ 34
ఆసక్తికర 34
యాక్సిస్ 34
రియో 34
స్మాల్ 34
అలర్ట్ 34
డారు 34
ఎఫె@@ 34
పతనం 34
మోదీతో 34
ప్రదర్శనలు 34
చేరుకో@@ 34
అప్డేట్ 34
దీనికోసం 34
అసహ@@ 34
ధరను 34
అన్వేష@@ 34
ప్రజాస్వామ్యం 34
ధైర్యంగా 34
పట్టణంలో 34
దొరి@@ 34
పతన@@ 34
కులం 34
బోతున్నారు 34
రష్యన్ 34
డాను 34
కెనడా 34
పడదు 34
గులో 34
ఖాళీ@@ 34
3లో 34
రామ్నాథ్ 34
రాష్ర్@@ 34
జట్టు@@ 34
కావలసిన 34
పాలైన 34
సిటీలో 34
సారిగా 34
సెంచరీలు 34
12:@@ 34
వాగ్దా@@ 34
రాదని 34
ారిటీ 34
ప్రయోగం 34
యున్నారు 34
అయో@@ 34
మయం 34
సర్వీసులు 34
అచ్చ@@ 34
అమ్మాయిలు 34
వినోద్ 34
105 34
పరుస్తుంది 34
పర్యవేక్షణ 34
తపై 34
కుమారి 34
ప్రవీణ్ 34
బోల్తా 34
92 34
గణాం@@ 34
చెప్పేది 34
కాసేపు 34
కాంత్ 34
భద్రతను 34
ఆవర@@ 34
తెలీ@@ 34
రైళ్లను 34
జితేంద్ర 34
రిపై 34
చేర్చు@@ 34
రాఫెల్ 34
పాఠాలు 34
విదేశాల్లో 34
ర్య 34
ప్రభుత్వాల 34
మణిపూర్ 34
తరుపున 34
అభివృద్ది 34
మియా 34
యువతకు 34
యోగ్య@@ 34
రైతులను 34
న్రెడ్డి 34
నుండియు 34
అల్లూరి 34
అలాగని 34
ఆర్పిఎమ్ 34
స్వభావం 34
అశ్వ@@ 34
ఇతడు 34
ఫోటోను 34
తోమర్ 34
బౌలర్ 34
న్స్లో 34
బయల్దే@@ 34
ార్థ 34
ఒత్తిడికి 34
జెడ్@@ 34
స్కర్ 34
నించింది 34
నిది 34
కార్యకర్@@ 34
విస్తరి@@ 34
పెన్షన్ 34
ఆవిష్కరణ 34
లక్ష్మణ్ 34
చెప్పాలంటే 34
ప్రథమ 34
స్క్ 34
83 34
ముఖ్యమైనది 34
ింగ్లో 34
ఆర్థ@@ 34
లోతుగా 34
భక్తి 34
్రం 34
అకాడమీ 34
నోబెల్ 34
వ్యవస్థాప@@ 34
విజేత 34
నయం 34
వనరులు 34
అడు@@ 34
గూడ 34
నిర్వహిస్తున్న 34
ంలేదు 34
టుంది 34
మహానటి 34
జవా@@ 34
రిజర్వేషన్లు 34
రాయల్స్ 34
గాల 34
అమే@@ 34
దిగ్బంధం 34
తీసుకెళ్@@ 34
రోజులపాటు 34
చైర్@@ 34
త్వంలో 34
ఎడ్యుకేషన్ 34
పక్షాలు 34
కొట్టుకు@@ 34
నడుస్తోంది 34
ఖి@@ 34
ఓపి@@ 34
నేనే@@ 34
ప్పు 34
తెచ్చి@@ 34
సమయంలోనే 34
ఏము@@ 34
మునుబట్టి 34
ఫిర్యాదుతో 34
జాన్సన్ 34
కరీనా 34
సరఫ@@ 34
టార్@@ 34
మాధ్య@@ 34
అడ్డం@@ 34
కర్లు 34
సుదీర్ఘ 34
మాదిరి 34
జల్ 34
ించబడతాయి 34
ధాలను 34
పరిధి@@ 34
్యానికి 34
వర్షపాతం 34
జీతం 34
కమిటీ@@ 34
గ్ర 34
కాలేదని 34
అథారిటీ 34
హాస@@ 34
స్వేచ్ఛ 34
దిరి@@ 34
అన్నాను 34
ఊహించని 34
సముదాయ@@ 34
క్యు@@ 34
ఆర్ఎస్ఎస్ 34
ఏదేని 34
రవితేజ 34
పన్ను@@ 34
ఫిలిం 34
పరిష్కరించడానికి 34
పోరాటంలో 34
పరిమితులు 34
యంత్రాంగం 34
గతం 34
లార్@@ 34
అభ్య@@ 34
దీక్ష@@ 34
మార్చారు 34
ఆజాద్ 34
గౌడ్ 34
బిక్ 34
దృక్@@ 33
మెను 33
మొదలైనవి 33
రద్ద@@ 33
నివేదా 33
కంట్రో@@ 33
తక్షణ 33
రకాలుగా 33
డెంట్స్ 33
బ్యాంకులో 33
పిలవ@@ 33
బిజెపి@@ 33
అనుబంధ 33
డిపాజి@@ 33
ఇశ్రాయేలీయులు 33
ఇండస్ట్రీలో 33
మరమ్మ@@ 33
అమల్లోకి 33
సంస్థలను 33
క్లై@@ 33
మాని@@ 33
వాహనాన్ని 33
నెలకొన్న 33
బంద@@ 33
పోషించిన 33
వెబ్సైట్ 33
పట@@ 33
కరించిన 33
అవుతున్న 33
నియమించింది 33
పురుషు@@ 33
హీరోయిన్స్ 33
తోకూడ 33
దేనా 33
యెహోవాయ@@ 33
కారా@@ 33
ప్రసార@@ 33
81 33
ించాలో 33
నె 33
కళ 33
ఆశించిన 33
తగ్గిపో@@ 33
స్నే@@ 33
ఎవరె@@ 33
గుర్తి@@ 33
అనిశ్చి@@ 33
పగ@@ 33
ఫ్రీ 33
రూపొంది@@ 33
2011 33
98 33
భాగస్వామి@@ 33
పూరిత 33
ఆచార@@ 33
లేటెస్ట్ 33
ంతో@@ 33
సింహ@@ 33
తృణమూల్ 33
ారే@@ 33
నదిలో 33
టర్గా 33
కాల్షియం 33
చనిపోగా 33
128 33
సోదాలు 33
చేయాలను@@ 33
జాబి@@ 33
నగర్లో 33
గేల్ 33
మనీ@@ 33
ప్రమాణస్వీకారం 33
మెటల్ 33
ప్రసాద@@ 33
పేదలకు 33
ఈవెంట్ 33
మందుల 33
పోయెను 33
పోయాలి 33
జేమ్స్ 33
గులు@@ 33
డెల్ 33
ఛైర్@@ 33
సమర్థవంతంగా 33
ంద్@@ 33
సందర్@@ 33
వృద్ధి@@ 33
తెరకెక్కిస్తున్నారు 33
రాబడి 33
కపోవ@@ 33
అంతర్జాతీయంగా 33
ీస్ 33
ఐపీఎల్లో 33
పుత్ 33
పదాలు 33
టోర్నీలో 33
స్వాతంత్య్ర 33
శర@@ 33
పర్వత 33
వెన్న 33
పోయిందని 33
నుందని 33
లాఠీ@@ 33
్యాం@@ 33
ఎండ్ 33
ద్రవ్య 33
కాస్తా 33
ముస్లిం@@ 33
వుపయోగ@@ 33
ఆన@@ 33
క్రిమినల్ 33
భాయ్ 33
యూర@@ 33
నియోజకవర్గంలో 33
ించాలనే 33
దిని 33
విద్యార్థి@@ 33
తీరును 33
నున్నాడు 33
పెరుగుతాయి 33
ఐపీ@@ 33
చేసుకుంటూ 33
ర్చ@@ 33
వాస@@ 33
రికవరీ 33
సమానం 33
ఆశీర్వద@@ 33
జీవ 33
నెల్ 33
గణి@@ 33
శిశు@@ 33
తై@@ 33
ధికారి 33
ప్రభుత్వా@@ 33
అంతకన్నా 33
పార్ట్ 33
అమిత్షా 33
అలాంటి@@ 33
నారాయణ్ 33
ైతే 33
సేల్స్ 33
ఫుట్బాల్ 33
దగ్గరకు 33
గిల్ 33
ంత్ 33
వీట@@ 33
వీలైనంత 33
ర్యాలీలో 33
డార్@@ 33
అభివర్ణించారు 33
దక్కలేదు 33
కేసుకు 33
భయంతో 33
క్రె@@ 33
సర్దార్ 33
నేతలను 33
అదో 33
ంధ్ర 33
సీరియస్గా 33
12,@@ 33
పన్నుల 33
యూదా@@ 33
అర్హతః 33
కస్ట@@ 33
పాతం 33
ఆదాయపు 33
చేర్చారు 33
అన్యాయ@@ 33
రికార్డును 33
బడే@@ 33
సామర్@@ 33
మతపరమైన 33
హుస్సేన్ 33
టీచర్@@ 33
సీఈవో 33
86 33
తినడం 33
కెమెరాలు 33
సహ 33
బర్గ్ 33
అమీర్ 33
నిరో@@ 33
బాలిక@@ 33
పెయిం@@ 33
పలుమార్లు 33
మిక 33
కోత 33
పరికరం 33
ఉండనుంది 33
పెట్టలేదు 33
ద్ధి@@ 33
లేమి 33
అగ్రస్థానంలో 33
చార 33
sh@@ 33
ఎంఆర్ 33
రహా@@ 33
రోగులు 33
రావాల@@ 33
నాన్న 33
గౌర@@ 33
పత్తి 33
పడనుంది 33
గణనీయమైన 33
యావ@@ 33
పూర్వ 33
ఆవి@@ 33
పూట 33
నైపుణ్యం 33
సీట్లలో 33
జాలు 33
విచారణను 33
కాల్స్ 33
హిందీ@@ 33
నొక్కి 33
వెళ్లిపోయారు 33
ఫ్రే@@ 33
సృ@@ 33
దగ్@@ 33
మాదిరిగా 33
కొలి@@ 33
చాలు 33
తండ్రిని 33
పోవు@@ 33
చెయ్యాలి 33
విజయనగరం 33
వైఖరి 33
లెఫ్టినెంట్ 33
ించాము 33
పంజాబ్@@ 33
సర్దు@@ 33
దేవాలయ@@ 33
ాలుంటాయి 33
ఇంటిని 33
గొఱ్ఱ@@ 33
అడ్వా@@ 33
గ్రె@@ 33
వారా 33
ముడి@@ 33
పోలవరం 33
అమలుకు 33
వింగ్ 33
హెల్@@ 33
చ్చెను 33
ఆందోళనకారులు 33
సన్నిహిత 33
ఆహ్వాని@@ 33
రాకపోకలు 33
res@@ 33
ఎయిర్టెల్ 33
బాధా@@ 33
బడినది 33
తాః 33
తెల్సిందే 33
దురు@@ 33
సిరీస్ను 33
రోగులకు 33
ఆంధ్రప్రదేశ్లో 33
ఆవిర్@@ 33
ఇండియ@@ 33
అబ్రాహాము 33
స్థు@@ 33
అధికారులతో 33
స్మార్ట్ఫో@@ 33
సమకూరు@@ 33
కనిపించలేదు 33
చేసేది 33
పేక్ష@@ 33
ఉక్కు 33
అనుమాని@@ 33
షిం@@ 33
గ్రేటర్ 33
ఆవిష్కర@@ 33
వెస్టిండీస్ 33
య్@@ 33
లేఖలో 33
క్రే@@ 33
నాన@@ 33
హ్యాపీ 33
సంస్కరణలు 33
తిరుపతి 33
రేప్ 33
ఇటీవలి 33
ఇండస్ట్రీ 33
షార్@@ 33
వుడు 33
తగ@@ 33
32@@ 33
దెబ్బతి@@ 33
కోచ్గా 33
సంస్థలో 33
ఫడ్నవీస్ 33
కార్యదర్శులు 33
సాఫ్ట్ 33
పంటల 33
జనాలు 33
బస్ 33
ముక్@@ 33
స్రా@@ 32
శా 32
ణాత్మక 32
కొచ్చింది 32
క్లీన్ 32
లియన్ 32
Telugu 32
కురుస్తున్న 32
కాస్@@ 32
పుట్టు@@ 32
గుహ@@ 32
స్నేహి@@ 32
లభ్యత 32
మున్న@@ 32
ఎక్కడు@@ 32
రక్@@ 32
అగ్ర 32
ఎంసీ@@ 32
160 32
క్సి@@ 32
కాళేశ్వరం 32
టెంపుల్ 32
రీని 32
ఉంటుందో 32
వచ్చెను 32
లెక్క 32
ప్రయత్నిస్తున్నారు 32
ఏంటో 32
పదవీ 32
వ్యవస్థాపకుడు 32
మేనేజ్మెంట్ 32
ent@@ 32
వాయ@@ 32
అమ్@@ 32
సమృద్ధిగా 32
సాక్ష్య@@ 32
ముక్క@@ 32
నెలకొ@@ 32
మార్పిడి 32
వైవిధ్య@@ 32
గాయపడ్డ 32
మాస@@ 32
గేర్బాక్స్ 32
వాటితో 32
ధిపతి 32
ఇన్వెస్ట్ 32
పాటను 32
న్యాయమూర్@@ 32
నిర్మిస్తున్నాయి 32
నానా 32
ాలున్న 32
బోతున్న 32
మళ్ల@@ 32
అసంతృప్తి 32
కాలలో 32
సదస్సు 32
చెబుతూ 32
id@@ 32
అప్పుడ@@ 32
రిజిస్టర్ 32
మాస్టర్ 32
నలుపు 32
అబద్ధం 32
జ్ర@@ 32
జులై 32
K 32
పడితే 32
సిద్ధాంతం 32
ఏర్పడుతుంది 32
నంటే 32
మాఫీ 32
బేస్ 32
లభిస్తోంది 32
మీటర్ 32
నోట్లను 32
కలయి@@ 32
కుడైన 32
ించగలి@@ 32
ఉన్నాయా 32
ప్రయోజనాలను 32
వుండాలి 32
మందికిపైగా 32
నికి@@ 32
పేర్కొన@@ 32
మెద@@ 32
పెడుతున్నారు 32
వన్డేల్లో 32
చర్మ@@ 32
ఉపయోగించడం 32
ఇద్దరిని 32
నూనె@@ 32
నియన్ 32
తీసుకొచ్చారు 32
వులలో 32
నెటి@@ 32
సంకల్పం 32
రాతి 32
క్రీడలు 32
ప్రియమైన 32
పెండ@@ 32
ఒక్కరి 32
చెల్లించాలని 32
రోడ్డుపై 32
హెక్టార్@@ 32
యెల్ 32
ప్రమాదాలు 32
బంగ్లాదేశ్@@ 32
ఆరోగ్యశాఖ 32
సోనియాగాంధీ 32
తెలంగాణా 32
ఐశ్వర్య 32
విరాళ@@ 32
z@@ 32
ఆర్డర్ 32
శ్వ@@ 32
క్సీ@@ 32
2006 32
భాగస్వామి 32
హల్ 32
నిర్వహణకు 32
ప్రియ@@ 32
బహుమతులు 32
ఎవరితో 32
ఎస్ట@@ 32
గ్రేట్ 32
అగ్రి@@ 32
ాయన 32
నిత్యా@@ 32
మరణించింది 32
దుమారం 32
అభినంది@@ 32
గతేడాది 32
దీప@@ 32
రాజుగా 32
మీర్జా 32
వర్చువల్ 32
ఖైదీ@@ 32
యూరో@@ 32
తినడానికి 32
వణికి@@ 32
నాపై 32
పరిరక్షణ 32
సంభాషణ 32
కిలోల 32
జమ 32
భవనాలు 32
పాయింట్లతో 32
నర్గా 32
9:@@ 32
కల్పించాలని 32
మరుగు@@ 32
1500 32
రోడ్లపై 32
భాషలు 32
లసి 32
అరెస్ట@@ 32
ఘటనా@@ 32
ఉత్పత్తిని 32
రథ@@ 32
నటించగా 32
లేకుంటే 32
పథకానికి 32
వ్యాప్తిని 32
ధనం 32
రాలి 32
రాహు@@ 32
అడవి 32
th@@ 32
గదులు 32
కోవి@@ 32
కెమి@@ 32
రాలిగా 32
పెండ్@@ 32
వెన్ 32
స్పృ@@ 32
యాజమా@@ 32
నిల్వ@@ 32
సాగుతున్నాయి 32
రాము@@ 32
దినోత్స@@ 32
చెల్లించాలి 32
సడ@@ 32
సామ్రాజ@@ 32
అర్పించారు 32
ఉత్సవ@@ 32
కాంగ్రె@@ 32
ఐఎన్@@ 32
షాపింగ్ 32
ప్రత్యక్ష@@ 32
సర్వే@@ 32
సచివాల@@ 32
శశి@@ 32
యట్ 32
డల్ 32
ఏరియా 32
అప్రమత్త@@ 32
నాయక@@ 32
కొల్ల@@ 32
సాధారణ@@ 32
అట్లు 32
పుట్టినరోజు 32
పిల్లల్ని 32
సినీ@@ 32
ట్రాక్ 32
ఆకుపచ్చ 32
వేడుకల్లో 32
140 32
అప్పు 32
సులకు 32
నష్టాలు 32
రావాలని 32
ంజ్ 32
ఐఓ@@ 32
క్రితమే 32
జికల్ 32
పెరుగుతూ 32
ఇవే@@ 32
కాల్పులకు 32
వెళ్లేందుకు 32
విషాద 32
గన్ 32
వాసన 32
గణాంకాలు 32
రోజురోజుకూ 32
గ్రహీ@@ 32
దాను 32
పీల్చు@@ 32
ఘర్ 32
కాలతో 32
సై 32
అధ్యక్షత 32
లోక్@@ 32
సెప్@@ 32
ఇక్కడికి 32
వుతున్నారు 32
నిరుద్యోగం 32
హ్ర@@ 32
ఎంచుకున్న 32
చేకూరు@@ 32
మునిగి@@ 32
వాయిస్ 32
భారత్తో 32
షన్ల 32
తుఫాను 32
నష్టపోయాయి 32
క్వా@@ 32
స్పద@@ 32
అదృష్టం 32
సిటీ@@ 32
శిక్షణ@@ 32
అత్యవసర@@ 32
ప్రాసెసింగ్ 32
య్యి@@ 32
స్మృతి 32
గొడు@@ 32
స్థాపన 32
తులపై 32
అ 32
జరుగుతుందని 32
వచ్చిందని 32
వ్యవహరించారు 32
అవుతుందని 32
శాంతి@@ 32
ఉన్నవారు 32
గెలిచారు 32
సదస్సులో 32
కార్యదర్శిగా 32
చట్టబద్ధ@@ 31
నిర్వహించనున్నారు 31
మరణించగా 31
ఐఏ@@ 31
ఎదుగు@@ 31
నీరవ్ 31
నివాసంలో 31
హసీ@@ 31
నాయకుల 31
మూసివేయ@@ 31
కోరుకుంటున్నాను 31
ఉత్సాహంగా 31
న్సు 31
ఎన్టీ@@ 31
నితీశ్ 31
నశ@@ 31
మొదటిసారిగా 31
కులుగా 31
విజయానికి 31
మాలి@@ 31
మ్తో 31
ఇప్పుడే 31
ఎత్త@@ 31
పేజీ 31
ంతికి 31
పొగ@@ 31
కురిపించారు 31
ించవలసిన 31
సేవల@@ 31
చెబుతున్నాయి 31
దీంతోపాటు 31
స్తున్నానని 31
thumb 31
హృతిక్ 31
విజయశాంతి 31
జవాబి@@ 31
పరిణ@@ 31
ించుకునేందుకు 31
న్యాయమూర్తులు 31
నిలువ@@ 31
మాట్లాడే@@ 31
య్యాయని 31
రికార్డులు 31
ప్రతినిధి@@ 31
మొదలై@@ 31
మిడి@@ 31
వారీ 31
టెస్టులు 31
లగ్జరీ 31
కాన@@ 31
బ్య@@ 31
చిక్కుకు@@ 31
గవర్నర్@@ 31
పొటాషియం 31
ఓదార్@@ 31
జీవనం 31
హర్యానాలో 31
వేర్@@ 31
నోకియా 31
గంభీ@@ 31
పేదరికం 31
బిల్లుకు 31
పట్టింది 31
కేంద్రాల 31
టీస్పూన్ 31
పింగ్ 31
సిఫారసు 31
దుకా@@ 31
దగ్గ 31
బెన్ 31
కోల్పోయాడు 31
ఎన్డీఏ 31
am 31
ందర్రెడ్డి 31
చెన్న@@ 31
హెచ్చర@@ 31
= 31
అనిప@@ 31
అవార్@@ 31
గ్రేడ్ 31
ట్రెండ్ 31
బాలుడు 31
లభించాయి 31
చైనాకు 31
ఖరార@@ 31
సూపర్స్టార్ 31
ంటెడ్ 31
కళ్యా@@ 31
వారై 31
వ్వడం 31
బంద్ 31
జగదీ@@ 31
పారా@@ 31
మోదీని 31
దక్షిణా@@ 31
వేళ@@ 31
పెట్రోలు 31
నించి@@ 31
శుభవార్త 31
లారీ 31
వెళ్తున్న 31
నిర్మిస్తున్నాడు 31
సుఖ@@ 31
ప్రాచుర్యం 31
నాలోని 31
సక్రమంగా 31
మహిళను 31
క్లీ@@ 31
స్టూడియోస్ 31
లకూ 31
తేదీని 31
పారిశు@@ 31
వాపు 31
యుండెను 31
మైసూ@@ 31
చున్న@@ 31
నచ్చిన 31
రాళ్లు 31
కోర్ 31
జీర్ణ@@ 31
చచ్చి@@ 31
క్రియాశీల 31
తప్పులు 31
సోనమ్ 31
డ్రా 31
తప్పుగా 31
చేసె@@ 31
దారుడు 31
బడ్డ 31
ధ్వజమెత్తారు 31
టర్లకు 31
నవ్వుతూ 31
హక్కు@@ 31
వయసులో 31
అన్నా 31
కాలము 31
క్షన్లు 31
ముగ్గురిని 31
నీకి 31
కానుకగా 31
మడ@@ 31
పారే@@ 31
జాతీ@@ 31
ప్రతిపాదన 31
మరణాలుః 31
పరీక్షలో 31
మంగ@@ 31
తూర్పుగోదావరి 31
ండ్లలో 31
బాలుడి 31
పైలట్ 31
ందుకే 31
జిల్ 31
మిథు@@ 31
అఖి@@ 31
కనిపిస్తాయి 31
నియోజకవర్గాల్లో 31
వచ్చా@@ 31
ఛత్తీస్గఢ్ 31
దర్శనం 31
నటించడం 31
మెరుగ@@ 31
వర్షాలతో 31
పితరు@@ 31
ప్రోగ్రామ్ 31
డార్ 31
మ్యాచ్ల 31
సిట్ 31
కత@@ 31
టైప్ 31
తగి@@ 31
తోందన్నారు 31
ధీమా 31
ీకి 31
um@@ 31
ఇవ్వండి 31
ప్రామాణిక 31
రోగ 31
సమాధానంః 31
క్రైస్తవు@@ 31
కశ్మీర్లో 31
శరణ@@ 31
కన్ 31
ఆహారాన్ని 31
పనుల్లో 31
స్టై@@ 31
విధాలుగా 31
ఆవశ్య@@ 31
రింది 31
సొంత@@ 31
పరిహార@@ 31
ఖ 31
పొందండి 31
దశాబ్@@ 31
వర్షా@@ 31
త్తగా 31
వెయిట్ 31
కిశోర్ 31
ప్రచురణ@@ 31
కౌన్సి@@ 31
పరుగె@@ 31
గడ్డ 31
బిల్ 31
నిర్ణయానికి 31
దేవుణ్ణి 31
పాటకు 31
దేశాల@@ 31
కష్టంగా 31
త్రా 31
కాల్పుల 31
నామినేట్ 31
తును 31
స్నానం 31
ఆసుప@@ 31
ఫిర్యాదులు 31
బ్యాంకుల 31
విజయసాయిరెడ్డి 31
పరీక్షా 31
న్స@@ 31
న్సీ@@ 31
బదులి@@ 31
కుం@@ 31
చురుగ్గా 31
తక్షణం 31
లక@@ 31
స్థితి@@ 31
సహాయాన్ని 31
ప్రియాంకా 31
సస్పెండ్ 31
మార్పులను 31
ఏకీ@@ 31
దము 31
or 31
వెన్నెల 31
యాలి 31
వన్డే@@ 31
రావ్ 31
ఐఏఎస్ 31
జస్ట్ 31
ఖమ్మం 31
ఏదేమైనా 31
ఎస్యూవీని 31
ముప్ప@@ 31
ప్రశాంత@@ 31
విజయవంతమైన 31
పరిణామం 31
అమర@@ 31
11:@@ 31
పిత 31
ాల్సిందే@@ 31
స్తుందా 31
పరిశుద్ధా@@ 31
నానా@@ 31
శ్రేష్ఠ@@ 31
రేటింగ్ 31
సరే@@ 31
స్టార్స్ 31
సమూయేలు 31
బెంగాల్లో 31
కదిల@@ 31
ించాలన్న 31
పరిశీలన 31
శిథి@@ 31
ించినప్పటికీ 31
la@@ 31
వైయస్ 31
స్థ 31
చేస్తారా 31
ప్ను 31
కల్యా@@ 31
ర్ష@@ 31
తిక 31
రాత 31
స్టన్ 31
ంగాన్ని 31
ప్రణాళికను 31
ఓం 31
తెరు@@ 31
ఇతి@@ 31
స్వల్ప@@ 31
దేవ్@@ 31
చున్నారు 31
కట్టడ@@ 31
భూమిపై 31
కల్లా 31
రాత్ర@@ 31
భారతి 31
వాడకం 31
సెలవు 31
భూభాగం 31
ఆనంది@@ 31
శరత్ 31
ించుచు 31
నిమ్మ 31
సోనాక్షి 31
మహారాష్ట్ర@@ 31
నంతరం 31
ంకా 31
హారి@@ 31
ఇన్ఫోసిస్ 31
భాగస్వా@@ 31
చిట్కాలు 31
సంతో@@ 31
పశ్చిమబెంగాల్ 31
కేశ@@ 31
కామెంట్ 31
మిగి@@ 31
రాకేష్ 31
శివసే@@ 31
ed@@ 31
ంట్గా 31
ల్లీ@@ 31
అనురాగ్ 31
విషయా@@ 31
ఇస్లాం 31
టర్ను 31
యూజర్@@ 31
ప్పుడ@@ 31
కూల్@@ 30
చిన్నారి@@ 30
రొట్ట@@ 30
డబ్బును 30
మిరెడ్డి 30
ముగ్గురి 30
కూతుళ్లు 30
బెల్@@ 30
చనిపోయింది 30
ంచె@@ 30
గెను 30
బ్రాహ్మ@@ 30
్యా 30
కుటుంబాన్ని 30
పొందడం 30
ర్రీ 30
ప్రతిపాదనను 30
ఫార@@ 30
అమరు@@ 30
రోగుల 30
బహిష్@@ 30
స్విఫ్ట్ 30
మార్టం 30
ప్రకటనా 30
కార్పో@@ 30
సహకరి@@ 30
జ్డ్ 30
త్తుల 30
దాటి 30
కుండానే 30
పరుగు@@ 30
చ్చేందుకు 30
హీరోయిన్లు 30
ఘర్ష@@ 30
చెప్పాలని 30
చీకటి 30
దుబ@@ 30
ట్టుకు 30
రాజేంద్ర@@ 30
పోవడానికి 30
ఆకర్షి@@ 30
కాలపై 30
బలవంతంగా 30
వేద 30
వేయించాలి 30
లక్ష్@@ 30
చెల్లించాల్సిన 30
పనిలేదు 30
ళీ 30
రెడ్డి@@ 30
చిత్రమిది 30
ఈవెం@@ 30
అందాల 30
ఎంచుకోవడానికి 30
పేజీలోని 30
మృతిపై 30
పున@@ 30
పునరుద్ధరణ 30
మ్య 30
అరేబియా 30
శీతాకాలంలో 30
చర్మ 30
అంగీకరించారు 30
చదివి 30
వెలువడ@@ 30
దేవదూ@@ 30
అనిరుధ్ 30
చేస్తానని 30
మోటో@@ 30
సహాయంతో 30
వాదనను 30
అత్య@@ 30
స్థలికి 30
సాహిత్య 30
చిన్నప్పటి 30
పౌరసత్వం 30
అందరం 30
అనుకూలమైన 30
యౌవన@@ 30
ముండ@@ 30
మోడ్ 30
ప్రొఫె@@ 30
యేసుక్రీస్తు 30
దినమున 30
కమర్షియల్ 30
జీవన@@ 30
జియో@@ 30
మోదీ@@ 30
బాలయ్య 30
హెబ్రీయులు 30
ఇంటర్నల్ 30
బూ 30
అందుకున్నాడు 30
వుండే 30
మిటో 30
అద్భుతం 30
ఇంగ్లీషు 30
వదులు@@ 30
చెన్నై@@ 30
టాల@@ 30
స్ఫూర్తి 30
సమర్ధ@@ 30
న్యా 30
రష్యా@@ 30
నివాస@@ 30
ప్లేయర్ 30
మునుపటి 30
68 30
సమాధానమి@@ 30
గడ 30
పిచ్చి@@ 30
సంభవి@@ 30
షరీఫ్ 30
రుగ్@@ 30
గంగా 30
ఆఫర్@@ 30
చంపిన 30
గడప@@ 30
పనిచేస్తున్న 30
కైనా 30
వ్యక్తుల 30
స్సు 30
రామయ్య 30
రావు@@ 30
హరీ@@ 30
చార్జ్ 30
పురంలో 30
స్తున్నాయని 30
హిందువులు 30
ముస్లి@@ 30
ఆన్@@ 30
విస్తరించింది 30
మామూలు 30
దిలో 30
టికల్ 30
చేస్తున్నారా 30
వియా 30
లక్షలాది 30
ఇంతవరకూ 30
చాహల్ 30
జైల్లో 30
అభ్యా@@ 30
తగ్గిన 30
చేసిందన్నారు 30
ఐగుప్తు@@ 30
తొలగించారు 30
ఏం@@ 30
బ్రహ్మ@@ 30
వన్డేలో 30
మోదీపై 30
అఫీషియల్ 30
ప్రారంభించండి 30
నడుస్తున్న 30
నిందితుడి 30
స్థూ@@ 30
వారసత్వ 30
ష్టి 30
ఆలివ్ 30
సేకరి@@ 30
పటి 30
వయస్సు@@ 30
పాక్షికంగా 30
హాకీ 30
ధాటికి 30
యన 30
పరిపాలనా 30
అబ్బాయి 30
రచయి@@ 30
ఉత్తీర్ణత 30
చూపించాడు 30
కలవు 30
చట్టపరమైన 30
యూదు@@ 30
రషీద్ 30
మరు@@ 30
శాసనసభలో 30
యార్@@ 30
పణ@@ 30
ou@@ 30
గాయాలతో 30
ఎదుర్కొంటున్నారు 30
కొక 30
ఐపీసీ 30
త్లో 30
ఇలాంటివి 30
ఇద్దరికీ 30
జవహ@@ 30
స్వీయ 30
ంపు 30
పల్లె@@ 30
ద్రి 30
ర్థం 30
ప్రశ్నించింది 30
లైసెన్@@ 30
8:@@ 30
తమి@@ 30
షన్తో 30
పట్టించుకోవడం 30
సంభవించిన 30
సాధించడం 30
నిర్ణీత 30
పిల్లల్లో 30
కథా 30
కలలు 30
సంభవించింది 30
ఆపే@@ 30
న్నిటిని 30
కొరి@@ 30
లుగు@@ 30
ఉపశమనం 30
సొలొమోను 30
నిరుద్యో@@ 30
విమానాల 30
స్థలంలోనే 30
భోపాల్ 30
ఇంగ్లాండ్@@ 30
బాధ్యత@@ 30
నిండి@@ 30
రిస్@@ 30
లబ్ధి 30
రక్తపోటు 30
ప్రభావంతో 30
కొరింథీయులు 30
అతడిపై 30
ద్దని 30
వెల్ల@@ 30
ఇన్స్టాగ్రామ్ 30
నియోజక 30
గ్రే 30
లంటే 30
లుపై 30
బ్లె@@ 30
ఉత్పన్న@@ 30
ద్దీ@@ 30
కాలా@@ 30
పరిరక్ష@@ 30
వాదన 30
బాలు@@ 30
నిరాకరించింది 30
నేం 30
లోపలికి 30
కిందకు 30
మైనదని 30
చేయడమే 30
డైరెక్షన్ 30
మల్టీస్టారర్ 30
కలప@@ 30
రేఖ@@ 30
అసాధారణ 30
చాలామందికి 30
శాస@@ 30
క్యాపిటల్ 30
ప్రయాణికులకు 30
ఆచంట 30
ఉపయోగించడానికి 30
పడాలి 30
చింగ్ 30
మిశ్రమం 30
భారతదేశాన్ని 30
తిరుగుబాటు 30
బ్లూ@@ 30
కొట్టివేసింది 30
ఎవరికైనా 30
స్పిన్నర్ 30
సవాళ్లను 30
వంతెన 30
మ్యాచ్ల్లో 30
లీటర్ల 30
మాది 30
తుందిః 30
చుట్టుపక్కల 30
అవుతారు 30
కప్లో 30
ధృ@@ 30
కార్పొరే@@ 30
తొల@@ 30
తమైంది 30
నమూ@@ 30
ఒమర్ 30
ఓపెనర్లు 30
క్వి@@ 30
బ్లాక్@@ 30
లోన్ 30
సంవత్సరాల్లో 30
ఆగలేదు 30
స్కోర్ 30
పురుగు@@ 30
ప్రతిబింబ@@ 30
దీక్షిత్ 30
10:@@ 30
డియో@@ 30
పొరుగు 30
బీజే@@ 30
ించనున్నాడు 30
ద్వారానే 30
బెంజ్ 30
ఎనిమి@@ 30
చేసేలా 30
గ్రామస్తులు 30
రూపొందించింది 30
ప్రో 30
మధ్యప్రదేశ్లో 30
చలా@@ 30
మోషే@@ 30
అంబ@@ 30
H 30
విమర్శల 30
ఈసీ 30
తేనే 30
సాడు 30
విమర్శకుల 29
తగ్గించింది 29
బో 29
దోషిగా 29
కాని@@ 29
పేజీలు 29
ప్రస@@ 29
సెక@@ 29
శేష@@ 29
మిని 29
బీభత్సం 29
తమే 29
చిత్రమైన 29
ఇప్పటి@@ 29
కావాల్సి 29
యూనిట్ల 29
పడేలా 29
మ్లు 29
వేడుకలో 29
మోడీతో 29
సమావేశాల్లో 29
నిన్న@@ 29
తెలియజేసింది 29
బద్దలు 29
కంపెనీకి 29
న్యాయస్థాన@@ 29
తప్పదు 29
్రాలు 29
అలీఖాన్ 29
బ్లే@@ 29
మామ@@ 29
గారి@@ 29
శతాబ్దం 29
నాణ@@ 29
పతా@@ 29
కొందరికి 29
బాద్లో 29
డౌ@@ 29
విషయాల 29
br@@ 29
వసతులు 29
ఆశాభావం 29
కులో 29
కొనే 29
తెలుసుకోవాలి 29
అభిమాను@@ 29
వ్ర@@ 29
పునరా@@ 29
వెలు@@ 29
గమ్య@@ 29
టెక్నాలజీ@@ 29
యున్నాను 29
నియమితులయ్యారు 29
కృతి 29
ములు@@ 29
రాచ@@ 29
జీర్@@ 29
పనిచేస్తున్నారు 29
వ్యవస్థకు 29
త్రైమాసికంలో 29
వశాత్తూ 29
ప్పులు 29
టైమ్స్ 29
సేందుకు 29
కుము 29
పిస్తున్న 29
నిర్భర్ 29
దంపతులకు 29
రేంజ్ 29
తగ్గుముఖం 29
ాలనుకుంటున్నాను 29
చేశామన్నారు 29
ఆకర్షణీయమైన 29
కారి 29
హిమా@@ 29
కిమ్ 29
సూసైడ్ 29
వైభవంగా 29
రిటైల్ 29
సరిహద్దుల్లో 29
అంటున్నాడు 29
డుకు 29
కుదర@@ 29
చురుకైన 29
ప్తి 29
గుర్తించడం 29
దళాల 29
టిక్@@ 29
ప్రత్య@@ 29
కార్బన్ 29
మార్చి@@ 29
నిర్వహించి 29
గుంపు@@ 29
రాజకీయంగా 29
ఫిలిప్ప@@ 29
చున్న 29
మండలానికి 29
బాయ్ 29
లైవ్ 29
నదులు 29
వరదలు 29
గౌరవి@@ 29
డ్రో@@ 29
కెళ్ల@@ 29
తలుపు 29
ఎస్టేట్ 29
108 29
చేసుకుంటున్నారు 29
అనువర్త@@ 29
ఆనందాన్ని 29
సంతృప్@@ 29
విందు 29
చేయనున్న 29
హ్యాచ్బ్యాక్ 29
చిత 29
కరణలు 29
పోటీగా 29
గ్రామాల్లో 29
స్టేట్స్ 29
స్పెయిన్ 29
బయలు 29
ఎదురైంది 29
అనుకూల 29
పోలి 29
on 29
డైరెక్షన్లో 29
సాహిత్య@@ 29
ప్రకటించాయి 29
ప్రమాదకరమైన 29
చూడటానికి 29
శె@@ 29
చేసినందుకు 29
ఆర్బిఐ 29
కొచ్చి 29
విడిగా 29
ఈలాగు 29
లోయలో 29
పథకాలను 29
డ్యూయల్ 29
ేయ 29
సంతృప్తి 29
బాధితులకు 29
అనుసరించి 29
సిక్కిం 29
అప్పుడప్పుడు 29
కట్టి 29
పాయి 29
ఇసు@@ 29
నిర్వహించ@@ 29
75@@ 29
సర్టిఫికెట్ 29
కలుగ@@ 29
మద్రాస్ 29
దేమీ 29
దికి 29
ల్లేదు 29
దిశలో 29
దేశములో 29
ాలీ 29
వ్యూ@@ 29
అమో@@ 29
ష్ణ 29
ఒకరినొకరు 29
ఉద్యోగి 29
విరు@@ 29
ేనే 29
ఎంటర్టైనర్ 29
అస్త@@ 29
నిర్మిస్తోంది 29
కొన్న 29
పక్క 29
నిలుస్తుంది 29
కమాండర్ 29
పూర్తయిన 29
మృతదేహం 29
పించాయి 29
కవి 29
4లో 29
కాంతి 29
చదవడం 29
పెంచిన 29
ండో@@ 29
టెలిఫోన్ 29
ఉన్నత@@ 29
ఘ్@@ 29
ఉపన్యా@@ 29
కట్ట 29
చైతన్య 29
దాడులకు 29
సబ్జెక్@@ 29
అయిదు 29
తెరకెక్కింది 29
చొ@@ 29
పెట్టడానికి 29
దేవర@@ 29
తేలికపాటి 29
నీతిని 29
ప్రేమకు 29
జీహెచ్ఎంసీ 29
మోహన@@ 29
సేన్ 29
మ్రా@@ 29
దుండ@@ 29
ల్యాంప్స్ 29
ఖ్య@@ 29
అసాధ్యం 29
సర్లు 29
కథానాయిక 29
ఐరోపా 29
చెను 29
పతకాలు 29
స్థులు 29
దృఢ@@ 29
ఎక్కువే 29
ఇస్లా@@ 29
కిసాన్ 29
్యూ 29
యాస్ 29
స్ట్రా@@ 29
ఈవీ@@ 29
వేత్తలు 29
హర్షం 29
కారులకు 29
దశకు 29
గుడి 29
స్మి@@ 29
వది 29
భర్తను 29
చేపడు@@ 29
ఆస్@@ 29
నుజ్@@ 29
లక్ష్యంతో 29
హు 29
కార్యకలాపాలకు 29
ామని 29
ఇరువురు 29
సహజంగా 29
దరఖాస్తు@@ 29
స్టాలిన్ 29
సెకండ్ 29
వ్యాప్త 29
సున్నితమైన 29
నొక్కి@@ 29
అనారోగ్యం 29
బయటపడింది 29
న్లతో 29
ఇన్ఫె@@ 29
జరగదు 29
అనుసంధానించ@@ 29
అసాధ్య@@ 29
క్రమా@@ 29
పార్టీగా 29
ఆశీర్@@ 29
మ్మని 29
నయెడల 29
శంకుస్థాపన 29
థె@@ 29
హెచ్డీఎఫ్సీ 29
జార్జ్ 29
క్రీడ@@ 29
సీకి 29
ity 29
రిక్ 29
సురక్షిత 29
ఉమేశ్ 29
వేది 29
తెచ్చుకున్న 29
దోచు@@ 29
ట్లా@@ 29
విశ్వాసాన్ని 29
om@@ 29
లావాదేవీ@@ 29
విరుద్ధ@@ 29
నుల 29
మరే 29
జెండ@@ 29
నమూనా 29
వెద@@ 29
ఇతరుల 29
చాలానే 29
కేసులను 29
19:@@ 29
విండో 29
నిలిచిపోయాయి 29
బహుమ@@ 29
బతి@@ 29
ఎందుకో 29
దహన@@ 29
ప్రశ్ని@@ 29
బీచ్ 29
భిప్రాయ@@ 29
పోగొట్టు@@ 29
షే 29
ప్రవే@@ 29
బంధ 29
చూసేందుకు 29
గాయని 29
రాజ్యాంగ@@ 29
లాం@@ 29
ఆహ్వా@@ 29
ఏవి 29
ఆడాడు 29
ంక్ 29
తాత్కాలికంగా 29
వైద్యుడు 29
2022 29
తీసే@@ 29
సౌర 29
ప్రయత్నంలో 29
వేశాడు 29
హసన్ 29
టాన్ 29
ఎలాగ@@ 29
చర్మాన్ని 29
మిత్రులు 29
ఎగువ 29
ఫ్ల@@ 29
ప్రేరణ 29
హోస్ట్ 29
జూ 29
ాలా@@ 29
శాఖలు 29
కాండ@@ 29
టైటి@@ 29
ఉంటాం 29
స్ట్రె@@ 29
మానవులు 29
ఆహ్లాద@@ 29
రాజకీయాల 29
పాపం 29
ఉంటాను 29
స్వర్ణ 29
ఎమ్మెల్సీలు 29
చూసుకోవాలి 29
ఎక్కడ@@ 29
విస్తరణ 29
ha@@ 29
అనుకోలేదు 28
అందుకో@@ 28
నిబంధనలకు 28
అంతం 28
కథను 28
రాజీ@@ 28
వుండదు 28
కూడద@@ 28
చత్తీ@@ 28
చక్క@@ 28
దుర్గ@@ 28
స్టైల్ 28
ధ్ 28
స్పానిష్ 28
ఆదేశాలను 28
ఇదివరకే 28
8వ 28
అధ్యాయ@@ 28
శరీ@@ 28
చెయ్యి 28
స్ట్రీ 28
చండీ@@ 28
క్షన్స్ 28
ఆరోపిస్తున్నారు 28
కుద@@ 28
సిటి@@ 28
ళ్ళకు 28
ఛాలెంజర్స్ 28
శృతి 28
హాస్పిటల్లో 28
వ్యవధి 28
ఆస్తులు 28
మిషన@@ 28
రాలను 28
డిమాండ్@@ 28
తాలి@@ 28
సీని 28
ఏర్పరచు@@ 28
మిర్ 28
మిశ్రమాన్ని 28
నిబంధనలను 28
న్నాడని 28
ఏమైంది 28
గోల్ 28
మార్కెట్లలో 28
వాన 28
దూకుడు 28
రాజశేఖర్ 28
పానీ@@ 28
విశేష 28
బెంగళూరులో 28
దాడిని 28
ండ్కు 28
సందర్భం 28
జరుగుతున్న@@ 28
నిర్వహించడం 28
కథలో 28
యాదవ్@@ 28
ఛాన్స్ 28
మాలిక్ 28
సుబ్ర@@ 28
జాతులు 28
మెర్సిడెస్ 28
ప్రణ@@ 28
లోనున్న 28
యూవీ 28
చ్చా@@ 28
అనుకుంటున్నాను 28
కోరుతున్నారు 28
ఇను@@ 28
ఆలియా 28
వచ్చాక 28
చదవండిః 28
gov 28
ఆవాలు 28
కీరవాణి 28
ఉదా@@ 28
ఇండోర్ 28
పోరాటానికి 28
విలో 28
బ్యాలె@@ 28
తట్టు@@ 28
సీతారా@@ 28
స్తుందో 28
కల్పన 28
ఎంతమాత్రం 28
ముగ్@@ 28
ించినది 28
సాయుధ 28
ఆఫీ@@ 28
అదొక 28
ఆకర్షణగా 28
పరిమిత 28
హర్ష@@ 28
స్వచ్ఛమైన 28
సుష్@@ 28
94 28
చేసెను 28
టరు 28
రూపాయలను 28
ప్రఖ్యా@@ 28
కుంటాం 28
గ్లో 28
అదుపులో 28
వెయ్యి 28
మర్యాద@@ 28
ఆదర@@ 28
ఆర్జ@@ 28
బ్రాడ్@@ 28
ఉత్పత్తి@@ 28
సమాధి 28
ఆందోళ@@ 28
పటే@@ 28
ఘనవిజయం 28
ఏఐ 28
ప్రక్రియలో 28
స్పూ@@ 28
పరిమా@@ 28
కల్పించడం 28
కావున 28
శబ్ద@@ 28
కవర్ 28
ట్లోకి 28
అవసరాలు 28
ంపు@@ 28
జ్యూ@@ 28
కత్తిర@@ 28
చేద్దాం 28
పొడవు 28
ప్రభు 28
పదాన్ని 28
మేమీ 28
పెంపకం 28
రీల 28
గేందుకు 28
ఆగిపో@@ 28
విపక్ష 28
చ్ఛేదము 28
వినయ్ 28
తేజ@@ 28
యొద్ద 28
సభా@@ 28
జీలకర్ర 28
ఆటోమొబైల్ 28
రిషబ్ 28
ఎన్నికైన 28
భద్రతకు 28
గుండా 28
గేలా 28
ించకూడదు 28
వాది@@ 28
అవా@@ 28
కన్నుమూశారు 28
లోకం 28
తెదేపా 28
భూకంప 28
తర్వా@@ 28
అదుపు@@ 28
కట్టుదిట్టమైన 28
కాలేజ్ 28
వేంద్ర 28
బుద్ధ@@ 28
నవ్వు 28
మమ@@ 28
చంపు@@ 28
సూచీలు 28
అవినా@@ 28
ప్రదేశ్లోని 28
ప్యూ@@ 28
పట్టుకున్నారు 28
స్త్ర@@ 28
లంతా 28
ంటుందని 28
అప్లికే@@ 28
గర్భం 28
ప్రింట్ 28
కాశ్మీర్లో 28
తప్పింది 28
కార్యములు 28
ప్రయోజ@@ 28
బట్టారు 28
తలు@@ 28
ించదు 28
సంపద@@ 28
త్న 28
సున్న@@ 28
విశ్వాస 28
పాల్పడ్డారు 28
తమ్ము@@ 28
మెహతా 28
ఎత్తైన 28
వ్యాధుల 28
నర్లు 28
అభ్యర్థులకు 28
త్మకమైన 28
జీల 28
మార్గదర్శకాలు 28
తప్పుదోవ 28
వీటిపై 28
అసో@@ 28
కూరగాయల 28
ఆలోచించండి 28
టీసీ 28
దూర 28
రణ్వీర్ 28
ఇదేం 28
ఎంఎం 28
సెడాన్ 28
ఎరువుల 28
ించాల@@ 28
పరిశుద్ధ 28
ాయిడ్ 28
శ్రీధర్ 28
దైవ@@ 28
బీజేపీని 28
వణ@@ 28
మందిరం 28
ఆస్కార్ 28
బాట 28
దహనం 28
తిరుమల 28
అటల్ 28
ంతరంగా 28
మనుషు@@ 28
ంగే@@ 28
నొప్ప@@ 28
ఎండి@@ 28
తడ@@ 28
జారి@@ 28
డానికీ 28
ంతు 28
నాణ్యమైన 28
రువు 28
అలియా 28
సేఫ్టీ 28
అహ్మదా@@ 28
ట్యాం@@ 28
టైంది 28
ప్రయాణికుల 28
క్యాష్ 28
సవాళ్లు 28
నాలే 28
ఇతను 28
కాదు@@ 28
భావాలను 28
నరసిం@@ 28
కేటాయింపు 28
ఎన్ఫీల్డ్ 28
వారాల 28
ఇండ@@ 28
జియా 28
ాలోనూ 28
క్యారెక్టర్ 28
ఆంధ్రప్రదేశ్@@ 28
కావడానికి 28
చేరుకున్నాయి 28
ఉపయోగించాలి 28
ధాల 28
సిఫార్@@ 28
కుంభకోణం 28
లీడ్ 28
టుతో 28
చేయబడి 28
న్యం 28
బుర@@ 28
మాటల@@ 28
ఉంటోంది 28
బంగాళా@@ 28
ఓటింగ్ 28
పల్లవి 28
వ్యాపారాలు 28
ఎత్తులో 28
అండమాన్ 28
మూడు@@ 28
ముమ్మరం 28
భాగాలను 28
కమ్మ 28
రవాణా@@ 28
మత్@@ 28
యుద్ధానికి 28
వాస్తవాలు 28
చూచి@@ 28
ఆశ 28
తాలూ@@ 28
వాగ్దానం 28
నెలలోనే 28
అంచనాల 28
చేస్తున్నా 28
చేరాయి 28
91 28
సెట్ట@@ 28
పథకాల 28
పోయినా 28
పిల్లలున్నారు 28
మార్కు 28
ధర్నా 28
స్కూలు 28
జరిగినట్లు 28
ఏఆర్ 28
మోడీ@@ 28
భుజ@@ 28
ir@@ 28
దగ్గు 28
కాయలు 28
ఎడిటింగ్ 28
కేన్ 28
సికింద్రాబాద్ 28
క్షిపణి 28
వర్డ్ 28
పారిశ్రామిక@@ 28
స్ట్రీట్ 28
న్సర్ 28
ఇందిరా 28
నిష్క్రమ@@ 28
కామెంట్స్ 28
ప్రయాణీ@@ 28
నేతగా 28
కదూ 28
89 28
కలా@@ 28
ప్రకా@@ 28
ఘట@@ 28
ప్రదేశంలో 28
ఊపిరితి@@ 28
చూసే 28
ఒకే@@ 28
సంబంధాన్ని 28
సౌకర్య@@ 28
మనస్సు@@ 28
ఉంటున్నారు 28
లక్నో 28
నమ్మకాన్ని 28
క్షమాపణలు 28
మదు@@ 28
పులను 28
నమూనాలను 28
రస్@@ 28
పొందుతున్న 28
ion@@ 28
దేశపు 28
జోషి 28
నవాజ్ 28
గట్టి@@ 28
మెదడు 28
వ్యాస@@ 28
సామా@@ 28
యాజమాన్యం 28
అవే 28
బిందు@@ 28
మాద@@ 28
యూపీ@@ 28
పద్ద@@ 28
జరగలేదని 28
నిమిషాల 28
గోప్య@@ 27
ార్థ్ 27
ఘర్షణలో 27
వెళ్లా@@ 27
అర్పించ@@ 27
విసర్@@ 27
లియా 27
సాగిన 27
కేసీఆర్@@ 27
పటికే 27
బోధన 27
క్కులు 27
డిమా@@ 27
2008 27
మసీ@@ 27
నోచు@@ 27
ఇజ్ర@@ 27
ప్రశం@@ 27
మల్టీ 27
జట్టును 27
వాహనాలకు 27
ప్రధానిగా 27
ముగిసి@@ 27
హర్యా@@ 27
పెద్దది 27
మరాఠ@@ 27
ఇషాంత్ 27
పవర్@@ 27
జరిగిందా 27
నిలిచి 27
నడ్డా 27
విధులు 27
ంలోను 27
కొడ@@ 27
ర్చు@@ 27
ించామన్నారు 27
వివాదాలు 27
ఎన్డీయే 27
రహదారులు 27
విడదీ@@ 27
సిఫార్సు 27
ఇంటర్వ్యూ@@ 27
కాన్ఫరెన్@@ 27
విపణిలోకి 27
మోడీపై 27
క్కీ 27
రహిత 27
ఉద్యానవ@@ 27
సావిత్రి 27
హైదరాబాద్కు 27
బట్టలు 27
కూర్చో@@ 27
స్వచ్ఛంద 27
పలువు@@ 27
ాల్కు 27
లోకంలో 27
శాశ్వ@@ 27
పలికింది 27
విడిచారు 27
ఫీచర్స్ 27
ఉద్రిక్తత 27
గ్రూపు@@ 27
డిస్కౌంట్ 27
ఆగ్రా 27
ఆస్పత్ర@@ 27
గంటలు 27
తెలుసుకుందాం 27
ఆశ్చర్యంగా 27
తామే 27
ఉద్యోగు@@ 27
అవసరాలను 27
ఇంటీ@@ 27
కస్టమర్@@ 27
మాతృ@@ 27
లేవీ@@ 27
14.@@ 27
లాంటివి 27
హైదరాబాద్@@ 27
హక్కులు 27
ాకు 27
గొంతు@@ 27
సర్వా@@ 27
దూకు@@ 27
మనసులో 27
పొందాయి 27
750 27
అప్రమత్తమైన 27
195@@ 27
కరమైనది 27
సంతోషాన్ని 27
స్టరీ 27
ించిరి 27
ine 27
షాకి@@ 27
వీసా 27
లనూ 27
చూడటం 27
మీది 27
అన్నాడుః 27
రాష్ట@@ 27
మరణశిక్ష 27
రొమాంటిక్ 27
ఎన్డీ@@ 27
ళ్లింది 27
కలహ@@ 27
కస్టడీ@@ 27
గిస్తూ 27
గడ్డ@@ 27
లాటిన్ 27
పడమ@@ 27
రాక్ 27
కారణాలను 27
నిజాలు 27
పర్యటి@@ 27
సాంప్రదాయ@@ 27
కొన్నా@@ 27
సూద్ 27
లాగు 27
ఆఫర్లు 27
దుండగులు 27
వని@@ 27
టెలికాం 27
బైబిల్లో 27
చెబితే 27
ప్రమాదకరం 27
ఇంజినీ@@ 27
హెచ్డీ 27
నలుగు@@ 27
ర్యాల@@ 27
వెండి@@ 27
ట్రేడింగ్ 27
వినూత్న 27
దావీ@@ 27
ఫెర్@@ 27
కామ్ 27
నలి@@ 27
గర్వంగా 27
2009 27
సీబీ 27
స్థిర 27
ఆగ్రహ@@ 27
పిస్తోంది 27
ప్రయాణ 27
నడప@@ 27
సానుభూతిని 27
అనుమతులు 27
ఖరీఫ్ 27
ించా 27
వెల్లువె@@ 27
క్సీ 27
అణ@@ 27
మీనన్ 27
మొదటిది 27
సోవియట్ 27
ంటల్ 27
కెప్టె@@ 27
విఫలం 27
వన్డేలు 27
ట్రాన్స్మిషన్ 27
మరుసటి 27
టగా 27
సెంచ@@ 27
అరుణాచల్ 27
టెస్టుల్లో 27
ణ్య@@ 27
రిస్ 27
వార్తలను 27
రహస్@@ 27
హల్చల్ 27
వున్న@@ 27
ముగిశాయి 27
కోస@@ 27
చేయవలసిన 27
విస్ 27
పరీక్షల్లో 27
త్తుతున్నాయి 27
అత్యా@@ 27
కొమరం 27
సమాజా@@ 27
రిమాండ్ 27
రాధా@@ 27
కూల్చి@@ 27
న్నింటిని 27
టార్క్ను 27
నాది 27
వృత్తాంత@@ 27
ియ 27
వ్యయంతో 27
పరార@@ 27
ఉంటుందన్నారు 27
కలుషి@@ 27
సోన@@ 27
ఇండస్ట్రీస్ 27
రచ్చ 27
తెలుసుకోవడానికి 27
ంగు 27
స్తున్నప్పుడు 27
ర్ః 27
మింగ్ 27
తట్టుకో@@ 27
తిరస్కరించారు 27
వాట్ 27
ఛార్జింగ్ 27
సెప్టె@@ 27
ఆర్పి@@ 27
ఏఐ@@ 27
కూలి 27
నెట్ట@@ 27
మెర్@@ 27
బలా@@ 27
గొట్టారు 27
కర్ణాటకలోని 27
అయ్యాను 27
ముద్ద@@ 27
గల్లంత@@ 27
సుధాకర్ 27
కల్పించారు 27
ఇంక 27
పోటు 27
తీసివేయ@@ 27
సుడు 27
సమూహం 27
ప్యాకే@@ 27
క్రమశిక్షణ 27
దొర@@ 27
నెరవేరు@@ 27
ఆగ్నేయ 27
కపూర్@@ 27
శృ@@ 27
సత్య 27
సంకల@@ 27
చరిత్రలోనే 27
ఇమ్@@ 27
పనులకు 27
ఉత్కంఠ 27
వెచ్చని 27
తెలంగాణకు 27
మహబూ@@ 27
శరీరానికి 27
పేదల 27
రేసులో 27
ల్లో@@ 27
జ్వరం 27
ఔట్ 27
ఇంతకుముందు 27
సమ్@@ 27
గుంట@@ 27
పరిసర 27
ఖాయం 27
వశ@@ 27
od@@ 27
త్రాగు@@ 27
సులభమైన 27
బాద్ః 27
16,@@ 27
దక్షిణాఫ్రికా@@ 27
పదవీ@@ 27
నియోజక@@ 27
కారణమైన 27
అభిప్రాయాన్ని 27
రక్తంలో 27
పౌరుల 27
ించరు 27
దృష్టిని 27
తెరకెక్కించారు 27
తగిన@@ 27
మీడియం 27
ధార 27
ఆధు@@ 27
ముగ్గురికి 27
ప్రచారాన్ని 27
7వ 27
ఉత్పత్@@ 27
ఎక్కడైనా 27
వ్యతిరేకం 27
తలనొప్పి 27
తేలు@@ 27
రాజస్తాన్ 27
దుష్@@ 27
ప్రధాన్ 27
ఒప్పుకోలేదు 27
అర్థం@@ 27
స్వప్@@ 27
వలో 27
రోజుల్లోనే 27
ప్రమా@@ 27
చేయాలనే 27
దాడుల్లో 27
అంతు@@ 27
కారణాలతో 27
మెట@@ 27
ద్వారం 27
అర్బన్ 27
లానికి 27
వ్వు 27
క్తి 27
దక్కు@@ 27
79 27
ప్రయత్నించారు 27
ఫంక్షన్ 27
se 27
ార్ధ@@ 27
గేషన్ 27
కళాశాల@@ 27
రాష్ట్రప@@ 27
సజావుగా 27
సహి@@ 27
ప్రతాప్ 27
ఎస్యూవీ@@ 27
మనమే 27
క్విం@@ 27
ఒకరికి 27
పడటంతో 27
విండో@@ 27
ముగల 27
పరిమాణంలో 27
దేహ@@ 27
సెహ్వాగ్ 27
పర్య@@ 27
ఎస్ఎస్ 27
మౌనంగా 27
డర్స్ 27
చెల్లు@@ 27
రహదారిపై 27
ఊపిరి 27
న్యూజిలాండ్@@ 27
డిఫరెంట్ 27
లైసెన్స్ 27
ఏపీ@@ 27
కానిస్టేబుల్ 27
సీఆర్పీఎఫ్ 27
స్కో 27
చేసుకునేందుకు 27
చెప్పే 27
విశ్లేషణ 27
చేయగల 27
త్పత్తి 27
ప్రియదర్శ@@ 27
బోతుంది 27
రుణాల 27
అప్లై 27
స్కె@@ 27
నూతన@@ 27
నిర్మించాడు 27
గణేష్ 27
నర్సిం@@ 27
పంచాయతీ@@ 27
వాళ్లం 27
ఎపి@@ 27
బరాక్ 27
చెక్క 27
మీకి 27
మూత@@ 27
రోహ@@ 27
స్తాడని 27
జరపాలని 27
ముచ్చ@@ 27
ఫేర్ 27
ఆఖ@@ 27
సుభాష్ 27
భగవంతు@@ 27
కరువు 27
కోరిన 27
సిబి@@ 27
ఉద్యోగాల 27
థ్రిల్లర్ 27
స్తులు 27
మహాత్మా 27
ింపబడ@@ 27
పెట్టుబడులకు 27
రేపుతోంది 27
గణతంత్ర 27
ందంటూ 27
హ్యాపీగా 27
రుచికరమైన 27
ఇన్నింగ్@@ 27
నం@@ 27
చేసేవారు 27
ఉత్తే@@ 27
వాతావరణ@@ 27
ంగో@@ 27
19పై 27
అందుకని 27
ఎల్ఈడీ 27
వాహనదారులు 27
ఆయుష్ 27
ప్రాణనష్టం 27
డాలో 27
ఇకపోతే 27
దృష్ట్యా 27
పోతాయి 27
మహిళలను 27
లూకా 27
పోయారని 27
యువి 27
ాయా@@ 27
గోల్@@ 27
చట్టానికి 27
ప్రకాశం 27
గగా 27
తెలుసుకో@@ 27
ఉండును 27
నచ్చి@@ 27
నటనకు 26
నిర్మించింది 26
ప్రతిపత్తి 26
టయోటా 26
పరిచింది 26
సాధారణం 26
వెళ్ళడానికి 26
లోపాలు 26
అక్తర్ 26
పీయూష్ 26
for@@ 26
In@@ 26
విభాగాలు 26
నన్న 26
శ్రీనివాసరావు 26
పరిశోధనా 26
మయింది 26
ఫేస్లిఫ్ట్ 26
బెంగుళ@@ 26
నీతో 26
ధానికి 26
హీరోలు 26
ప్రాముఖ్య@@ 26
దర్యాప్తును 26
నమ్మకంతో 26
పరిష@@ 26
కోగా 26
గుడి@@ 26
కర్ర@@ 26
అతిథి 26
అనుకోకుండా 26
స్త్రీల 26
డ్రై@@ 26
విలువను 26
న్యూయార్@@ 26
సుబ్రహ్మ@@ 26
క్యాన్ని 26
ఏమై@@ 26
ఎక@@ 26
సీరియస్ 26
కూరుకు@@ 26
తగ్గించడానికి 26
పెరగడం 26
నమోదవగా 26
వేదా@@ 26
రియల్@@ 26
వ్యతిరేకత 26
యువరాజ్ 26
ఇన్ఫర్మేషన్ 26
విక@@ 26
యాప్స్ 26
గొగోయ్ 26
ఫలం 26
తుపాను 26
మిత్రు@@ 26
దొరికి@@ 26
మరాఠీ 26
నటించి 26
ఇతరులతో 26
ఉద్యోగులను 26
పరిచి@@ 26
లింగ 26
చిరు 26
కార్యాలయాలు 26
చరి@@ 26
బిఎమ్డబ్ల్యూ 26
ందులో 26
సులు@@ 26
యాత్రి@@ 26
నివాళులర్పించారు 26
బుర్@@ 26
రిమాండ్కు 26
అదేం 26
సహచరు@@ 26
మ్యూ@@ 26
సంగీతంః 26
వ్యూహాత్మక 26
యుండ@@ 26
కాలంలోనే 26
చూడడానికి 26
చేస్తున్నది 26
రాజ 26
ఉంచింది 26
పరిశీలించండి 26
అస్@@ 26
ాయిలో 26
నాకూ 26
హేతు@@ 26
సుందర@@ 26
న్నదే 26
జట్టుః 26
రూట్ 26
క్షా@@ 26
స్ట్రీ@@ 26
పెళ్@@ 26
వాడును 26
మాన 26
తెలివి@@ 26
వీళ్ల@@ 26
అపవిత్ర@@ 26
విలీ@@ 26
సమయాల్లో 26
రీగా 26
చెప్పడానికి 26
చెరో 26
అప్పీ@@ 26
గుప్@@ 26
కార్యదర్శ@@ 26
హౌసింగ్ 26
లోయ@@ 26
ఎమర్జెన్సీ 26
భాగంగానే 26
రెజ్@@ 26
రాజకీయాలకు 26
పసిఫిక్ 26
సముద్రంలో 26
జస్ప్రీత్ 26
బంతి 26
జంట@@ 26
ఇదేనా 26
త్యాన్ని 26
ఎంతైనా 26
పోవడంతో 26
నిరూపించ@@ 26
పేటలో 26
కారుల 26
పెరిగిపోయింది 26
చెర@@ 26
గెలుపొందారు 26
మొదలె@@ 26
పడ్@@ 26
శయ 26
గలరా 26
బీహార్@@ 26
స్నేహితుడు 26
క్ట్స్ 26
అవమాన@@ 26
ట్టర్ 26
క్రియ 26
నవారు 26
కలిగించింది 26
ఎదురుదెబ్బ 26
నవసరం 26
ఘోరంగా 26
వైసిపి 26
స్వాతంత్ర్యం 26
లబ్@@ 26
నగరానికి 26
మేఘాలయ 26
కొవ్@@ 26
పాటు@@ 26
గెలుచుకున్న 26
నిర్వహించాలని 26
డేటాను 26
గ్రామాలు 26
ఎగి@@ 26
మరే@@ 26
ఉంటుందిః 26
మెరుగుపరుస్తుంది 26
విస్మర@@ 26
23@@ 26
గ్య 26
వ్యక్తిగా 26
పధ@@ 26
తది@@ 26
క్లాసిక్ 26
తెరాస 26
తదితరు@@ 26
బల్@@ 26
గుజరాత్లోని 26
సువార్@@ 26
బాధపడుతున్నారు 26
ఫార్మా@@ 26
అపొస్తలుల 26
శ్య@@ 26
కైతే 26
రుసుము 26
మాట్లాడుతున్నారు 26
యేలు 26
వులో 26
మ్యు@@ 26
ఇక@@ 26
ఫ్యాన్ 26
నడుచు@@ 26
రంగాలకు 26
చెందినవారు 26
తోట@@ 26
పదార్థాల 26
వను 26
కారంగా 26
సంవత్సరాల@@ 26
యూరప్ 26
సల్ 26
అంటారా 26
అదర@@ 26
ష్టు 26
కేమీ 26
ఒప్పందాన్ని 26
విషయమే 26
మెగా@@ 26
కంద@@ 26
ఎగ్జిట్ 26
శ్రమి@@ 26
ఫ్యాషన్ 26
ఇర్ఫాన్ 26
మొద@@ 26
కోవటం 26
యెరూషలేము 26
విస్తృతమైన 26
బౌలర్లు 26
కుల్ 26
కాంస్య 26
తలపై 26
లుండ@@ 26
వార్తా 26
రోజంతా 26
ధర్మ 26
లిమి@@ 26
డ్కు 26
కేటాయించిన 26
సంస్కరణ 26
వివాదంపై 26
సందర్భ@@ 26
నివాళి 26
నిలిపివేశారు 26
బహిష్కర@@ 26
ించబడి 26
శాశ్వతంగా 26
గోడ@@ 26
దంపతుల 26
వాసులు 26
ఉపగ్ర@@ 26
పట్లో 26
తుందనే 26
మరికొంత 26
రాఘ@@ 26
యము@@ 26
లక్ష్యాలను 26
65@@ 26
వామ@@ 26
నెలాఖ@@ 26
సిఎ@@ 26
భాజ@@ 26
ఎంచుకోవచ్చు 26
సుబ్బారెడ్డి 26
రోమన్ 26
గులకు 26
పానికి 26
పద్మ 26
డిక@@ 26
విక్రయి@@ 26
వీరుడు 26
మాట్లాడి@@ 26
నేని@@ 26
ఫీల్డింగ్ 26
పరి 26
హూ@@ 26
నెలలు 26
జాతుల 26
యూనివర్@@ 26
కన్నుమూత 26
వెలువర@@ 26
వెంకీ 26
లేకపోయాడు 26
సర్దుబాటు 26
రెచ్చ@@ 26
ఆరోపణలపై 26
వినో@@ 26
కంప్@@ 26
టివి@@ 26
ప్రకటించాడు 26
మెప్ప@@ 26
అమ్మకాల 26
రకరకాల 26
కేట్ 26
ముఖ్యమైనవి 26
రేపు 26
గాడ్@@ 26
రేడియో 26
ఉండు@@ 26
జాతి@@ 26
వరుస@@ 26
నికోబార్ 26
వెళ్లలేదు 26
స్త్ర 26
వచ్చా 26
వేసేందుకు 26
నచ్చలేదు 26
చిపో@@ 26
తెరకెక్కుతుంది 26
ఆజ్ఞ 26
చికా@@ 26
@ 26
u 26
ec@@ 26
కేటాయించింది 26
అంతర@@ 26
అన్వయ@@ 26
చోటుచేసుకు@@ 26
చెప్పుకొచ్చాడు 26
4వ 26
ఇన్వె@@ 26
మృతిచెందగా 26
వెంకయ్య 26
నిర్మించనున్నారు 26
డ్రామా 26
కోలు 26
ఆరా@@ 26
దృష్ట@@ 26
ఆకస్మిక 26
విభా@@ 26
ప్రాంతాల్లోని 26
సోద@@ 26
ఖరీ@@ 26
ఆకర్షణ 26
అప్డే@@ 26
కశ్మీర్కు 26
త్మ 26
ఢిల్లీ@@ 26
టీవీఎస్ 26
ఉత్తరా@@ 26
అహం@@ 26
బరే@@ 26
1.2 26
విహార@@ 26
స్మెంట్ 26
మాట్లాడటం 26
లైన్స్ 26
మీరె@@ 26
శ్రీకాకుళం 26
పెట్టుకున్న 26
సంప@@ 26
అనువాద@@ 26
కామె@@ 26
గోవి@@ 26
క్యంగా 26
ఐరన్ 26
ap@@ 26
ic 26
to 26
ానీ 26
వళ@@ 26
ఎడమ@@ 26
మాస్క్ 26
సేకరించారు 26
వేసుకుని 26
సంప్రదింపులు 26
డిసి@@ 26
రెడ్డికి 26
సర్వ్ 26
వంద 26
విశ్వాసము@@ 26
మార్కెట్ల 26
ఎగుమతులు 26
శాత@@ 26
నిరసన@@ 26
థు@@ 26
కుదిరి@@ 26
జైలులో 26
గ్రఫీ 26
ండ్ల@@ 26
2.5 26
నిందితులకు 26
రోజ్ 26
మిచెల్ 26
క్కిన 26
న్నానని 26
డబ్ల్యూ 26
వదిల@@ 26
స్ధ@@ 26
జెక్@@ 26
సుదీర్ఘ@@ 26
నివసిస్తున్నారు 26
భాషను 26
విజన్ 26
సొంతంగా 26
సస్పెన్షన్ 26
వేరుగా 26
సజీవ@@ 26
తట@@ 26
నదేమన@@ 26
సితార 26
పద్మా@@ 26
ఎంచుకుంది 26
సహకారంతో 26
శైలిలో 26
చరిత్రను 26
ందురు 26
గంగ@@ 26
ించడంపై 26
గుండ@@ 26
తగ్గడం 26
93 26
ధన్ 26
ప్రారంభించాడు 26
నేతలకు 26
సాంఘిక 26
ంట్@@ 26
బాద్@@ 26
ఆశీర్వాద@@ 26
ఫ్రెండ్స్ 26
శాన్ని 26
ధృవీకర@@ 26
ట్రైలర్ను 26
బిగ్@@ 26
హిల్స్ 26
నిర్వహిస్తోంది 26
సంఘాల 26
షుగర్ 26
విభాగాల్లో 26
కూలీలు 26
ఆరోగ్యాన్ని 26
మధుమేహం 26
గర్భిణీ 26
II 26
చేయవలసి 26
ఆకాంక్ష@@ 26
flow 26
మొదలుకొని 26
కృత@@ 25
చేసుకుంటారు 25
మురుగ@@ 25
కెమెరా@@ 25
ఫూ@@ 25
మూత్ర@@ 25
వెళ్లాడు 25
కమల్@@ 25
శూ@@ 25
సూపరింటెండెంట్ 25
అసోం 25
హాజరై 25
వారిద్దరి 25
చేస్తారని 25
ఖర్చుతో 25
మేనే@@ 25
ప్రాథమికంగా 25
విషమ@@ 25
వర్గంః@@ 25
నెన్స్ 25
ఒకరిపై 25
ప్రావి@@ 25
కిలా 25
అసహ్య@@ 25
సమాచారంతో 25
గితే 25
ఫోన్@@ 25
యాప్ను 25
సంబంధమైన 25
సంప్రదించండి 25
గ్ని@@ 25
పీఎఫ్ 25
విభ@@ 25
వేలకు 25
అఖిలేష్ 25
ధిగా 25
మనుష@@ 25
నటించనున్నారు 25
ంటే@@ 25
కసరత్తు 25
ేయ@@ 25
ఆలోచనా 25
ోని 25
గోడ 25
గంటి 25
కూర్@@ 25
బాని@@ 25
చేపట్టి@@ 25
లేదట 25
జవాబు@@ 25
తగా@@ 25
ort@@ 25
బాట@@ 25
టీకా 25
మళ@@ 25
ప్రధానమైన 25
ప్రాజెక్టులను 25
లేఖను 25
క్రమంలోనే 25
సమర్థవంతమైన 25
ఇనిస్టిట్యూట్ 25
సర్వేలో 25
వినడానికి 25
కుటుంబాల 25
డైలా@@ 25
తోపులాట 25
కనెక్షన్ 25
న్యాయా@@ 25
వదిలేసి 25
డంటే 25
రాసు@@ 25
ట్రస్ట్ 25
శాస్త్రి 25
తులుగా 25
భానికి 25
మద్య@@ 25
సొమ్ము 25
ఖనిజాలు 25
అందరిని 25
ప్రయత్నించి@@ 25
దారిలో 25
అనారోగ్య 25
ఆగ్ర@@ 25
వైన 25
సదస్సు@@ 25
కావాలంటే 25
ఉత్తర్ 25
సహనం 25
రాజధా@@ 25
అతలాకుతలం 25
పట్నాయక్ 25
సిల్@@ 25
రేఖ 25
రవీంద్రన్ 25
విజయంతో 25
చూడాల్సిందే 25
సూచించిన 25
వెలికి@@ 25
ఉపయోగించవచ్చు 25
ముంబ@@ 25
అనేవి 25
పెంచడం 25
మద్రాసు 25
ించబోతున్నారు 25
శివకుమార్ 25
కోరు 25
మీనా 25
వార్తా@@ 25
రైడ్ 25
పిటిషన్పై 25
భోజన 25
బడ్జె@@ 25
పిస్తున్నారు 25
ించమని 25
యెహోవాసాక్షుల 25
పక్@@ 25
కట్@@ 25
ాలిక్ 25
అంజలి 25
స్రావం 25
సెక్ర@@ 25
వెంబడ@@ 25
ప్రార్థి@@ 25
సినిమాలను 25
పంచాయతీరాజ్ 25
త్రాగ@@ 25
షారుఖ్ 25
విషయాన్నీ 25
పారికర్ 25
యాతో 25
దట్టమైన 25
ంచు 25
కుట్ర@@ 25
తాకింది 25
సరుకు@@ 25
నివే@@ 25
ప్రదేశాలు 25
ించాలంటే 25
మిశ్రమ 25
ంతరం 25
ముక్కు 25
పార్లమెంట్లో 25
ణిని 25
అసదుద్దీన్ 25
బృందాన్ని 25
ఘాట్ 25
ించలేదని 25
గ్రాములు 25
వెల్లు@@ 25
దృశ@@ 25
ఆయోగ్ 25
క్రూయి@@ 25
టెన్షన్ 25
కలిగివుండ@@ 25
సాంకేతికత 25
విధ్వం@@ 25
ఉపరితలం 25
శివాజీ 25
బది 25
దిశా 25
వీడ@@ 25
హక్కును 25
అంధ@@ 25
స్య 25
నేపథ్యం 25
తడి 25
పారుదల 25
ఇళ్లకు 25
10వ 25
ప్రొటె@@ 25
సెక్షన్ల 25
ట్యాక్స్ 25
సెలవిచ్చు@@ 25
యువతిని 25
తగల@@ 25
ర్మి@@ 25
ఆస్పత్రులకు 25
right 25
శ్రీను 25
హాస్ట@@ 25
పెర్@@ 25
సినిమాలలో 25
మైనప్పుడు 25
గూర్చిన 25
చిత్రంపై 25
లిద్దరూ 25
తీసుకోవాల్సిన 25
ఉర్దూ 25
పెద్దిరెడ్డి 25
13,@@ 25
హార్ట్ 25
త్రుల్లో 25
అంబా@@ 25
ఉయ్యాలవాడ 25
శరీరంలోని 25
మహమూద్ 25
కృష్ణన్ 25
బాగుంటుంది 25
బోధి@@ 25
తలతో 25
సామాన్య@@ 25
ప్రస్తావిస్తూ 25
రాబ@@ 25
ప్కు 25
కాండము 25
us@@ 25
త్యానికి 25
కలిసే 25
తరలించినట్లు 25
డయాబెటిస్ 25
లయ్యారు 25
సంస్కరణ@@ 25
ింపవలెను 25
తూర్పున 25
హరికృష్ణ 25
మండల@@ 25
ండర్@@ 25
పీఎస్ 25
ఇవ్వబడింది 25
మోహర@@ 25
రెస్టారె@@ 25
అన్ 25
మెత్తగా 25
నియా@@ 25
జిషీ@@ 25
వినియో@@ 25
ఎఫ్ఐ@@ 25
ఎక్కడో 25
చూపిన 25
వీరు@@ 25
పనికి@@ 25
శాఖా@@ 25
జన్మని@@ 25
పట్టి 25
పదవిని 25
చెప్పిన@@ 25
చేపల 25
వశాత్తు 25
బీఎస్ఈ 25
వేడుకలకు 25
రావచ్చు 25
నైతే 25
పరికరాల 25
స్తుందిః 25
13:@@ 25
శిక్షణా 25
జీవితా@@ 25
చంద్రబాబుకు 25
రీతో 25
ఆపరేటింగ్ 25
శాఖలో 25
దోస@@ 25
ముఖి 25
అనుకో@@ 25
ఆలస్య@@ 25
సంస్కృత 25
అప్పులు 25
బకాయి@@ 25
దైన 25
అపార్@@ 25
కనిపించారు 25
మవుతున్నాయి 25
దేనికి 25
జియా@@ 25
అవసరాలకు 25
సర్టిఫికేట్ 25
ఇతర@@ 25
థలిక్ 25
చైర్మన్గా 25
ఉపరితల 25
పోతారు 25
ర్చి 25
ఆలయానికి 25
వెలుగుచూసింది 25
పెను@@ 25
ముగి@@ 25
బెనర్@@ 25
వెంకట్ 25
కుటుంబసభ్యులకు 25
పల్లి@@ 25
మీర్ 25
లక్ 25
పరుచు@@ 25
డివిజన్ 25
కల్వకుంట్ల 25
గోళ@@ 25
కప్పు@@ 25
మూవీ@@ 25
మయాంక్ 25
మహబూబ్నగర్ 25
నొక 25
ఐడీ@@ 25
ఘనతను 25
దేవగన్ 25
తూర్పు@@ 25
అరణ్య@@ 25
450 25
ల్చు@@ 25
గాయాల 25
యేసును 25
నీస్ 25
సాంకేతిక@@ 25
రాయ్@@ 25
వినియోగదారు 25
పూర్తయ్యాయి 25
మందిలో 25
భవి@@ 25
పరిపూర్ణ 25
తెలుసుకుని 25
శ్య 25
మరణి@@ 25
పిక్చర్స్ 25
ఇంధ@@ 25
విరుద్ధం 25
ప్ట్ 25
ాలకి 25
ఆతిథ@@ 25
ప్రాణాలతో 25
ేను 25
అవుట్@@ 25
హరీశ్ 25
లాక్@@ 25
వీరిద్దరు 25
అభిప్రాయాలను 25
వాణి 25
సాంప్రదాయ 25
అవయ@@ 25
సెర్చ్ 25
కమిటీలో 25
గురువు 25
డెడ్ 25
చేప@@ 25
పరలోక 25
ఆరోపించింది 25
తోసిపుచ్చింది 25
చుండగా 25
ప్రసార 25
క్రమబద్ధ@@ 25
విచారణ@@ 25
సంకే@@ 25
హయాంలో 25
ఏకకాలంలో 25
పోరులో 25
ముగాను 25
సమ్మె@@ 25
భౌ@@ 25
విస్తారమైన 25
నిధ@@ 25
పాయల్ 25
డెలివరీ 25
దెబ్బతిన్నాయి 25
ప్రతిష్ఠా@@ 25
మైనస్ 25
స్వీకరించిన 25
యూఎస్ 25
వదల@@ 25
ించగల 25
యాలోని 25
ఆరెంజ్ 25
వంతె@@ 25
మహిమ@@ 25
రహస్య 25
దర్యాప్తులో 25
లేకపోయాను 25
కోరాడు 25
డియో 25
ొద్దని 25
భాగస్వామ్య 25
కాపీ@@ 25
శర్మ@@ 25
రాజస్థాన్లో 25
బాలికపై 25
సమస్యకు 25
లింగ@@ 25
మీదట 25
లోనైనా 25
ఎంటర్టై@@ 25
సరస్వ@@ 25
మంత్రుల 25
నాథన్ 25
మూడుసార్లు 25
నాగే@@ 25
నగరాన్ని 25
కార్యక్రమాల్లో 25
బోల్@@ 25
నిశ్@@ 25
నాలతో 25
వివరించింది 25
ఉనికి@@ 25
భార్యకు 25
లాంగ్ 25
జట్టులోకి 25
సిన్ 25
మొహమ్మద్ 25
అనుకున్నారు 25
21వ 25
హిత@@ 25
సలహాలు 25
స్త్రా@@ 25
జనాభా@@ 25
పరిజ్ఞానాన్ని 25
మెట్రో@@ 25
వేరియ@@ 25
అసం@@ 25
తమై 25
చెల్లించే 25
అందిస్తామని 25
ఆరో 25
ప్రాజెక్టుల 25
మున్సిపాలి@@ 25
ఉగ్రవాది 25
ాలజీ 25
స్తుత@@ 25
ఆక్సిజన్ 25
దానిక@@ 25
క్రమ 25
పోటీకి 25
పునా@@ 25
టీటీడీ 25
పంపిన 25
బౌలింగ్@@ 25
దంతా 25
మెక్సికో 25
is 25
వచ్చేది 25
పోతే 25
ఓడిపోయింది 25
పరిచిన 25
లేకపోతున్నారు 25
మార్చుకు@@ 25
నిర్వహించేందుకు 25
తెప్ప@@ 25
అబ్బాస్ 25
2019@@ 25
కొనసాగుతున్నారు 25
వ్యాప@@ 25
లొంగి@@ 25
హీరోయి@@ 25
బోస్ 25
తనకి 25
సమావేశాన్ని 25
సీజన్@@ 25
కుదరదు 25
సాక్ష్యం 25
రాలి@@ 25
డన్ 25
వ్యవస్థలు 25
ప్రత్యర్థి 25
సమాజానికి 25
పిలుపుని@@ 25
పేపర్@@ 25
త్వరి@@ 25
పొందుతుంది 25
హార్మో@@ 25
టామ్ 25
ఇవా@@ 25
కనబడు@@ 25
తః 25
కరెన్సీ@@ 25
ప్రోటీ@@ 25
ంధ్ర@@ 25
మునకును 25
వింత 25
ఇండోనే@@ 24
ఆయుష్మాన్ 24
నటిస్తోన్న 24
మురళి 24
వెర@@ 24
కూటమిగా 24
బేకింగ్ 24
చూపించిన 24
జగన్నా@@ 24
జారు@@ 24
నితీష్ 24
చీకటి@@ 24
తెచ్చుకుంది 24
అందిస్తారు 24
మానసికంగా 24
యుఎస్ 24
గురై@@ 24
మాట్లాడాడు 24
మీదకు 24
పెట్టాలని 24
పెడతారు 24
గీ 24
తరఫు 24
రీసెంట్ 24
కిలోమీ@@ 24
ఆచరణలో 24
లిద్ద@@ 24
క్కడా 24
చేకూ@@ 24
ణు 24
టెంట్ 24
ఘోష్ 24
కోహ్లీకి 24
ప్రాసెస్ 24
పౌరులకు 24
అస్వస్థతకు 24
నెక్సాన్ 24
ంట్ను 24
పరిగణలోకి 24
వేచి@@ 24
స్వాగత@@ 24
ఎద్దేవా 24
తీసుకుంటుంది 24
కడిగే@@ 24
హేమంత్ 24
శాంతిని 24
ప్రవర్తి@@ 24
భావోద్వే@@ 24
ఉపయోగించిన 24
టెక్నికల్ 24
ల్యూ@@ 24
తివారీ 24
ంద్రా 24
ధాన్యం 24
దసరా 24
యూజర్లు 24
చేయలేరు 24
నడిపించ@@ 24
సర్జరీ 24
నాయర్ 24
జన్య@@ 24
నగదును 24
వెల్లడించాడు 24
ఎంతకాలం 24
యాసి@@ 24
అంబులెన్స్ 24
చోరీ 24
లెక్కలు 24
ఆందోళనకారులను 24
సందేశ@@ 24
అల్లా@@ 24
తత్వ@@ 24
ఫ్రెండ్ 24
15:@@ 24
సొసైటీ 24
టచ్@@ 24
పరిస్థితులలో 24
చారిత్రాత్మక 24
తప్పలేదు 24
మగ 24
పరిష్కారానికి 24
విమానాన్ని 24
స్వస్థ@@ 24
ంటారని 24
భాగస్వాములు 24
జియం 24
కెమెరాను 24
మట్ట@@ 24
చందర్ 24
రోవర్ 24
ఓవర్లో 24
రేట్ల 24
రాజ్యము 24
గర్భవ@@ 24
నాలుగవ 24
ఇంజనీ@@ 24
బయటి 24
మినీ 24
ఉరు@@ 24
ప్రకటించడం 24
స్వరాలు 24
జున 24
కొనిన 24
మంతు@@ 24
ఉత్కంఠ@@ 24
తెలివైన 24
b 24
రహదారుల 24
యాద@@ 24
వునా 24
ించుకుంటు@@ 24
జిన్ 24
ఛత్తీస్ 24
మేరీ 24
చేశారా 24
సాగే 24
టాలె@@ 24
భూమికి 24
దేవత 24
మ్యాచు@@ 24
చేప 24
యాని@@ 24
సెక్యూరి@@ 24
అందించేందుకు 24
లేవనె@@ 24
నాయకుడిగా 24
మృతురాలి 24
కలపండి 24
డాలర్ 24
స్థితికి 24
క్రిస్టి@@ 24
భ్య@@ 24
పునరావృ@@ 24
ఆస్పత్రుల్లో 24
సూర్యా@@ 24
ఇంధనం 24
షార@@ 24
యానా 24
ముః 24
నిర్వహించింది 24
సైన్ 24
రీత్యా 24
క్యాం@@ 24
కవిత 24
ఛాయా@@ 24
ఏకగ్రీవంగా 24
ఉద్యమ@@ 24
పల్ల@@ 24
పాటించాలి 24
ప్రధానికి 24
ప్పటికి 24
నమస్@@ 24
మెస్@@ 24
కోరుకుంటున్నారు 24
సభా 24
లనే 24
ఎప్పు@@ 24
త్తాయి 24
చేశా 24
పరుగులతో 24
సిక్కు 24
గడం 24
ష్ఠ 24
షణ 24
2007 24
సామర్ధ్యం 24
డాడు 24
లలి@@ 24
వాటిపై 24
థీ@@ 24
తిమోతి 24
క్లబ్ 24
జాబ్ 24
ఆస్తి@@ 24
కరి 24
కైరా 24
సంకల్ప@@ 24
నామము 24
సిఆర్ 24
ఫేమస్ 24
అక్రమ@@ 24
పుల్ల@@ 24
కోలుకున్నవారి 24
గాఢ@@ 24
కథనాలు 24
లాభాల్లో 24
క్షేత్ర 24
లాగిన్ 24
రిటై@@ 24
గాన్ 24
అలీ@@ 24
తృణ@@ 24
వికెట్కు 24
భార్యాభర్@@ 24
కట్టు 24
సీబీ@@ 24
ఖరీదైన 24
బీజేపీపై 24
గంభీర్ 24
షరతులు 24
గ్రామాల 24
టేషన్ 24
సంస్థల్లో 24
ఉన్నాయ@@ 24
సన్నిధిని 24
బహిరంగ@@ 24
కాలిఫోర్@@ 24
నేపథ్యంలోనే 24
వీల@@ 24
వాడె@@ 24
మయిన 24
రాజా@@ 24
నేను@@ 24
వరల్డ్@@ 24
గేర్ 24
పాటించాలని 24
వచ్చేందుకు 24
ద్రవం 24
ఎంతోమంది 24
ంతవరకు 24
వేలం 24
జరగాలి 24
వృద్ధిని 24
షన్లలో 24
అత్యాధునిక 24
వేధింపులకు 24
మామిడి 24
టూరిజం 24
అడవులు 24
అనుమ@@ 24
పాల్పడింది 24
కట్టి@@ 24
కారులను 24
అసెంబ్లీ@@ 24
్మ@@ 24
నింప@@ 24
జీలో 24
వారిగా 24
సవరణలు 24
బోనీ 24
త్ను 24
నిందితుడిపై 24
గేట్ 24
చల్లగా 24
సాక్షులు 24
కంటి 24
మైనర్ 24
స్రవంతి 24
అరుదుగా 24
పట్నం 24
ధరలకు 24
రాక్ష@@ 24
తొలగించడానికి 24
వర్క్స్ 24
పాది@@ 24
తీరంలో 24
రెబల్ 24
లేట్ 24
హం@@ 24
ట్రీ@@ 24
అమృ@@ 24
అందజేయ@@ 24
గోదా@@ 24
iv@@ 24
నెంట్ 24
కనిపించదు 24
రలేదు 24
వైంది 24
ఏవీ 24
కోణాల్లో 24
1,000 24
నిర్మించబడింది 24
ఫీచర్లను 24
యుగ@@ 24
రూపొందుతోంది 24
హక్కులను 24
అయి 24
బడతాయి 24
ఉన్నామని 24
సన్నగా 24
తరిగిన 24
ఎన్కౌంటర్ 24
నరసింహారెడ్డి 24
వీరితో 24
లయ్యాయి 24
సంతతికి 24
గ్రాడ్యు@@ 24
అంతట 24
మాల్దీ@@ 24
మెరుగ్గా 24
వల్లనే 24
నిర్దేశం 24
పరిధి 24
బటన్ 24
జాల 24
నేతల@@ 24
అవకాశాలున్నాయి 24
అల్లుడు 24
అలంకర@@ 24
ప్రాజెక్టును 24
రాజధానిలో 24
తొమ్మి@@ 24
ig@@ 24
స్తున్నామన్నారు 24
గొట్టి 24
చందా 24
లీక్ 24
కల్పించింది 24
వాంగ్ 24
వాణిజ్య@@ 24
పక్కా 24
f 24
ఆటలు 24
ఉధృ@@ 24
శివరాజ్ 24
సీట్లకు 24
చెడ్డ@@ 24
పండుగ@@ 24
ించాలంటూ 24
నంది 24
ఫాలోయింగ్ 24
వచ్చినట్లు 24
తెలంగా@@ 24
ణాలో 24
రైతుకు 24
మోస్ట్ 24
ంగాను 24
విరాళంగా 24
కరో@@ 24
కారకాలు 24
చెప్పారని 24
మట్టి 24
విరమ@@ 24
కెమికల్ 24
పెట్రో@@ 24
వాక్యం 24
శతాబ్దపు 24
ప్రభావి@@ 24
శివన్ 24
ఫ్యాక్టరీ 24
మంతటా 24
గందరగోళ@@ 24
ప్రాణాంత@@ 24
ఫరూ@@ 24
గావ్ 24
ప్రైమ్ 24
చెడు@@ 24
సమాజ్వాదీ 24
ేసింది 24
షన@@ 24
ఒప్పందంపై 24
య్యాను 24
వేధింపుల 24
ధోరణి 24
ాలున్న@@ 24
సిబ్బంది@@ 24
లేజ్ 24
ట్రాన్సి@@ 24
నియోజకవర్గ 24
చెదరగొట్టారు 24
మెడ 24
టక@@ 24
గ్రాస్ 24
సన్@@ 24
ాలలోని 24
మార్గాల 24
అన్నింటినీ 24
సారం 24
నిఖిల్ 24
అవత@@ 24
ఈక్వి@@ 24
గ్లో@@ 24
బిహారీ 24
ించవలసి 24
అంబులె@@ 24
పరదై@@ 24
పచ్చి@@ 24
సాధ్యమైనంత 24
జార్ 24
పెట్టుకొని 24
ధర్మశాస్త్ర@@ 24
క్షేత్రం 24
పోషకా@@ 24
The 24
తరలిస్తుండగా 24
తలుః 24
గాం 24
చంపి@@ 24
లోకేష్ 24
గ్యాంగ్ 24
మనస్సులో 24
స్వీకరించారు 24
నివసించే 24
నెస్ 24
ఇన్స్పెక్టర్ 24
బడలేదు 24
ఎక్కువమంది 24
కల్పిస్తుంది 24
మెజార్టీ 24
కొనిరి 24
సమృ@@ 24
రాశాడు 24
ion 24
బాధ్యతను 24
స్థాయిని 24
ind@@ 24
బట్టే 24
విశేష@@ 24
అణచి@@ 24
లాదిమంది 24
వార్డు 24
దనం 24
రిక 24
వేసే@@ 24
సందేశాన్ని 24
ఐసిసి 24
జ్యు@@ 24
అనిపిస్తోంది 24
పట్టిక 24
బ్రిటీష్ 24
టోర్నీ 24
లేనిది 24
కదలి@@ 24
Read 24
క్ల 24
ప్రవేశపెట్టిన 24
నేమో 24
బ్యాటింగ్కు 24
డెన్@@ 24
నుండగా 24
OS 24
అక్కడున్న 24
క్ః 24
విప్లవం 24
ట్టును 24
కార్యకర్తలకు 24
ముగిసే 24
ప్రమాదాన్ని 24
సహాయపడ@@ 24
స్వాగతి@@ 24
అన్వేషణ 24
ఇట్ల@@ 24
వెస్టిం@@ 24
మైనదిగా 24
భారత్లోని 24
అంతకు@@ 24
వర్థ@@ 24
విషయాలపై 24
రచయితగా 24
తీసుకుంటున్నారు 24
14,@@ 24
ాలున్నాయని 24
మారే 24
ట్రోఫీ@@ 24
చార్జి 24
నబీ 24
సీమా@@ 24
ుడైన 24
అవసరాల 24
వైవిధ@@ 24
సినిమాగా 24
వికాస్ 24
కామ@@ 24
విస్తరించి 24
రాత్రంతా 24
షను 24
దుమార@@ 24
స్స@@ 23
త్రులలో 23
ఆర్కి@@ 23
సమకూర్చు@@ 23
సమగ్ర@@ 23
పౌడర్ 23
స్ర్@@ 23
విగ్రహాన్ని 23
అమరీందర్ 23
దైన@@ 23
ముందంజలో 23
గారికి 23
అగ@@ 23
అధ్యాప@@ 23
ఇండస్ట్రియల్ 23
టీకి 23
పూణ@@ 23
అమెరికా@@ 23
పుస్తకాన్ని 23
వెబ్సైట్లో 23
జ్ఞానము 23
శ్రీనివాస 23
కొచ్చిన 23
పరీక్షలను 23
ద్యం 23
వ్యతిరే@@ 23
సాగుతుంది 23
శిక్షలు 23
ఫిన్ 23
స్ఫూర్@@ 23
స్తుందన్నారు 23
కనబరి@@ 23
వైఫల@@ 23
కొనుగోలు@@ 23
డ్రె@@ 23
హాయిగా 23
కెళ్@@ 23
ఇన్సు@@ 23
ఏమో 23
చప్ప@@ 23
రావాల్సిన 23
ఫైనల్కు 23
చైనీస్ 23
ప్రదేశ్@@ 23
విధాలా 23
గొఱ్ఱె@@ 23
చెవి@@ 23
చేరడం 23
వేరొక 23
తల్లికి 23
కామెంట్లు 23
సూత్రం 23
తెచ్చి 23
ప్రాక్@@ 23
పుష్ప 23
ఆశిస్తున్నాను 23
చేస్తూనే 23
వాళ్లే 23
కంటె@@ 23
క్షతగా@@ 23
గురించే 23
వేస్ 23
రాలిని 23
ang@@ 23
గోత్ర@@ 23
250@@ 23
షాకింగ్ 23
నష్టాలను 23
కముందే 23
వెంటా@@ 23
ధాన్య@@ 23
డ్డి@@ 23
ఎలక్ష@@ 23
119 23
దివ్యాం@@ 23
టీజర్@@ 23
టారు 23
Firefox 23
గాయపడ్డాడు 23
నరసింహ@@ 23
స్పష్టం@@ 23
టియాగో 23
సృజనా@@ 23
ాయత్నం 23
దీపిక 23
షల్ 23
బోతున్నాడు 23
6వ 23
370ని 23
శ్యామ్ 23
టోర్న@@ 23
వారా@@ 23
నిరీక్షణ 23
స్టేషన్లలో 23
చరణ్@@ 23
మెగ్నీషియం 23
ఫిర్యా@@ 23
విజయసాయి 23
బన్ 23
వయస్సులో 23
చెలరేగింది 23
సిపిఐ 23
ఇంటె@@ 23
వెంబడి 23
పాత్రకు 23
దౌత్య 23
వేగవంతమైన 23
ప్రాజెక్@@ 23
క్రేజీ 23
పంపిణీ@@ 23
ఉద్భవ@@ 23
ఏర్పడి@@ 23
పొద్దు@@ 23
పాల్పడ్డాడు 23
చేరేందుకు 23
లకును 23
గించి 23
మునిసిపల్ 23
భాలు 23
అల్పా@@ 23
దినములు 23
150@@ 23
క్రియేటివ్ 23
యాపై 23
పరిస్థితికి 23
తీసుకుంటాం 23
అనుమతిస్తుంది 23
షూట్ 23
పెంచే 23
కమిటీకి 23
ముకు 23
కాలం@@ 23
ించిందన్నారు 23
గురవుతున్నారు 23
ఏల@@ 23
పల్@@ 23
పరీక్షలకు 23
డోనాల్డ్ 23
కొనసాగిస్తున్నారు 23
ఆహారాలు 23
స్వర్ణం 23
ఒయు 23
సమకూ@@ 23
పడుతున్న@@ 23
అవార్డులను 23
సింగి@@ 23
తీర్పుపై 23
సమకాలీ@@ 23
పేతురాజ్ 23
అనేక@@ 23
విశాఖ@@ 23
శివుడు 23
సమయ 23
1999 23
వెళ్లాలని 23
బిల్లులు 23
లేనా 23
ఎయిమ్స్ 23
భారతం 23
విస్తీర్ణం 23
సభ్యుడిగా 23
పొరపా@@ 23
ఏమని 23
కాంగ@@ 23
సీఈఓ 23
అశ్వి@@ 23
యాక్సి@@ 23
కాబోతోంది 23
దుకు 23
రుసు@@ 23
మేర@@ 23
కొంది 23
సువార్త 23
చర్చలకు 23
చేయవద్దు 23
మొదలుపెట్టింది 23
కాంచ@@ 23
చేయబడి@@ 23
ింపునకు 23
ప్రయాణీకులు 23
సంబంధాల 23
అనా@@ 23
చారి 23
ండిరి 23
పార్లమెంటు@@ 23
దవాఖా@@ 23
డీవీవీ 23
ఆలక@@ 23
మరొ@@ 23
కనబ@@ 23
సుకు 23
మూల 23
104 23
అక్రమంగా 23
అద్వా@@ 23
న్నింటికీ 23
కనే 23
ఐఐటి 23
ఇండెక్స్ 23
ంగల 23
వారం@@ 23
క్షీణించింది 23
దంప@@ 23
ఉన్నవారికి 23
టివ్@@ 23
విస్తార@@ 23
యోగ 23
నపుడు 23
చావ@@ 23
సపోర్@@ 23
ఆక@@ 23
భీమ్ 23
మైనప్పటికీ 23
ప్రభావిత 23
హెచ్చరించింది 23
వడు 23
దిగ్విజయ్ 23
క్రింద@@ 23
దాన్నే 23
చదివిన 23
విః 23
జాలం 23
యేతర 23
బాంబే 23
మళ్ళ@@ 23
బాధ్యతలను 23
గలు 23
తీసుకున్నట్లు 23
మహమ్మారి@@ 23
నె్@@ 23
డిస్ప్లే 23
స్క్రి@@ 23
5వ 23
సౌకర్యవంతమైన 23
ఉపయోగించండి 23
సమకూర్చారు 23
లాన్ని 23
కేషన్స్ 23
వీరంద@@ 23
రాలకు 23
తీసుకుంటే 23
నాగ 23
బది@@ 23
గలదని 23
లిక్@@ 23
గుడార@@ 23
పీజీ 23
చేయను 23
వస్తువు@@ 23
టీని 23
హైడ్రో@@ 23
సమస్యలతో 23
బాధపడుతున్న 23
కష్టమే 23
మధు 23
ఖండించింది 23
కుంటాను 23
పోల్స్ 23
రెక్క@@ 23
బాధితుడు 23
చట్టంలో 23
ఇట@@ 23
వెసులుబాటు 23
ఇంటిగ్రేటెడ్ 23
మొన్న@@ 23
బాలు 23
5000 23
కేల@@ 23
మిగతా@@ 23
క్షేమ@@ 23
స్ట్రో@@ 23
ప్రియ 23
సామాన్యు@@ 23
కర్నూల్ 23
గాలు@@ 23
సిబ్బందిని 23
దుర్ఘటనలో 23
విపత్తు 23
భూమిక 23
రీకి 23
రూపుదిద్దు@@ 23
స్థూల 23
ఐడి@@ 23
18,@@ 23
స్కూల్లో 23
పరిపూర్ణ@@ 23
మాళ@@ 23
చెందాల్సిన 23
కళాశాలలు 23
ఇదిలా@@ 23
క్లినికల్ 23
శ్రీనగర్ 23
రాజమండ్ర@@ 23
ఎంలు 23
రాన్ 23
డబ్ల్యు@@ 23
క్రీడాకారిణి 23
ఆలౌ@@ 23
అధిపతి 23
ఐదుగు@@ 23
నక్@@ 23
సామర్థ@@ 23
వ్యక్తిత్వం 23
స్పోర్@@ 23
కనికర@@ 23
గౌరవాన్ని 23
పురపాలక 23
సాహెబ్ 23
వౌ@@ 23
సంక్షో@@ 23
వాదులు 23
హాస్పిటల్కు 23
ప్రిన్సిపల్ 23
కోడె@@ 23
విజయన్ 23
నేనా 23
ింగ్కు 23
క్టు 23
ట్రీ 23
యకు 23
తిన 23
కర్కు 23
వెల్లడైంది 23
ధరి@@ 23
ఖాళీగా 23
చిరునామా 23
వ్యూహ@@ 23
బ్యాట్స్మన్ 23
ఉండడంతో 23
ac@@ 23
ింపబడిన 23
ఒలింపిక్స్లో 23
ధర్మేంద్ర 23
పింఛ@@ 23
దోషం 23
చర్యను 23
ఆల్టో 23
జోడిగా 23
శ్రు@@ 23
అవమా@@ 23
వాదాలు 23
డీసీపీ 23
ఉత్సాహ@@ 23
ధా 23
వైభ@@ 23
అయినను 23
యూపీలో 23
స్టిక్ 23
సందర్శించారు 23
ప్రారంభమయ్యాయి 23
అబ్దుల్ 23
ట్రాన్స్ 23
వ్యూస్ 23
వచ్చునని 23
సామాన్య 23
నించారు 23
ల్లులు 23
భయాన@@ 23
సుముఖ@@ 23
తిరుగులేని 23
ఐక్యరాజ్యసమితి 23
చూపించే 23
గిన్నెలో 23
రెండవది 23
పరచు 23
ఆదిలాబాద్ 23
నిర్బంధ@@ 23
య్యే@@ 23
నెలలుగా 23
ఉన్నదని 23
పెయింట్ 23
కదులు@@ 23
మౌతుంది 23
కిటికీ@@ 23
టెన్@@ 23
కేంద్రాల్లో 23
జిల్లాలలో 23
జాదవ్ 23
ఇన్స్టాల్ 23
రీజి@@ 23
ఉంటారని 23
సింధియా 23
నక్షత్ర@@ 23
చిత్రాలకు 23
పల్సర్ 23
మైదా@@ 23
ప్రదానం 23
రవా@@ 23
స్టర్@@ 23
మ్రో@@ 23
నున్నారని 23
నక్క@@ 23
లేదుః 23
en 23
శివు@@ 23
నమ్మకమైన 23
ఆరంభం 23
బ్బు 23
దుః 23
చర్మానికి 23
ట్రైలర్@@ 23
కుమారుని 23
కార్యక్రమాల 23
1,8@@ 23
సౌండ్ 23
చెందుతున్నారు 23
సభ్యత్వం 23
పాత్రలలో 23
ఆలయాన్ని 23
ట్రక్కు 23
సిక్ 23
దేని@@ 23
ఇరువర్గాల 23
నచ్చు@@ 23
ప్రీమి@@ 23
ట్రిపుల్ 23
ఇద్దరికి 23
భిన్నమైన 23
ఉంచిన 23
మిమీ 23
పోటీలు 23
ఐసో@@ 23
సబ్సిడీ 23
పోగా 23
విపణిలో 23
ఉన్నందున 23
వివక్ష 23
లేరని 23
ఉల్లం@@ 23
కోర్సులు 23
గులను 23
పర్యవసా@@ 23
జైన్ 23
పరిషత్ 23
చేయాలన్నారు 23
వీధి 23
దేని 23
ఒవైసీ 23
ఆర్ఎస్@@ 23
ప్రత్యామ్నాయ@@ 23
రిషి 23
కళా 23
ఎదుర్కొనేందుకు 23
యూపీఏ 23
ఉడికించాలి 23
పరిధిలోకి 23
కనుమ@@ 23
ట్రిక్ 23
నిధులతో 23
లేకుండానే 23
తోసిపు@@ 23
మోతా@@ 23
విరోధ@@ 23
ప్రోత్సహించడం 23
నివేదికలో 23
పక్షి 23
పదే@@ 23
శుభార@@ 23
దక్కించుకున్న 23
త్యాగం 23
ాలకూ 23
పరిచే 23
యంను 23
2024 23
మిత్ర 23
ఆస్తుల 23
యూత్ 23
పీపుల్స్ 23
ఠాక్రే 23
ఉల్లి 23
ఎదుర్కొన్న 23
సేవలకు 23
రియాలిటీ 23
ఎదుర్కొంటు@@ 23
ప్రకారము 23
రాహుల్గాంధీ 23
గావ@@ 23
బ్యాట@@ 23
కోల్పోయి 23
వెనకవైపు 23
ఇస్తూ 23
తీసుకొచ్చిన 23
యువకుడి 23
ద్యో@@ 23
వర్గ 23
రెండింటి@@ 23
హృదయ 23
బాలీవు@@ 23
గ్రాడ్యుయేట్ 23
ఆప్షన్ 23
mp@@ 23
అణు 23
ఇంగ్లిష్ 23
బూడి@@ 23
అంతరిక్ష@@ 23
సీరియ@@ 23
క్రియాశీల@@ 23
చిత్రాలలో 23
చైర్పర్సన్ 23
కుంటామని 23
కావలసి@@ 23
పదార్@@ 23
తీస్తున్నారు 23
స్తులను 23
ల్లింగ్ 23
పరిస@@ 23
మెసేజ్ 23
సామె@@ 23
కలవర@@ 23
విడతలో 23
సిపి 23
ప్రశ్నిస్తున్నారు 23
స్ట్రే@@ 23
నాలుగు@@ 23
వాష్ 23
పిలువబడే 23
దోహదం 23
ఇన్వెస్ట@@ 23
పరుగులకు 23
బావుంది 23
ప్రోటీన్ 23
ప్లేయ@@ 23
9లో 22
నదే 22
తేల్చింది 22
కంటై@@ 22
నాగ్@@ 22
జీవితానికి 22
కల్పించిన 22
మనుషుల 22
సుశీల్ 22
సాధించగా 22
ఆత్@@ 22
వరదల 22
వర్షాలకు 22
కాల్చి 22
కాల్చి@@ 22
తీసుకునేందుకు 22
డయ్యాయి 22
సహోదరులు 22
ఒడ్డున 22
చేశాడని 22
హద్దు@@ 22
ఆరు@@ 22
సరఫరా@@ 22
స్సులు 22
అడ్మిని@@ 22
పరీక్షకు 22
ఘడ్ 22
అనుగ్రహ@@ 22
రోడ్ల 22
చూశా@@ 22
సేవ్ 22
నిధు@@ 22
ప్రొడ@@ 22
స్తి 22
ులే 22
లాయర్ 22
అభిషిక్@@ 22
చిట్@@ 22
నిమ@@ 22
ఇశ్రాయేలు@@ 22
ot@@ 22
రోహి@@ 22
గర్భి@@ 22
కోడలు 22
నిరసనగా 22
లేడీ 22
ఖరీదు 22
వాషింగ్టన్ః 22
ప్రశంసల 22
అద్భుత@@ 22
థాకరే 22
మైక్రో 22
నగ 22
వెల్లడించాయి 22
ఎన్ఎల్ 22
ప్రకటనను 22
షారుక్ 22
Sh@@ 22
పదే 22
చర్చనీయాంశ@@ 22
స్థావర@@ 22
కనుగొన్నారు 22
వాలేదు 22
వర్సెస్ 22
నన్నె@@ 22
గారూ 22
సమై@@ 22
ఎస్ఐ@@ 22
క్రికెట్కు 22
మృదు@@ 22
స్తీ 22
నీని 22
గ్రూపు 22
స్తుంటాడు 22
నాధ్ 22
కీలకపాత్ర 22
చేరాడు 22
con@@ 22
qu@@ 22
తెరకెక్కనున్న 22
మత్తులో 22
mm@@ 22
సుల్తాన్ 22
నాకెంతో 22
పురికొల్@@ 22
కళాశాలలో 22
బంగ్లా 22
మ్యాచ్ను 22
అభ్యస@@ 22
కస్టమర్లకు 22
సింగర్ 22
శాఖను 22
క్వాలిటీ 22
ఎప్పుడ@@ 22
దూర్ 22
కడుపు 22
ఉగ్రవాదం 22
వెట@@ 22
తుఫా@@ 22
చూశాడు 22
డ్రైవ్@@ 22
ఆటంకం 22
కత్తి@@ 22
మొటి@@ 22
నివారణకు 22
సుప్రీంకోర్టును 22
ప్రయాణంలో 22
డైరక్టర్ 22
31@@ 22
ముఖానికి 22
కనిపించనున్నాడు 22
సంగా 22
కాస్ట్ 22
కన్సల్@@ 22
చీల్@@ 22
ఉగ్రవాదు@@ 22
తులలో 22
చెప్పలేను 22
బౌద్ధ 22
ోత్స@@ 22
సురక్షితం 22
అభ్యంతర@@ 22
స్ఫూర్తిగా 22
ింపుల 22
స్కోరు@@ 22
క్రియేట్ 22
ర్యాంకింగ్స్లో 22
ఇండెక్@@ 22
చూద్దా@@ 22
ధారా@@ 22
ప్రయాణానికి 22
డబ్బింగ్ 22
గురై 22
వేస్తూ 22
పేరె@@ 22
జైలు@@ 22
కల్చర్ 22
రైలులో 22
మానవజాతి 22
ప్రదేశాలలో 22
పథకంలో 22
లేకపోలేదు 22
హెర్@@ 22
సంతాపాన్ని 22
అధ్యయన 22
సృష్టి 22
ఉగ్రవాదులను 22
కృత్రి@@ 22
రసాయనాలు 22
వ్యాయామాలు 22
శన్ 22
విమానాశ్రయంలో 22
ఉగ్రవాదుల 22
నన్న@@ 22
యాక్టర్ 22
శార@@ 22
లభించిన 22
వేధి@@ 22
శ్యా@@ 22
మఠ@@ 22
నదు@@ 22
అరటి 22
ఫార్మా 22
వైసీపీ@@ 22
హైదరాబాదులోని 22
రౌత్ 22
వుతుందని 22
చున్నా@@ 22
విద్యాల@@ 22
పాల్గొననున్నారు 22
బోయపాటి 22
ించుకుంటున్నారు 22
గాల్@@ 22
మహేష్@@ 22
తుపాకీ 22
నివసి@@ 22
తన్న@@ 22
స్టులో 22
ముగ్గురూ 22
ఖలీ@@ 22
దానికీ 22
సీక్రెట్ 22
లేమని 22
దారుగా 22
సునామీ 22
వికీపీడియా 22
ఫౌండేషన్ 22
ఉత్తరాన 22
వంతులు 22
లీలా 22
డీఆర్@@ 22
సామగ్రి 22
రైంది 22
నదీ 22
నిచ్చింది 22
ఉత్తమం 22
నాయుడు@@ 22
అహరో@@ 22
ప్రవేశించి 22
లాగున 22
కాలిక 22
కోమ@@ 22
జడ్జి 22
ఘ 22
కొచ్చ@@ 22
తొలగి@@ 22
డ్యాన్స్ 22
మాని 22
అవసరంః 22
ప్రసంగి 22
వేతన@@ 22
కూరి 22
కుంటా@@ 22
మావోయి@@ 22
విలియమ్సన్ 22
సంఘటనలో 22
ులంద@@ 22
అక్కడితో 22
పబ్లి@@ 22
జంక్షన్ 22
తీర్మాన@@ 22
ించాయని 22
పూర్ణ@@ 22
ప్రయి@@ 22
మాల్ 22
జరుగుతున్నది 22
చక్రం 22
ందో@@ 22
షేర్ల 22
ములోనుండి 22
డిప్లొమా 22
మండలిలో 22
ధికారులు 22
సిద్దం 22
నాకి@@ 22
వివరాలకు 22
పరాజ@@ 22
చైర్ 22
డిగ్రీలు 22
వాకు 22
క్ని 22
ముందడుగు 22
అసలైన 22
చివ@@ 22
మధ్యాహ్@@ 22
ింటి 22
పాలుపంచు@@ 22
మెరుగు 22
అమర్చారు 22
పునాది 22
నిరీక్ష@@ 22
పర్యవేక్షణలో 22
సజీవ 22
తీసుకోవచ్చు 22
కష్టమైన 22
97 22
పలుచోట్ల 22
పీటర్ 22
కోవద్దు 22
రేపు@@ 22
డ్యు@@ 22
రిపీట్ 22
నీలు 22
నాలుగే@@ 22
సుకుని 22
శాంపి@@ 22
దూరమ@@ 22
తారాగ@@ 22
కర్మా@@ 22
వరిలో 22
ఎన్ఐ@@ 22
ఫెడరల్ 22
విత్తనాలు 22
కులలో 22
తక్కువ@@ 22
కేసుపై 22
చికెన్ 22
సలా@@ 22
తేడాలు 22
లక్షలుగా 22
విశ్వసనీయత 22
మణిశర్మ 22
మొబై@@ 22
మీర్@@ 22
విధుల 22
కేంద్రాలను 22
స్టాండర్డ్ 22
సహో@@ 22
ఎంచుకున్నాడు 22
వెళ్లే@@ 22
వేడిగా 22
దుకాణ@@ 22
నైరుతి 22
శిష్యులు 22
వ్యక్తులకు 22
రాజును 22
నడిచే 22
పక్షంలో 22
మూడే@@ 22
నిలిపివేయ@@ 22
ఆధారం 22
వంతం 22
వ్యవహారంలో 22
తిక్ 22
ఖైదు 22
చేకూర్చ@@ 22
ఆరోగ్యంపై 22
చెప్పుకొచ్చింది 22
ాలోకి 22
అన్నదా@@ 22
9వ 22
వన్నీ 22
ఇంటెలిజెన్స్ 22
ఉడికించిన 22
పులు@@ 22
అవినీతి@@ 22
జయ్@@ 22
అందిస్తాయి 22
కార్ట్ 22
పొలిటికల్ 22
తెలుసుకోవడం 22
మార్చడానికి 22
క్రిస్మస్ 22
పీటీ@@ 22
ఆత్మవిశ్వాసం 22
అధికారి@@ 22
సిరియా 22
క్వీన్ 22
తనదైన 22
సిలిండర్ల 22
ర్పై 22
ఫుట్ 22
ఏంటంటే 22
సమ్మేళ@@ 22
సుజీత్ 22
కాగితం 22
పెంపు@@ 22
రేణు@@ 22
చాను 22
న్మెంట్ 22
చంద్రు@@ 22
గామి 22
ఆంగ్లం 22
ఏజెన్సీ 22
పారదర్శక@@ 22
గొలు@@ 22
ీయులు 22
ప్రేమతో 22
మట్టం 22
డంబ@@ 22
బాహు@@ 22
తాగాలి 22
బిర్@@ 22
ప్రదీప్ 22
వాట్సప్ 22
పాడి 22
ఏలీ@@ 22
తగు 22
సీఏ@@ 22
ఛాలె@@ 22
జీవి 22
డియం 22
2వ 22
హిమ@@ 22
మధ్యకాలంలో 22
గాంధీతో 22
ఇద్దరం 22
నేపథ్య@@ 22
జరగాల్సిన 22
నలలో 22
శాస్త్రవేత్త 22
తక్కు@@ 22
నిస్సాన్ 22
ముప్పు@@ 22
కొందురు 22
జరిపించాలని 22
ంతులు 22
తల్లిని 22
జీబి 22
21@@ 22
రిజర్వేషన్ 22
అవకా@@ 22
నాగేశ్వరరావు 22
దన్ 22
వాద్రా 22
ఎఫ్సి 22
అందిస్తున్నాయి 22
ద్రవ్యోల్బణం 22
అనేదే 22
గోధు@@ 22
వార్డు@@ 22
న్షియల్ 22
తుంటే 22
కిర@@ 22
మీరా 22
జయ 22
ఫీల@@ 22
సమాజ 22
జగన్@@ 22
ఖా 22
వ్యాక్సి@@ 22
చనిపోయినట్లు 22
ించుకున్నాయి 22
చాలె@@ 22
అసోసి@@ 22
విచ@@ 22
నట్లయితే 22
హాజరవుతారు 22
వంగ@@ 22
జారీచేసింది 22
నమై 22
సర్క్యూట్ 22
బెల్ 22
ాలకే 22
విడుదలై 22
పద్@@ 22
జన్మదిన 22
అంగీ@@ 22
నను@@ 22
రోజుకి 22
తప్పి 22
ణిలో 22
యెహోవాసాక్ష@@ 22
చేయబోతున్నారు 22
నుంచో 22
వస్తోన్న 22
క్యాన్సర్@@ 22
రిక్టర్ 22
పెంచాలని 22
డ్రి@@ 22
సీఎల్ 22
వాసు@@ 22
వుతారు 22
జానపద 22
కౌంటింగ్ 22
దత్త@@ 22
కార్ప్ 22
భాషల్లోనూ 22
కురిసింది 22
మృతదేహ@@ 22
ముగుస్తుంది 22
ఆసక్తిని 22
బహిర్@@ 22
వ్ఞ@@ 22
సంక్షేమానికి 22
ఇటాలియన్ 22
సెటప్ 22
పునరుద్@@ 22
విస్తీర్@@ 22
నొక్కండి 22
ప్రదర్శించారు 22
జంతువుల 22
శిక్షను 22
వీరేంద్ర 22
Also 22
డెమొ@@ 22
పాలకులు 22
క్రికెటర్లు 22
ద్వితీయ 22
పాలెం 22
మోహరించారు 22
ఇవ్వడంతో 22
భారత్ను 22
ఇంగ్ల@@ 22
కృష్ణమూర్తి 22
నవాడు 22
కథానాయికలుగా 22
దిగువ@@ 22
20,@@ 22
ంబో@@ 22
రిజర్@@ 22
ద్వ@@ 22
మల్ల@@ 22
కాన్సెప్ట్ 22
చాలాసార్లు 22
కురుస్తున్నాయి 22
ఆధిప@@ 22
శివాల@@ 22
హోటల్లో 22
ws 22
నిదర్శనం 22
సహోదరుడు 22
రణను 22
అమరావ@@ 22
మైనట్లు 22
సముద్రా@@ 22
పాఠశాలకు 22
పారామి@@ 22
వరుసలో 22
పరివర్తన 22
విపత్తు@@ 22
ద్రవ్యా@@ 22
షాలి@@ 22
సునీ@@ 22
కస్టమర్లు 22
నేవారు 22
పోస్టుమార్@@ 22
వెంకటేశ్వర్లు 22
చలన@@ 22
దినేశ్ 22
లావాదేవీలు 22
లీటరు 22
ప్రయాణించే 22
రంగా@@ 22
పార్టీతో 22
రాథో@@ 22
పడకుండా 22
చెల్లింపులు 22
ంట్ల 22
అమలులోకి 22
ప్రమేయం 22
సూయ 22
విచారించారు 22
పూణే 22
తంత్ర@@ 22
యుపి@@ 22
° 22
వెళుతుంది 22
పాట్నా 22
గెలాక్సీ 22
భీమా 22
ఎస్ఎఫ్ 22
తీవ్రగాయాలయ్యాయి 22
2003 22
దురదృష్టవశాత్తు 22
నాకె@@ 22
కియారా 22
ధ్వని 22
డుగు@@ 21
రోగు@@ 21
భవన@@ 21
ఒంటరి@@ 21
చ్యూ@@ 21
బ్లడ్ 21
భౌగోళిక 21
ించబడలేదు 21
యడం 21
విధుల్లో 21
నేమి 21
చర్చల 21
అలరి@@ 21
పుగా 21
ay@@ 21
le@@ 21
బ్బర్ 21
రోమీయులు 21
పత్రాన్ని 21
జేడీయూ 21
పడాల్సిన 21
విత్ 21
మనేది 21
లమీద 21
లోతు 21
నికో@@ 21
మల్హోత్రా 21
నిలబెట్ట@@ 21
దానియేలు 21
పరీక్షను 21
కుది@@ 21
అంగీకరించాడు 21
విశి@@ 21
త్రిష 21
సంతోషి@@ 21
వుండగా 21
ద్యా@@ 21
అసలే 21
నిర్గమకాండము 21
స్టుల 21
స్టా 21
క్షలు 21
పట్టికలో 21
పోల్చితే 21
ంచిన 21
హైడ్రే@@ 21
కుటుం@@ 21
ఆత్మా@@ 21
ఏమీ@@ 21
విధాన 21
జాప్యం 21
కంటెంట్ 21
టేజ్ 21
16వ 21
ఐరో@@ 21
నష్టాల్లో 21
ఇన్ని 21
వైదొ@@ 21
ఆఫ్ఘ@@ 21
చెప్తున్నారు 21
దేశమును 21
స్వాస్థ్య@@ 21
చల్లటి 21
మాధ్యమిక 21
ఎన్నటికీ 21
ఆకట్టుకో@@ 21
చర్స్ 21
తురు 21
ఏసీబీ 21
ముంబై@@ 21
పెరుగుదలకు 21
స్తారో 21
ముఠా 21
కేజీల 21
ప్లాంట్ 21
బృందాలను 21
పరే@@ 21
ఫిట్నెస్ 21
వెడల్పు 21
అయినట్లు 21
వ్యాగన్ 21
రిచర్@@ 21
మనలను 21
లారీ@@ 21
ఇన్నో@@ 21
యోగాలు 21
గృహాలు 21
షాను 21
జీవం 21
ఆకృ@@ 21
పరిశీలిస్తే 21
ప్రాజెక్టులో 21
సంవత్సరాలలో 21
అనై@@ 21
ట్టారు 21
అఫిడవి@@ 21
సమతుల్య@@ 21
కేంద్రాన్ని 21
ఎన్ఐఏ 21
వాటిల్లింది 21
బుద్ధి 21
వీర 21
కంపో@@ 21
కాకపోతే 21
ద్వంద@@ 21
సిపిఎం 21
ారంటే 21
సాయంతో 21
రూమ్ 21
క్రు@@ 21
అంగీకరించింది 21
పద్ధతిని 21
విజయ్@@ 21
బయటపడ్డారు 21
అస్సా@@ 21
రోజులో 21
జిన్@@ 21
ప్రతిపాదనలు 21
గవర్నర్లు 21
పప్పు@@ 21
ఖడ్గ@@ 21
సంతరించుకుంది 21
వీరిపై 21
చూస్తున్న 21
దాల్చ@@ 21
హార్డ్ 21
చెప్పాడుః 21
కోడి 21
ఫ్లాట్ 21
భర్తీకి 21
మద్దతుతో 21
అప్పుల 21
తేలికగా 21
ఆగ్నే@@ 21
మచ్చ@@ 21
అయ్యాక 21
చలన 21
వరాలు 21
అసాధారణమైన 21
వాడై 21
సాత్@@ 21
అనువైన 21
నదికి 21
మనీష్ 21
రూపొందింది 21
దత్తాత్ర@@ 21
పంపింది 21
పరువు 21
రాజ్యాంగంలోని 21
మరలా 21
పరిశీలిద్దాం 21
వీడి@@ 21
శ్రద్ద 21
ప్లె@@ 21
కఠిన@@ 21
అభివృ@@ 21
మాత్రాన 21
యొద్దనుండి 21
చిక్కుకున్న 21
ఒప్పందాలు 21
ప్రవేశపెట్టింది 21
ఓటర్ల 21
సంఘంలో 21
ష్య 21
ma@@ 21
ఖిత 21
సంవిధాన 21
మెమొ@@ 21
కార్మికులను 21
పటా@@ 21
డివై@@ 21
దాసు 21
ప్రతిస్పందన 21
రువ్@@ 21
ఆహారంలో 21
కూడి 21
పద్దతి 21
నిబద్ధ@@ 21
తనని 21
శశికళ 21
జన్మించారు 21
ఎంతో@@ 21
అంటాడు 21
ఆస్త@@ 21
కాట@@ 21
ాము 21
ఉండొచ్చని 21
వేతన 21
గూఢ@@ 21
టల్ 21
విజయవాడలో 21
స్టేడి@@ 21
విరామం 21
వ్రాశాడుః 21
కేసులలో 21
13.@@ 21
బ్బా 21
నాల్ 21
ఆరోపణ 21
ెం 21
ఇండో 21
అనుగు@@ 21
క్రీమ్ 21
కాంగ్రెస్లో 21
చూపారు 21
జ్యోతి@@ 21
హతమయ్యారు 21
విద్యార@@ 21
ముసు@@ 21
జంతు 21
టీరియా 21
14:@@ 21
సార్వ@@ 21
విస్తృ@@ 21
శాంతియుతంగా 21
జీవనోపా@@ 21
మేమిద్దరం 21
ఫ్లో 21
కళ్ల@@ 21
పీఎన్బీ 21
RRR 21
క్టార్ 21
ఖండ్ 21
కేటగి@@ 21
5,000 21
నేపథ్య 21
కార్తీ@@ 21
లైకా 21
అంబటి 21
విభాగానికి 21
కర్తలు 21
తుండటంతో 21
వీరే 21
నమోదవుతున్నాయి 21
ంగల్ 21
ఇప్ప@@ 21
నేపధ్యంలో 21
డెబిట్ 21
రెన్@@ 21
ఓపెనింగ్ 21
సమన్వయ 21
నిర్ణ@@ 21
చెత్త 21
ఆలౌట్ 21
తేలిక 21
శీర్షి@@ 21
సన 21
ఆస్వాద@@ 21
్రో@@ 21
తాగి 21
హత్యలు 21
త్తారు 21
కెన@@ 21
ఆను@@ 21
కని 21
పలికిన 21
దొరికిన 21
నలుగురి 21
సమర@@ 21
టిబె@@ 21
ఎందరో 21
బలగాలను 21
కడు 21
హో 21
స్త 21
కండి@@ 21
లందరును 21
12వ 21
పరిచర్య 21
నిరసనకారులు 21
డంవల్ల 21
190@@ 21
గ్స్ 21
వెళ్ళింది 21
సెక్ష@@ 21
భూములు 21
ఓరియ@@ 21
భోజన@@ 21
కేమి 21
అక్షర@@ 21
ప్రజాస్వామ్యాన్ని 21
ఆంక్ష@@ 21
త్రిపాఠి 21
హే 21
పసిడి 21
పాల్పడ్డ@@ 21
సిల్వర్ 21
0లో 21
గాకు 21
పరమా@@ 21
బిడ్డకు 21
పోర్టు 21
ఈనెల 21
ట్వీట్లో 21
అనర్హత 21
కావల@@ 21
ఖురే@@ 21
ఆశ్చర్@@ 21
కొట్టాడు 21
ట్రయల్స్ 21
వెతు@@ 21
దివా@@ 21
పేస్ట్ 21
చదివి@@ 21
name 21
టెస్టు@@ 21
వివాదాస్పద@@ 21
బాగ్ 21
య్యేందుకు 21
కలుసు@@ 21
పాక్షిక 21
ఏనా@@ 21
ప్రొఫైల్ 21
అనుబంధం 21
టవర్ 21
ద్ది 21
మ్యాప్ 21
ించుకొను@@ 21
మీడియ@@ 21
ఎన్డీఆర్ఎఫ్ 21
అల్ప@@ 21
సుధ 21
అట్టి@@ 21
విను@@ 21
నాగచైతన్య 21
తోడ్పాటు 21
నరసింహన్ 21
టర్లలో 21
బొప్ప@@ 21
ఘాటించారు 21
నొక్క@@ 21
ఆవిష్కరించారు 21
క్రైస్తవులకు 21
డెవల@@ 21
పరమేశ్వర@@ 21
బియన్ 21
పోషించింది 21
ధరించి 21
పంజా@@ 21
క్షణ 21
కేట@@ 21
బాహ్య 21
ఎక్స్పోలో 21
జెండాను 21
కీలకంగా 21
కోస్ట్ 21
ఫ్లిప్@@ 21
ఎలె@@ 21
జరిగాయని 21
సారా@@ 21
శాస్త్రవేత్త@@ 21
బాలి@@ 21
బౌద్ధ@@ 21
కరివేపాకు 21
ఆర్థికమంత్రి 21
క్షేమంగా 21
సినిమాల్లోకి 21
చంద్రశేఖర 21
ఎదిర@@ 21
చెప్పినట్లు 21
మిలియన్@@ 21
ఎలు@@ 21
తమ్ముడు 21
వైయస్సార్ 21
పోషణ 21
ction 21
వేధింపులు 21
య్యి 21
చెంచా 21
అయ@@ 21
నల@@ 21
చెక్కు@@ 21
ఫ్రాం@@ 21
డిశ్చార్జి 21
మసాలా 21
మర్చి@@ 21
అనేకం 21
అత్యాచార@@ 21
చతుర్@@ 21
ించారన్నారు 21
♦ 21
జరగాలని 21
ఎలీ@@ 21
మోషన్ 21
వీళ్లు 21
మన్న@@ 21
తరుణంలో 21
తీసుకున్నాను 21
టీచర్ 21
టొయోటా 21
డాక్టర్@@ 21
కాటి 21
ఫిదా 21
అభిమానుల్లో 21
సఫ@@ 21
సము 21
అభిమానులను 21
ఎదురయ్యే 21
జన్స్ 21
లేమీ 21
కాలుష్య 21
సగు@@ 21
మహీ@@ 21
వివాహేతర 21
మాంత్రికుడు 21
సీక్@@ 21
జరిమా@@ 21
ఆదాము 21
దరఖా@@ 21
లాక్డౌ@@ 21
డ్ల 21
జామ్ 21
వంశస్థులు 21
రంగేట్రం 21
మెహబూబా 21
కోవటానికి 21
తాయ@@ 21
లాట 21
రంగుల 21
ందం 21
కోరుకుంటారు 21
స్టేడియంలో 21
స్వార్థ@@ 21
నిర్ణయాలను 21
ID 21
శశి 21
రిజర్వే@@ 21
మత్స్య 21
యువన్ 21
టర్కీ 21
సహేతు@@ 21
పనిచేశాడు 21
హింసా@@ 21
ించుచున్నాను 21
నవల@@ 21
ద్ధి 21
కాకినాడ 21
కేంద్రీ@@ 21
డిస్ 21
అభ్యర్థి@@ 21
చేయాలన్న 21
గ్రి@@ 21
కర్ణాటక@@ 21
సీత 21
పరిగణించ@@ 21
సెన్సే@@ 21
ఎప్పటి 21
మార్టిన్ 21
లెక్కల 21
కూర 21
కారణమవుతుంది 21
ప్రసిద్ది 21
సైలె@@ 21
ప్రతిభా@@ 21
రోజులకు 21
డైరెక్టర్@@ 21
మ్మును 21
కలలో 21
కర్నాటకలో 21
గురవు@@ 21
లేక్ 21
పిజి 21
పరిశీలించిన 21
సజ్@@ 21
మధ్యప్రదేశ్లోని 21
డీని 21
నోటు 21
త్తిని 21
పుస్తకంలో 21
ప్రస్తావన 21
ఐగుప్తు 21
సోమేశ్ 21
ఇంజన్ను 21
ఆధ్యాత్మికంగా 21
చెబుతోందిః 21
పాటల 21
పక్కనే 21
మ్యా 21
కాలేజీలో 21
బర్త్ 21
చిలు@@ 21
కలకు 21
కౌన్@@ 21
ఒకరిని 21
పంజాబీ 21
నియ్య@@ 21
గుంట 21
విరాళం 21
సిడ్@@ 21
వెళ్లు@@ 21
వాలి@@ 21
సంగ్రహ@@ 21
ఘాటు 21
లక్ష్మ@@ 21
భావ 21
విలేకరులతో 21
విజయాలతో 21
చెట్ల 21
రాజీవ్@@ 21
చేర్పించారు 21
ప్రచురి@@ 21
నీవే 21
ఫ్లాప్ 21
చేయబడ్డాయి 21
సూచీ 21
నియోజకవర్గానికి 21
గోరు@@ 21
నికొ@@ 21
అన్యాయం 21
వర్గంలో 21
ఆకార@@ 21
ఎస్ఆర్ 21
సత్యరాజ్ 21
వేడె@@ 21
లాయి 21
కుశ@@ 21
బంధు 21
మూడేళ్ల 21
సంబరాలు 21
ులంతా 21
బెట్టారు 21
చేలా 21
వెంచర్ 21
రిపోర్ట్ 21
ర్రె@@ 21
శ్రీకారం 21
తెచ్చిన 21
సీఐ 21
హ్యూ@@ 21
తీపి 21
లీడర్ 21
తోడ్పడుతుంది 21
కొద్దిసేపటి 21
గ్లూ@@ 21
నవారిలో 21
ఆపి@@ 21
ండె@@ 21
న్స్ను 21
ములుగా 21
మిర్@@ 21
ప్షన్ 21
నెమ్మ@@ 21
సౌలు 21
ములతో 21
సాధ్యమేనా 21
కుడిగా 21
ఎస్ఎల్ 21
ఇంతటి 21
ట్రా 21
బడ్@@ 21
రామోజీ 21
వారణాసి 21
సెక్స్ 21
ారుగా 21
ముహ@@ 21
జీరో 21
కస్ 20
నటిస్తుండ@@ 20
జరిగిపోయింది 20
యొక 20
చేసుకున్న@@ 20
ఒకరికొకరు 20
ఎముకలు 20
బ్బి@@ 20
గౌరవంగా 20
దక్షిణాన 20
అంశంలో 20
అదృశ్య@@ 20
పాల్గొన్నాడు 20
ఫైలు 20
బిజీ 20
ందిన 20
చేస్తుంటారు 20
తనకంటూ 20
సాఫీగా 20
ద్దరూ 20
ప్రోత్సాహం 20
ఐటి@@ 20
మేట్ 20
విడ 20
విద్యార్ధులు 20
ఒబె@@ 20
న్స్కు 20
తెల్@@ 20
కౌట్ 20
మనస్@@ 20
భర్తకు 20
సంజీవ్ 20
క్యం 20
కావొచ్చు 20
అనీ 20
బాధితులను 20
నిరుత్సాహ@@ 20
పట్టించుకోవ@@ 20
నిమి@@ 20
రసవత్త@@ 20
ించలేరు 20
విలి@@ 20
ప్రత్యామ్నాయం 20
అర్ధ 20
దైనా 20
కారణమైంది 20
మార 20
సౌలభ్యం 20
టోల్ 20
స్వేచ్ఛగా 20
ందించిన 20
వర్స్ 20
నిశ్చిత@@ 20
నాగాలాండ్ 20
త్తో 20
రెన్ 20
ప్రాథమి@@ 20
జెడి 20
ఊహాగా@@ 20
హఠాత్తుగా 20
చేంజ్ 20
ఇచ్చాయి 20
ద్దరు 20
కరుణ@@ 20
పరిష్కరి@@ 20
పూర్వం 20
జరిగేది 20
పిచ్చి 20
గలవు 20
ాయిని 20
చేసుకున్నట్లు 20
షాతో 20
ఇతనికి 20
నిరసిస్తూ 20
పూల@@ 20
బాదల్ 20
సైంటి@@ 20
అనూహ్యంగా 20
ీయు@@ 20
సీతారామ@@ 20
భారత్పై 20
ఏర్పడతాయి 20
నెగ@@ 20
కలుపుకోవాలి 20
తగ్గడానికి 20
ట్రైనింగ్ 20
ఇంటిలో 20
వుంటారు 20
రెసి@@ 20
మనవి 20
సంక్రమ@@ 20
సంక్రమణ 20
ఆహ్వానించింది 20
ఇంతకన్నా 20
భయపడు@@ 20
వలసిందిగా 20
వ్యాధు@@ 20
ాన 20
బరువును 20
భార్యతో 20
సంపూర్ణ@@ 20
గేర్బాక్స్తో 20
ఖజా@@ 20
మైనటువంటి 20
భయంకరమైన 20
ఉర్@@ 20
ఎలక్ట్రికల్ 20
దిను@@ 20
రూపొందిస్తున్నారు 20
గడుపుతారు 20
ప్రాసెసర్ 20
పయినీరు 20
లావణ్య 20
మందిరపు 20
వాహిక 20
చేసిరి 20
పశ్చి@@ 20
డలు 20
ఎమో@@ 20
me 20
1998 20
IPL 20
పెంచి 20
జన్యు@@ 20
మిశ్రమ@@ 20
స్టేడియం 20
ప్రద@@ 20
ఉపయోగకరంగా 20
సంఘ 20
జనతా@@ 20
ఫోన్ల 20
ించాడుః 20
వనరులను 20
ంబర్ 20
వ్యవహరిస్తారు 20
పోయేలా 20
నష్టపోయిన 20
ట్రై 20
పీసీ 20
పిటీషన్ 20
దారులతో 20
భరితంగా 20
అరుణా@@ 20
చెరువు 20
గింజలు 20
అధ్యాయం 20
వంచ@@ 20
నెక్స్ట్ 20
టీలకు 20
ఇస్లామిక్ 20
రూపొందిస్తున్న 20
క్యాపిట@@ 20
నివసిస్తున్న 20
రానున్నారు 20
గంగా@@ 20
అఫ్@@ 20
రూపకల్ప@@ 20
రాకేశ్ 20
తంలోనూ 20
అపొస్తలు@@ 20
రోజురోజుకీ 20
మందన్న 20
ళన 20
రోజులలో 20
యజమాను@@ 20
కెమెరాలో 20
సంఘటి@@ 20
పోర్టల్ 20
హరియాణా 20
సీట్ 20
రణ్ 20
భాగస్వామ్యాన్ని 20
ప్లేట్ 20
గవర్నర్గా 20
సూక్ష్మ@@ 20
ఖండము 20
కల్లో 20
పైవిచారణ@@ 20
నేట్ 20
వచ్చినా 20
ష్టా@@ 20
శస్త్రచికిత్స 20
గలిగింది 20
అన్నపూర్ణ 20
వళి 20
వెన్@@ 20
చుండెను 20
విజయవంత@@ 20
పోక్సో 20
నాశనము 20
దోపిడీ 20
క్షతగాత్ర@@ 20
కుంటున్నాయి 20
ముగ్గు@@ 20
ప్రభావాలు 20
బాధితురాలిని 20
ంక@@ 20
నిర్వహిస్తుంది 20
వినోదం 20
డిపార్@@ 20
మహేంద్రసింగ్ 20
జీవీ@@ 20
పరిచేందుకు 20
విలువై@@ 20
ురాలు 20
సమావేశాల 20
రాజశేఖర@@ 20
రామచంద్రారెడ్డి 20
స్నాప్డ్రాగన్ 20
ప్రాసె@@ 20
రవిశాస్త్రి 20
చూపుతుంది 20
సంప్రదాయం 20
ర్యాన్ని 20
దుష్ప్రభావాలు 20
బాగుండ@@ 20
వేజ్ 20
Y@@ 20
అపో@@ 20
తరలి 20
వైపరీ@@ 20
అథ్లె@@ 20
డీలు 20
ప్లు 20
యూనిట్లు 20
ప్రయాణీకుల 20
లక్షణ 20
టీమిండి@@ 20
జ్ఞానాన్ని 20
ఫామ్ 20
ధనుష్ 20
నైపుణ్యాలను 20
చేయూ@@ 20
ట్నీ 20
కూర్చుని 20
వాంగ్@@ 20
అందించనున్నారు 20
వినిపించారు 20
అన్నం 20
మావోయిస్టులు 20
గెలిచి@@ 20
శవ@@ 20
నేర్చుకోవచ్చు 20
కిరీ@@ 20
వెలుప@@ 20
యెను 20
ప్రేక్షకుల్లో 20
లేకపోయా@@ 20
శౌ@@ 20
చంద్రశేఖర@@ 20
దౌర్@@ 20
వ్యాజ@@ 20
ఉల్లిపాయ@@ 20
దమ్ము@@ 20
సందర్శించి 20
తరహాలో 20
వర్లో 20
మెరుపు 20
సంస్కరణల 20
తగ్గించడం 20
ములోనికి 20
వెళ్లాలి 20
బెంగాలీ 20
సంకల్@@ 20
ప్రకటించ@@ 20
కుందాం 20
భద్ర 20
సకల 20
ఏఐసీసీ 20
సమీక్షలు 20
కెమెరాల్లో 20
జక్క@@ 20
మృదువైన 20
దియు 20
ప్రైవే@@ 20
డైరెక్టర్గా 20
సరియ@@ 20
యాం@@ 20
లాభపడ్డాయి 20
సాధించడానికి 20
నోటీసు 20
గ్న@@ 20
మృతదేహాలు 20
క్షీ@@ 20
విశ్వవిద్యాలయంలో 20
వడ్డ@@ 20
హరి 20
దృగ్విషయం 20
ఫాలో 20
ఆకు@@ 20
జోస్ 20
అన్యజను@@ 20
కాళ్లు 20
ఇనుము 20
పరిమాణ@@ 20
ఆర్గనై@@ 20
నిశ్చ@@ 20
పక్షాల 20
నేర్చుకున్నాను 20
1.0 20
పేపర్ 20
ప్రస్తు@@ 20
విలు@@ 20
పిపి@@ 20
తేమ 20
పాల్గొంటున్నారు 20
oc@@ 20
మరోపక్క 20
ఆవిష్కరించింది 20
భాను@@ 20
జమ్మూకాశ్మీర్ 20
క్లూ@@ 20
ఉత్తరప్రదేశ్లో 20
తప@@ 20
వీడియోలను 20
విముక్@@ 20
పెడితే 20
సింధు@@ 20
ఏడో 20
జరుగుతూనే 20
ప్రారంభమవుతుంది 20
నల్గొండ 20
ఛేంజ్ 20
నస్ 20
సంసిద్ధ@@ 20
రూపొందు@@ 20
మాటను 20
భ్ 20
మలి@@ 20
నేప@@ 20
ఇస్తోంది 20
ాలేవీ 20
ంగంలో 20
తీసు@@ 20
34@@ 20
చేసుకుంటే 20
ఆదేశం 20
బుగ్గ@@ 20
మాగా 20
it 20
మనస్సును 20
ఇరానీ 20
ర్లేదు 20
vi@@ 20
ఎలిమి@@ 20
వేశాయి 20
తుందట 20
2009లో 20
మండలంలోని 20
ధ్రు@@ 20
నైపుణ్య@@ 20
జాగా 20
మూలాలు 20
రుజువు 20
పాపము 20
సెషన్ 20
రతన్ 20
అనుపమ 20
రమ్యకృష్ణ 20
నామమును 20
నిర్మించడం 20
విమో@@ 20
ఆలోచించాలి 20
ఆచరణ@@ 20
వెంకయ్యనాయుడు 20
సందర్శిస్తారు 20
పూరీ 20
జిబి 20
ధను@@ 20
నీయుల 20
ఇజ్రాయె@@ 20
నాయకుడి 20
అవుతుందా 20
బోరిస్ 20
45@@ 20
మిల్@@ 20
సర్కి@@ 20
దృఢంగా 20
యెదు@@ 20
నంః 20
తొలగించాలని 20
పునరుత్థానం 20
భాగ్య@@ 20
పోఖ్రియాల్ 20
రిటైర్డ్ 20
పారిపోయారు 20
డెమో@@ 20
నిలిచిపోయింది 20
ద్రవిడ్ 20
హాజరుకానున్నారు 20
పొడిగా 20
వెర్ష@@ 20
పండగ 20
కెరీ@@ 20
మృతిగా 20
చర్యగా 20
గగ@@ 20
ఆధిక్యం 20
రణబీర్ 20
సివి@@ 20
సమీక్షించారు 20
మెడి@@ 20
వాత 20
విపక్షాల 20
ఫేస్బుక్లో 20
వర్మ@@ 20
ఇర@@ 20
వీరిద్ద@@ 20
మినహాయింపులు 20
విభాగాల 20
దిగుబడి 20
మార్గమధ్య@@ 20
ఖ్యా@@ 20
వెలువడే 20
తోడుగా 20
పెంచి@@ 20
దిత్య 20
శానిటై@@ 20
కత్తి 20
న్నామన్నారు 20
చేపట్టి 20
పదార్థం 20
నరసింహారావు 20
జల్@@ 20
ఇష్యూ@@ 20
తనిఖీలు 20
కంప్లీట్ 20
ఏపీకి 20
కస్టమర్ 20
చేసుకోలేదు 20
లోపలి 20
కారుకు 20
నిమ్మరసం 20
మెంటు 20
గోవిందం 20
డ్డు 20
చికిత్సలు 20
శిశు 20
అప్రమే@@ 20
ఎస్డీ 20
వాజ్పేయి 20
ప్రతిబిం@@ 20
దైవిక 20
ెక్క@@ 20
వేసుకోవాలి 20
ధ్వంసమయ్యాయి 20
తియ్య@@ 20
రస్ 20
బాధను 20
విశ్వవిద్యాలయ 20
చర్చించి 20
ఒకేలా 20
దిల్రాజు 20
అంతలోనే 20
ంలా 20
ముఫ్తీ 20
గట్టు@@ 20
మాయా@@ 20
సమస్యలపై 20
సరైనది 20
త్యాగ@@ 20
భారతీయుల 20
కలక@@ 20
ఎకనామి@@ 20
భలే 20
సంఘానికి 20
రాష్ట్రంగా 20
ష్రాఫ్ 20
పించడం 20
లక్ష్యాలు 20
భంగం 20
ఏంటీ 20
దఫ@@ 20
కోర్సు@@ 20
నౌక 20
రాజకీయాలపై 20
సమే@@ 20
పునరుద్ధ@@ 20
లీలో 20
స్వాతంత్య@@ 20
ట్లపై 20
డ్లను 20
సులభతరం 20
ఆర్థికశాఖ 20
జమ్మూకశ్మీర్ 20
మనమంతా 20
యిర్మీయా 20
19,@@ 20
శ్వరు@@ 20
జలపా@@ 20
నేరాలు 20
వేణుగోపాల్ 20
టైర్లు 20
హర్భజన్ 20
మనకి 20
చోటా 20
ఉపయోగకరమైన 20
తారో 20
తిక@@ 20
చేసేవాడు 20
నమోదుచేసి 20
సుల్తా@@ 20
బొత్స 20
నియమాలను 20
ఆచరణ 20
సోకి@@ 20
కాల్పు@@ 20
మాత 20
స్తున్నాడని 20
నెదర్లాండ్@@ 20
ఉన్నాడని 20
చుర@@ 20
హింద@@ 20
క్కే@@ 20
శృంగ@@ 20
బట్టియు 20
ప్రెసిడె@@ 20
శారీరకంగా 20
గుడ్డు 20
ఝా@@ 20
శిరీ@@ 20
తక్కువే 20
మాటే 20
వేస్తారు 20
ఇలానే 20
మతాన్ని 20
సినిమాలోని 20
పాఠశాలల్లో 20
వెళ్లడం 20
వలే 20
విరిగి@@ 20
మేమంతా 20
చెందినది 20
గరిష్ఠ 20
కనిపించబోతున్నారు 20
ఉన్నాము 20
ఖర్గే 20
మ్రొ@@ 20
పాలా 20
వాళ్లతో 20
యుద్ధము 20
హొ@@ 20
మోటార్సైకి@@ 20
టస్ 20
ఈజీ 20
గోరువెచ్చని 20
సమస్@@ 20
వ్వాలి 20
నందు@@ 20
చివరగా 20
వుంటు@@ 20
కేంద్రమంత్రులు 20
ీవుడ్లో 20
ట్రాక్టర్ 20
రాబాద్ 20
ెలు 20
గ్రామీణాభివృద్ధి 20
శ్రేణులు 20
తెరకెక్కు@@ 20
స్టిట్యూ@@ 20
ప్రారంభించడం 20
15వ 20
చిదంబ@@ 20
నాయుడుపై 20
కొనడంతో 20
రెడ్డిని 20
పదార్ధ@@ 20
చేయబడతాయి 20
యొద్ద@@ 20
్రే@@ 20
చంపి 20
ప్రశ్నించాడు 20
పక్కకు 20
వస్తున్న@@ 20
ప్రభ@@ 20
గుండెపోటుతో 20
తీరం 20
అర్హులైన 20
దేశ్ 20
నిప్పు 20
ధిలో 20
నివ్వలేదు 20
ఏరో@@ 20
సాధనం 20
గ్రిని 20
లేత 20
పర్చు@@ 20
రీమే@@ 20
ఢీ 20
నష్టాన్ని 20
జైన 20
ఎవరిది 20
పడకండి 20
గెలుపొందింది 20
దేవే@@ 20
CO@@ 20
art@@ 20
సామర@@ 20
నలతో 20
ధ్రువీకరించారు 20
మొదలుపెట్టాడు 20
మూసివేశారు 19
ఐఎల్ 19
క్కడే 19
జ్ఞ 19
రూపొందించబడింది 19
పిక్సల్ 19
అమర్చ@@ 19
వ్యాపారి 19
అభియాన్ 19
కార్యకర్తలను 19
కనిపించనుంది 19
ఆధిపత్యం 19
లర్లు 19
india 19
కొద్దిసే@@ 19
నాః 19
టివిటీ 19
ఒక్కో@@ 19
యెహోషువ 19
మీరి@@ 19
ప్రార్థనలు 19
కర్తవ్య@@ 19
ఇష్టపడతారు 19
డిఎంకె 19
వసూళ్లను 19
చెప్పుకోవచ్చు 19
అడిగే@@ 19
రణకు 19
విక్@@ 19
పాత్రలను 19
అంతి@@ 19
అంటోంది 19
అమాయ@@ 19
బాలె@@ 19
ఉమేష్ 19
వేం 19
మీరు@@ 19
హంత@@ 19
19.@@ 19
మహిళకు 19
నిర్వహణలో 19
జబ్బులు 19
ప్రజలపై 19
సోషల్మీడియాలో 19
సంక్రా@@ 19
బబు@@ 19
గర్భధారణ 19
రాయబారి 19
దాసరి 19
ఎటు@@ 19
విధేయత 19
నివేదికలు 19
సంఘీ@@ 19
అధునాతన 19
రాసింది 19
ఉద్దేశ్యం 19
హోరాహోరీగా 19
ఇక్కడకు 19
గవర్న@@ 19
మోటార్సైకిల్ 19
మేంటి 19
రూపొందుతోన్న 19
ించకండి 19
అయ్యో 19
లంచం 19
నర్మ@@ 19
బిల్డింగ్ 19
రాయడం 19
పోషకాలు 19
ఏకే 19
ఇసుక 19
నిండి 19
బెదిరింపు@@ 19
రాత్రికి 19
రాత@@ 19
ంబు@@ 19
తార 19
అంజ@@ 19
క్రై@@ 19
నిలో 19
పునరు@@ 19
అభయార@@ 19
ముహూర్@@ 19
తీసుకుంటా@@ 19
పంజాబ్లో 19
మువలన 19
అనుకోని 19
ai@@ 19
భయం@@ 19
ముఖా@@ 19
నిచ్చే 19
రెండోది 19
ఫ్లాష్ 19
హాస్పిట@@ 19
కోత్స@@ 19
రణ్బీర్ 19
se@@ 19
చేపట్టినట్లు 19
ముందువైపు 19
సెల్ఫీ@@ 19
స్పర్@@ 19
ఎన్సీ@@ 19
భాగస్వామ్యంతో 19
లక్కీ 19
చెంచ@@ 19
రవీందర్ 19
స్పందించాడు 19
మంజూ@@ 19
ఎదురుకాల్పుల్లో 19
కాన్ఫి@@ 19
కిందికి 19
డైరె@@ 19
క్టర్లు 19
తీసుకోవాల్సి 19
నెహ్వాల్ 19
మంత్రిత్వ@@ 19
తేల్చి@@ 19
నైపుణ్యాలు 19
అతీ@@ 19
ాయెను 19
ధ్రువీకర@@ 19
స్పెష@@ 19
స్వాతంత్ర@@ 19
పాటే 19
సహకరించిన 19
యూనివర్శిటీ 19
అహ@@ 19
త్తర@@ 19
పోత 19
అందుకుంటారు 19
ాయుడు 19
మల్లికార్@@ 19
సూక్ష్మ 19
మరణించినట్లు 19
వినియోగి@@ 19
ప్లై 19
తరపు 19
యుండును 19
నౌకా@@ 19
స్క్రీనింగ్ 19
పురస్కరించుకుని 19
జరిగింద@@ 19
ధ్యానం 19
మారిపోయాయి 19
పర 19
బ్రహ్మానందం 19
ించుకోలేదు 19
ఉద్యమంలో 19
లైబ్ర@@ 19
దారులపై 19
లిక్ 19
నిరూ@@ 19
ంపల్లి 19
కుటుంబాలను 19
పడాల్సి 19
వ్యతిరేకిస్తూ 19
మార్చురీకి 19
మలు@@ 19
ననుసర@@ 19
యూలో 19
సరిప@@ 19
దుబాయ్ 19
చెబుతాను 19
ీకరి@@ 19
స్తుంటే 19
సెట్లో 19
విదేశాలకు 19
చూస్తుంటే 19
పరిమితిని 19
భివృద్ధి@@ 19
రాకపోకలకు 19
వారని 19
గోల్డెన్ 19
లాంటి@@ 19
నటీ@@ 19
ేద@@ 19
౦ 19
చల్ప్రదేశ్ 19
జమ@@ 19
యన్షిప్ 19
అదుపుతప్పి 19
సైనికుల 19
ఉత్తమ@@ 19
నింపు@@ 19
పోస్టు@@ 19
అనారోగ్యా@@ 19
పెరిగిపోతోంది 19
దర్శకధీరుడు 19
టీఆర్@@ 19
ఆటగాడిగా 19
రూబి@@ 19
ఇబ్బ@@ 19
పనిచేసింది 19
తీసుకోలేదని 19
టీఆర్ 19
కోపము 19
న్నిటినీ 19
సమ్మి@@ 19
ఛార్జీలు 19
అభియోగ@@ 19
మాటలాడు@@ 19
రాకీ 19
ళ్లు@@ 19
com 19
గణే@@ 19
నీట 19
సాద@@ 19
ఎండి 19
సుల@@ 19
టీమ్@@ 19
భావంతో 19
అన్య@@ 19
3.5 19
తగ్గించి 19
ఇశ్రాయేలీయులకు 19
అఘాయి@@ 19
దీర్ఘ 19
నినాద@@ 19
ప్రసంగంలో 19
కుర్@@ 19
విజయాలను 19
డీజి@@ 19
దెబ్బకు 19
సాంద్రత 19
నిర్ది@@ 19
ఉల్లి@@ 19
కొందరి 19
మెహ్ర@@ 19
ఈజ్ 19
ఇరాక్ 19
ఆశ్రయించింది 19
చాలావరకు 19
నీకి@@ 19
నష్టపరిహారం 19
సందేహాలు 19
అశో@@ 19
నీర@@ 19
అక్కడక్కడ 19
వారియర్ 19
విజయవాడః 19
ఆకారంలో 19
ండ్రు 19
డేటింగ్ 19
జార్ఖ@@ 19
తీహార్ 19
రకాల@@ 19
హిందువుల 19
దరఖాస్తులు 19
ఊరు 19
స్థిరత్వం 19
ుల్ని 19
తెలుప@@ 19
కుంటాయి 19
సమరయోధుడు 19
MS 19
సంబంధించిన@@ 19
వాళ్లంతా 19
దురద 19
క్లియర్ 19
మెడిసిన్ 19
చెప్పుకో@@ 19
ఉపసం@@ 19
హరణ 19
చుక్కె@@ 19
గుల్@@ 19
ఇటి@@ 19
మయ@@ 19
పుకార్లు 19
తీసుకొచ్చింది 19
భూభాగంలో 19
మూడిం@@ 19
ఆడనుంది 19
ఆడ 19
ించుట@@ 19
ళ్ళు@@ 19
రైల్వేలు 19
తండ్రియైన 19
మనకున్న 19
విభే@@ 19
ఐర్లాండ్ 19
ారియా 19
బెడ్ 19
ఫ్రెష్ 19
హమీ@@ 19
పొడిగింపు 19
టెర్రరి@@ 19
ంటై@@ 19
ంటేనే 19
ాన్ని@@ 19
నెలకొని 19
శార్@@ 19
పంపు 19
పోరాట 19
తున్నాము 19
మట్టు@@ 19
చూపించడం 19
మేలు@@ 19
పర్సనల్ 19
నుః 19
యుద్ధాలు 19
విశ్రా@@ 19
జీతాలు 19
వంటిది 19
పదుకొనే 19
ర్తి 19
ప్రవర్@@ 19
భద్రతా@@ 19
ఫెడరేషన్ 19
పోయిరి 19
శివా@@ 19
ప్రజాస్వామ్యంలో 19
పాము 19
కరుణానిధి 19
ఇప్పటికైనా 19
ీలను 19
హామీలు 19
ఆభర@@ 19
వాస 19
ఉండొచ్చు 19
చెందుతుంది 19
ఫైనాన్షియల్ 19
ఐటీ@@ 19
జుల 19
ఫిజి@@ 19
మన్నా 19
తోడ్పడ@@ 19
భ్యా@@ 19
కూరు 19
మ్యూచువల్ 19
స్థిరా@@ 19
ఎంతమంది 19
నగు 19
గ్రిల్ 19
పోసాని 19
కుర్రా@@ 19
చెల@@ 19
ప్రామాణి@@ 19
సాను@@ 19
లోయ 19
పరిశీలనలో 19
సిద్ది@@ 19
మిడ్@@ 19
కాగి@@ 19
నేన@@ 19
అటవీ@@ 19
అగ్@@ 19
మిక్కీ 19
సమకూర్@@ 19
సాక్షి@@ 19
కోట్లే 19
చిల@@ 19
కొనసాగుతోందని 19
సోదరీమ@@ 19
అరణ@@ 19
ఎన్కౌంటర్@@ 19
నంద్యాల 19
ప్రదర్శించిన 19
విజు@@ 19
దోషము 19
గడ్డపై 19
యూనివర్సిటీలో 19
ఉ 19
తథ@@ 19
దేవునితో 19
ఇమ్రా@@ 19
వాతావరణాన్ని 19
అపారమైన 19
గలిగే 19
సమకూరుస్తున్నారు 19
ఏక్@@ 19
పీవీ@@ 19
ప్తి@@ 19
దోషులుగా 19
అదిరిపోయే 19
అరోరా 19
కంపెనీలో 19
మొదటగా 19
్ఞ@@ 19
కార్యకర్త 19
స్ట్రుమెంట్ 19
ఎలక్@@ 19
వ్యతిరేకించారు 19
అజిం@@ 19
ఫింగర్ 19
ప్రభుత్వాస్పత్రికి 19
చిన్నది 19
ప్రతిఫల@@ 19
భావిస్తున్నాను 19
లేదంటూ 19
అంబేద్కర్ 19
ప్రసంగాన్ని 19
మిలటరీ 19
ఉద్రిక్తతలు 19
మన్లు 19
ాలేంటి 19
డబ్ల్యు 19
సూటిగా 19
షోయబ్ 19
తాగునీటి 19
పోవును 19
ఫాలో@@ 19
చ్చా 19
పదేపదే 19
ప్రభుత్వరంగ 19
నిర్లక్ష్యంగా 19
ఐ20 19
పారిపోయాడు 19
జప@@ 19
తికి@@ 19
వివాదాల 19
తేజస్@@ 19
అధ్యయనాలు 19
యుటి@@ 19
ఉత్తరాఖ@@ 19
గుణాలు 19
బ్యాట్స్మెన్ 19
ికంగా 19
వైఖ@@ 19
ముక 19
రికార్డులను 19
ిస్తారు 19
గేమ్స్ 19
పరిసర@@ 19
ఎందుకీ 19
టీ20లు 19
వేరియం@@ 19
ps 19
నందలి 19
ఫిన్@@ 19
175 19
విలువైన@@ 19
ఉత్సాహం 19
ఆకలి@@ 19
చైత@@ 19
సేవలో 19
నటీనటు@@ 19
ంతే 19
బర్డ్ 19
గిన్న@@ 19
వచ్చో 19
పట్టాలె@@ 19
ఇడి 19
ఉల్లంఘి@@ 19
వ్యాపారులు 19
వికలా@@ 19
మరణంతో 19
మహో@@ 19
ర్లుగా 19
ఘోరం 19
హామీలను 19
క్షిప@@ 19
ఆరి@@ 19
నిర్ణయించుకున్నారు 19
మైనార్@@ 19
పోటీల్లో 19
రాగానే 19
థాక్రే 19
ఆంధ్రా 19
అతు@@ 19
అసెంబ్లీకి 19
వ్రాసిన 19
దిలీప్ 19
శక్తిగా 19
ఇబ్రహీ@@ 19
మారుతోంది 19
అనుకున్నాను 19
ఎంసి 19
కులే 19
దగిన@@ 19
కాల్లో 19
శీతా@@ 19
ధాన్ని 19
ధర్మం 19
మూడవ@@ 19
అక్టోబరు 19
కుండు@@ 19
అనువాదం 19
ఇండోనేషియా 19
దేశ్@@ 19
్రు@@ 19
ఊరికే 19
ప్రేమగా 19
తినే 19
ఆఫీసర్@@ 19
నొప్పి@@ 19
తెలిపి@@ 19
గోర@@ 19
అపోలో 19
ఎకరానికి 19
యోచి@@ 19
ఖర్చులను 19
చట్టాల 19
ననియు 19
లేదు@@ 19
గోపీచంద్ 19
జీప్ 19
స్తున్నందుకు 19
భూభాగ@@ 19
థమన్ 19
మెకు 19
దాంట్లో 19
ఆకట్టుకుంటుంది 19
నోట్లు 19
వస్తు 19
గులాబీ 19
ఇస్సా@@ 19
అజ్@@ 19
అలాంటప్పుడు 19
జవాన్ల 19
ఎగబా@@ 19
రాజస్థా@@ 19
నొద్ద@@ 19
పాస్పోర్@@ 19
వెళ్ళాడు 19
బెట్టు@@ 19
ారాధ@@ 19
వంతున 19
కొనియాడారు 19
ఇండస్ట్ర@@ 19
పారు@@ 19
దీటుగా 19
గుర్తించింది 19
పృథ్వీ 19
పెండింగ్లో 19
పల్లిలో 19
ఆశీర్వది@@ 19
కొనేందుకు 19
మాటకు 19
లాజికల్ 19
తాయా 19
వక్@@ 19
మందన 19
ఇంజి@@ 19
ముంబయిలో 19
తరుణ్ 19
ఆసుపత్రులకు 19
సంతాన@@ 19
బొత్@@ 19
మహాత్మా@@ 19
కరు 19
పిల్లా@@ 19
బండ్ల 19
ఇస్తాం 19
ప్రసాద్@@ 19
హోరె@@ 19
ప్రారంభించడానికి 19
దూష@@ 19
మనదేశంలో 19
నచ్చుతుంది 19
తేంటి 19
నటువంటి 19
లియోన్ 19
హెలికాప్టర్ 19
సమస్త@@ 19
సోష@@ 19
పరోక్షంగా 19
రక్షించారు 19
కెన్ 19
ప్రాముఖ్యం 19
మృతుడికి 19
ంటిని 19
ఎల్ఐ@@ 19
అక్కడా 19
మనుష్యులు 19
పర్యాటకులకు 19
ఇవీ 19
తెలప@@ 19
ాలనుకుంటున్నారా 19
సాన్ 19
కర్రెడ్డి 19
తేనె@@ 19
స్వదేశానికి 19
రాక 19
కుదరలేదు 19
కొను 19
వెంక@@ 19
తాండ@@ 19
సైబరాబాద్ 19
150వ 19
రేం@@ 19
అంచనాలు@@ 19
గాలులు 19
ప్రకటించనున్నారు 19
పాన్లో 19
భరించ@@ 19
పదవులు 19
జయంత్ 19
వెళ్ళే 19
కన 19
ప్రచురించిన 19
నాశన@@ 19
పగటి 19
అవేంటో 19
11.@@ 19
ఆధార్@@ 19
అందం 19
ఎరువులు 19
చేద్దా@@ 19
పంచదార 19
ఫెస్టివల్ 19
టట్లు 19
పట్టడం 19
నొప్పులు 19
నటీనటులుః 19
విడిపోయారు 19
సిగ్గు 19
ఇశ్రాయే@@ 19
1,0@@ 19
చేతుల 19
ఇందు 19
ate 19
అందలేదు 19
ంతంగా 19
ఢ 19
శాంక్ 19
రైతే 19
గవర్@@ 19
ఢిల్లీః 19
బాడ్@@ 19
తికే@@ 19
చెప్పాల్సిన 19
నిందితుల్లో 19
భూకం@@ 19
1200 19
రీస్ 19
డ్గా 19
చెబుతున్న@@ 19
లేఖనాలు 19
రెడ్మి 19
మునందు 19
జ్యో@@ 19
చెల్లె@@ 19
గుంత@@ 19
వత్ 19
ఫెయి@@ 19
ప్రయోగాలు 19
పెయిడ్ 19
అమర్ 19
ఐపీఎస్ 19
ప్రాంతాలుగా 19
స్థితిని 19
ఏవైనా 19
పరచి 19
ఎదురుగా 19
ఉద్ద@@ 19
పేస్ 19
గుండు 19
వరస@@ 19
వాను 19
గ్యార@@ 19
తురుము 19
దాచు@@ 19
రెహ్@@ 19
అక్క 19
if@@ 19
అకస్మాత్తుగా 19
ీరు 19
బోర్డు@@ 19
118 19
కండరాలు 19
అయ్యి@@ 19
విభిన్నమైన 19
గించింది 19
జలు@@ 19
బడుతోంది 19
జీవన్ 19
అంగీకరించ@@ 19
భూష@@ 19
బెంగుళూరు 19
గుం@@ 19
తోడు@@ 19
ఫలించలేదు 19
బైడెన్ 19
లెవరూ 19
డాన్స్ 19
ేజ్ 19
పునరుత్థా@@ 19
సామ్రాజ్యం 19
మ్స్లో 19
భావిస్తోంది 19
సహజీవనం 19
1990 19
పరిస్ధి@@ 19
పొందొచ్చు 19
పునరుత్@@ 19
ఆతిథ్య 19
దిశ@@ 19
కుమార్తెను 19
అష్@@ 19
వ్యవస్థలను 19
భర్తతో 19
గురైంది 19
నలుమూల@@ 19
సుంద@@ 19
స్కీమ్ 19
అవసరాన్ని 19
కిడ్@@ 19
మొజాం@@ 19
ఎవరీ 19
చాక్@@ 19
క్రీడల్లో 19
యాక్సిడెంట్ 19
64@@ 19
లార్ 19
క్రటిక్ 19
లస్ 19
జ్ఞాపక@@ 19
గ్యాల@@ 19
మట 19
గెలుపొందిన 19
కేకలు 19
వెనుదిరి@@ 19
సంపన్న@@ 19
చేతుల్లో 19
ైర్@@ 19
సస్పెన్స్ 19
సమీక్షా 19
కారణాలున్నాయి 19
పెట్టుకున్నాడు 19
అతిగా 19
18వ 19
ర్ని 19
యుద్ధా@@ 19
భాల 19
సంక్షేమ@@ 19
సెకండ@@ 19
అంతటితో 19
దశాబ్ద@@ 19
డాలు 19
సొమ్ము@@ 19
ఇంగ్లీ@@ 19
అక్కర్లేదు 19
జీవితాల్లో 19
చెడ్డ 19
ఎక్సైజ్ 19
తారు@@ 19
మంజ్రేకర్ 19
వాల్యూమ్ 19
టన్నులు 19
పాటించండి 18
షియాలో 18
అడుగుపెట్ట@@ 18
సుజిత్ 18
జనరేషన్ 18
విరో@@ 18
నిర్వా@@ 18
అట్లాంటిక్ 18
ప్రసక్తే 18
వజ@@ 18
ళ్లిన 18
బోలెడ@@ 18
చ్చేరి 18
నిరీక్షణ@@ 18
కరోనా@@ 18
దీనినే 18
నడానికి 18
రాను@@ 18
నమూనాలు 18
చూపింది 18
సీస్ 18
సేంద్రీయ 18
అనారోగ్య@@ 18
జరిగినప్పుడు 18
మలైకా 18
యూదులు 18
నిష్ 18
కపోయినా 18
కొంటారు 18
ఎంఏ@@ 18
లుక్కేయండి 18
గాంచిన 18
ట్టే@@ 18
చెత్త@@ 18
బుట్ట@@ 18
వాళ్ళకు 18
పడగొట్టాడు 18
అభిమానం 18
ఎపిసోడ్ 18
అపా@@ 18
వొడాఫోన్ 18
కొడుతోంది 18
అబీ@@ 18
కార్యనిర్వాహక 18
పరిమితమైంది 18
నిష్పత్తి 18
ించబడే 18
అర్జెంటీ@@ 18
మ్ములు 18
ములాయం 18
విక్రయాలు 18
కోని 18
విధానానికి 18
దిగొ@@ 18
ెస్ 18
నామా 18
డ్రాప్ 18
తీరని 18
చిత్రంలోని 18
గ్రామాలకు 18
117 18
px 18
కృష్ణా@@ 18
ఎంచ@@ 18
కవిత్వం 18
శిఖరం 18
మొక్కజొన్న 18
కూరగాయ@@ 18
తింటారు 18
థర్@@ 18
ఛీ@@ 18
తప్పని 18
విజయంపై 18
ఆకలి 18
నాను@@ 18
కట్టుగా 18
థో@@ 18
వాన@@ 18
ఎపి 18
ప్రజలే 18
టబు 18
వ్యవహరించాలి 18
వికారా@@ 18
ఆఫీసు 18
ఓడిపోయారు 18
పల్లె 18
ఫిట్ 18
మయన్మార్ 18
వేషన్ 18
జీవితాలు 18
టబుల్ 18
మరణించారని 18
ఆదిత్య@@ 18
అనిరు@@ 18
పాడారు 18
కేష్ 18
సిండ్రోమ్ 18
SA@@ 18
కంపెనీలకు 18
భగవత్ 18
ఏమిటా 18
నమోదై@@ 18
రాస్యత 18
స్వరం 18
తనాన్ని 18
థ్యాంక్స్ 18
ల్కి 18
వార్షి@@ 18
నిలబడి 18
గనుల 18
సిమ్@@ 18
మీడియా@@ 18
పుర 18
బతుకు@@ 18
మేనిఫెస్టో@@ 18
17,@@ 18
అసభ్య@@ 18
టైటిల్ను 18
ఉత్పాదకత 18
చెప్పడంతో 18
ఎవరు@@ 18
రవీంద్ర@@ 18
టై 18
టౌ@@ 18
భివృద్ధికి 18
పర్యాటకులను 18
పోల్చ@@ 18
హ్యాండ్ 18
అందిన 18
స్పార్క్ 18
లాండరింగ్ 18
కాం 18
ట్లర్ 18
ప్రసర@@ 18
Y 18
సున్నా 18
భారతీయుడు 18
స్టోర్లో 18
ధై@@ 18
చేయ 18
సవరించిన 18
లభించనుంది 18
తయైన 18
గలుగుతారు 18
గోవాలో 18
ందర@@ 18
మనది 18
చొప్ప@@ 18
కార్యాచరణ@@ 18
అప్రమత్తం 18
బృహ@@ 18
ఉచితం 18
బ్రిట@@ 18
అతనే 18
కోనేరు 18
దూసుకెళ్@@ 18
బిహార్@@ 18
జాన్వీ 18
డీగా 18
అగ్రనేత 18
పులతో 18
అల్లాయ్ 18
రాజీ 18
పడవచ్చు 18
మిగిలి 18
రక్తాన్ని 18
చెరి@@ 18
చకచకా 18
పోలింగ్@@ 18
త్తుగా 18
జనసే@@ 18
వారికే 18
స్తే@@ 18
సూచిక 18
తాగడం 18
స్ని 18
బంధాన్ని 18
వాటిల్ల@@ 18
టివ్గా 18
వహించే 18
మల్లే@@ 18
సంగారెడ్డి 18
సర్పంచ@@ 18
చెంది 18
గంటల@@ 18
ME 18
ంగాలు 18
చూపుము 18
ముచ్చట@@ 18
హోదా@@ 18
సిట్టింగ్ 18
ప్రభుత్వాలకు 18
విపి 18
బన్నీ 18
మలయాళ@@ 18
నీలో 18
ధూమపానం 18
చుట్టుము@@ 18
కరోనాతో 18
ఉష్ణోగ్ర@@ 18
శోభ@@ 18
ఆస్తులను 18
సాక్ష్యమి@@ 18
బెయి@@ 18
బారా@@ 18
శ్రీహరి 18
కొత్తిమీర 18
బలహీనత 18
భ్రా@@ 18
సేవను 18
ఎమోషనల్ 18
మాట్లాడటానికి 18
లీట్ 18
వ్యవహరించాడు 18
అవరో@@ 18
ఫైన్ 18
డిపి@@ 18
వ్యాపారాన్ని 18
ీన్ 18
తేజ 18
అమ్మా@@ 18
ప్రకటనలు 18
లంబ@@ 18
టూరి@@ 18
ప్రసా@@ 18
స్తోందిః 18
పాల్పడు@@ 18
లిఫ్@@ 18
పార్వ@@ 18
ఒరిజినల్ 18
గంటలలో 18
చికిత్సలో 18
చేస్తుందో 18
IC@@ 18
గుర్తుచేశారు 18
మండలంలో 18
హాంకాంగ్ 18
దేశాలను 18
శివరాత్రి 18
ఎరుగ@@ 18
సరుకు 18
మోర్@@ 18
ఉదాహరణగా 18
సేతు 18
ఏలయనగా 18
ొద్ద@@ 18
సదుపాయాలను 18
ఈయనకు 18
అత్యుత్త@@ 18
అమా@@ 18
రౌండ్ 18
ఎదుర్కోవటానికి 18
బాక్సింగ్ 18
్వ 18
లవర్ 18
హెబ్ర@@ 18
బ్డే 18
గౌరీ 18
రిటైర్మెంట్ 18
దౌత్య@@ 18
చెయ్యడానికి 18
మాన్యువల్ 18
ఉపాధ్యక్షు@@ 18
సర్వత్రా 18
ఎటి@@ 18
తుషార్ 18
కన్ను 18
అసంతృప్@@ 18
స్టోరే@@ 18
యాపిల్ 18
10,000 18
మాది@@ 18
బడుతున్నాయి 18
htt@@ 18
డివివి 18
కాలాల్లో 18
స్థలాలు 18
అందుతుంది 18
ప్రదేశాల్లో 18
టర్బో 18
సమావేశాలకు 18
పీటీసీ 18
నిధికి 18
కరమని 18
వసంత 18
సింహా@@ 18
ఉపాధ్య@@ 18
రానున్నాయి 18
మాధ్యమం 18
ఫీల్ 18
హనుమంత@@ 18
స్నేహితులతో 18
అల్యూ@@ 18
రెగ్యు@@ 18
ఐశ్వర్య@@ 18
ఉంచేందుకు 18
భౌతిక@@ 18
స్టాఫ్ 18
పోయాం 18
అట@@ 18
కడం 18
విక్రయిస్తున్నారు 18
తీయగా 18
తేడా@@ 18
బుల్లెట్ 18
మేమిటంటే 18
స్ఫూర్తిని 18
తరబడి 18
జ్ఞానయుక్@@ 18
శాసనమండలి 18
అమ్మాయిని 18
చెప్పుకొ@@ 18
మీకి@@ 18
గెహ్లా@@ 18
లుంటాయి 18
త్తే 18
పర్తి 18
గమనించండి 18
కరిస్తూ 18
సేకరించిన 18
అవినీ@@ 18
చెదర@@ 18
తలొ@@ 18
గ్రిడ్ 18
పొదుపు 18
సీతారామరాజు 18
తాలూకు 18
బాద్లోని 18
నృత్యం 18
పెళ్ళి@@ 18
లడఖ్ 18
ప్యాకేజీ@@ 18
బాగున్నాయి 18
ధన్య@@ 18
ేవారు 18
కోచ్@@ 18
కాంగ్రెస్తో 18
అయోధ్యలో 18
మందిర 18
ఊపందు@@ 18
కనిప@@ 18
శోధన 18
వెళ్ళండి 18
సంస్థాగత 18
మొక్క 18
బిలో 18
ph@@ 18
చిత్రీకరించారు 18
వారే@@ 18
డిసెంబరు 18
జాయిన్ 18
లెత్త@@ 18
టోర్@@ 18
కర్ల 18
GB 18
డిస్కౌ@@ 18
ప్రజలతో 18
వాడే@@ 18
సీఏఏ 18
బరోడా 18
వ్యూ 18
వివాదంలో 18
నిశ్శబ్దం 18
జారా 18
పురావ@@ 18
విశేషంగా 18
పాటించడం 18
మంతుడు 18
టితో 18
జాక్సన్ 18
నియంత్రణలో 18
వాళ్ళం 18
యూట్యూ@@ 18
డానికి@@ 18
చంద్రశేఖర్రావు 18
హ్రా@@ 18
గవా@@ 18
వృధా 18
షై@@ 18
గుజరాత్@@ 18
నమోదుతో 18
జీత్ 18
తీసుకువచ్చారు 18
రాజ్యాన్ని 18
వేరియంట్లో 18
సినిమాటోగ్రాఫర్ 18
నిర్దోషులుగా 18
చేస్తాము 18
స్ధానంలో 18
ఇచ్చు@@ 18
ఈజిప్@@ 18
ప్రిన్సి@@ 18
సేవలంద@@ 18
అర్పించిన 18
చైనాతో 18
యువజన 18
రాతపరీక్ష 18
ఉపరి@@ 18
pl@@ 18
ాలనూ 18
సంవత్సరాలకు 18
ఇల్ల@@ 18
లీకి 18
ఫిలిష్తీయు@@ 18
నెయ్యి 18
మల్కా@@ 18
టెస్టుల 18
ీనా 18
ఆరం@@ 18
ఫ్లూ 18
ఫారెస్ట్ 18
వ్యత్యాసం 18
ారాయన 18
డిమాండు 18
కమ్ము@@ 18
2001 18
ఆల్రౌ@@ 18
కోల్కతాలో 18
హార్ 18
ులందరూ 18
కుదురు@@ 18
గుర్తుంచుకోండి 18
మెత్త@@ 18
ట్ని 18
ఎండు@@ 18
హారిస్ 18
ట్రిబ్యునల్ 18
విరాళాలు 18
సెంటి@@ 18
ఆరోజు 18
రుణమాఫీ 18
పాండ్య 18
నియమం 18
త్కు 18
క్రా 18
వార్తల 18
ఏర్పాట్లను 18
మమ్మును 18
కమ్యూనికేషన్స్ 18
గతంగా 18
తెలియదని 18
చోటుచేసుకున్న 18
జీత@@ 18
పోషిస్తున్న 18
th 18
దిగువన 18
య్యను 18
ల్య 18
సైన్యా@@ 18
1/@@ 18
DL 18
ప్రశ్నలను 18
బిపిన్ 18
బద@@ 18
అనుష్@@ 18
ఆయుర్@@ 18
వ్యభి@@ 18
డిసె@@ 18
22,@@ 18
ందె@@ 18
తీసుకువచ్చిన 18
జ్ఞాపకార్@@ 18
రచయితలు 18
వ్యాఖ్యానించ@@ 18
టిడిపి@@ 18
వైఖరిని 18
థర్ 18
డోర్ 18
ఎదగ@@ 18
గోపి 18
సులువు 18
ఉండవచ్చని 18
పోచారం 18
ఆధి@@ 18
చేయకండి 18
ఆసుపత్రులు 18
షీట్ 18
హైకోర్టును 18
సిఇఒ 18
ric@@ 18
చేయాలా 18
అంటేనే 18
సమర్పించిన 18
చూపిస్తుంది 18
ములును 18
ముగిసే@@ 18
ంటివి 18
కారానికి 18
నవ 18
చా 18
సంఘర్ష@@ 18
ింపబడు@@ 18
1,7@@ 18
భేటీకి 18
సోర్@@ 18
est 18
క్కర్ 18
ఉత్సవాలు 18
మార్పులకు 18
వ్యాధిని 18
ప్గా 18
లోకసభ 18
తేవ@@ 18
న్షన్ 18
అలో@@ 18
గిలా@@ 18
మామూలుగా 18
స్తుంటాయి 18
తలెత్తు@@ 18
సోకిన 18
శర్మకు 18
నటించే 18
నెంబ@@ 18
డెస్క్@@ 18
కలపై 18
దక్షిణాది 18
మిర@@ 18
మెదక్ 18
క్లిం@@ 18
దుర్ఘటన 18
ముచేత 18
హీను@@ 18
పాస్వర్@@ 18
మరొకరికి 18
వివాదానికి 18
డ్రీ@@ 18
వెన్నె@@ 18
యెస్ 18
నిజాయితీగా 18
పనిచేయాలని 18
డార్క్ 18
ఏవో 18
రిపబ్లికన్ 18
ట్నుంచి 18
కాశ్@@ 18
ప్రత్యేకం 18
శబరిమల 18
చేయనున్నాడు 18
అర 18
యోగే@@ 18
యర్స్ 18
రాజకీయాలలో 18
నందున 18
కాడ@@ 18
యేట్ 18
పోకుండా 18
గెలిస్తే 18
ఉగా@@ 18
ిస్తుంది 18
ట్యాంక్ 18
డెలి@@ 18
అనూహ్య 18
అంతిమ 18
డీజీ@@ 18
ల్ః 18
మరికొద్ది 18
ారిస్ 18
రాజేంద్రప్రసాద్ 18
మూడో@@ 18
రిటర్@@ 18
వంలో 18
ఎంతవరకు 18
పాజిటివ్గా 18
అదిరి@@ 18
చేసుకోవాల్సి 18
ఇద్దరి@@ 18
ప్రచురణ 18
చెవి 18
పాప్ 18
కాబోయే 18
ప్రధానిని 18
తెచ్చింది 18
ఎగు@@ 18
జెన్ 18
తేట@@ 18
జేసీ 18
ఘర్షణ@@ 18
ప్రయాణికు@@ 18
సిపి@@ 18
కమలా 18
యుపి 18
చెల్లించారు 18
ఉద్దేశించిన 18
నడిప@@ 18
బెం@@ 18
పర్వతం 18
ఆర్ఆర్ 18
బట@@ 18
మెల్ల@@ 18
మెగాపిక్సల్ 18
ప్రతిపక్షం 18
నివాడు 18
మ్యానికి 18
మృత్యువాతపడ్డారు 18
డ్కర్ 18
దేశమంతా 18
ంమీద 18
తీసుకుంటూ 18
స్టాండ@@ 18
న్నియు 18
సంబంధించినది 18
కౌశల్ 18
ప్రారంభించి 18
స్వీప్ 18
sc@@ 18
తావు 18
1.3 18
ంభం 18
పశ్చిమగోదావరి 18
వింటు@@ 18
మృతితో 18
కోలుకుని 18
తీయులు 18
నిలబె@@ 18
నిర్బంధంలో 18
కారము 18
గ్రంధ@@ 18
అసిస్టె@@ 18
కోయంబత్త@@ 18
తుడి@@ 18
విజ్ఞ@@ 18
అయిపో@@ 18
సీఈ@@ 18
నగల 18
మైనదే 18
రామ్మోహన్ 18
అంతకంతకూ 18
తట్టు 18
అభ్యర్ధ@@ 18
ులై 18
పురస్కారాలు 18
కనక@@ 18
డేటా@@ 18
ఏక 18
అర్హు@@ 18
పరమే@@ 18
లగడ@@ 18
డిమాండ్లను 18
ఉడ@@ 18
దనే 18
చేస్తున్నప్పుడు 18
పుతిన్ 18
కష్టాలను 18
కలిగిస్తోంది 18
ముంబయిలోని 18
కృత్య@@ 18
కాన్పూర్ 18
వినిపిస్తోంది 18
క్యాబినెట్ 18
డాట్ 18
పూర్వీ@@ 18
తమిళనాడు@@ 18
పరుగు 18
ప్రొటీ@@ 18
ంతర@@ 18
భి 18
టీరియ@@ 18
ట్టం 18
నిత్యావసర 18
సోనియా@@ 18
పశ్చిమ@@ 18
సభను 18
గుజ్@@ 18
తమిళనా@@ 18
ణే 18
విశ్వసి@@ 18
జగపతిబాబు 18
ఞ 18
వెనక్కు 18
లైనా 18
జరిపి@@ 18
దుడు@@ 18
నెను@@ 18
నీయులు 18
వాలె@@ 18
తాళం 18
పర్వది@@ 18
వహించాలి 18
దుర్వినియోగం 18
వాని@@ 18
ఐఎఫ్@@ 18
స్టో 18
ఖాదీ 18
గొప్పది 18
ఆస్ట్రేలియాతో 18
వినియోగ 18
తగినన్ని 18
భాగస్వామ్య@@ 18
మెజారిటీ@@ 18
బీబీ@@ 18
మేళ@@ 18
ప్రపంచమంతా 18
బాధగా 18
కలెక్టర్లు 18
బిగ్గెస్ట్ 18
పలుకుతోంది 18
ఇంద్రా@@ 18
సమన్వయం 18
త్యాల 18
విద్యకు 18
యగు 18
అమ్మో@@ 18
ఒంటరి 18
కాబోతుంది 18
క్కల్ 18
ఎస్బిఐ 18
రాష్ట్రీయ 18
లైన్@@ 18
తప్పే@@ 18
ఉక్రె@@ 18
డైతే 18
మేజిస్ట్రేట్ 18
కూటాలకు 18
మయ్యింది 18
నియమింప@@ 18
కొత్తగూడెం 18
నికా 18
ప్పింగ్ 18
కవరేజ్ 18
నికిని 18
58@@ 18
నూరి 18
ఐదవ 18
మధ్యను 18
కూల్ 18
ఫోరం 18
లైంగికంగా 18
no@@ 18
తొలగించి 18
ించబడ్డారు 18
ప్రతిపాది@@ 18
ప్రసి@@ 18
ప్రతిపాదనకు 18
ఇంచ@@ 18
వోలు 18
ఒప్పందంలో 18
వల్లి 18
నంద్ 18
జరిగినా 18
దువ్@@ 18
వైడ్ 18
ఇంకొక 18
విశేషమైన 18
ఉత్తర్వులను 18
నింగ్@@ 18
పరిచర్య@@ 18
ులూ 18
2005 18
సెలవు@@ 18
ముందని 18
ఫిలిం@@ 18
అభ్యర్థన 18
ఇన్పుట్ 18
మిలిటరీ 18
ఇంజనీర్ 18
వ్యక్తంచేశారు 18
ప్రకటిస్తారు 18
అఫ్గానిస్తాన్ 18
చెప్పగలను 18
కర్త@@ 18
ఎమ్మెల్యేలను 18
కెపాసిటి 18
అనిపి@@ 18
· 18
ములోను 18
తండ్రికి 18
ա@@ 18
ఇన్ఫ్లమేటరీ 17
మృతునికి 17
ప్రభువు@@ 17
ఫిల్మ్స్ 17
నేనెప్పుడూ 17
నలుగురికి 17
కెమెరాలను 17
పశ్చిమాన 17
ఏర్పడి 17
ఉప్పు@@ 17
సతీ@@ 17
ప్రవాస 17
ఎడిటర్ 17
అన్నట్లు 17
ies 17
నిజాయితీ@@ 17
నిలువర@@ 17
వర్కౌట్ 17
చివరిగా 17
క్షతగాత్రులకు 17
ఒక్కరే 17
నేతృ@@ 17
కోట్లకుపైగా 17
ప్రత్యక్షంగా 17
శాంతియు@@ 17
యింటి@@ 17
ప్రజలలో 17
మస్@@ 17
వినోద 17
ఎస్ఏ 17
త్రాగడానికి 17
దినకరన్ 17
పెడుతుంది 17
సున్నితంగా 17
ఫలితాల్లో 17
నమ్ముతారు 17
ఆత్ర@@ 17
ఏమవు@@ 17
లౌకి@@ 17
29,@@ 17
తేలిపోయింది 17
ఎన్ఎస్ 17
ఎమ్ఎమ్ 17
పక@@ 17
ఆరోపిస్తూ 17
మండ్ 17
బిట్ 17
లోక 17
కెమెరాల 17
పట్టుకునేందుకు 17
మార్చిన 17
ఖని 17
చికిత్సకు 17
ఏకీభవ@@ 17
ధ్వంసమ@@ 17
రివ్యూ@@ 17
ట్రయం@@ 17
ఉత్తరప్రదేశ్లోని 17
ట్విస్ట్ 17
విమర్శలను 17
ఆసీస్ 17
ఔరంగా@@ 17
తుదిశ్వాస 17
న్సర్@@ 17
వైద్యశాలకు 17
యౌవ@@ 17
ప్రయాణాలు 17
నడిచింది 17
పఠాన్ 17
పెద్దఎత్తున 17
సమస్యగా 17
సాగునీటి 17
పర్యటించారు 17
నాయకత్వంలోని 17
కుతో 17
అభ్యర్థనను 17
నడుస్తుంది 17
సంక్షోభ@@ 17
ఉద్యోగంలో 17
ఎదుర్కో@@ 17
సాఫ్@@ 17
గమనం 17
నిర్వీ@@ 17
ప్రకృ@@ 17
క్స్డ్ 17
ఇన్ఫోటైన్మెంట్ 17
ఉండాల్సిన 17
ఫిబ్రవరిలో 17
కృష్@@ 17
ప్రగ@@ 17
స్వయంచాల@@ 17
నిరుద్యోగులకు 17
విలేకరుల 17
నాయకురాలు 17
ఈత 17
లక్ష్య 17
డున్న 17
అయిదుగురు 17
చేయక 17
కుక్క 17
హాల్@@ 17
ఈఈ 17
పంచుకున్నాడు 17
తెరిచి 17
ers 17
హరియా@@ 17
కొంచె@@ 17
బిజెపిలో 17
ఉద్దేశంతో 17
అసి@@ 17
నల్లగొండ 17
మేక్ 17
ప్రచారానికి 17
శుద్ధి@@ 17
ఉన్నానని 17
పోల్చుకుంటే 17
ఏళ్ళ 17
రోహిణి 17
నల్ల 17
మెగావాట్ల 17
అందర్నీ 17
వులతో 17
ించువాడు 17
డీకే 17
జోసెఫ్ 17
తోందా 17
వెళితే 17
మవుతున్నారు 17
కోట్లాది 17
పనిచేస్తాయి 17
ించుకొన@@ 17
విశాలమైన 17
ింపులో 17
మనసును 17
మెంట్లు 17
వాలే 17
జీడీపీ 17
బడ్జెట్ను 17
కెపా@@ 17
దలను 17
ముడిపడి 17
భిప్రాయం 17
స్వయం@@ 17
మెలి@@ 17
భాషగా 17
ధోర@@ 17
థాయ్@@ 17
మిజోరం 17
చేసుకుంటా@@ 17
సమస్తమును 17
అనుమా@@ 17
ఆత్మకు 17
చేకూర@@ 17
శుద్ధ@@ 17
పొరపాటు 17
చాన@@ 17
వీల్స్ 17
సంప్రదాయాలు 17
పాలి 17
గిట్టుబాటు 17
నోటీ@@ 17
అలాంటిదే 17
క్లుప్తంగా 17
అఫ్గా@@ 17
గీత@@ 17
వంశీ@@ 17
ంటైన్ 17
పోల@@ 17
మారుమూల 17
వ్యవధిలో 17
అమాను@@ 17
మెకా@@ 17
నికల్ 17
తీసుకెళ్ళ@@ 17
హోరాహో@@ 17
నెక్ట్స్ 17
ీల 17
మొక్కల 17
సాధించే 17
అవసరమా 17
ప్లాట్ 17
రక్షణకు 17
బెంగాల్లోని 17
ఖర@@ 17
సద@@ 17
రెడ్డిపై 17
కరిస్తుంది 17
ులలో 17
విశేషాలు 17
విద్యార్థులతో 17
బాడీ 17
పుడ@@ 17
2002 17
జరుగుతున్నాయని 17
వారందరూ 17
ఫ్రికా@@ 17
అందుబాటు 17
కథానాయి@@ 17
ఈడి 17
యుండి 17
సూచి 17
సింగ్ను 17
106 17
స్థాయిలను 17
కన్న 17
స్నేహితుల@@ 17
అభివృద్ధిలో 17
బ్రిడ్@@ 17
నిర్మాణా@@ 17
్యూషన్ 17
ఎంజి@@ 17
అహ్మ@@ 17
విమర్శలకు 17
సన్నని 17
అందుబాటు@@ 17
బారినపడి 17
107 17
వెళ్లాను 17
ఎన్జీ@@ 17
జాగ్@@ 17
పాటలను 17
మధ్యప్రదేశ్@@ 17
మిజోరాం 17
టింగ్లో 17
ఇంకొ@@ 17
కోలుకున్న 17
క్గా 17
అవతరించింది 17
గుజరాతీ 17
చిల్లర 17
నదుల 17
రేగింది 17
ప్రాధమిక 17
శాలలు 17
బంగ@@ 17
మిన్న@@ 17
రద్దీ 17
బడు 17
చెల్లిస్తారు 17
ఉత్తీర్ణ@@ 17
బాగ్@@ 17
అలసి@@ 17
సంవత్సర 17
త్వర 17
నేతలపై 17
మహమ్మారిని 17
సూత్రాలు 17
డమ్ 17
తరిమి@@ 17
ఐక్యంగా 17
సీనియ@@ 17
గిల్@@ 17
ప్రకార@@ 17
మీరెలా 17
అమిత్@@ 17
ఆలోచించడం 17
నాకేం 17
కుర్చ@@ 17
నిందితులుగా 17
పీరియ@@ 17
అనువర్తన@@ 17
కంటూ 17
బీటెక్ 17
సర్టిఫికె@@ 17
అధ్యయనంలో 17
మెంటరీ 17
షియోమి 17
రజనీ 17
చంద్రుడు 17
మట్టి@@ 17
సంవత్సరాలుగా 17
ధ్యాయ 17
నాగి@@ 17
వేరే@@ 17
మృతుడి 17
డన్న 17
టెం@@ 17
ఉడిక@@ 17
నిర్వాణ 17
అడగడం 17
క్రమిత 17
ఆయనకి 17
భాగము 17
వదే@@ 17
అనుకుంటున్నారు 17
సాగుతున్న 17
క్షేప@@ 17
కుమ్మ@@ 17
ఆవిష్కరించిన 17
వహిస్తూ 17
బ్రిటిషు 17
జేడీ@@ 17
లాజి@@ 17
పత్రికలు 17
ల్లం@@ 17
కల్నల్ 17
తున్నామన్నారు 17
ారాల 17
ట్లోనే 17
లేవీ 17
చేర్చిన 17
సీలకు 17
కథే 17
ఫ్యాక్ట@@ 17
రాములు 17
ఫర్ని@@ 17
భగత్ 17
వరకే 17
నామినేషన్ల 17
వేడుకలను 17
బినెట్లో 17
జాత 17
స్వాధీన@@ 17
నిజమేనా 17
క్కువ 17
ఈదురుగ@@ 17
ఏడవ 17
కూలీ 17
ఉపశ@@ 17
వెని@@ 17
బాబాద్ 17
తేమ@@ 17
నెగ్గిన 17
పదుల 17
వస్తూనే 17
బాల్యం 17
ఉంటున్నాయి 17
న్నం 17
ఓర్@@ 17
మాస్టర్స్ 17
భూముల 17
నికైనా 17
నగరాలకు 17
స్ప్ర@@ 17
పరచడం 17
శీతో@@ 17
పేశారు 17
స్తుంటుంది 17
av@@ 17
కక్ష్య@@ 17
పెరగడానికి 17
వ్యవస్థపై 17
ముగల@@ 17
జాతీయాధ్యక్షుడు 17
సూరత్ 17
బబులోను 17
తిండి 17
జవాబులు 17
వోల్@@ 17
నాన్@@ 17
ఫస్ట్లుక్ 17
నిరం@@ 17
మెమర@@ 17
ఢీకొని 17
అలసట 17
ఫోన్ను 17
ఇతరులను 17
పింఛను 17
ట్కి 17
వైవీ 17
కొన 17
పేరొ@@ 17
మిర్చి 17
పిడ్ 17
పురంః 17
ఢీకొన్న 17
హృదయపూర్వక 17
కళలు 17
గవర్నమెంట్ 17
సక్సె@@ 17
ప్రకటించి 17
పినర@@ 17
సిఫార@@ 17
కూల్డ్ 17
గుణంగా 17
చుకునే 17
ఇవ్వబడిన 17
విదితమే 17
నిర్దార@@ 17
ప్రాక్టీస్ 17
మాటల్లో 17
నములు 17
ర్జీ 17
తమైనది 17
గమనించవచ్చు 17
నుగూర్చి 17
సమర్థంగా 17
స్టాప్ 17
కోవాల్సి 17
మధ@@ 17
ఆత్మహత్యలు 17
మోటార్@@ 17
చిరుత 17
క్రీడ 17
ఇస్తున్న 17
స్తులకు 17
సంద@@ 17
ఎఫెక్ట్ 17
వీధు@@ 17
ఎంఎస్ఎం@@ 17
దూరాన్ని 17
ఎర్ర 17
ఎరి@@ 17
తుంటుంది 17
తీర్మానాన్ని 17
విశిష్ట 17
బాబ్రీ 17
సాధికారత 17
ప్రణాళి@@ 17
న్యూఢిల్లీలో 17
నాల్గవ 17
ఒలింపిక్స్ 17
ంగుల 17
స్పందించి 17
వాడా 17
01 17
మెమరీ 17
క్రీడాకారులు 17
మరువ@@ 17
జబ్బు@@ 17
ఎదురవుతాయి 17
డిజి@@ 17
నిశి@@ 17
రవీ@@ 17
క్రైం 17
పుట్టగొడుగులను 17
తీసుకుంటామన్నారు 17
చేస్తాయని 17
పేలి@@ 17
ప్యాక్ 17
ఆకాంక్షి@@ 17
దగ్గరలోని 17
ఏకాగ్ర@@ 17
కావాలనే 17
నిప్ప@@ 17
పండుగను 17
కేసుగా 17
మందల@@ 17
మారుతూ 17
మెంటే@@ 17
ఉద్రిక్@@ 17
కక్ష@@ 17
మంచిగా 17
మాట్లాడేందుకు 17
ఆకట్టుకునే 17
మిగిలినవి 17
అక్కడిక్కడే 17
తమయ్యాయి 17
దేవగణ్ 17
టమ్ 17
పరిజ్ఞా@@ 17
ఉంటున్న 17
మిళి@@ 17
చూపించారు 17
ముస్లింల 17
ఒకటి@@ 17
550 17
తెచ్చారు 17
హెల్ప్ 17
ముఖ్ 17
ముఖ్యమంత్ర@@ 17
భావోద్@@ 17
కళాకారులు 17
జరుగుతూ 17
రుతుపవ@@ 17
నడక 17
వ్యో@@ 17
బ్యాడ్@@ 17
అపరా@@ 17
ములన్నియు 17
సెగ్మెం@@ 17
భూగర్భ 17
సృష్టికర్త 17
నిండిన 17
రీల్స్ 17
అన్నదే 17
ఖాతాను 17
శారని 17
పరీక్షి@@ 17
కాలపు 17
నాటి@@ 17
సిల్ 17
నువ్వే 17
చేయొచ్చు 17
నట్లును 17
మిది 17
హూ 17
క్లిష్టమైన 17
తీస్తుంది 17
బాదా@@ 17
స్టీరింగ్ 17
హవా 17
ప్రదర్శించింది 17
కొనసాగించారు 17
కుంబ్లే 17
ప్త@@ 17
నువ్వ@@ 17
ందరికీ 17
మాల్యా@@ 17
నేంద్ర@@ 17
దుగా 17
చిత్రబృందం 17
pro@@ 17
21,@@ 17
డిఫెన్స్ 17
డివి 17
నుగాక 17
ఉండదని 17
యాక్సెస్ 17
ప్రదేశానికి 17
దేశము 17
కావలి@@ 17
పూర్తిస్థాయి 17
గ్రో@@ 17
పూర్వక@@ 17
ప్రతిపాదించారు 17
ప్రదేశ్లో 17
కొనే@@ 17
చేరగా 17
ఆలయాలు 17
అమూల్య@@ 17
నగరాల 17
కరాచీ@@ 17
ప్రకంపనలు 17
ింపజేయ@@ 17
ళ్లపై 17
ఉలి@@ 17
పార్కు 17
ద్రవ 17
బ్లు 17
పుణ్య@@ 17
నగరంగా 17
గాడి@@ 17
ఆక్స్@@ 17
ఫర్డ్ 17
గోస్వామి 17
కిన 17
మృగ@@ 17
తెలంగాణలోని 17
పాలక@@ 17
కాలేజీ@@ 17
సౌకర్యాలను 17
ంచింది 17
ధీటుగా 17
ly 17
ప్రాముఖ్యతను 17
దానికంటే 17
పరశు@@ 17
ఐక్యరాజ్య 17
పెట్టుకో@@ 17
విద్@@ 17
ప్రయోగించారు 17
400@@ 17
నవ్వులు 17
ఆసన్న@@ 17
కరే@@ 17
బంగాళాదుంపలు 17
తొక్కి@@ 17
చైతన్య@@ 17
దాడి@@ 17
ప్రతిపాదించింది 17
తరువా@@ 17
కోడ@@ 17
గడిచి@@ 17
స్విట్జర్@@ 17
ఆఫ్రిక@@ 17
కరెక్ట్ 17
పగు@@ 17
వెతుకు@@ 17
ఆవేద@@ 17
సారాంశం 17
విజయవాడ@@ 17
యన్ల 17
ులందరికీ 17
పతాకం 17
అక్రమా@@ 17
లైట్లు 17
భూమ్మీద 17
బీఐ 17
తెల్లవారుజామున 17
పదవిలో 17
రాబర్ట్ 17
డైరెక్టరేట్ 17
స్ట్లో 17
మమత 17
రూల్స్ 17
దహ@@ 17
పీఎస్@@ 17
రాఘవ 17
గ్గు 17
గొట్టు@@ 17
కావల్@@ 17
స్తంభాలు 17
ఏంట@@ 17
ఇమేజ్ 17
కుంటాడు 17
పోతూ 17
ఱ 17
స్వావలంబ@@ 17
అరుణ్@@ 17
మాటేమిటి 17
సామాగ్రి 17
జాతిని 17
లోబడ@@ 17
సహకారాన్ని 17
అటార్నీ 17
టిన్ 17
హింసాత్మక 17
ఒక్కోసారి 17
హర్ష్ 17
క్ష్@@ 17
పట్టారు 17
హోల్@@ 17
వర్గాలను 17
పన్నులు 17
ప్లానింగ్ 17
ందిగ్@@ 17
విజృంభ@@ 17
ఆకాంక్షించారు 17
స్తం 17
మసా@@ 17
మజ్@@ 17
కొమ్మ@@ 17
కర్ఫ్యూ 17
ఉత్పత్తిలో 17
వెంటిలే@@ 17
అలాంటిది 17
ఘట్ట@@ 17
వ్యవహరించిన 17
లేకపోయాయి 17
యాంగి@@ 17
ఫరో 17
లేదన్న 17
ముమీద 17
డ్తో 17
పెరగడంతో 17
మృతిపట్ల 17
ాయే@@ 17
పంటలకు 17
మునుపు 17
సిన@@ 17
సాక్షా@@ 17
అద్దె@@ 17
డుగు 17
తలసాని 17
దేశాయ్ 17
పోలీసులతో 17
సవాలు@@ 17
జరిగిందంటే 17
స్పెసిఫి@@ 17
ధార్@@ 17
సన్నివేశాలు 17
కూర్చొ@@ 17
వ్రాశాడు 17
అల్బే@@ 17
తీసే 17
ఎంజీ@@ 17
దీప్తి 17
మళయా@@ 17
లెజెండ్ 17
నమే 17
సీతా@@ 17
ఇస్లామా@@ 17
వలు 17
కట్టడి 17
నాడ్ 17
బులు 17
కార్యాలయ 17
మానవాళి 17
రమే@@ 17
నడుము 17
గురించ@@ 17
స్పెషాలిటీ 17
వసర 17
టర్నో@@ 17
తత్వం 17
జలమయ@@ 17
బాలికలు 17
యన్షిప్లో 17
కణాలు 17
దించారు 17
అనౌన్స్ 17
సరిపోదు 17
ఆస్ట్రేలియాకు 17
ఇందిరా@@ 17
మారుతున్నాయి 17
ఇష్టా@@ 17
ఇప్పట్లో 17
వెహికల్ 17
మిత్రులారా 17
బోమని 17
ఇబ్బందిగా 17
ండెడ్ 17
రేకెత్త@@ 17
ఘట్టం 17
క్షులు 17
పడతాడు 17
డీల్ 17
ప్రదేశంగా 17
కాంతి@@ 17
2014లో 17
ఫోన్లను 17
నాగాలా@@ 17
ప్రెషన్ 17
స్సా@@ 17
మూతపడ్డాయి 17
ఒకదానితో 17
పాశ్వాన్ 17
fo@@ 17
అఖిల 17
లున్న@@ 17
పము 17
తను@@ 17
పథంలో 17
పరీక్షించిన 17
పోస్టులు 17
ట్రాఫి@@ 17
మ్మట 17
ఖీ 17
చివర@@ 17
చెల్లెలు 17
నాకు@@ 17
ad@@ 17
ంతరాలు 17
ఆయుధ@@ 17
సన్నిహితంగా 17
జరిగిందన్నారు 17
భారతీ 17
కొట్టడం 17
బాయి 17
క్రమే@@ 17
వైవిధ్యం 17
తీర్థ@@ 17
ఆసుపత్రి@@ 17
సలీ@@ 17
హైదరాబాదులో 17
పూను@@ 17
సుధీ@@ 17
ఉష్ణ@@ 17
యాజకుడు 17
జలమయం 17
వాస్తవాలను 17
అనుమానితులను 17
జనులకు 17
మానవా@@ 17
విచ్@@ 17
ఆర్టికల్లో 17
కధిపతి@@ 17
టూర్ 17
కన్నీళ్లు 17
గాయమైంది 17
అనుకర@@ 17
అనివార@@ 17
క్రాంతి 17
సెంట్ 17
డిఎస్ 17
ఎంసీ 17
డిజిపి 17
నటేష్ 17
ట్రెక్కింగ్ 17
పుట్టింది 17
ంద్కు 17
అనుభవాన్ని 17
దూసు@@ 17
జౌ@@ 17
ప్యాకేజీని 17
ఉగ్రవాదాన్ని 17
పర్యాయ@@ 17
సైన్యంలో 17
నికో 17
ఉనికిలో 17
వున్నది 17
మీది@@ 17
భరద్వా@@ 17
ఎన్ని@@ 17
ఐఆర్సీటీసీ 17
అధ్@@ 17
జితే@@ 17
సమ్మెకు 17
విప్ 17
వాలంటీ@@ 17
ుడిని 17
తెలుసుకోవాలంటే 17
ఎంఐ 17
దర్శన్ 17
పిటిషన్లను 17
జ్కు 17
ాలయ 17
బ్యాంకుల్లో 17
అప్లోడ్ 17
నిమగ్న@@ 17
ింపగా 17
డర్@@ 17
నించు@@ 17
స్క్రీన్@@ 17
సిఎల్ 17
శాంత 17
వైద్యా@@ 17
సాగలేదు 17
ఆకాంక్ష 17
చూపించింది 17
అమల@@ 17
ఇయర్ 17
ఫిలి@@ 17
దాడుల 17
విధే@@ 17
ించబడుతోంది 17
క్లను 17
యథా@@ 17
వివరించాడు 17
సింఘ@@ 17
మీదా 17
విడిచిపెట్ట@@ 17
నిట@@ 17
స్కిల్ 17
ొద్దకు 17
వడగ@@ 17
అనుసరించండి 17
మగా@@ 17
పరిష్కార 17
వర్గీకర@@ 17
జెర్@@ 17
రూపు@@ 17
బొమ్మ 17
గిఫ్ట్ 17
చెన్నైలోని 17
16.@@ 17
రాయల@@ 17
దరి 17
విద్యాసంస్థలు 16
పూజి@@ 16
మేషన్ 16
భుజం 16
ేవి 16
ప్రమాదాల్లో 16
నోవహ@@ 16
తీసుకురావాలని 16
మొండి@@ 16
చెరిగారు 16
చేయగలరు 16
తిని@@ 16
ప్యత 16
పాఠ్య@@ 16
స్ట్రేషన్ 16
ఏప్రి@@ 16
స్త్రాలు 16
డిపాజిట్లపై 16
రాఘవే@@ 16
జరగబోయే 16
మొట్ట@@ 16
వ్యక్తితో 16
వెలువడలేదు 16
తయారీకి 16
బైకులో 16
ప్రమాణాల 16
వృద్ధులు 16
బడినవి 16
సిర్@@ 16
పరామర్శించారు 16
ముందుకొ@@ 16
చేసినప్పటికీ 16
ల్యాబ్ 16
వర్సిటీ 16
తలంపు@@ 16
చేయాలంటే 16
ార్డ్ 16
శ్రద్దా 16
మేము@@ 16
య్యాక 16
పార్ల@@ 16
పదవి@@ 16
న్నత 16
సంచా 16
స్క్యూ 16
చూశాయి 16
పోస్ట్మార్టం 16
మాజీ@@ 16
డిస్క@@ 16
బలాన్ని 16
తప్పించుకో@@ 16
తిరువనంతపురం 16
యంత్రా@@ 16
పోర్చుగీ@@ 16
పలువురి 16
తూచి 16
తర్ 16
పోస్టాఫీ@@ 16
సినిమాటోగ్ర@@ 16
బ్యాటింగ్@@ 16
సెగ్మెంట్లో 16
మెల్@@ 16
డ్సన్ 16
పవర్స్టార్ 16
పరారయ్యాడు 16
త్మకత 16
ఛి@@ 16
లైంగిక@@ 16
సభల్లో 16
చూడు@@ 16
హృ@@ 16
నమూనాను 16
మెంట్లో 16
ఫిలిమ్స్ 16
నాంది 16
సృష్టించాడు 16
సహోదర@@ 16
సంతోషకరమైన 16
విమర్శ 16
వ్రే@@ 16
సంపర్@@ 16
బహుళ@@ 16
వెయ్య@@ 16
సన్యా@@ 16
వాటిల్లో 16
రిమో@@ 16
సిద్ధమైంది 16
స్వతంత్రంగా 16
వెళ్ళాలి 16
తేదీలు 16
రామే@@ 16
ించినవారు 16
ళయ@@ 16
ఊరి@@ 16
రైఫి@@ 16
తున్నావ్ 16
పఠ@@ 16
చేయగలదు 16
మంచు@@ 16
తార్@@ 16
పూనమ్ 16
జాక్ 16
కన్నుమూ@@ 16
రైట్ 16
విలా@@ 16
దిల్లీలో 16
సమావేశ 16
దాయం 16
సబర్@@ 16
పెర్ఫార్@@ 16
జరీ 16
విశ్రాంతి@@ 16
స్టీఫెన్ 16
రాజుల 16
మున్నీ@@ 16
న్సెస్ 16
లక్షలను 16
లితో 16
టెలికం 16
నోటి@@ 16
రెస్టారెంట్ 16
న్యూఢిల్లీలోని 16
రైన్ 16
సంభవించే 16
సురక్షితమైన 16
అబ్రాహా@@ 16
వంశం 16
నేనేం 16
మృతదే@@ 16
చుక్క@@ 16
పెడుతోంది 16
తగ్గుదల 16
ీవు@@ 16
మల్టీ@@ 16
టీతో 16
తగ్గించే 16
యిన@@ 16
మధ్యంతర 16
ద్వేషం 16
ఉద్ధ@@ 16
హైలైట్ 16
దాడులను 16
ప్రాణాపాయం 16
బిసి 16
లీటరుకు 16
వివరణాత్మక 16
బాటును 16
వాహక 16
పంక@@ 16
సాయంత్ర@@ 16
పిల్లలపై 16
శాలలో 16
వెల్లువెత్తుతున్నాయి 16
నున్నాయని 16
ఇండో@@ 16
బెయిల్పై 16
టాక్స్ 16
నీదత్ 16
ముసాయిదా 16
విచ్ఛి@@ 16
యాలని 16
హోం@@ 16
యింట్ 16
సోదరులు 16
బలగాల 16
ప్ర 16
రాసి 16
హబ్ 16
నిండు@@ 16
ముతోను 16
మాటి@@ 16
పగల@@ 16
సాధ్యమవుతుంది 16
తామన్నారు 16
తగ్గలేదు 16
నిజాం 16
మైఖేల్ 16
మనవడు 16
జాద@@ 16
రాజస్థాన్లోని 16
బండి 16
తలెత్తింది 16
ప్రియా 16
శ్రేయస్ 16
రిష@@ 16
స్క్రీ@@ 16
\@@ 16
టీజర్ను 16
బలహీన 16
ప్రోటో@@ 16
ప్రధానా@@ 16
ప్రజారో@@ 16
భంగి@@ 16
ధ్యం 16
అనూ@@ 16
రూపొందుతుంది 16
దిగాడు 16
భన్స@@ 16
లోగల 16
ప్రాంగ@@ 16
నెలకొల్పారు 16
సరిహద్దులలో 16
స్టిక్స్ 16
సబ్సి@@ 16
డాక్టరు 16
పరిశుభ్రత 16
నివారి@@ 16
జర్నలిస్ట్ 16
గుప్ప@@ 16
వాట్సా@@ 16
దుయ్య@@ 16
చ్చ 16
వెడ్డింగ్ 16
షాట్ 16
తల్లీ 16
సారథ్యంలో 16
ధికార 16
రావడంలేదు 16
విడి 16
మార్చబడింది 16
షియో@@ 16
వెలువడనుంది 16
దొంగి@@ 16
లిసి@@ 16
భగ్గు@@ 16
థరిన్ 16
ించినట్లుగా 16
వాచ్ 16
ించవద్దు 16
వద్దా 16
దిగ్భ్రాంతికి 16
మంచిర్యాల 16
ట్రూ@@ 16
చేర్పులు 16
దేవీ@@ 16
విశాల@@ 16
శ్వంత్ 16
హాల@@ 16
ించుకుంటారు 16
మార్ 16
ధ్రువీకరణ 16
తల్లో 16
అగర్@@ 16
చెప్పుకోదగ్గ 16
గతి 16
పెరిగిపోతుంది 16
ప్రవేశి@@ 16
పట్టణము 16
సంపాదించిన 16
జరుగుతోందని 16
జెప్ప@@ 16
మార్కులకు 16
జాతికి 16
భయపడి 16
పరిజ్ఞాన@@ 16
భీమ@@ 16
దర్యాఫ్@@ 16
పుత్రు@@ 16
నూనెలో 16
పండ్@@ 16
చెప్పలేం 16
హడావు@@ 16
వివక్ష@@ 16
ఛే@@ 16
స్టాక్స్ 16
రాణా 16
విల్@@ 16
జైషే 16
తెరుచు@@ 16
పౌరుడు 16
షోరూ@@ 16
నేర్పించ@@ 16
జిఎస్ 16
బ్యాండ్ 16
బాబీ 16
ప్రీతి 16
స్వీకరించింది 16
నిద్రపో@@ 16
జ్వర@@ 16
నేచురల్ 16
జయి@@ 16
భిన్నం 16
నాదె@@ 16
మధ్యవర్తి@@ 16
విజృంభి@@ 16
సాంగ్స్ 16
మాన్యుయేల్ 16
హైలెట్ 16
భద్రాద్రి 16
సంయ@@ 16
రెండవ@@ 16
శాఖా 16
ింపుము 16
భారతీయులకు 16
జట్టుతో 16
సుప్రీంకోర్టుకు 16
ప్రమాణాలను 16
బాలుడిని 16
వివ@@ 16
మొఘల్ 16
యుగం 16
ీలకు 16
నివ్వడం 16
పాదయాత్ర 16
తినాలి 16
పదాలను 16
వ్యక్తమవుతున్నాయి 16
ధరల్లో 16
పీడి@@ 16
దేవీ 16
చేపట్టామని 16
మరచిపో@@ 16
సోకింది 16
డీపీ 16
పృథ్@@ 16
సైనీ 16
పరిగణిస్తారు 16
సిఎస్ 16
చెదరగొట్ట@@ 16
ష్ప@@ 16
బంతి@@ 16
బంపర్ 16
నవ్వ@@ 16
తిరువనంత@@ 16
వేరియంట్లు 16
వస్తువు 16
మాన్యు@@ 16
ద్విపాత్రాభి@@ 16
వర్షన్ 16
టంటే 16
వాణిజ@@ 16
వినోద@@ 16
నిచ్చారు 16
ప్రోత్@@ 16
నిస్తోంది 16
చేపడుతున్నారు 16
క్కె@@ 16
పశ్చాత్తాపం 16
దులను 16
లాంటిది 16
నైవేద్య@@ 16
మోస్తరు 16
మ్మీ 16
శాతం@@ 16
లాహోర్ 16
సర్వీసు 16
నుతో 16
టీడీపీలో 16
దగ్గుబాటి 16
కోహ్@@ 16
సీబీఐకి 16
సాను 16
లమైన 16
విడా@@ 16
శక్తు@@ 16
ర్యాలీకి 16
రాలా 16
వెనుకబడిన 16
బ్బులు 16
శ్రవ@@ 16
వుండవచ్చు 16
ప్రవర్తన@@ 16
వృద్ది 16
స్టేషన్లు 16
మంచినీటి 16
మూడోసారి 16
జిద్ 16
ప్రొడ్యూ@@ 16
బర్స్ 16
ులని 16
పీఎం 16
రిసెప్@@ 16
మేమి@@ 16
లెండి 16
ఆంగ్@@ 16
సన్నీ 16
ప్రాకార@@ 16
స్మా@@ 16
అద్భు@@ 16
ఉచి@@ 16
వికెట్లతో 16
సిస్టమ్స్ 16
నాలలో 16
తుండడంతో 16
సమీప@@ 16
సిక్కులు 16
బంతిని 16
నవారిని 16
నివ్వండి 16
చేయడాన్ని 16
వృథా 16
సేనా 16
సింగిల్స్ 16
పాలనా 16
డ్రైవర్ను 16
సంః 16
రిజర్వాయ@@ 16
దలతో 16
పరిశుభ్ర@@ 16
ప్రాజెక్టులకు 16
సందర్భాలలో 16
రాలో 16
సుమన్ 16
రంగాలు 16
జవాన్ 16
చిలుకు 16
జ్యోతిరా@@ 16
వేరియంట్ను 16
బైఠాయ@@ 16
యాజకు@@ 16
హాస్య@@ 16
సాధించాయి 16
ములైన 16
పెట్రో 16
వేల్ 16
నేటికీ 16
దినే@@ 16
పశ్చాత్తా@@ 16
మోడల్ను 16
వెల్లడిస్తామని 16
హెన్రీ 16
డుతుంది 16
పిసిసి 16
నభా 16
పట్టాయి 16
దాబాద్ 16
భావాలు 16
టుల 16
బౌలర్@@ 16
ప్రత్యు@@ 16
లందరు 16
వివేకానంద 16
నాయకులను 16
పదానికి 16
సీబీఐ@@ 16
విషయములో 16
తగ్గించేందుకు 16
చేరుకోవచ్చు 16
పెంచేందుకు 16
శీఘ@@ 16
పసు@@ 16
తత@@ 16
యేసుకు 16
డ్యూరప్ప 16
వాదీ 16
శైల@@ 16
మ్మర@@ 16
వైకల@@ 16
లడ@@ 16
డెల్@@ 16
న్యాయమూర్తిగా 16
లూయిస్ 16
పరిశ్రమలకు 16
నాశ@@ 16
ఫీలింగ్ 16
చేస్తున్నారో 16
వర్గానికి 16
ఉద్రిక్త@@ 16
యెహో@@ 16
బారి@@ 16
నుద్దేశించి 16
బెని@@ 16
యెహోవాతో 16
య్కుమార్ 16
దూత 16
సాధ్యమే 16
ఫ్లి@@ 16
్యంతో 16
లభ్యమవుతోంది 16
లెటర్ 16
విదేశాల 16
బిజి@@ 16
ద్రం 16
రూర్ 16
పూర్ణి@@ 16
నీతిమంతు@@ 16
ద్య 16
విమర్శకులు 16
పాకు 16
చేరే 16
పొన్నా@@ 16
వైదొలగ@@ 16
ర్ల@@ 16
పాక 16
పేమెంట్ 16
పార్వతి 16
రాధిక 16
బలు@@ 16
చూశారా 16
చూడు 16
ించుకోవటం 16
జాఫర్ 16
సాధించలేదు 16
ఱ్@@ 16
కనీ@@ 16
ప్రశ్నను 16
స్మార@@ 16
యూకే 16
ియా 16
రాలేద@@ 16
ధరకు 16
లోక్సభకు 16
నోయిడా 16
నోయి@@ 16
నౌకాశ్ర@@ 16
రైల్వేశాఖ 16
జిడిపి 16
రామచంద్ర@@ 16
స్వీట్ 16
నిర్థ@@ 16
వాడకాన్ని 16
జర్నల్ 16
నిరంజన్ 16
నేరాల 16
ప్రియుడు 16
భార్యలు 16
రాష్ట్రాలను 16
పట్టా 16
సమీక్షి@@ 16
సౌకర్యవంతంగా 16
నిర్ణయా@@ 16
థర్మల్ 16
చంద్రన్ 16
పాపు@@ 16
ఐగుప్@@ 16
మిథాలీ 16
ప్రతిపక్షాల 16
శతకం 16
తెలుసని 16
టోరియ@@ 16
ల్లర్ 16
మైనారిటీ@@ 16
కోలుకున్న@@ 16
లెవల్ 16
్రెడ్@@ 16
రక్షణశాఖ 16
ధాన్యాల 16
షియల్గా 16
ించేవాడు 16
శరీరాన్ని 16
బెట్టి 16
వ్లో 16
ఫోకస్ 16
నివారించడానికి 16
చేరుకోవడం 16
పరచిన 16
నిక్షిప్@@ 16
బ్రూ 16
యమ్ 16
బ్యాట్స్@@ 16
సోమే@@ 16
శర్వానంద్ 16
థాం@@ 16
వ్యవస్థల 16
స్థుల 16
వ్యక్తీకరణ 16
మారలేదు 16
రాగి 16
చేయకపోతే 16
ద్దా 16
తింటు@@ 16
మెమోరియల్ 16
బెదిరించాడు 16
పెరుగుద@@ 16
ులారా 16
నిబట్టి 16
చికిత్@@ 16
సిక్స్ 16
విలువలను 16
స్పందించ@@ 16
న్నమాట 16
తుమ్మ@@ 16
శ్రేయస్సు 16
సంక్షోభ 16
వారికీ 16
మార్గాలను 16
బాగో@@ 16
తెలుపుతూ 16
నిలదీశారు 16
విశాఖపట్@@ 16
మండిపడుతున్నారు 16
చూడడం 16
శిఖరా@@ 16
ఫాల్@@ 16
తీసుకుంటున్న 16
io@@ 16
చూస్తోంది 16
మహేశ్బాబు 16
తీసుకునే@@ 16
ప్రాంగణంలో 16
మహేంద్ర@@ 16
మతాల 16
మత్తు@@ 16
డీఎఫ్ 16
సుందరి 16
దశాబ్దాలుగా 16
శ్రీశైలం 16
వృద్ధికి 16
లూరు 16
తల్లులు 16
వ్యాధులను 16
నాధార@@ 16
సహకారానికి 16
పర్యావరణం 16
సీఏ 16
వారసత్వ@@ 16
పెట్టండి 16
చెయ్యాలని 16
మిగిల్@@ 16
మంత 16
బ్ల@@ 16
ఆదా@@ 16
వాహి@@ 16
స్డ్ 16
దిగజారి@@ 16
ఛత్తీస్గఢ్@@ 16
మోడి 16
పద్ధతులను 16
ఁ@@ 16
రైల్ 16
లుతో 16
డిఫె@@ 16
తలపడ@@ 16
సమన్వయంతో 16
రుణాలను 16
ట్రీట్మెంట్ 16
జ్జా 16
పాల్గొనే 16
మైలురాయిని 16
విధులను 16
డ్రై 16
వాసి 16
రిజిస్ట@@ 16
వేర్వేరుగా 16
పూర్లోని 16
ట్రయల్ 16
జావ@@ 16
థెరపీ 16
జన్మించాడు 16
వివాహి@@ 16
ోప@@ 16
జామియా 16
చేరుతుంది 16
మహిళపై 16
జోడించారు 16
నాయకులకు 16
పరిస్థితిపై 16
వ్వ 16
పంచాయి@@ 16
ింగులు 16
జిల్లాలకు 16
పిల్లి 16
పత్రాలను 16
వెబినార్ 16
సందర్శకులు 16
లోనిది 16
శం 16
బాలల 16
డియర్ 16
సీమ 16
వియత్నాం 16
కర్స్ 15
పుట్టిన@@ 15
అరో@@ 15
మధుమే@@ 15
జేడీ 15
త్రిలో 15
అంత్య@@ 15
సున్ని@@ 15
ఉంచి@@ 15
ముర@@ 15
ఖర్@@ 15
ఫారె@@ 15
యూష్ 15
డివి@@ 15
సంవత్స@@ 15
యిర్మీ@@ 15
సామ్రా@@ 15
బయలు@@ 15
టన్న@@ 15
ంతు@@ 15
సస్పె@@ 15
నిలదీ@@ 15
డీఎం@@ 15
ల్యాం@@ 15
బారి 15
వేణు@@ 15
వాటిల్లి@@ 15
ఫ్యాక్@@ 15
దరణ 15
రేకె@@ 15
ధీరుడు 15
బారిన@@ 15
వనే@@ 15
థ్ 15
►@@ 15
ఎంఎస్@@ 15
వృత్తా@@ 15
ంథ@@ 15
పెట్టుబడు@@ 15
చేసు@@ 15
డైంది 15
కేజ్రీ@@ 15
కపాటి 15
దిల్లీ@@ 15
అయిదు@@ 15
వేధింపు@@ 15
వ్వరూ 15
పడగొట్ట@@ 15
మెసే@@ 15
Q@@ 15
స్పిన్న@@ 15
మహాత్@@ 15
ఫిక్ 15
°@@ 15
హ్యాచ్@@ 15
బలగ@@ 15
పోస్ట్@@ 15
వేస@@ 15
సింధ@@ 15
విప@@ 15
ధ్యక్షుడు 15
పాకి@@ 15
మన్గా 15
గను@@ 15
రష్@@ 15
రణ్@@ 15
ప్రథ@@ 15
మరొక@@ 15
ల్లుడు 15
ముంబయి@@ 15
టెండ@@ 15
ఎంట్ర@@ 15
పిల్ 15
ఆసుపత్ర@@ 15
సిడె@@ 15
జనీ@@ 15
కటి@@ 15
హ్లా@@ 15
టెర్ర@@ 15
స్వే@@ 15
వ్యత్యా@@ 15
ఆధ్యాత్@@ 15
యస్@@ 15
గఢ్@@ 15
శ్చి@@ 15
అనర్@@ 15
అనుప@@ 15
అంబే@@ 15
కాళ@@ 15
చ్ఛేద@@ 15
తాత్@@ 15
త్రైమాసి@@ 15
లాది@@ 15
కట్టుది@@ 15
ఇశ్ర@@ 15
రిన్ 15
ఫస్ట్@@ 15
అకాడ@@ 15
డయా@@ 15
ఆకర్షణ@@ 15
జాక్@@ 15
నల్@@ 15
జయ్ 15
ేశ్@@ 15
ఎరు@@ 15
ప్రవాహ@@ 15
దౌ@@ 15
భిన్న 15
ఎల్లో 15
ఆఫ@@ 14
జాన్@@ 14
విమర్@@ 14
శబ్దం 14
\ 14
నాటక 14
ఉమ్మ@@ 14
సూర@@ 14
నిఘ@@ 14
ఆటోమే@@ 14
ప్రాతిని@@ 14
బాక్సాఫీ@@ 14
వారణా@@ 14
gh@@ 14
వెన్యూ 14
ులర్ 14
కార్యకలా@@ 14
డిశ్చార్@@ 14
నెగ్@@ 14
ఎంటర్@@ 14
వెయి@@ 14
నినా@@ 14
ావు 14
గేర్బాక్@@ 14
జస్టి@@ 14
వ్యాయా@@ 14
ఫీల్డ్ 14
యోధ@@ 14
మింప@@ 14
వ్యక్తం@@ 14
Th@@ 14
విటమి@@ 14
వ్యయ@@ 14
[...]
