the 73416
of 34288
and 32008
in 31098
to 30295
a 29487
is 25061
The 22134
, 17706
. 16104
ed 13242
S@@ 12700
ing 12117
s@@ 11838
on 11152
for 11055
are 10905
has 10535
s 10515
t@@ 10370
was 9896
b@@ 9831
es 9792
p@@ 9675
be 8817
an 8386
m@@ 8132
by 8018
g@@ 8003
that 7961
-@@ 7889
have 7822
M@@ 7769
f@@ 7586
i@@ 7577
C@@ 7554
in@@ 7551
y 7449
B@@ 7360
at 7304
D@@ 7234
c@@ 7216
s. 7177
will 7163
re@@ 7153
e@@ 7132
d@@ 7119
t 7072
A@@ 7035
with 7017
P@@ 7012
er@@ 6999
er 6922
n@@ 6918
w@@ 6872
e 6869
r@@ 6537
I 6534
an@@ 6531
R@@ 6531
al@@ 6484
as 6474
k@@ 6472
ar@@ 6452
al 6418
not 6392
y@@ 6377
u@@ 6237
v@@ 6208
it 6199
He 6184
T@@ 6128
e. 6004
? 5985
at@@ 5948
h@@ 5866
st@@ 5829
this 5741
it@@ 5689
i 5689
been 5366
K@@ 5199
a@@ 5190
G@@ 5160
th@@ 5148
L@@ 5131
were 5019
N@@ 4982
from 4968
ed. 4957
o@@ 4853
: 4826
also 4812
on@@ 4793
ad@@ 4778
l@@ 4778
F@@ 4776
un@@ 4752
H@@ 4670
It 4648
en@@ 4635
s, 4610
his 4443
ers 4385
am@@ 4362
is@@ 4259
ag@@ 4256
he 4243
(@@ 4222
il@@ 4185
ation 4165
This 4157
ac@@ 4149
ic@@ 4110
E@@ 4076
ra@@ 3983
film 3964
as@@ 3922
y. 3896
ab@@ 3882
ar 3832
el@@ 3820
de@@ 3791
V@@ 3770
But 3754
es. 3712
or@@ 3695
you 3666
di@@ 3614
or 3606
J@@ 3605
ur@@ 3586
all 3547
e, 3528
ro@@ 3501
I@@ 3490
id@@ 3450
ts 3440
2@@ 3438
es@@ 3372
had 3349
ha@@ 3332
O@@ 3322
's 3290
et@@ 3247
one 3215
ted 3213
k 3211
ri@@ 3155
im@@ 3142
said 3128
em@@ 3122
India 3050
d 3027
ul@@ 3015
ch@@ 3009
ol@@ 2972
mo@@ 2964
W@@ 2964
and@@ 2933
3@@ 2930
li@@ 2925
Minister 2906
) 2903
ap@@ 2890
op@@ 2840
ated 2824
Rs. 2823
ed@@ 2766
.@@ 2731
ak@@ 2729
A 2716
m 2706
ly 2699
ent@@ 2693
us@@ 2664
se@@ 2629
There 2610
their 2575
t. 2572
They 2561
am 2546
What 2543
le@@ 2528
res@@ 2507
um@@ 2501
tr@@ 2498
j@@ 2493
ate 2474
h 2463
no 2460
4@@ 2455
th 2447
lo@@ 2423
l 2423
police 2399
a, 2396
om@@ 2389
pl@@ 2384
its 2382
ent 2348
av@@ 2333
pro@@ 2320
they 2312
can 2278
ti@@ 2275
ter@@ 2255
In 2254
en 2254
est@@ 2236
ay@@ 2232
ir@@ 2209
ing. 2204
per@@ 2203
ver@@ 2202
z@@ 2186
1@@ 2182
6@@ 2164
ex@@ 2155
u 2144
ev@@ 2137
con@@ 2133
es, 2130
est 2120
ec@@ 2109
about 2087
two 2081
se 2066
out 2061
! 2055
5@@ 2040
tion 2038
our@@ 2023
er. 2020
we 1993
do 1982
people 1978
a. 1969
U@@ 1969
up 1959
Y@@ 1954
our 1938
7@@ 1922
ve 1922
government 1916
BJP 1905
8@@ 1870
who 1861
We 1845
us 1845
Congress 1845
sh@@ 1837
o 1836
very 1834
ity 1815
har@@ 1792
ne@@ 1790
other 1788
which 1781
Indian 1780
qu@@ 1778
att@@ 1774
ho@@ 1766
sp@@ 1756
te@@ 1755
y, 1752
le 1731
si@@ 1723
ep@@ 1721
ic 1716
age 1706
hi@@ 1697
being 1693
there 1683
0@@ 1681
end@@ 1680
it. 1677
me@@ 1667
Raj@@ 1665
first 1664
new 1657
However, 1655
ud@@ 1654
oc@@ 1652
"@@ 1648
ies 1646
p 1642
ut@@ 1618
against 1614
'@@ 1613
ations 1612
9@@ 1605
She 1597
her 1597
." 1597
we@@ 1589
mar@@ 1585
no@@ 1582
ou@@ 1579
ting 1575
n 1572
ing@@ 1572
wor@@ 1568
5 1562
rec@@ 1556
ment 1554
ath@@ 1554
sc@@ 1548
case 1547
ast@@ 1543
ant 1533
"""@@ 1528
ay 1526
ans 1526
into 1525
be@@ 1518
pre@@ 1518
vi@@ 1517
over 1513
Police 1510
so 1509
tor@@ 1509
acc@@ 1507
cont@@ 1504
should 1499
ig@@ 1496
,@@ 1493
what 1486
man@@ 1485
ance 1479
ind@@ 1474
su@@ 1473
In@@ 1473
co@@ 1466
ist@@ 1461
after 1459
anc@@ 1455
would 1450
ad 1444
Th@@ 1443
your 1442
pe@@ 1436
x@@ 1435
Mo@@ 1430
Modi 1424
ence 1423
more 1410
gr@@ 1410
many 1406
made 1393
- 1391
all@@ 1390
An@@ 1389
to@@ 1388
ang@@ 1386
Rs 1381
movie 1377
St@@ 1377
red 1374
How 1371
per 1358
do@@ 1354
ess@@ 1352
for@@ 1343
er, 1340
2 1338
did 1335
od@@ 1333
ter 1329
fac@@ 1325
he@@ 1325
bo@@ 1324
g 1323
under 1319
Chief 1318
la@@ 1312
ric@@ 1311
enc@@ 1304
ser@@ 1297
film. 1288
ary 1286
ant@@ 1283
them 1281
1 1281
ice 1278
ear@@ 1278
tra@@ 1275
po@@ 1275
oo@@ 1265
3 1262
Ch@@ 1260
ked 1258
ent. 1257
el 1251
""@@ 1251
day 1249
ally 1247
Prime 1247
et 1245
Ar@@ 1244
comp@@ 1239
sa@@ 1235
fe@@ 1235
... 1232
vis@@ 1229
on. 1228
iv@@ 1226
any 1224
ass@@ 1221
ved 1220
d. 1220
up@@ 1216
com@@ 1212
state 1202
war@@ 1201
ish@@ 1199
ann@@ 1197
w 1196
time 1194
8 1190
king 1187
ered 1186
able 1185
ial 1185
rem@@ 1184
add@@ 1184
ure 1180
You 1177
19@@ 1176
said. 1173
par@@ 1170
get 1170
come 1168
but 1163
Com@@ 1157
than 1156
ds 1154
some 1154
sec@@ 1152
my 1145
t, 1139
like 1138
comm@@ 1138
ation. 1131
S 1129
inter@@ 1122
eg@@ 1120
min@@ 1117
ents 1113
als 1113
cl@@ 1111
three 1110
Ra@@ 1109
ai@@ 1107
C 1107
r 1104
Its 1101
ya 1100
lakh 1100
ion 1085
going 1082
these 1082
took 1080
off@@ 1056
ates 1055
pres@@ 1054
led 1054
ks 1052
take 1044
pr@@ 1044
20@@ 1040
ical 1039
ell@@ 1037
ned 1036
such 1035
st 1033
incident 1032
ves 1029
him 1028
7 1026
Sh@@ 1024
ach@@ 1024
ine 1023
il 1022
Al@@ 1020
ities 1020
only 1010
old 1010
br@@ 1004
ous 1004
aw@@ 1003
ther 1003
ish 1002
ill@@ 996
go@@ 995
fi@@ 993
Narendra 992
tur@@ 989
between 988
ue 986
under@@ 981
ch 981
ers. 979
ain@@ 979
place 979
Ad@@ 977
taken 975
P 971
registered 970
And 969
ely 965
ons 964
directed 963
id 961
ation@@ 958
4 954
No@@ 954
good 953
fin@@ 950
tion@@ 950
me 949
tions 949
sho@@ 948
ings 947
are@@ 946
elec@@ 945
e? 945
ph@@ 942
thing 939
post@@ 935
when 935
she 934
Why 930
und@@ 930
dis@@ 927
mis@@ 923
car@@ 923
ati@@ 920
str@@ 916
wh@@ 916
man 914
ite 912
while 912
D 910
6 903
c 903
chief 903
fl@@ 903
oun@@ 901
this. 899
' 893
ed, 891
9 891
No 887
mon@@ 887
Ac@@ 885
ement 884
vic@@ 882
ah@@ 882
need 882
hand@@ 881
ver 881
way 881
x 881
Con@@ 880
tri@@ 879
act@@ 878
al. 875
201@@ 870
R 870
an, 868
uc@@ 866
ris@@ 865
so@@ 864
As 858
star@@ 856
jo@@ 856
Singh 854
For 853
New 852
most 850
ong@@ 850
Pr@@ 846
know 842
au@@ 842
if 837
stat@@ 834
ani@@ 831
produc@@ 830
ps 829
ir 829
ank@@ 829
ther@@ 829
De@@ 827
crore. 825
), 823
ited 822
them. 821
cases 821
any@@ 820
ly. 819
ition 817
Am@@ 817
ata 816
ra 816
increas@@ 815
Ram@@ 814
number 814
an. 810
make 810
pri@@ 807
k. 807
then 804
air@@ 799
part@@ 798
ord@@ 798
ing, 797
uk@@ 795
Ro@@ 795
d, 794
party 793
form@@ 791
eas@@ 791
spe@@ 790
That 790
All 790
end 790
ash@@ 789
ath 787
ce 787
aj@@ 786
50 785
ment@@ 785
ving 785
ple 785
ong 784
Reddy 784
esh 783
during 782
crore 778
00 777
ik@@ 776
ub@@ 774
social 770
that. 770
sur@@ 769
body 767
ning 764
por@@ 764
ar. 763
og@@ 761
lead 761
Delhi 760
minister 757
national 755
tion. 755
der 754
sion 754
injured 752
ws 749
work 745
comple@@ 744
hel@@ 743
Gandhi 743
Telangana 742
how 742
leg@@ 741
ist 741
en. 739
if@@ 739
last 736
inc@@ 734
Wh@@ 733
ast 732
10@@ 730
State 729
sed 728
th. 726
Mar@@ 724
high@@ 722
des@@ 722
igh@@ 720
s: 720
ot@@ 720
part 718
arrested 718
cap@@ 717
ind 717
pur@@ 717
So 716
0 715
han 715
iti@@ 714
tive 714
Is 714
Un@@ 713
used 713
died 713
ating 713
ful 710
ry 710
e-@@ 710
har 710
Man@@ 708
ity. 706
cre@@ 706
tal@@ 706
minist@@ 706
ef@@ 705
ep 704
chang@@ 704
reg@@ 703
beg@@ 702
Re@@ 702
water 701
rel@@ 699
pos@@ 697
him. 696
int@@ 696
shall 696
ali@@ 694
Har@@ 693
nam@@ 693
ble 692
b 692
cas@@ 692
won 691
stor@@ 691
does 690
ana 688
ure@@ 687
cha@@ 685
ty 683
bl@@ 683
ise 682
low@@ 681
ying 681
ion@@ 681
ala 681
just 680
cent 679
happen@@ 678
sub@@ 677
Su@@ 676
bro@@ 676
tors 676
le. 675
Pro@@ 674
fr@@ 674
Rahul 673
those 673
her@@ 672
hospital 671
dont 670
even 670
ke 668
former 667
10 667
gre@@ 666
hol@@ 664
both 663
Pradesh 662
Government 660
family 660
Ex@@ 659
ar, 659
ur 659
ack@@ 658
poin@@ 655
T 654
through 654
spo@@ 652
tain@@ 651
.""" 651
col@@ 649
ari@@ 649
der@@ 648
cent@@ 647
Union 645
ens@@ 645
India. 645
ug@@ 645
cr@@ 644
set 644
ship 643
ion. 643
Andhra 642
ple@@ 642
ail@@ 640
country 640
same 640
leaders 638
over@@ 637
dec@@ 636
already 635
ins 633
out@@ 632
Dev@@ 632
exam@@ 631
nt 630
President 630
down 630
mil@@ 630
s? 629
ain 627
tor 627
Me@@ 627
iz@@ 626
un 625
plac@@ 625
Kumar 624
En@@ 623
h, 622
due 621
ised 621
every@@ 620
loc@@ 619
crores. 618
son 618
cor@@ 617
Tamil 615
leader 615
On 615
te 614
could 614
hal@@ 612
produced 612
/@@ 611
given 611
Ram 611
v 610
arm@@ 609
Do 608
go 608
Cha@@ 608
ff@@ 608
ore 607
ob@@ 606
ets 605
20 604
reas@@ 603
got 603
His 602
um 601
clo@@ 598
cond@@ 597
Thats 597
every 597
ust@@ 597
bil@@ 596
second 596
ight 596
ess 595
tim@@ 594
jec@@ 593
life 592
cho@@ 591
Telugu 591
district 591
re 590
Go@@ 590
ual 589
you@@ 588
low 588
say@@ 587
vo@@ 587
appro@@ 587
rol@@ 586
time. 586
ress 585
ici@@ 584
ak 583
hit 583
These 582
Sha@@ 582
well 582
lin@@ 582
him@@ 582
ms 581
incident. 580
ment. 580
the@@ 579
Par@@ 579
ake 579
hear@@ 578
mat@@ 578
mor@@ 577
happ@@ 577
tem@@ 576
tic@@ 573
pic@@ 570
sol@@ 570
PM 569
sal@@ 569
fer@@ 569
ile 568
cer@@ 568
God@@ 568
killed 568
u, 568
ith@@ 567
resul@@ 566
cle@@ 566
al, 565
next 564
ani 564
ren@@ 564
day@@ 564
,000 563
vel@@ 562
ash 561
among 561
K 561
bu@@ 560
Jo@@ 558
where 558
ures 557
ared 557
much 556
Beng@@ 556
accused 556
After 556
several 555
BJP@@ 555
ering 555
role 554
marri@@ 553
came 553
Ne@@ 550
four 549
Cor@@ 549
sha@@ 548
res 547
quest@@ 547
direc@@ 547
president 547
sion@@ 547
f 546
dem@@ 546
before 546
gh@@ 545
les 545
loo@@ 545
ions 542
tw@@ 541
pp@@ 541
seen 541
them@@ 540
issu@@ 540
pow@@ 539
If 539
lat@@ 539
). 538
ai 538
spec@@ 538
Ab@@ 538
proble@@ 538
few 536
Sabha 536
win@@ 536
ants 536
respon@@ 535
ge 535
pet@@ 534
ach 534
ush@@ 534
another 533
across 533
want 532
gu@@ 532
aff@@ 531
God 531
Z@@ 531
shi@@ 530
re. 529
ack 528
ly, 528
see 527
ill 527
National 527
charg@@ 526
must 526
ful@@ 526
ha 526
Court 525
lead@@ 525
film@@ 524
day. 524
af@@ 523
person@@ 523
ative 523
held 523
enti@@ 521
ments 521
tru@@ 520
ore@@ 519
offic@@ 518
soon. 517
gar@@ 517
lit@@ 517
ult@@ 517
released 516
ign 516
fil@@ 515
back 514
inf@@ 514
ts. 514
Pakistan 513
wat@@ 513
mp@@ 512
cour@@ 512
sk@@ 512
Po@@ 511
movie. 511
ers, 511
test@@ 511
Bi@@ 510
help 509
esh@@ 509
,"" 509
anj@@ 508
ell 507
ory 507
stand@@ 507
ket 506
med 506
still 505
ors 504
rin@@ 504
TDP 502
total 501
one. 501
boo@@ 500
leas@@ 499
rol 499
may 499
Hyderabad 498
" 498
ute 497
ound@@ 496
One 496
& 495
spot 495
ation, 495
eff@@ 495
important 495
went 494
Minist@@ 493
children 493
Shri 493
yet 493
love 492
ven@@ 491
posed 491
ess. 491
too 490
y? 490
doc@@ 490
ped 490
Sec@@ 489
12@@ 488
others 488
ket@@ 488
lot 488
rul@@ 487
Bollywood 485
Many 484
ward 483
Mah@@ 483
Mad@@ 482
alleg@@ 482
port 482
action 482
ia 481
ious 481
ide 480
rit@@ 480
i, 480
that@@ 480
some@@ 479
ous@@ 478
bre@@ 478
each 477
ace 476
called 476
ext@@ 475
look 475
ve@@ 475
death 474
including 474
gener@@ 473
ut 473
announced 473
media. 472
Co@@ 472
act 472
present 471
never 471
ained 471
w. 471
hospital. 471
L 470
ah 469
He@@ 469
ication 468
mak@@ 468
dri@@ 468
Some 468
Bo@@ 468
ter. 467
stud@@ 467
Nag@@ 466
ay. 466
hon@@ 466
video 465
become 465
ad. 465
V 465
ages 465
vid@@ 464
arg@@ 463
ard 463
wn@@ 463
Hind@@ 463
ek@@ 463
hum@@ 462
around 462
vir@@ 462
tions. 461
en, 461
famil@@ 461
use 460
great 460
polit@@ 457
Mal@@ 456
rushed 453
Party 453
ort 451
benef@@ 451
candid@@ 451
court 451
ood 450
Jehovah 450
B 450
Who 450
ound 450
release 449
done 449
bus@@ 448
bas@@ 448
ans@@ 448
IC@@ 447
available 447
wer 447
Then 447
Two 446
At 446
police. 446
case. 446
El@@ 446
ted. 445
continu@@ 445
govern@@ 445
struc@@ 445
different 444
cri@@ 444
read@@ 444
provid@@ 444
side 443
world 441
Lok 441
appl@@ 441
app@@ 441
music 441
trans@@ 440
ive 440
discus@@ 440
n't 439
ram@@ 439
Sam@@ 438
meeting 438
power 437
To 437
sing 437
started 435
ign@@ 434
ank 434
Delhi@@ 434
because 433
here 433
ven 433
head@@ 432
Kar@@ 432
give 432
erc@@ 432
poll@@ 432
ever 431
30 431
connec@@ 431
asked 430
ret@@ 430
land@@ 430
reached 429
People 428
heal@@ 428
ged 427
commit@@ 427
ML@@ 427
year@@ 427
indi@@ 426
pe 426
wn. 426
val@@ 425
Both 425
Modi@@ 425
ount 425
Se@@ 425
kno@@ 425
wic@@ 424
high 424
ually 424
beli@@ 423
appe@@ 423
coll@@ 423
duc@@ 422
O 422
popul@@ 422
various 421
put 421
story 421
wife 420
ies. 420
Sing@@ 419
ence. 419
dist@@ 419
playing 419
langu@@ 419
health 418
US 418
women 418
later 418
gra@@ 418
When 417
ect 417
special 417
rang@@ 417
say 416
officials 416
exc@@ 416
Inter@@ 416
u. 415
team 415
possi@@ 415
emplo@@ 414
respec@@ 412
eng@@ 412
members 412
heav@@ 412
ough@@ 412
proc@@ 411
situation 411
country. 411
ics 410
death@@ 410
pec@@ 410
Govern@@ 410
ther. 409
rest@@ 409
sent 408
actor 408
oper@@ 408
age. 407
reported 407
ara 407
on, 407
ave 406
wn 406
ough 406
Kh@@ 405
ru@@ 405
director 405
j 405
ax@@ 405
World 405
Res@@ 405
Not 405
play 404
ness 404
official 403
memb@@ 403
Mus@@ 403
stars 402
cons@@ 402
ture 401
work@@ 401
Pri@@ 401
serv@@ 401
ol 401
seats 401
with@@ 400
del@@ 400
ad, 400
Rao 399
Shar@@ 399
ital 399
ens 399
well. 398
Bhar@@ 398
order 397
received 397
thy 397
however, 397
friend@@ 396
vie@@ 396
since 395
too. 395
ent, 395
Supreme 395
Ap@@ 395
regar@@ 395
care@@ 394
emb@@ 394
Bank 393
ab 393
right 393
h. 393
15 393
ord 392
az@@ 392
us. 391
occas@@ 390
ey@@ 390
cro@@ 389
complaint 389
West 389
suff@@ 389
succ@@ 389
ations. 389
18@@ 389
off 389
Engl@@ 388
sing@@ 388
ty@@ 388
Chandrababu 388
of@@ 388
Kum@@ 388
ended 388
constitu@@ 387
differ@@ 386
m. 386
fo@@ 386
rest 386
conduc@@ 386
ood. 386
vehic@@ 385
win 385
found 385
ss 384
five 384
pass@@ 383
disc@@ 383
ed? 383
ve. 382
land 382
person 382
14@@ 381
name 381
hom@@ 381
Bh@@ 381
now 380
city 380
Jesus 380
ition@@ 380
wom@@ 380
position 380
Lo@@ 379
form 379
ality 379
rou@@ 379
Ak@@ 379
thing. 378
ember 378
films 378
Char@@ 378
ought 378
mission 378
MP 378
ma 378
200@@ 377
played 376
political 376
self 374
sus@@ 374
econom@@ 373
mi@@ 373
details 373
Sri 373
100 373
lim@@ 373
line 372
sive 372
Ma@@ 372
dra@@ 372
ats 372
nor@@ 372
particip@@ 371
Direc@@ 371
Dont 371
Tr@@ 371
known 371
ine@@ 371
High 370
tain 370
For@@ 370
students 370
ust 370
wa@@ 370
year 370
p. 370
happened 369
why 369
investig@@ 368
along 368
huge 368
dies 367
o. 367
cam@@ 367
based 366
elections 366
CM 366
th, 366
15@@ 366
mit@@ 365
righ@@ 365
Vi@@ 365
this, 365
lear@@ 365
od 364
IP@@ 364
ection 364
long 364
ati 364
ses 363
o, 363
ding 363
fir@@ 362
days 362
coun@@ 362
E 362
%@@ 361
Reddy, 361
immediately 361
here. 361
prot@@ 360
ligh@@ 360
ated. 359
ples 359
sy@@ 359
don@@ 359
Former 359
ca@@ 359
support 358
Sen@@ 358
cou@@ 358
rid@@ 357
election 357
Indi@@ 356
ke@@ 356
big 356
med@@ 356
celebr@@ 355
years 355
educ@@ 355
didnt 355
YS@@ 355
doing 354
bel@@ 354
things 354
fied 354
sel@@ 354
far 353
star 353
farmers 353
persons 353
ural 352
top 352
local 352
12 352
An 351
protest@@ 351
develop@@ 351
Kohli 350
Punj@@ 350
vot@@ 350
ys 350
je@@ 349
features 349
consid@@ 349
follow@@ 349
Ministry 349
ick@@ 348
shifted 347
ka 347
it? 347
decision 346
ines 345
matter 345
ere 344
injur@@ 344
Assembly 344
ild 344
Congres@@ 343
lic@@ 343
ass 343
"" 343
attended 342
Le@@ 342
det@@ 341
play@@ 341
ished 341
ply 341
activ@@ 341
Pl@@ 340
am, 340
Son@@ 340
hav@@ 340
bal 340
lak@@ 340
lost 340
investigation 339
On@@ 338
ams 338
present@@ 338
ings. 338
et. 338
Vijay 338
bat@@ 338
tiv@@ 338
became 338
Pol@@ 338
dom@@ 337
kets 337
Nad@@ 337
ul 336
Sharma 336
bi@@ 336
endra 336
aut@@ 336
expected 335
ency 335
It's 335
ond@@ 335
25 335
working 334
media 334
home 334
ences 334
anti@@ 334
mur@@ 334
amm@@ 334
me. 333
informed 333
ay, 333
fre@@ 333
ity, 333
said, 333
Amit 332
Rav@@ 332
Ag@@ 332
tre@@ 332
Are 332
seat@@ 332
spir@@ 332
abl@@ 332
Be@@ 332
Te@@ 331
vel 331
away 331
giv@@ 331
Twit@@ 330
in. 330
view 330
tak@@ 330
nat@@ 330
hous@@ 330
N 330
Ke@@ 329
ness@@ 329
up. 329
inn@@ 329
distric@@ 329
M 329
really 329
ari 328
Yad@@ 328
best 328
Pakist@@ 328
daugh@@ 328
temple 328
bet@@ 328
Shi@@ 328
ip@@ 328
% 328
pa@@ 328
le, 328
responsi@@ 328
recently 327
Di@@ 327
thre@@ 327
sup@@ 326
As@@ 326
ept 326
inv@@ 326
om 326
retur@@ 325
requi@@ 325
ways 325
sid@@ 325
movi@@ 325
situ@@ 325
India, 325
war 324
mer@@ 324
ham@@ 324
emp@@ 323
ram 323
prices 323
?@@ 323
ing? 323
ents. 323
Christi@@ 323
Mumbai@@ 323
Sat@@ 322
ada 322
anth@@ 322
pati@@ 321
filed 321
fiel@@ 321
bur@@ 321
ame 321
Virat 321
stitu@@ 321
comes 321
ure. 321
ci@@ 321
plays 321
Shah 320
read 320
state. 320
shooting 320
making 320
fore@@ 319
jud@@ 319
BS@@ 319
1.@@ 318
major 318
All@@ 318
Mahesh 318
ade 318
ists 318
issued 317
writ@@ 317
life. 317
Pawan 317
farm@@ 316
run@@ 316
13@@ 316
Nar@@ 316
has@@ 316
bir@@ 315
launched 315
Sa@@ 315
Mumbai 315
roles. 314
adv@@ 313
grou@@ 313
eve 313
following 313
thous@@ 313
Tri@@ 313
Op@@ 313
stand 312
phone 312
aged 312
ened 312
ause 312
Gujar@@ 312
feat@@ 312
progr@@ 312
grow@@ 312
Khan 311
projec@@ 311
conf@@ 311
father 311
ected 311
district. 311
coming 311
see@@ 311
1,@@ 310
ree 310
daughter 310
releas@@ 309
states 309
Im@@ 309
Chenn@@ 309
Bible 309
Parliam@@ 308
peri@@ 308
always 308
't 308
ains 307
gl@@ 307
cy@@ 306
CP 306
dou@@ 306
dd@@ 306
expressed 306
char@@ 305
soon 305
vices 305
Central 305
Bang@@ 305
ack. 305
Vijay@@ 304
tif@@ 303
e: 303
times 303
orts 303
COVID-19 303
key 303
this@@ 303
large 303
decis@@ 303
ate. 302
ones 302
inst@@ 302
youn@@ 302
area 302
viral 302
ard@@ 302
need@@ 302
With 301
aren@@ 301
aking 300
schem@@ 300
Sal@@ 300
equ@@ 300
CC@@ 299
itiz@@ 299
lock@@ 299
als. 299
own 299
men 299
sim@@ 299
South 299
More 299
sl@@ 299
70 298
school@@ 298
uring 298
ces 298
ours 298
Rajas@@ 298
cul@@ 298
ber@@ 298
government. 298
Isra@@ 297
soci@@ 297
ured 297
Secretary 297
acted 297
Chin@@ 297
further 296
kar 296
people. 296
worl@@ 296
arly 296
price 296
plo@@ 296
ters 295
Ker@@ 295
US@@ 295
third 295
Gre@@ 295
16@@ 295
Pat@@ 295
ose 295
nec@@ 294
taking 294
Telangan@@ 294
car 294
trad@@ 293
critic@@ 293
mitted 293
Jehovahs 293
able. 293
iness 293
ort@@ 293
told 293
ail 293
mun@@ 293
ont 292
Off@@ 292
ism 292
other@@ 292
resh 292
ific@@ 291
left 291
glo@@ 291
So, 291
head 291
Trump 291
self@@ 291
tt@@ 291
exp@@ 290
fail@@ 290
vill@@ 290
system 290
se. 290
men@@ 290
foo@@ 289
ide@@ 289
woman 289
iting 288
dr@@ 288
olog@@ 288
change 288
yed 288
fut@@ 287
include 287
pped 287
expec@@ 287
fa@@ 287
crore@@ 286
success@@ 286
ey 286
parents 286
pur 286
husb@@ 286
development 285
depend@@ 285
Whats 285
Don@@ 285
Test 285
difficul@@ 285
Home 285
investigating 285
know@@ 285
not@@ 284
gg@@ 284
think 284
Jan@@ 284
ously 284
agre@@ 284
announc@@ 283
500 283
ste@@ 283
Gods 282
nothing 282
tit@@ 282
report@@ 282
am. 282
Bab@@ 282
camer@@ 281
ident. 281
opportun@@ 281
claim@@ 281
Venk@@ 281
ally, 281
reduc@@ 281
includ@@ 281
getting 281
challeng@@ 281
op 280
initi@@ 280
industr@@ 280
needs 280
amb@@ 280
security 279
ant. 279
Ser@@ 279
sm@@ 279
teach@@ 279
TRS 279
there. 279
question@@ 278
50@@ 278
wr@@ 278
led. 278
Wor@@ 277
cust@@ 277
Three 277
Health 277
bud@@ 277
ask@@ 277
experi@@ 276
brought 276
says 276
likely 276
small 276
Af@@ 276
treat@@ 276
public 276
bank@@ 275
all. 275
bann@@ 275
rate 275
twe@@ 275
Hospit@@ 274
Maharashtra 274
bed 274
40 274
ements 274
ali 274
ic. 274
as. 274
construc@@ 273
month@@ 273
ance. 273
a's 273
Au@@ 273
ref@@ 273
Babu 273
out. 273
According 272
ran 272
information 271
is. 271
sign@@ 271
tee 271
gone 271
house 271
face 271
Theres 270
allow@@ 270
let 270
uri 270
Inst@@ 270
arri@@ 270
Col@@ 270
news 270
accident 269
Australi@@ 268
build@@ 268
senior 268
ye@@ 268
don't 268
wal 268
mother 268
streng@@ 267
dam@@ 267
without 267
es: 267
meet@@ 267
it, 267
whe@@ 266
did@@ 266
but@@ 266
ja 266
audi@@ 266
ater 266
coo@@ 266
Ho@@ 266
Ka@@ 266
anka 266
ayal@@ 266
promis@@ 266
lodged 265
sam@@ 265
ility 265
way. 265
flo@@ 265
positive 265
together 265
Krishna 265
production 265
sure 265
Sriniv@@ 265
countr@@ 265
medical 265
Her 264
female 264
photo@@ 264
laun@@ 264
aj 264
less 264
light 263
yan@@ 263
earch 263
shared 263
eni@@ 263
itional 263
Karnataka 262
meas@@ 262
private 262
date 262
Where 262
G 262
cannot 261
might 261
hy@@ 261
bor@@ 260
incid@@ 260
said." 260
Sun@@ 260
road 260
regul@@ 260
wee@@ 260
meeting. 260
se, 259
edly 259
2.@@ 259
fire 259
Shiv@@ 259
Aj@@ 259
Fir@@ 259
lakh. 258
onda 258
partment 258
Justice 258
i. 258
met@@ 258
200 258
long@@ 258
identi@@ 258
ers@@ 258
ety 258
oll@@ 257
Cour@@ 257
diseas@@ 257
lood 257
Produc@@ 257
joined 257
dest@@ 257
interest@@ 257
issue 257
ars 256
hya 256
continue 256
lad@@ 256
Fil@@ 256
Kashmir 256
tle 256
shoc@@ 256
2020 256
perform@@ 255
polic@@ 255
Pradesh@@ 255
vari@@ 255
Pre@@ 255
Spec@@ 254
six 254
ateg@@ 254
Everyone 254
cal@@ 254
at. 254
Bal@@ 254
viol@@ 254
ror@@ 254
Rail@@ 254
till 253
30@@ 253
Jammu 253
effec@@ 253
wam@@ 253
MP@@ 253
financ@@ 253
ery 252
fight 252
regard. 252
tou@@ 252
wel@@ 252
China 252
match 252
ribu@@ 252
keep 252
umb@@ 252
job@@ 251
invest@@ 251
sch@@ 251
Naidu 251
hop@@ 251
ten 251
ounc@@ 251
cricket@@ 251
sions 251
ft 251
leading 251
Kalyan 251
Med@@ 250
wit@@ 250
passeng@@ 250
17@@ 250
decl@@ 250
book 250
OR@@ 250
Kapoor 249
But@@ 249
sci@@ 249
hab@@ 249
sts 249
main 249
z 249
av 249
KC@@ 248
dic@@ 248
Lak@@ 248
X@@ 248
port@@ 248
record@@ 248
largest 248
achi@@ 248
food 248
hand 248
Qu@@ 247
India@@ 247
full 247
commun@@ 247
Bank@@ 247
located 247
at's 247
Arjun 247
rup@@ 247
sil@@ 246
engine 246
oil 246
curren@@ 246
el, 246
decided 246
ustri@@ 246
alli@@ 246
ems 246
concer@@ 246
sequ@@ 245
reason 245
answ@@ 245
process 245
Sar@@ 245
11 245
24 245
ick 245
dro@@ 245
ination 245
recover@@ 244
ble@@ 244
cost 244
es? 244
Uttar 244
relig@@ 244
organ@@ 244
ten@@ 244
ities. 244
yet. 244
beh@@ 244
market 243
provide 243
areas 243
Indias 243
saf@@ 243
abinet 243
captain 243
ulture 243
ful. 243
icip@@ 242
anted 242
ward@@ 242
ly@@ 242
gave 242
runs 242
world. 242
aled 242
Do@@ 242
Rec@@ 241
Delhi: 241
Wom@@ 241
tom@@ 241
there@@ 241
occur@@ 241
fol@@ 240
import@@ 240
auti@@ 240
rict 240
ince 240
who@@ 240
Her@@ 240
ling 240
que 239
Mohan 239
today 239
coronavirus 239
demanded 239
Of 239
or. 239
treatment 239
unto 239
find 238
de 238
Director 238
impro@@ 238
Ear@@ 237
F 237
Another 237
new@@ 237
irman 237
project 237
pris@@ 237
CBI 237
Several 237
works 237
upon 237
Jag@@ 236
us, 236
Dist@@ 236
uty 236
countries 236
films. 236
ax 236
14 235
ansp@@ 235
Americ@@ 235
children. 235
Chandr@@ 235
water. 235
oul@@ 234
company 234
ening 234
accoun@@ 234
law 234
Hyderabad: 234
girl 234
Will 234
atic 234
whol@@ 234
point@@ 234
NTR 234
suppor@@ 234
tel@@ 234
Im 233
Stat@@ 233
currently 233
again 233
heart 233
India's 233
wro@@ 233
cir@@ 233
four@@ 233
author@@ 233
gir@@ 233
ution 233
itu@@ 232
Asi@@ 232
ally. 232
Centre 232
figh@@ 232
Nor@@ 231
problem@@ 231
pay@@ 231
you. 231
million 231
Hyderabad. 231
technolog@@ 231
deli@@ 231
Tha@@ 231
YS 231
mus@@ 230
Tra@@ 230
vers@@ 230
Is@@ 230
kil@@ 230
centur@@ 230
rishn@@ 230
doesnt 230
qui@@ 230
paid 230
re, 230
main@@ 229
General 229
free 229
workers 229
ties 229
quar@@ 229
invol@@ 229
MLA 229
quir@@ 229
Tamil@@ 229
TV 229
ches 228
aram@@ 228
Univers@@ 228
hal 228
disp@@ 228
imum 228
written 227
avi@@ 227
confir@@ 227
Sub@@ 227
towards 227
reve@@ 227
bow@@ 226
again. 226
ous. 226
Gandhi@@ 226
ble. 226
suicide 226
money 226
Jagan 226
kill@@ 226
well@@ 225
ght 225
tly 225
Pet@@ 225
parties 225
Prasad 225
show 225
canc@@ 225
16 225
way@@ 225
ze 225
survi@@ 224
func@@ 224
nal 224
list@@ 224
Their 224
Sur@@ 224
upcoming 224
/ 224
[@@ 224
so. 224
def@@ 223
elected 223
seri@@ 223
idence 223
Ja@@ 223
alur@@ 222
real 222
Every@@ 222
ored 222
entire 222
wif@@ 222
road@@ 222
village 222
time, 222
ently 221
im 221
erg@@ 221
led@@ 221
red. 221
Finance 221
Fin@@ 221
as, 221
injured. 221
My 221
ment, 221
pat@@ 221
lier 220
inem@@ 220
Pradesh. 220
lic 220
dom 220
let@@ 220
matter. 220
II@@ 220
prof@@ 220
k, 220
bod@@ 220
Sri@@ 220
worked 220
st. 219
syst@@ 219
tion, 219
Ther@@ 219
ese 219
seas@@ 218
Ko@@ 218
ith 218
lif@@ 217
And@@ 216
edd@@ 215
cric@@ 215
TR@@ 215
embly 214
ched 214
pol@@ 213
hospit@@ 213
thers 212
ale 211
] 211
pric@@ 210
can@@ 210
detail@@ 209
immedi@@ 209
ri 209
Redd@@ 209
( 208
toge@@ 208
complain@@ 208
ild@@ 208
numb@@ 207
pub@@ 207
,0@@ 206
inform@@ 205
Sup@@ 205
ef 204
Telug@@ 203
ivers@@ 203
sig@@ 200
Pres@@ 198
ready 196
Na@@ 194
BI 193
ver, 192
retary 192
99@@ 190
vide@@ 190
Kashm@@ 189
ording 188
ays 187
Ass@@ 186
""" 186
org@@ 186
Karnatak@@ 182
receiv@@ 180
Chand@@ 180
Sab@@ 180
medi@@ 179
demand@@ 178
gro@@ 178
ral 177
thin@@ 177
ech@@ 177
me, 176
lik@@ 176
peop@@ 175
Je@@ 175
pon@@ 173
regist@@ 173
fun@@ 172
ond 171
19 171
fore 170
echn@@ 168
ational 167
bec@@ 167
join@@ 167
enn@@ 166
U 166
rom 166
repor@@ 165
Gu@@ 165
ome@@ 165
positi@@ 165
reli@@ 165
hou@@ 165
crit@@ 163
ener@@ 162
arrest@@ 162
hi 162
uch 161
Cent@@ 161
:@@ 161
Maharash@@ 160
cur@@ 159
tod@@ 159
ately 158
avail@@ 158
Pe@@ 158
icul@@ 157
pend@@ 155
amil@@ 154
$@@ 153
Jehovah@@ 153
offici@@ 152
Hy@@ 152
scho@@ 151
eli@@ 148
)@@ 147
Rah@@ 146
thor@@ 146
maj@@ 144
compl@@ 144
Christ@@ 143
ou 143
call@@ 142
outh 142
W 141
!@@ 141
said@@ 140
..@@ 138
aly@@ 137
Pras@@ 137
ustr@@ 135
TD@@ 135
rishna 135
ollyw@@ 134
wards 134
shoo@@ 134
countri@@ 133
liam@@ 132
fur@@ 132
Y 129
poor 129
milli@@ 128
Tel@@ 128
too@@ 128
enior 127
expres@@ 127
tra 127
-19 126
throu@@ 125
fri@@ 125
ident 123
rist@@ 122
paren@@ 122
ge@@ 122
echnolog@@ 121
ich 119
ould 119
pho@@ 118
Koh@@ 115
Hyderab@@ 114
rece@@ 114
ached 114
X 113
Kaly@@ 113
suic@@ 113
J 113
Naid@@ 113
ollywood 111
ren 111
Pun@@ 109
children@@ 109
Prad@@ 107
onavirus 106
ebr@@ 105
does@@ 103
Mod@@ 103
cla@@ 103
_@@ 102
H 102
Q@@ 101
larg@@ 100
angu@@ 100
pul@@ 99
li 99
again@@ 98
urity 98
ishn@@ 98
q@@ 96
Ven@@ 96
Trum@@ 95
COVI@@ 93
Srin@@ 92
Utt@@ 92
incl@@ 90
mer 90
&@@ 90
ashm@@ 88
child@@ 87
Tam@@ 87
Del@@ 87
ome 86
pers@@ 86
thir@@ 84
tot@@ 82
etting 81
priv@@ 81
onavir@@ 79
ad: 79
ustice 78
Acc@@ 77
Mahar@@ 77
decid@@ 77
q 75
Arj@@ 75
Paw@@ 74
+ 72
COVID@@ 72
Vir@@ 72
inj@@ 71
NT@@ 71
halleng@@ 70
devel@@ 70
CO@@ 66
hic@@ 65
hat 65
shal@@ 63
t's 61
VI@@ 59
Jes@@ 58
nex@@ 58
#@@ 57
leng@@ 53
Gand@@ 53
gh 53
dra 51
abin@@ 51
Cong@@ 51
]@@ 50
} 48
cel@@ 46
stem 46
The@@ 43
onom@@ 43
ross 42
ben@@ 41
alth 41
> 39
abu 38
diff@@ 38
hus@@ 37
Vij@@ 37
ushed 37
[ 36
hug@@ 35
hra 35
Tw@@ 34
`@@ 33
+@@ 33
suc@@ 32
Jamm@@ 31
Gener@@ 31
{@@ 30
contin@@ 29
{ 29
ld 28
Chandrab@@ 28
lod@@ 28
shif@@ 27
*@@ 26
BJ@@ 25
vern@@ 25
augh@@ 24
fem@@ 23
@@@ 22
yw@@ 22
Naren@@ 21
Pak@@ 20
ured. 20
| 19
spit@@ 17
ween 16
eric@@ 16
\@@ 14
Jeho@@ 13
jar@@ 12
Mumb@@ 12
igh 11
= 11
* 11
reng@@ 10
}@@ 10
soc@@ 9
Z 9
very@@ 8
|@@ 8
$ 6
Q 6
fter 6
derab@@ 6
avir@@ 6
@ 5
portun@@ 5
inist@@ 4
^@@ 4
Ano@@ 4
=@@ 4
\ 4
ourt 2
Austr@@ 2
>@@ 2
<@@ 2
~ 1
# 1
~@@ 1
^ 1
` 1
Supre@@ 1
ople 1
