ఈ 18867
, 18101
న@@ 15689
క@@ 15412
అ@@ 13840
ప@@ 13306
ర@@ 13246
లో 12785
మ@@ 12781
వ@@ 12361
ం 12188
లు 12090
ల 11626
ల@@ 11348
. 11123
త@@ 11104
గ@@ 10953
ను 10573
గా 10386
ని@@ 10341
‌@@ 10175
స@@ 10103
వి@@ 10017
ఆ@@ 9606
న 9575
జ@@ 9276
ద@@ 9275
డ@@ 8542
న్ 8437
ం@@ 8375
కు 8317
ని 8274
వా@@ 8150
య@@ 8121
బ@@ 7798
హ@@ 7767
స్@@ 7707
ఎ@@ 7504
ట@@ 7292
కా@@ 7243
ాలు 7112
రా@@ 6996
ర్@@ 6852
రు@@ 6790
సి@@ 6740
కు@@ 6652
రి@@ 6652
ఇ@@ 6643
ర్ 6492
ల్ 6420
త 6404
లి@@ 6154
క్@@ 6069
వే@@ 6037
తో 6005
ా 5991
ప్ర@@ 5950
ణ@@ 5927
క 5898
కూడా 5820
చ@@ 5791
ము@@ 5743
డి@@ 5591
కో@@ 5523
మా@@ 5522
: 5520
ించ@@ 5493
న్@@ 5435
ు@@ 5400
ే@@ 5376
కి 5359
ంగా 5357
మి@@ 5346
ట్ 5325
స్ 5307
శ@@ 5306
పు@@ 5302
ది@@ 5246
లను 5231
గు@@ 5217
కొ@@ 5127
ా@@ 5059
తు@@ 5040
నా@@ 5029
? 4964
ి@@ 4934
ే 4868
ఏ@@ 4866
ను@@ 4785
ఆ 4777
ల్@@ 4741
ధ@@ 4726
ం. 4700
డు 4608
మరియు 4589
లా@@ 4505
ారు. 4477
ాల@@ 4463
లు@@ 4461
ీ@@ 4452
చేయ@@ 4375
సు@@ 4355
ి 4349
పా@@ 4326
ంలో 4310
టి@@ 4309
పి@@ 4295
ంద@@ 4277
ష@@ 4276
న్న@@ 4239
తి@@ 4234
(@@ 4229
క్ 4115
సం@@ 4101
ాయ@@ 4098
ించారు. 4078
దు@@ 4070
్ 4022
లకు 4010
ంది. 4008
పో@@ 3995
వు@@ 3942
డు@@ 3904
లేదు. 3900
ంది 3884
సీ@@ 3873
ఒక 3867
పై 3858
ీ 3852
ఇది 3847
2@@ 3836
సా@@ 3811
ండ@@ 3785
ంట@@ 3767
చి@@ 3752
ో@@ 3740
్యా@@ 3685
యా@@ 3671
ఉ@@ 3656
మె@@ 3612
నే@@ 3604
లే@@ 3577
సె@@ 3574
ఆయన 3563
తి 3552
భ@@ 3542
ర 3529
లో@@ 3490
ఖ@@ 3490
ఐ@@ 3487
వీ@@ 3459
ది 3451
ణ 3400
ో 3387
దా@@ 3350
) 3343
ట్@@ 3337
లు, 3333
కర@@ 3303
రు 3273
రూ. 3258
తా@@ 3251
చే@@ 3241
ఫ@@ 3241
వె@@ 3220
ూ@@ 3207
న్ని 3145
1@@ 3123
అని 3081
బా@@ 3064
చేశారు. 3053
జి@@ 3032
బి@@ 3029
పె@@ 3019
క్ష@@ 3014
కి@@ 2986
నీ@@ 2970
ులు 2956
మైన 2956
టీ@@ 2943
నా 2929
గా@@ 2924
చాలా 2917
న్‌ 2907
-@@ 2902
య 2884
ె@@ 2871
ఉంది. 2859
ానికి 2849
న్న 2849
ించిన 2847
ు 2841
3@@ 2790
వర్@@ 2789
ార@@ 2781
డి 2770
పోలీసులు 2765
ూ 2754
మే@@ 2739
రే@@ 2729
ల్లో 2717
‌ 2705
ము 2688
ారు 2679
నుంచి 2678
నె@@ 2678
తీ@@ 2673
వ 2662
నే 2659
గి@@ 2656
స్త@@ 2654
కానీ 2654
ాలను 2638
ప్@@ 2624
పరి@@ 2599
తన 2596
డ్@@ 2588
చూ@@ 2584
4@@ 2573
డ్ 2561
న్నారు. 2554
అను@@ 2551
దేశ@@ 2525
.@@ 2520
దే@@ 2519
మో@@ 2506
యు@@ 2501
ళ@@ 2496
మంది 2486
టి 2460
హా@@ 2442
నం 2441
కే@@ 2436
సినిమా 2421
చు@@ 2407
బ్@@ 2406
ఉండ@@ 2406
అయితే 2389
ించింది. 2375
కోసం 2356
ై@@ 2347
రాజ@@ 2346
లోని 2345
ష్@@ 2338
పీ@@ 2336
అంద@@ 2313
ఉన్న@@ 2312
్య@@ 2311
ం, 2307
మీ@@ 2305
చె@@ 2304
మ 2297
యి@@ 2289
స్ట@@ 2273
కూ@@ 2258
నేను 2250
ట 2242
గ్@@ 2238
! 2230
క్క@@ 2227
ట్లు 2226
థ@@ 2216
పు 2214
ఆర్@@ 2207
ాల్లో 2201
వర@@ 2197
మ్@@ 2173
త్@@ 2172
ాయి. 2152
ట్ట@@ 2140
కాల@@ 2136
ిం@@ 2127
ర్‌ 2124
7@@ 2108
ల్‌ 2108
త్ర@@ 2104
ి. 2098
6@@ 2095
న్‌@@ 2074
మార్@@ 2071
హి@@ 2065
ల్ల@@ 2060
ంత@@ 2053
మంత్రి 2049
ార్@@ 2043
ర్‌@@ 2042
ఒ@@ 2040
ద్@@ 2034
డు. 2030
ఈ@@ 2024
యం 2020
‌లో 2017
స్తున్నారు. 2009
5@@ 2004
వై@@ 2000
రి 1994
రో@@ 1976
 @@ 1974
జీ@@ 1968
్@@ 1967
ప్రా@@ 1962
ఓ@@ 1955
‘@@ 1951
దీంతో 1943
లీ@@ 1943
స్‌@@ 1943
అది 1925
,@@ 1924
డా@@ 1919
వారు 1917
క్ర@@ 1917
జా@@ 1910
రీ@@ 1907
9@@ 1904
ధి@@ 1897
మీరు 1893
చ్చ@@ 1874
దీ@@ 1861
చెప్ప@@ 1854
కె@@ 1839
తుంది. 1837
పే@@ 1831
వాల@@ 1830
నుండి 1824
శా@@ 1823
ఆమె 1823
ు. 1807
ైన 1798
స్‌ 1798
8@@ 1795
ంగ@@ 1786
తే@@ 1784
ాల్@@ 1783
సే@@ 1763
తో@@ 1761
ాయి@@ 1755
త్త@@ 1754
లలో 1748
న్నా@@ 1747
డీ@@ 1734
ాన@@ 1732
కార@@ 1729
ఘ@@ 1725
ంది@@ 1723
మూ@@ 1713
ఉన్న 1710
రై@@ 1709
రాష్ట్ర@@ 1707
టె@@ 1701
తీసుకు@@ 1697
e@@ 1675
వరకు 1672
లా 1670
లతో 1668
్ర@@ 1665
తం 1660
ట్‌ 1655
బో@@ 1643
రె@@ 1641
'@@ 1636
గో@@ 1632
లె@@ 1632
వార@@ 1628
ప్రభుత్వం 1627
త్ 1626
శ్@@ 1624
’ 1622
తెలిపారు. 1619
ొ@@ 1617
ప్రతి@@ 1600
పొ@@ 1598
ాయి 1598
ల్‌@@ 1597
0@@ 1592
ది. 1587
నీ 1583
రెండు 1561
ందని 1552
సి 1551
చేసిన 1549
మీ 1548
వ‌@@ 1547
టీ 1547
బీ@@ 1538
కర్@@ 1537
స్తు@@ 1530
వల@@ 1529
1 1529
ఉన్నాయి. 1528
నికి 1528
కంగా 1524
పడ@@ 1521
a@@ 1519
డం 1516
5 1513
సమ@@ 1513
ంతో 1513
వ్@@ 1510
ప్ 1509
గ్ర@@ 1504
మన@@ 1502
ప్పు@@ 1501
ద్వారా 1500
ంచ@@ 1498
ాలకు 1496
ట్‌@@ 1486
్యూ@@ 1484
య్య@@ 1482
మర@@ 1479
లై@@ 1474
స్తుంది. 1469
సర@@ 1468
కార్@@ 1466
ఓ 1466
వి 1465
బె@@ 1460
న్ని@@ 1459
యొక్క 1458
ధా@@ 1450
ృ@@ 1446
హె@@ 1441
టు 1440
మ్ 1438
పాల@@ 1437
4 1418
టు@@ 1409
బు@@ 1405
ై 1403
కే 1398
కులు 1393
ఎం@@ 1390
- 1386
అత@@ 1379
సై@@ 1370
అంత@@ 1369
ించి 1364
సో@@ 1364
నిర్@@ 1361
భారత 1361
తులు 1361
ింగ్ 1358
జ్ 1348
లుగా 1346
పూ@@ 1344
తర్వాత 1342
ఎస్@@ 1338
స్ట్ 1336
ాను. 1328
చేస్త@@ 1325
స్థ@@ 1325
2 1325
ప్రారంభ@@ 1323
శి@@ 1321
ౌ@@ 1321
మ్మ@@ 1316
శ్ర@@ 1313
ారి@@ 1308
యా 1307
కొత్త 1303
ద్ద@@ 1300
” 1298
కల@@ 1296
న్స్ 1288
ణం 1287
వారి 1281
తె@@ 1278
ని, 1278
మహ@@ 1276
ందు@@ 1271
స్వా@@ 1271
దు. 1270
పర@@ 1269
పాటు 1267
ందుకు 1262
స్తోంది. 1261
ప్రాంత@@ 1261
ఉంటుంది. 1259
ఇం@@ 1257
రోజు@@ 1256
నమోదు 1255
సర్@@ 1250
కేసు 1250
తంగా 1249
3 1242
నాయ@@ 1240
కాదు. 1235
నాకు 1234
స్తున్న 1233
ప్ప@@ 1233
ఫి@@ 1225
చేసింది. 1225
హో@@ 1224
భా@@ 1224
ఒక@@ 1223
చేసుకు@@ 1222
అధికార@@ 1221
ాన్ని 1220
పార్టీ 1220
ఏ 1218
ండి. 1218
ఖా@@ 1216
పూర్@@ 1216
ను. 1213
టా@@ 1211
న్నాడు. 1210
మధ్య 1208
ప్రధాన 1207
ఎలా 1206
షన్ 1203
వు 1203
యో@@ 1199
అధి@@ 1198
వ్యా@@ 1196
కొన్ని 1194
8 1192
o@@ 1190
గొ@@ 1188
చ్చి@@ 1187
తోంది. 1187
తెలు@@ 1186
ఫ్@@ 1186
భూ@@ 1181
అన్నారు. 1181
స్తున్న@@ 1178
ళ్@@ 1173
ప్ర‌@@ 1167
సూ@@ 1164
డె@@ 1162
శాఖ 1162
ండి@@ 1161
చ్@@ 1161
తర@@ 1161
ద్ర@@ 1161
డే 1160
ణి@@ 1158
i@@ 1156
ంటే 1153
ముఖ్య@@ 1149
బీజేపీ 1148
కార్య@@ 1147
మై@@ 1147
వడం 1146
గురించి 1142
చేసి@@ 1140
రూ 1138
కాంగ్రెస్ 1137
లేదా 1136
6 1135
పని@@ 1133
ప‌@@ 1129
ష్ 1129
చిత్రం 1126
నో@@ 1122
వ్య@@ 1122
మాత్రం 1121
తమ 1121
19@@ 1118
లోకి 1118
రియ@@ 1117
గాయ@@ 1117
న్నాయి. 1113
సాధ@@ 1113
ంటు@@ 1112
ాడు. 1109
‌కు 1108
ళ 1106
గ 1106
ాలు@@ 1105
ాని@@ 1105
వచ్చ@@ 1104
కేంద్ర 1103
సీ 1097
సిన 1095
చెప్పారు. 1093
అన్ని 1092
వచ్చు. 1089
రూ@@ 1089
r@@ 1084
విజయ@@ 1083
ప్రధాని 1080
ుల 1076
మరో 1076
నిజ@@ 1076
పించ@@ 1074
యూ@@ 1074
ంలోని 1073
నకు 1071
మా 1069
“@@ 1068
తా 1065
ట్ర@@ 1065
మ‌@@ 1064
ంత 1064
జన@@ 1064
ంబ@@ 1059
పెట్ట@@ 1056
ణా@@ 1055
విషయ@@ 1053
పెద్ద 1051
ఉత్త@@ 1050
షి@@ 1049
్యం 1048
క్రి@@ 1046
కం 1044
ంటి@@ 1044
లక్ష@@ 1044
చెందిన 1043
ాల 1043
విషయం 1035
ించి@@ 1035
డ 1034
కృ@@ 1034
మొద@@ 1028
అవు@@ 1028
నట@@ 1027
ాలి@@ 1027
ద 1024
మొత్తం 1020
మంచి 1020
ద్ధ@@ 1019
మాన@@ 1018
t@@ 1018
." 1016
చేసి 1016
కీ 1015
‌, 1014
తున్న 1012
బ్యాం@@ 1011
త్య@@ 1010
ారని 1010
జరుగు@@ 1008
భి@@ 1007
ండ్ 1006
' 1006
దు 1005
డే@@ 1004
0 999
మని 998
రం 997
ించే 996
7 991
అనే 989
తప్ప@@ 989
రంగ@@ 987
ె 986
లు. 985
ఎస్ 985
తే 984
మే 984
ఉన్నారు. 984
ండి 983
పట్ట@@ 981
వాహ@@ 979
ాలో 979
ఇంకా 974
ాలి. 973
కలి@@ 972
స‌@@ 972
నటి@@ 972
డానికి 971
జే@@ 969
మాజీ 969
ట్టు 968
తున్న@@ 967
స్థాన@@ 967
పం@@ 965
ఇక 963
మొ@@ 962
రాష్ట్ర 961
ామ@@ 961
ఆయ@@ 961
ంపై 960
కోట్ల 959
క‌@@ 959
ఫీ@@ 959
క్ష 958
ట్టు@@ 957
క్కు@@ 953
భాగ@@ 953
న్, 952
నిర్మా@@ 951
నగ@@ 947
అవ@@ 943
ఇతర 940
విడుదల 938
అందు@@ 938
త్తు@@ 935
క్ట@@ 931
అక్క@@ 930
టో@@ 929
క్‌ 925
వార్@@ 924
ళ్ల@@ 921
ను, 919
జీవి@@ 917
ారు@@ 915
చిత్ర@@ 914
ఠ@@ 914
న్య@@ 913
తొ@@ 913
చర్@@ 913
్‌ 909
సారి 909
లక్షల 908
్య 908
జో@@ 907
దూ@@ 906
నట్లు 906
నిర్వహ@@ 905
చేస్తు@@ 901
ఎస్‌@@ 897
లపై 897
ాలు, 896
ఆర్ 896
ిక 895
స్, 892
కారణ@@ 891
గా, 891
ఛ@@ 887
శాతం 885
ప్రకట@@ 885
హ్@@ 883
డు, 883
పై@@ 882
జె@@ 880
9 878
ద్ 875
ఫో@@ 872
ప్రశ్@@ 871
చూడ@@ 871
టం 870
సినిమా@@ 869
ముఖ్యమంత్రి 866
ారా@@ 866
టై@@ 866
మ్యా@@ 864
శ్రీ@@ 864
త‌@@ 863
కల్@@ 859
తన@@ 859
భారీ 857
్రా@@ 854
కీ@@ 851
ఇద్దరు 849
స్వ@@ 848
జు@@ 847
ఎవ@@ 847
సహ@@ 846
మనం 846
మి 845
మైన@@ 845
ఉంట@@ 844
తీసుకో@@ 842
20@@ 841
న్నారు 840
కోర్టు 839
భార@@ 839
పార్టీ@@ 838
కోట్లు 836
బ్యా@@ 835
ప్రతి 835
మృ@@ 830
201@@ 829
వల్ల 828
ింగ్@@ 827
తలు 826
లి 826
వం 825
గ్రా@@ 825
తిని 823
అయ్య@@ 822
కోట్@@ 822
ఏర్@@ 820
త్రి@@ 820
్‌@@ 820
అన@@ 820
​ 818
గిన 816
s@@ 814
మీద 813
పోయ@@ 813
ఒక్క@@ 811
ఇందులో 810
ార్ 810
బయ@@ 808
ర్మ@@ 808
చేసుకో@@ 808
డ్డ@@ 808
గు 807
ల‌@@ 807
జీ 806
వ్ 803
దాని@@ 801
స్ప@@ 801
అనేక 801
షా@@ 799
ప్రజ@@ 799
ించుకు@@ 798
ప్రపంచ@@ 798
ంది? 796
మహిళ@@ 796
కా 795
విష@@ 794
ప్పుడు 793
రెడ్డి 793
తూ 791
కుమార్@@ 790
న‌@@ 788
సరి@@ 787
ఎందుకు 785
ాయం 784
లోనే 784
మన 783
నలు 782
ించు@@ 782
n@@ 782
పద@@ 781
నించ@@ 781
ఉంటు@@ 780
బల@@ 779
ప్రదేశ@@ 778
బ్బ@@ 778
ఫ్ 777
అవసర@@ 774
ఆర్‌@@ 774
వంత@@ 774
పెరి@@ 773
వృ@@ 772
ట్టి 770
భారత@@ 769
తు 766
జరి@@ 764
బ్ర@@ 764
పీ 764
రం@@ 764
ణాలు 764
తెలియ@@ 764
దారు@@ 763
వెంటనే 762
కొని 760
l@@ 759
ట్టి@@ 759
సింగ్ 759
మూడు 759
50 758
స్తా@@ 757
తున్నారు. 757
ఇలా 755
నియ@@ 753
పి 753
శ్రీ 752
ఎలాంటి 750
ించాడు. 749
స్తారు. 749
దర్యాప్తు 747
ేష@@ 747
వారికి 747
రీ 747
ఆర్థిక 746
కూడ@@ 746
ఇక్కడ 746
అమ@@ 746
తెలిసిందే. 745
అభి@@ 744
10@@ 743
ండ్@@ 742
ప్రభా@@ 742
ాలని 741
పూర్తి 739
రికి 739
విధ@@ 738
ప్రభుత్వ 737
సినిమాలో 736
అంది@@ 736
సిం@@ 736
"""@@ 735
పోయింది. 732
ఎదు@@ 732
తరువాత 731
యె@@ 731
కేంద్ర@@ 730
పెట్టు@@ 730
ప్రయత్@@ 730
మాత్రమే 729
మార్కె@@ 729
గే@@ 729
సంబంధించిన 728
మృతి 728
ింగ్‌ 727
శు@@ 726
ంద్ర@@ 726
ఉపయోగ@@ 724
జ్ఞ@@ 724
చి 723
మొదటి 723
గత 723
ట్ల 722
రు. 722
వ్యవ@@ 721
సభ్య@@ 721
వాలి. 721
ఇప్పటికే 720
ాలలో 719
ా? 719
నూ@@ 717
ఏం 716
యెహోవా 716
ముందు 715
ళ్ళ@@ 715
00 711
రా 711
""@@ 710
జై@@ 710
రెండ@@ 708
స్థా@@ 708
ధి 708
దాని 708
సం 707
షే@@ 707
భాష@@ 705
ౖ@@ 705
కుటుంబ@@ 705
దేశంలో 704
అయితే, 703
)@@ 699
కేసు@@ 698
సంస్థ@@ 698
లేద@@ 698
వారి@@ 697
మేము 693
జ్@@ 691
ట్లో 691
వంటి 690
హైదరాబాద్@@ 690
చికిత్స 689
తూ@@ 688
నిలి@@ 688
ించడం 687
త్‌ 686
కథ@@ 686
చా@@ 686
భవ@@ 684
తుల 684
ంతా 684
విద్యార్థ@@ 684
సమస్య@@ 684
సు 684
ించుకో@@ 684
ఫై@@ 683
వద్ద 683
మోదీ 682
దేశం 682
వివర@@ 681
క్రమ@@ 681
పిల్ల@@ 680
ంత్ర@@ 680
రుగు@@ 680
ఊ@@ 679
హై@@ 678
పొంద@@ 677
వారిని 676
పరిస్థి@@ 676
దీని 675
ర‌@@ 674
త్తి@@ 674
క్స్ 673
అంటే 673
ఆమె@@ 673
కం@@ 672
భారత్ 672
తెలంగాణ 671
ించారు 671
తున్నాయి. 671
ష్ట@@ 671
సమా@@ 670
దం 670
ంట్ 668
), 667
రోజు 666
ంక@@ 666
మేరకు 666
తమ@@ 666
గల@@ 665
స్తో@@ 664
అలాగే 664
చీ@@ 663
ష్టం 663
వీ 663
అతను 660
మరణ@@ 660
బంధ@@ 659
కలిసి 658
వ్యవహ@@ 658
సింది. 657
దర్శ@@ 657
సౌ@@ 656
ారం 655
టర్@@ 654
తెరకె@@ 654
జరిగిన 654
కంటే 653
కున్న 653
భారత్@@ 653
కుండా 653
నేత 651
సమాచారం 651
చేరుకు@@ 649
టా 648
ఆల@@ 646
వం@@ 646
ుల@@ 646
మంత్రి@@ 645
వర్గ@@ 645
మును 644
వాల్@@ 643
బ్ 642
గుర్త@@ 641
అన్న@@ 641
దీ 641
నిర్మ@@ 641
ముంబ@@ 641
ఐ 638
డ్‌ 638
స 638
దీనికి 637
జరిగింది. 637
య్యారు. 636
చట్ట@@ 635
జరగ@@ 633
ప్రి@@ 633
నను 633
తరలించారు. 633
లేదు 633
కు, 633
సినిమ@@ 632
న్యాయ@@ 632
ర్లు 632
పడుతు@@ 631
గల 627
కుంటు@@ 627
చర్యలు 627
వాలని 626
ధ్య@@ 626
జాతీయ 626
పరిస్థితి 626
డుతు@@ 625
టర్ 624
అయి@@ 623
ప 623
క్కి@@ 622
వాద@@ 622
10 622
ర్చ@@ 622
స్తూ 621
తయ@@ 620
ించడానికి 619
కమి@@ 619
క్రీ@@ 619
m@@ 618
క్‌@@ 618
ర్చు@@ 618
కన్న@@ 618
కాం@@ 617
పాత్ర@@ 617
మాట@@ 617
బాగా 616
ఢిల్లీ 616
పర్@@ 615
ప్రయా@@ 614
పని 613
మరింత 613
గాంధీ 613
పలు 613
దేవు@@ 612
లీ 612
వ్యాప్తంగా 611
తొలి 611
ులను 611
స్పంద@@ 610
చేస్తున్నారు. 609
అవసరం 609
ఉప@@ 608
డికి 608
ులకు 608
అధికారులు 608
ంట్@@ 607
అంశ@@ 607
ుడు 607
c@@ 606
అని@@ 605
పెరుగు@@ 605
వడ@@ 605
చర్చ@@ 605
లో, 604
యువ@@ 604
కోర్@@ 604
ళ్లు 603
"@@ 603
ఏర్పాటు 603
రికీ 602
అదే 601
సమయంలో 601
వారం 601
ైనా 600
శారు. 599
ింపు 598
త్య 597
ఇప్పటి@@ 596
ణ్ 594
జయ@@ 593
బాల@@ 593
నాలు 592
వేగ@@ 592
లోనూ 591
జిల్లా 591
మార్గ@@ 588
వెళ్ల@@ 588
డంతో 587
ఘటన 587
నేత@@ 586
క్రికె@@ 586
జరిగి@@ 586
వహి@@ 585
అర్@@ 585
సంబంధ@@ 584
20 584
మోడీ 584
ార్థ@@ 583
లేదని 583
ళ్ల 582
ఎన్@@ 581
లే 581
ప్రజలు 580
తాను 580
మండ@@ 580
నున్నారు. 579
అతని 579
కోవి@@ 578
చై@@ 577
నుంది. 576
దో@@ 576
పరీక్ష@@ 575
ాయని 574
పైగా 574
డిని 574
కళ@@ 573
ఫె@@ 572
కుమారు@@ 572
దీనిపై 571
కరోనా 571
తీవ్ర 570
హింద@@ 570
సందర్భంగా 569
నిందితు@@ 569
టే@@ 569
ఎంతో 568
పడి@@ 567
ామని 567
గ్రామ@@ 567
సొ@@ 567
ముఖ@@ 566
ఇచ్చ@@ 566
కౌ@@ 565
పాల్గొన్నారు. 565
తగ్గ@@ 564
జ‌@@ 564
తెలి@@ 564
దృ@@ 563
క్టర్ 562
య్యాయి. 562
వేయ@@ 562
ప్రత్యేక 561
అధ్యక్షుడు 561
నిర్ణయ@@ 561
విజ@@ 560
బడి@@ 560
శక్@@ 560
ంగ్@@ 560
వెళ్@@ 560
సీఎం 559
స్టి@@ 559
‌ను 558
కేవలం 558
సంత@@ 558
వచ్చింది. 558
యే@@ 557
దా 557
ఆధ@@ 557
త్ర 556
హీ@@ 556
ంటారు. 556
పొందు@@ 555
తీసు@@ 555
ారు? 553
d@@ 553
కుల 552
చేశ@@ 551
త్వ@@ 551
క్షి@@ 550
అంచ@@ 550
అవకాశం 549
బడు@@ 549
గుర@@ 549
వ్యక్@@ 549
భద్ర@@ 549
ఇండియా 548
మిక 548
అనంతరం 548
తను 547
ారి 546
చెల్ల@@ 546
మీకు 546
క్య@@ 546
చంద్ర@@ 546
టకు 546
పడ్డారు. 545
సంఖ్య 543
న్లు 543
చెబు@@ 542
"" 542
ఎన్నికల్లో 542
ర్థ@@ 542
ఇదే 541
స్తున్నా@@ 541
ప్రస్తు@@ 541
నై@@ 540
సమీ@@ 540
సమావేశ@@ 540
సిద్ధ@@ 539
నరేంద్ర 539
పోర్@@ 539
జగ@@ 538
చిత్రంలో 538
మోహ@@ 538
u@@ 537
అలా 536
విజయం 536
తల@@ 536
వర్ష@@ 536
మధ్య@@ 536
దేశా@@ 535
న్‌లో 534
సంగతి 533
ు, 533
న్ను 533
సేవ@@ 533
ాలతో 533
దాదాపు 531
పౌ@@ 531
పాద@@ 531
జూ@@ 531
ఫిర్యాదు 530
ల్ని 530
పరుగు@@ 529
వాటి@@ 529
విధంగా 528
విస్త@@ 528
ల్లి 528
దర@@ 528
గింది. 528
వీటి@@ 528
ీకర@@ 528
హు@@ 527
పడు@@ 527
కేసులు 526
దని 526
ఆఫ్ 525
జర్@@ 525
గే 523
నిర్మి@@ 522
ఆలోచ@@ 522
చేయడం 520
విచార@@ 520
వ్యతిరే@@ 520
కలిగి 520
ంటూ 519
చెంద@@ 519
చేస్తున్న@@ 518
పేర్కొన్నారు. 516
స్ట్ర@@ 516
చో@@ 516
ప్రొ@@ 516
నటు@@ 516
ద్దు@@ 514
ంచు@@ 514
మరో@@ 514
విచారణ 513
రాష్ట్రంలో 513
ింపు@@ 513
స్థి@@ 513
గర్@@ 513
జా 513
పోయారు. 513
దేశ 512
ల్లు@@ 512
స్టార్ 512
’@@ 511
డీ 511
ఇద్ద@@ 510
సభ 510
ంది, 510
రాల@@ 510
ే. 509
సభ@@ 509
వ్యక్తం 509
ప్పటి@@ 509
గానే 508
పేర్కొ@@ 507
బీజేపీ@@ 507
ఉంటాయి. 506
అభ్యర్థ@@ 506
డైరె@@ 506
h@@ 505
చేసే 505
వేది@@ 505
ఎంపి@@ 505
పోలీసు@@ 504
ఏమిటి? 504
ఘట@@ 504
దొ@@ 503
తాయి. 503
వులు 503
డిగా 502
గురు 502
ము. 501
చేసుకుంది. 501
ించిన@@ 501
వరి 499
తంలో 499
బై@@ 499
చాల@@ 498
కాల 498
ారా? 498
తీర్@@ 497
ే, 497
ఫ్ర@@ 496
న్నీ 495
పాట@@ 495
ించాలని 494
పోలీసులకు 494
ఎన్‌@@ 493
ంద్ర 493
కొనసాగు@@ 492
వాటిని 492
తరు@@ 492
గి 491
విషయంలో 491
దె@@ 491
చేసే@@ 490
మరి@@ 490
వైర@@ 490
డా 490
ఎన్నికల 489
డిమా@@ 488
ప్రాజెక్@@ 488
ఎక్కువ 488
కాంగ్రె@@ 487
క్యా@@ 487
అమి@@ 486
రాయ@@ 486
తగ్@@ 486
రణ@@ 485
వైపు 485
లక్@@ 485
మీడియాలో 485
వహ@@ 485
అం@@ 485
మైన 485
తెలుగు@@ 484
అక్కడ 484
నొ@@ 484
నర్@@ 483
కారం 483
చిన్న 483
పాఠ@@ 483
ఆందోళ@@ 483
చిత్రానికి 482
విద్య@@ 481
లిం@@ 481
యంగా 481
ంచి@@ 480
కుమార్ 480
నాన్ని 480
ులు, 480
కాదు 480
స్తే 479
పాల్@@ 479
ప్రే@@ 479
వివిధ 478
ప్రధాన@@ 478
సంస్థ 478
టువంటి 478
దర్శకత్వం 477
అమెరికా 477
తాజాగా 477
జీవ@@ 477
ిక@@ 477
మెంట్ 476
నాథ@@ 476
ల్, 476
కట@@ 476
ప్రో@@ 476
మారి@@ 476
రో 476
చార@@ 475
బాధ్య@@ 474
12@@ 474
కపో@@ 474
సూచ@@ 473
గ్రహ@@ 473
గూ@@ 473
మారు@@ 472
వచ్చిన 471
ీ, 471
లం 471
చేపట్ట@@ 471
చ్‌@@ 470
కెప్టె@@ 470
చిత్రాన్ని 470
ఇంత@@ 469
విలు@@ 468
రాహుల్ 466
వచ్చి@@ 466
ింది. 466
సంద@@ 466
ప్రదేశ్ 466
విశ్@@ 465
మాట్లాడ@@ 465
రోడ్@@ 465
( 464
ఆరోప@@ 464
దీని@@ 463
ఎందు@@ 462
శాంత@@ 462
త, 461
వినియోగ@@ 460
విడుద@@ 460
లుగు@@ 460
ద్దు 459
వస్తు@@ 459
ఉంద@@ 459
వడానికి 459
పథ@@ 458
ాలి 458
సంబంధించి 458
ఉంది 458
ప్రభుత్వా@@ 457
ద్ధి@@ 457
బడ@@ 457
ణంగా 457
సంఘ@@ 457
కాలు 457
నున్న 456
అమ్మ@@ 456
దర్శకత్వంలో 456
‘‘@@ 455
పోయి@@ 454
ప్‌ 453
పర్య@@ 453
గ్ 453
ఇవ్వ@@ 452
సంవత్సర@@ 452
వైద్య@@ 451
మౌ@@ 451
ఆంధ్ర@@ 451
పలు@@ 451
కాల్@@ 451
ల్లి@@ 450
చర్య@@ 450
పొంది@@ 449
ంగా@@ 449
చరి@@ 449
తారు. 448
రామ@@ 448
ాల్సిన 448
అతి@@ 448
యాన్ని 448
చిన 448
కష్ట@@ 448
ధర 447
గుర్@@ 447
ధీ@@ 447
దాన్ని 446
మంది@@ 446
తిరిగి 446
ట్టిన 446
ించింది 445
సుకో@@ 444
నమ్మ@@ 444
విధాన@@ 443
సోషల్ 443
ఆరోగ్య 442
నని 442
వు. 442
అభివృద్ధి 441
మద్ద@@ 441
ఇప్పుడు 440
తీవ్రంగా 439
ఆట@@ 439
టికి 439
కాంగ్రెస్‌ 439
బం@@ 438
మర్@@ 438
త్రి 438
ర్యా@@ 438
కాగా 438
పెద్ద@@ 437
మ్‌ 437
కున్నారు. 436
వెళ్ళ@@ 436
పార్@@ 436
అప్ప@@ 436
ించే@@ 436
శ్మీ@@ 436
కాని 435
కాబట్టి 435
డ్‌@@ 435
కింద 433
కారణంగా 433
సహాయ@@ 433
వేశ@@ 433
ప్లా@@ 432
శాఖ@@ 432
ముగ్గురు 431
వరు@@ 431
ధర@@ 431
ించా@@ 431
భర్@@ 430
పేరు 430
బాధి@@ 430
,000 429
ల్లా@@ 429
ఢిల్లీ@@ 429
ఉండే@@ 428
ములు 428
వీరి@@ 428
ంలోనే 427
ప్రపంచ 427
ాల్సి 427
ర్, 426
్రె@@ 426
ాల్ 426
చ్ 426
యెహోవా@@ 426
బడిన 426
బాలీవుడ్ 426
రాజీ@@ 426
ఏమి 426
సార@@ 425
స్‌లో 425
అభిమా@@ 425
దేవుని 425
వ్వ@@ 425
చ్చు@@ 425
S@@ 424
ఏమి@@ 424
ఎక్@@ 424
శీ@@ 424
అత్యంత 424
ణలో 424
p@@ 424
వేల 423
అనుమ@@ 423
మహారా@@ 423
ఎక్క@@ 423
ట్రా@@ 423
ప్రేమ@@ 423
పంచ@@ 423
స్టు@@ 422
రాల 422
లైన 422
రోజ@@ 422
దానికి 421
అల@@ 420
రామ్ 420
""" 420
పక్ష@@ 419
పూర్ 419
స్త్ర@@ 418
చని@@ 418
కాగా, 417
్, 417
న్యూ@@ 417
ల్స్ 416
భయ@@ 416
ప్పుడూ 416
కుటుంబ 415
వచ్చే 415
జ 414
జన్ 414
ఎక్కువగా 412
చేశాడు. 411
విషయాన్ని 411
నున్న@@ 411
స్సు@@ 411
కోల్@@ 411
మ్‌@@ 410
గమ@@ 410
30 410
స్టేష@@ 410
మరి 410
సినిమాను 409
ప్రవేశ@@ 409
త్మ@@ 409
అద@@ 409
హీరో@@ 408
విరా@@ 407
ఫు@@ 407
ంభ@@ 407
పాల్గొ@@ 406
రెండో 406
కొనసా@@ 406
చిన్న@@ 406
తికి 406
అంటూ 406
ర్‌లో 405
ఇన్@@ 405
గ‌@@ 405
అధ్య@@ 405
దగ్గ@@ 405
ింప@@ 405
ప్రసా@@ 405
పతి 405
ించడ@@ 404
అవి 404
సినిమాకు 404
తీవ్ర@@ 404
కనిపించ@@ 403
అందులో 402
పోటీ 402
ఫోన్ 402
పులు 402
గె@@ 401
ట్వి@@ 400
హైదరాబాద్ 400
క్షే@@ 400
ఆస్పత్రికి 400
విశ@@ 399
ెను. 399
ఆదేశ@@ 399
తల్లిదండ్ర@@ 399
ప్రమా@@ 399
వాస్త@@ 398
పడింది. 398
ఫా@@ 398
అరె@@ 398
ష్య@@ 398
వికె@@ 397
క్షన్ 397
ఆసక్@@ 397
ఎవర@@ 396
గెలు@@ 396
" 396
ప్రముఖ 395
అద్భు@@ 395
బే@@ 395
ణి 395
నమోద@@ 394
వివరాలు 394
మవు@@ 394
సమాచార@@ 394
తమైన 394
ఢ@@ 394
14@@ 393
ంప@@ 393
ల్లు 393
లభ@@ 393
నిర్ణయం 393
అవకాశ@@ 392
సీనియ@@ 392
కుడు 392
పం 392
కార్యక్రమ@@ 391
పడ్డ@@ 391
నిధ@@ 391
శ్రమ@@ 391
త్వం 390
అప్పుడు 390
ఇలాంటి 389
రుకు@@ 389
వీడియో 388
ఫే@@ 388
మంత్ర@@ 388
కున్న@@ 388
ట్రం@@ 388
ఉందని 388
ఎయి@@ 388
శ 387
ించేందుకు 387
రికార్@@ 387
పూర్తిగా 387
రాజ్య@@ 387
వడంతో 387
ం: 387
అధ్యక్ష@@ 387
అమెరి@@ 386
ఇష్ట@@ 386
క, 386
టానికి 386
స్టా@@ 385
ఇబ్బ@@ 385
రెడ్డి, 385
డిన 385
ద్య@@ 384
టార్@@ 384
వచ్చు@@ 384
కలు 384
చేశా@@ 384
రే 384
తార@@ 384
విమర్శ@@ 384
C@@ 384
రాలు 383
ందు 383
చోటు 383
దక్షి@@ 383
‌ర్@@ 382
పరిష్@@ 382
మ్ము@@ 381
ముందు@@ 381
ండ్‌ 381
కీలక 381
15 381
200@@ 381
వి. 380
నంద@@ 380
ండు@@ 379
సము@@ 379
కాలంలో 379
మూడ@@ 379
15@@ 379
అంగ@@ 378
డైన 378
యోగ@@ 378
తెలంగా@@ 378
ఎన్నిక@@ 378
వర్ 377
అడి@@ 377
తీ 377
న్సి@@ 377
ఘటన@@ 377
అనేది 377
అయినా 376
చేయడానికి 376
చేశారు 375
ంగ్ 375
నాలుగు 375
మార@@ 375
వరకూ 375
అడ్@@ 375
బడ్జె@@ 375
కొద్@@ 374
ఆయనకు 374
ించలేదు. 374
ఉత్@@ 373
థ 373
ట. 373
నంగా 373
టీడీపీ 373
హాజర@@ 373
శిక్ష@@ 373
మాట్లాడు@@ 373
దాంతో 372
వయ@@ 372
ధ 372
చేరి@@ 372
తెలుగు 372
తరల@@ 372
రాజకీయ 372
సుకు@@ 372
దో 372
ఆద@@ 371
పడి 371
ించాలి. 371
పుణ@@ 371
తిక 370
మైంది. 369
త్యా@@ 369
ూరు 368
నార@@ 368
డుగు@@ 368
కల్ 367
అతడు 367
పున@@ 367
విభాగ@@ 367
పుర@@ 367
స్టు 366
ఆమో@@ 366
సార్లు 366
కమ@@ 366
ఫ్‌ 365
కృష్ణ@@ 365
స్తు 365
చేస్తుంది. 365
విక్ర@@ 365
త్వరలోనే 365
స్తాయి. 364
పోలీ@@ 364
రారు. 364
పాత్రలో 363
సూప@@ 363
కార్యదర్శి 363
నివా@@ 363
నలు@@ 363
ఎంత 363
లేకపో@@ 362
ఆనంద@@ 361
ప్రభుత్వ@@ 361
గంట@@ 361
కాలం 361
య్యా@@ 361
లేక 360
తిలో 359
ట్స్ 359
g@@ 359
భావ@@ 358
గణ@@ 358
స్వీ@@ 358
పాటు@@ 358
ప్రేక్ష@@ 358
బీ 358
త్తగా 358
కానీ, 357
ఇటీవల 357
న్‌, 357
ప్రత్యే@@ 357
కను@@ 357
పశ్చి@@ 356
ఇప్పటి 356
ంగా, 356
కేసులో 356
పట్టు@@ 356
లక్షలు 355
రాలేదు. 355
మృతదే@@ 355
సాయ@@ 355
కుంది. 354
:@@ 354
సమయం 354
త్తు 354
రూపాయ@@ 353
డ్రై@@ 353
సంగీతం 353
ంలోకి 353
హీరోయి@@ 353
వివా@@ 353
లేని 353
ప్‌@@ 352
పర్యా@@ 352
ా. 352
I@@ 351
డియా 351
పెట్రో@@ 351
శాస్త్ర@@ 351
పట్ల 351
ఇంటర్@@ 350
ేష్ 350
వ్‌ 350
రు, 350
దృష్ట@@ 350
అదుపులోకి 350
ఎన్నో 350
s 349
వాడ@@ 349
ఎస్‌ 349
అందుకు 349
12 349
ఇంగ్@@ 348
కనిపి@@ 348
సామా@@ 348
యన్ 348
కారు@@ 348
జిల్ల@@ 348
ఆత్మహ@@ 348
ప్రమాద@@ 347
హా 347
అరెస్టు 347
బాబు 347
క్రియ@@ 346
ఘటనపై 346
ప్రమాదం 346
ందన్నారు. 346
నేపథ్యంలో 345
e 345
18@@ 345
మంచి@@ 345
ఎన్టీ@@ 345
ఇందుకు 345
గెలి@@ 344
ీగా 344
చేరు@@ 344
జిల్లాలో 344
ంట్ర@@ 344
పోయా@@ 344
మాకు 343
రక్ష@@ 343
చేయాలని 343
దయ@@ 343
అసెంబ్లీ 343
100 343
ంధ@@ 343
న, 342
నిల@@ 342
స్థాయిలో 342
ంటి 342
పోరా@@ 342
వ్యవస్థ@@ 341
షి 341
లేదు@@ 341
మే. 341
స్తున్నాయి. 341
‌ని 341
సంగ@@ 341
వస@@ 340
ఉండాలి. 340
నర్ 340
చొ@@ 340
కై@@ 340
అరు@@ 339
బడి 339
సంతోష@@ 339
పడిన 339
—⁠ 338
చోటు@@ 338
వా 338
స్పె@@ 337
… 337
అంతే@@ 337
పార@@ 337
“ 337
భార్య 337
ప్పటికీ 337
బ్రి@@ 337
ాలపై 336
ష్‌ 336
ఫలిత@@ 336
రాజకీయ@@ 336
ందో 336
తి, 336
చెన్న@@ 336
్యు@@ 336
యు 336
ద్ధ 335
ద్దా@@ 335
అంతర్జాతీయ 335
బొ@@ 335
సంచ@@ 335
యూని@@ 334
స్థాని@@ 334
సుమారు 334
చెప్పి@@ 334
ా, 334
సాధ్య@@ 334
స్థానంలో 333
పవ@@ 333
ఒప్ప@@ 333
అందుకే 333
ఉగ్ర@@ 333
సంఘటన 333
అయిన 332
ళ్ళు 332
వెల్లడ@@ 332
దర్శకుడు 332
చరణ@@ 332
నేతలు 332
త్వరలో 332
స్పష్ట@@ 332
రిని 332
వ్యక్తి 332
లగ@@ 331
గ్రీ@@ 331
ంతో@@ 331
డని 331
.. 331
ప్రకారం 331
షన్@@ 330
బిజెపి 330
సంఖ్య@@ 330
నాల 330
జాగ్ర@@ 330
పరు@@ 330
అసలు 329
భు@@ 329
పారి@@ 329
ఒక్క 329
రూప@@ 329
కార్యక్రమంలో 329
బైబి@@ 329
లియ@@ 329
హార్@@ 329
టింగ్ 328
గాన@@ 328
కర్ 328
వెను@@ 328
స్నే@@ 328
బృ@@ 328
నా? 328
ండగా 328
/@@ 327
కేట@@ 327
భే@@ 327
నన్ను 327
ఘటనలో 327
హ 326
ఎం 326
శివ@@ 326
సామ@@ 326
మందికి 325
తెలియజే@@ 325
ంటున్నారు. 325
సహాయం 325
విశ్వా@@ 325
విమా@@ 325
తులను 325
కమైన 324
అలాంటి 324
శం@@ 324
పిల్లలు 324
ఉత్ప@@ 324
కర్ణాట@@ 323
ఆస్ప@@ 323
స్‌, 323
మం@@ 323
రవి@@ 323
ర్‌, 323
చెప్పు@@ 322
తండ్రి 322
ప్రచార@@ 322
-19 322
సమయ@@ 322
యుద్ధ@@ 322
శాస@@ 322
సర్ 321
బహు@@ 321
చైనా 321
వ్యాఖ్య@@ 321
సంస్@@ 321
వద్ద@@ 320
ప్రమాదంలో 320
రంగా 320
సంగీ@@ 320
సమస్@@ 320
పరీ@@ 320
వాతావర@@ 319
ప్రదర్శ@@ 319
ండ 319
కలు@@ 319
షన్‌ 319
భారత్‌ 319
ం? 318
దీనిని 318
దీన్ని 318
అర్జు@@ 318
స్తున్నాడు. 317
రూపొంద@@ 317
తులకు 317
డ్యూ@@ 317
ఉపా@@ 317
జారీ 316
ఖర్చ@@ 316
పేరు@@ 316
ారీ@@ 316
నాల@@ 316
ట్టింది. 316
A@@ 316
బడింది. 315
కగా 315
రిలీ@@ 315
నష్ట@@ 315
వెల్లడించారు. 315
చిత్ర 315
ందం 315
కారు 314
నెల@@ 314
‘ 314
డౌ@@ 314
మీటర్@@ 314
అవార్@@ 314
మై 314
పంజా@@ 314
స్కూ@@ 314
యాద@@ 313
ంతి 313
బెంగ@@ 313
గవర్@@ 313
చింది. 313
ఇవి 312
పాకిస్తా@@ 312
సార్@@ 312
షా 312
ఆసుపత్రికి 312
సాధార@@ 312
బాధ@@ 312
ర్య@@ 312
తక్కువ 312
షూటింగ్ 311
గ్గ@@ 311
ఉద్యో@@ 311
ద్‌ 311
సుప్రీం@@ 311
స్సు 311
నిరా@@ 310
కాకుండా 310
చ 310
త్‌@@ 310
ఇండి@@ 310
చేస్తున్న 310
స్థానిక 310
క్త@@ 310
కాదు@@ 309
సహా 309
ముందుకు 309
నిరస@@ 309
సింగ్@@ 308
దశ@@ 308
M@@ 308
రచ@@ 308
కరి@@ 308
పాయ@@ 308
కో 308
గౌర@@ 308
ఆహ@@ 308
స్టే@@ 308
వైద్య 307
మళ్లీ 307
యా, 307
పోలీసు 307
బౌ@@ 307
ఎమ్మెల్యే@@ 307
లానికి 307
ట్టి, 307
పిలు@@ 307
అత్యధి@@ 307
తమిళ@@ 307
తమిళనా@@ 307
కార 307
టివ్ 306
దే 306
కెమె@@ 306
వీడియో@@ 306
టెక్@@ 306
నగర@@ 306
మూవీ 306
25 306
పాయిం@@ 306
త్రిలో 306
టులో 305
రక్షణ 305
ఆరోగ్య@@ 305
ఉద్@@ 305
కట్టు@@ 305
ఉదాహరణ@@ 305
ానని 304
చంద్రబాబు 304
భారతీయ 303
డ్ర@@ 303
సాక్ష@@ 303
’’ 303
తర్@@ 302
/ 302
పాజి@@ 302
ఆది@@ 302
షన@@ 302
రహ@@ 302
ణలు 302
ఏడా@@ 302
ట్ల@@ 302
తల 301
సైతం 301
ంచుకో@@ 301
P@@ 301
ఆయన@@ 300
చక్క@@ 300
సృష్ట@@ 300
ఇక్క@@ 300
R@@ 300
కొందరు 300
వారిలో 300
బ్రా@@ 299
ించండి. 299
సభ్యులు 299
వెం@@ 299
ట్‌లో 299
బాబు@@ 299
b@@ 299
రావు 298
మనకు 298
ఎల్@@ 298
కాలేదు. 298
తదితరులు 298
ించాయి. 298
కన@@ 298
1,@@ 297
ఇండ@@ 297
మను@@ 297
రాజ్ 297
ఇవ్@@ 297
ముగా 297
దుర్@@ 297
గాంధ@@ 297
స్టార్@@ 296
స్ట్రే@@ 296
అగ్@@ 296
ఆధార@@ 296
మూర్@@ 296
ముగి@@ 296
ముంద@@ 295
అత్య@@ 295
ధరలు 295
నియమ@@ 295
కాబ@@ 295
నా, 295
ప్రీ@@ 295
పరిశోధ@@ 294
తం@@ 294
పరిశీల@@ 294
శుభ@@ 294
లేవు. 294
న్యూఢిల్లీ@@ 294
సాంకే@@ 294
నూ 294
ారు, 293
కుంట@@ 293
సులభ@@ 293
ణకు 293
గుజరా@@ 293
నేషన@@ 293
బోర్@@ 293
చ్చే@@ 292
మానికి 292
నడు@@ 292
శర్మ 292
శ్రీనివా@@ 292
మాట్లా@@ 292
తెలుసుకు@@ 291
ఉద్యోగ@@ 291
ఆడ@@ 291
ఆధారంగా 291
గాయాల@@ 291
బీఐ 291
13@@ 291
కొంత@@ 291
సమావేశంలో 291
వైరస్ 291
ష్ణ@@ 290
జరుపు@@ 290
ప్రకటన 290
ద్ధి 289
అలా@@ 289
అందుబాటులో 289
నిమిత్తం 289
గాయి. 289
కాశ@@ 289
వో@@ 289
విద్యు@@ 289
నీటి 289
ప్రె@@ 289
మొత్త@@ 289
ధో@@ 288
ధార@@ 288
చేయు@@ 288
ఆసుప@@ 288
ండ్‌@@ 288
ఉన్నా@@ 288
కంపెనీ@@ 288
ఫల@@ 288
వది@@ 287
కట్ట@@ 287
ణా 287
ఫొ@@ 287
గొప్ప 287
వురు 287
జట్టు 287
అయింది. 287
కంపెనీ 286
50@@ 286
ణంలో 286
వాళ్లు 286
ట్వీ@@ 286
లాభ@@ 285
ేశ్@@ 285
వెలు@@ 285
వన@@ 285
తెలిపింది. 285
హం 285
ర్ష@@ 285
పోష@@ 285
ఇండియన్ 285
వ్యక్తి@@ 285
భార్య@@ 285
ప్పటి 284
పాత్ర 284
జన్@@ 284
మిగిలి@@ 284
న్‌కు 284
యాక్@@ 284
పరిమి@@ 284
కలిగి@@ 283
ప్రయో@@ 283
నలో 283
లూ@@ 283
కృష్ణ 283
ప్రైవే@@ 283
చార్@@ 282
కూ 282
కేసీ@@ 282
స్టో@@ 282
అండ్ 282
హీరోయిన్ 282
జ్‌ 282
వేడు@@ 282
2020 282
అంత 281
వలన 281
ట్రి@@ 280
ఫలి@@ 280
యంలో 280
in@@ 280
ని. 280
ఎంపీ 280
రైల్వే 280
విదేశ@@ 280
పవన్ 280
సందర్@@ 279
చేసుకున్న 279
70 279
కొనుగో@@ 279
బంగ@@ 279
భాగంగా 279
నియోజ@@ 279
టీమిం@@ 279
నెలకొ@@ 279
సీపీ 279
కేర@@ 278
రాజు 278
పనులు 278
ళి 278
టో 278
డై@@ 278
16@@ 278
స్తుంది 278
నీరు 278
ఇండియ@@ 278
ఇంటి@@ 277
తోపాటు 277
సే 277
వుల 277
షియ@@ 277
పోటీ@@ 277
ారులు 277
పార్లమె@@ 277
జ్‌@@ 277
కుండ@@ 276
పించారు. 276
ఎల్ 276
పిటి@@ 276
మం 276
శాల@@ 276
బుల్ 276
నులు 276
ఎవరూ 276
మేం 275
కీర్@@ 275
న్స్‌ 275
వు, 275
నేందుకు 275
ారీ 275
ఉద@@ 274
స్పీ@@ 274
నాగ@@ 274
త్స@@ 274
30@@ 274
క్కడ 274
చెంది@@ 274
500 274
రాజ్‌@@ 273
తున్నా@@ 273
కేంద్రం 273
ఆప@@ 273
పాకిస్థా@@ 273
ంగానే 273
సమాధానం 272
ించాల@@ 272
పోల@@ 272
పెళ్లి 272
ష్టి@@ 272
ప్రజా@@ 272
యొ@@ 272
నీవు 272
స్థ 272
నప్పుడు 272
లోక్‌@@ 272
% 272
టమి@@ 271
చ్ఛ@@ 271
ముఖ్య 271
నీటి@@ 271
హాన్ని 271
క్, 270
ారెడ్@@ 270
అర్థం 270
కులకు 270
కోహ్లీ 270
అంట@@ 270
ఎదుర్కొ@@ 270
సరిహ@@ 270
తగా 270
పోయిన 270
ఎన్నికలు 270
ీయ 269
లేకుండా 269
సాధారణ 269
క్రైస్త@@ 269
షె@@ 269
ఎఫ్‌@@ 269
ఇచ్చిన 269
సిబ్బంది 268
మీడియా 268
శ్రా@@ 268
ల్డ్ 268
ఉత్పత్తి 267
కూతు@@ 267
సల@@ 267
న్‌గా 267
కారణం 267
మిన@@ 267
ఫోటో@@ 267
నిక 267
రకు 267
చేప@@ 267
1.@@ 266
వాయి@@ 266
ప్పు 266
మంత్రిత్వ 266
కుని 266
ప్రాంతంలో 266
శాల 266
%@@ 265
బెంగళ@@ 265
ప్రజలకు 265
డిప@@ 265
200 265
సత్య@@ 265
ఎంత@@ 265
లక్ష్య@@ 264
న్‌ను 264
ప్రకటించారు. 264
భావి@@ 264
వచ్చు 264
ాలోని 264
యేసు 264
దిగ@@ 264
ానికి, 264
ముల@@ 264
శరీ@@ 264
రాహు@@ 263
రెడ్@@ 263
ఎమ్@@ 257
ఆత్@@ 257
ంద్@@ 256
నాలు@@ 255
ఆరోగ@@ 254
ఇచ్చి@@ 254
డి, 253
ష 253
తిగా 253
అభివృ@@ 252
నరే@@ 251
వ్ర@@ 251
– 250
f@@ 249
కని@@ 248
త్త 247
D@@ 247
తెలిప@@ 247
ధాన@@ 246
N@@ 246
వే 243
సింద@@ 242
క్క 241
ఎమ్మెల్య@@ 241
గౌ@@ 241
రస@@ 240
మాత్ర@@ 239
వల్@@ 239
సంవత్@@ 239
ఱ@@ 239
భ 238
త్తి 237
ష్ట్ర@@ 237
T@@ 237
అనే@@ 236
కుమ@@ 236
విని@@ 235
తమి@@ 232
తెర@@ 231
ఇటీ@@ 229
నిమి@@ 229
యోజ@@ 228
ఔ@@ 226
నిర్ణ@@ 225
తర 222
ప్రత్య@@ 221
అర్థ@@ 221
సాం@@ 221
భ్య@@ 219
సలు 219
శో@@ 218
ఇంట@@ 218
B@@ 218
ఞ@@ 217
?@@ 217
ంచి 215
​@@ 215
వ్యాప్@@ 215
కొను@@ 214
వెల్ల@@ 213
సందర్భ@@ 212
ద్వార@@ 211
కీల@@ 210
ప్రభు@@ 209
…@@ 208
v@@ 207
త్వంలో 207
మహి@@ 207
బాలీవు@@ 207
అభ్య@@ 206
ండ్ర@@ 205
ాలో@@ 205
ఆర్థ@@ 204
O@@ 203
తక్కు@@ 203
”@@ 203
కి, 202
w@@ 201
మధ@@ 201
ానే 200
ఎన్న@@ 200
అంతర్@@ 199
బు 199
కొన@@ 198
కోహ్@@ 196
మై@@ 195
త్వ 194
t 194
ఎక్కువ@@ 191
సుప్రీ@@ 190
షూ@@ 189
లాంటి 189
ప్పుడ@@ 188
సోష@@ 188
F@@ 187
తండ్ర@@ 185
తే, 184
n 184
జర@@ 184
ారె@@ 184
సమాధాన@@ 184
ీవు@@ 182
,0@@ 181
దర్@@ 180
H@@ 180
జరు@@ 180
డియ@@ 178
నీ, 178
ష్ట్ర 176
ప్రార@@ 173
త్వర@@ 172
ప్ప 172
ఇందు@@ 172
స్థాయి@@ 171
ల్య@@ 169
తది@@ 168
ముగ్@@ 166
వ్యాఖ@@ 165
ంతరం 164
L@@ 163
ఎ 162
U@@ 155
G@@ 152
E@@ 152
ఖ 151
అసెంబ్@@ 150
దర్శక@@ 149
తెలిపి@@ 148
టీడీ@@ 146
వాత 146
ద్య 145
టి? 143
సక్@@ 142
k@@ 140
ఆరో@@ 139
] 139
సృ@@ 137
19 134
y@@ 134
తిరి@@ 133
d 133
a 133
ింద 133
ఉద్య@@ 133
& 132
ఫిర్యా@@ 132
కొంద@@ 132
⁠ 131
తెలిసింద@@ 130
మె 128
S 125
బిజె@@ 125
ఫ్‌@@ 124
— 123
పరిశీ@@ 123
్యంలో 123
ట్రో@@ 122
సిబ్బ@@ 122
యాప్@@ 121
అందుబా@@ 120
  120
ః@@ 118
కార్యదర్శ@@ 118
[@@ 117
ందో@@ 117
అద్@@ 116
V@@ 115
–@@ 114
r 114
l 113
_@@ 111
ఎమ్మె@@ 109
తల్లి@@ 108
రైల్@@ 108
చికిత్@@ 108
x@@ 107
నింది@@ 106
y 106
ప్టె@@ 106
W@@ 106
మిం@@ 105
ద్ద 105
కరో@@ 104
నమో@@ 104
సంతో@@ 103
!@@ 101
డియో 101
ఢ 100
నేపథ@@ 100
ింత 99
`@@ 97
బ 97
o 97
రాజకీ@@ 95
ఆంధ@@ 95
యత్@@ 93
ౖ 92
ఆలో@@ 91
ఘ 91
త్రికి 90
ొ 89
హైదరాబా@@ 87
గిలి@@ 87
వెంట@@ 87
బడ్@@ 87
C 84
m 83
రియు 83
ఠ 83
కుటుం@@ 82
ట్లా@@ 82
A 82
K@@ 81
|@@ 80
D 79
పార్ల@@ 79
దర్యాప్@@ 78
అదు@@ 77
| 77
డియో@@ 77
దాదా@@ 76
L 76
$@@ 75
ఝ@@ 75
శ్చి@@ 74
యెహో@@ 74
‍@@ 73
శోధ@@ 71
అదుపు@@ 71
i 70
g 70
I 69
ఇ 68
ఎన్ని@@ 65
ప్రధా@@ 65
తరులు 65
అమె@@ 64
ప్రై@@ 64
తెల@@ 63
ఎక్కు@@ 62
రాబా@@ 60
ఉదాహ@@ 59
క్రై@@ 58
జెక్@@ 57
సుమ@@ 57
` 57
వల 57
V 56
h 56
హైద@@ 55
వత్@@ 55
X 55
తీయ 54
f 54
B 52
► 52
సుప@@ 52
P 52
> 52
త్తం 51
X@@ 50
x 49
మీడియ@@ 49
ఞ 49
E 48
+ 48
M 48
» 48
ముఖ 46
[ 46
కాంగ@@ 45
పెళ్ల@@ 45
u 44
j@@ 44
ిల్ల@@ 44
ఛ 43
ఒ 43
ందోళ@@ 42
O 42
} 42
p 41
ర్మ 40
c 39
ట్ర 39
&@@ 39
ఋ@@ 39
గ్య 39
T 38
ః 38
R 37
సంఖ@@ 36
J@@ 36
౦@@ 35
z@@ 35
ంబ్@@ 34
విడు@@ 33
ార్య 32
U 32
మళ్ల@@ 32
పాకి@@ 32
బీజే@@ 30
{@@ 30
ౌ 29
#@@ 28
+@@ 28
*@@ 28
{ 28
అ 27
F 26
కృష్@@ 26
విమర్@@ 25
ఉదా@@ 25
w 25
W 25
]@@ 25
తాజా@@ 24
ేదు. 24
k 24
పంచ 23
Z@@ 22
° 22
K 21
H 20
N 19
\@@ 19
q@@ 18
G 18
♦ 18
ա@@ 18
దండ్ర@@ 16
Y@@ 16
}@@ 16
ఁ@@ 16
$ 15
మృత@@ 15
* 15
= 15
వివి@@ 15
తిరే@@ 14
వాతా@@ 14
౦ 14
ప్రభుత్@@ 14
►@@ 13
Q@@ 13
v 13
ఱ 13
@ 13
⇒ 12
ఙ@@ 12
°@@ 12
ృ 12
సిని@@ 12
×@@ 11
ణాట@@ 10
⁠@@ 10
అసె@@ 10
కేవల@@ 10
z 9
«@@ 9
కంపె@@ 9
=@@ 9
Y 8
@@@ 8
§@@ 8
ఁ 8
b 8
జరా@@ 7
▪ 7
¸@@ 7
ն@@ 7
✦ 7
‍ 6
ఉ 6
^@@ 6
्@@ 6
Q 6
ఊ 5
½ 5
—@@ 5
ा@@ 5
و@@ 5
⍟ 5
न@@ 5
₹@@ 5
ر@@ 5
➦ 5
₹ 5
م@@ 5
J 4
र@@ 4
_ 4
ي@@ 4
Հ@@ 4
տ@@ 4
ո@@ 4
ւ@@ 4
թ@@ 4
# 4
त@@ 4
>@@ 4
ی@@ 4
∙@@ 4
ర్కొ@@ 4
▾ 4
కుటు@@ 4
\ 4
€@@ 4
﻿ 4
◆ 3
ि@@ 3
కిత్@@ 3
ج@@ 3
²@@ 3
յ@@ 3
ր@@ 3
ե@@ 3
© 3
ل@@ 3
ು@@ 3
ն 3
մ@@ 3
ग@@ 3
è 3
j 3
ر 3
✪ 3
♯@@ 3
♪@@ 2
ౄ 2
★ 2
ब@@ 2
ł@@ 2
ę@@ 2
ب@@ 2
ت@@ 2
❂ 2
ਤ@@ 2
ç@@ 2
ս@@ 2
պ@@ 2
❏ 2
í@@ 2
ल@@ 2
ी@@ 2
➥ 2
ω 2
Z 2
क@@ 2
ु@@ 2
× 2
ఫ 2
→ 2
ī@@ 2
ā@@ 2
¨ 2
र 2
ک@@ 2
ش@@ 2
ی 2
گ@@ 2
❤ 2
æ@@ 2
»@@ 2
¼ 2
౧@@ 2
ا 2
ں 2
س@@ 2
ے 2
ا@@ 2
و 2
ς@@ 2
€ 2
া@@ 2
ব@@ 2
व@@ 2
ఝ 2
м@@ 2
◘ 1
¨@@ 1
ö@@ 1
情@@ 1
ఢిల్ల@@ 1
−@@ 1
Ä@@ 1
Œ@@ 1
æ 1
ह@@ 1
ś@@ 1
ć 1
ఽ@@ 1
ఔ 1
é 1
ទ@@ 1
ន@@ 1
្@@ 1
ល@@ 1
េ@@ 1
ស@@ 1
ា@@ 1
ប 1
ي 1
❑ 1
। 1
α@@ 1
β 1
ਅ@@ 1
ਕ@@ 1
ਾ@@ 1
ਲ 1
ਖ@@ 1
਼@@ 1
愛@@ 1
ի 1
•@@ 1
ñ@@ 1
प@@ 1
ञ@@ 1
च@@ 1
े@@ 1
¤ 1
☘ 1
॥ 1
ತ@@ 1
ಮ@@ 1
ಕ@@ 1
ೂ@@ 1
ರ@@ 1
✶ 1
 1
ौ@@ 1
स@@ 1
भ 1
∙ 1
Š@@ 1
Յ@@ 1
Դ@@ 1
շ@@ 1
կ@@ 1
ց@@ 1
գ@@ 1
հ@@ 1
ի@@ 1
դ@@ 1
緣@@ 1
份@@ 1
£@@ 1
é@@ 1
✹ 1
श@@ 1
ज@@ 1
ُ@@ 1
ن@@ 1
వ్ర 1
è@@ 1
つ 1
も 1
ಇ@@ 1
ಡ@@ 1
ಗ@@ 1
ಂ@@ 1
ಜ@@ 1
ಿ@@ 1
 1
№@@ 1
ア@@ 1
ニ@@ 1
メ 1
ω@@ 1
ہ@@ 1
ك@@ 1
ه@@ 1
د@@ 1
چ@@ 1
ھ@@ 1
~@@ 1
⇔ 1
μ 1
Û 1
^ 1
✺ 1
σ@@ 1
⦾ 1
№ 1
Μ@@ 1
ο@@ 1
ρ@@ 1
φ@@ 1
ε@@ 1
ύ@@ 1
~ 1
ध@@ 1
𐎥@@ 1
𐎭@@ 1
𐎠@@ 1
𐎼@@ 1
µ 1
θ 1
θ@@ 1
¸ 1
œ@@ 1
身@@ 1
毒@@ 1
ౠ@@ 1
़@@ 1
Å@@ 1
★@@ 1
± 1
­@@ 1
ম@@ 1
ে@@ 1
ঘ@@ 1
ন@@ 1
দ@@ 1
ধ 1
ক@@ 1
্@@ 1
য@@ 1
ृ@@ 1
द@@ 1
·@@ 1
౭@@ 1
౪ 1
½@@ 1
౩ 1
△ 1
О@@ 1
с@@ 1
к@@ 1
о@@ 1
е 1
в@@ 1
р@@ 1
е@@ 1
я@@ 1
∇ 1
♦@@ 1
‎@@ 1
μ@@ 1
♯ 1
ं@@ 1
<@@ 1
౬ 1
